0000_07B8 // BIAS[ 0] (+1976)
0000_0EA4 // BIAS[ 1] (+3748)
0000_0305 // BIAS[ 2] (+773)
0000_0B7B // BIAS[ 3] (+2939)
0000_0C99 // BIAS[ 4] (+3225)
0000_0A8D // BIAS[ 5] (+2701)
0000_04EE // BIAS[ 6] (+1262)
0000_0348 // BIAS[ 7] (+840)
FFFF_FF95 // BIAS[ 8] (-107)
0000_0A44 // BIAS[ 9] (+2628)
FFFF_FC19 // BIAS[10] (-999)
0000_049C // BIAS[11] (+1180)
0000_1774 // BIAS[12] (+6004)
0000_201D // BIAS[13] (+8221)
FFFF_FFB7 // BIAS[14] (-73)
FFFF_F76A // BIAS[15] (-2198)
FFFF_FFDF // BIAS[16] (-33)
0000_0175 // BIAS[17] (+373)
0000_0B15 // BIAS[18] (+2837)
0000_0B17 // BIAS[19] (+2839)
FFFF_FC88 // BIAS[20] (-888)
0000_049C // BIAS[21] (+1180)
0000_0968 // BIAS[22] (+2408)
FFFF_FCE6 // BIAS[23] (-794)
FFFF_FD64 // BIAS[24] (-668)
0000_105C // BIAS[25] (+4188)
FFFF_FF9A // BIAS[26] (-102)
0000_0AA6 // BIAS[27] (+2726)
0000_09A9 // BIAS[28] (+2473)
FFFF_F821 // BIAS[29] (-2015)
FFFF_F3FF // BIAS[30] (-3073)
0000_0F3C // BIAS[31] (+3900)
0000_0449 // BIAS[32] (+1097)
FFFF_ECC3 // BIAS[33] (-4925)
0000_01C1 // BIAS[34] (+449)
FFFF_FDCD // BIAS[35] (-563)
0000_0ABF // BIAS[36] (+2751)
FFFF_FE90 // BIAS[37] (-368)
FFFF_FE6F // BIAS[38] (-401)
0000_0092 // BIAS[39] (+146)
0000_1078 // BIAS[40] (+4216)
0000_1727 // BIAS[41] (+5927)
0000_126F // BIAS[42] (+4719)
FFFF_FC9F // BIAS[43] (-865)
0000_0D72 // BIAS[44] (+3442)
FFFF_FAE9 // BIAS[45] (-1303)
FFFF_E99C // BIAS[46] (-5732)
0000_0B53 // BIAS[47] (+2899)
0000_0E59 // BIAS[48] (+3673)
FFFF_FA9D // BIAS[49] (-1379)
0000_0C23 // BIAS[50] (+3107)
FFFF_FF38 // BIAS[51] (-200)
0000_1DD7 // BIAS[52] (+7639)
FFFF_F9EB // BIAS[53] (-1557)
FFFF_FC37 // BIAS[54] (-969)
FFFF_FAC8 // BIAS[55] (-1336)
0000_141F // BIAS[56] (+5151)
FFFF_F9BE // BIAS[57] (-1602)
0000_08B0 // BIAS[58] (+2224)
0000_033E // BIAS[59] (+830)
0000_0E6F // BIAS[60] (+3695)
FFFF_EA71 // BIAS[61] (-5519)
0000_16F5 // BIAS[62] (+5877)
FFFF_FF8B // BIAS[63] (-117)
