F3_FB_06_FE         // (-13,  -5,   6,  -2)
FD_FD_FC_FB         // ( -3,  -3,  -4,  -5)
FB_F8_FF_F0         // ( -5,  -8,  -1, -16)
00_02_FB_FC         // (  0,   2,  -5,  -4)
FB_FE_00_01         // ( -5,  -2,   0,   1)
0A_0A_FF_FE         // ( 10,  10,  -1,  -2)
0A_04_FC_FA         // ( 10,   4,  -4,  -6)
F9_00_03_FD         // ( -7,   0,   3,  -3)
02_FF_FD_F7         // (  2,  -1,  -3,  -9)
06_01_FF_02         // (  6,   1,  -1,   2)
FD_04_0B_07         // ( -3,   4,  11,   7)
FE_05_FD_04         // ( -2,   5,  -3,   4)
05_FB_01_00         // (  5,  -5,   1,   0)
0C_FC_02_04         // ( 12,  -4,   2,   4)
FF_04_FC_FE         // ( -1,   4,  -4,  -2)
F9_FC_FF_F7         // ( -7,  -4,  -1,  -9)
03_01_04_01         // (  3,   1,   4,   1)
04_03_03_FB         // (  4,   3,   3,  -5)
FA_FD_03_03         // ( -6,  -3,   3,   3)
03_07_FC_FE         // (  3,   7,  -4,  -2)
01_03_00_00         // (  1,   3,   0,   0)
0A_02_07_03         // ( 10,   2,   7,   3)
0A_F7_01_0B         // ( 10,  -9,   1,  11)
0A_FD_06_00         // ( 10,  -3,   6,   0)
04_04_02_02         // (  4,   4,   2,   2)
01_FC_FD_FF         // (  1,  -4,  -3,  -1)
06_02_02_FF         // (  6,   2,   2,  -1)
01_0D_FB_05         // (  1,  13,  -5,   5)
02_FC_03_FF         // (  2,  -4,   3,  -1)
02_FB_FB_00         // (  2,  -5,  -5,   0)
0A_01_09_05         // ( 10,   1,   9,   5)
F7_01_09_05         // ( -9,   1,   9,   5)
06_FD_FE_00         // (  6,  -3,  -2,   0)
02_08_02_EF         // (  2,   8,   2, -17)
FB_F8_08_F7         // ( -5,  -8,   8,  -9)
FE_FA_04_02         // ( -2,  -6,   4,   2)
03_0D_02_03         // (  3,  13,   2,   3)
00_FE_09_03         // (  0,  -2,   9,   3)
FB_06_FF_FC         // ( -5,   6,  -1,  -4)
08_FB_08_04         // (  8,  -5,   8,   4)
00_07_01_F9         // (  0,   7,   1,  -7)
FD_03_FE_01         // ( -3,   3,  -2,   1)
F8_04_07_01         // ( -8,   4,   7,   1)
01_FA_03_FE         // (  1,  -6,   3,  -2)
02_06_FA_00         // (  2,   6,  -6,   0)
01_05_00_FA         // (  1,   5,   0,  -6)
F8_F9_0A_FC         // ( -8,  -7,  10,  -4)
03_FE_04_07         // (  3,  -2,   4,   7)
00_F5_01_F6         // (  0, -11,   1, -10)
FB_F9_05_FF         // ( -5,  -7,   5,  -1)
02_01_FF_FE         // (  2,   1,  -1,  -2)
05_00_03_01         // (  5,   0,   3,   1)
FA_FF_09_02         // ( -6,  -1,   9,   2)
00_02_FE_04         // (  0,   2,  -2,   4)
02_FD_00_FD         // (  2,  -3,   0,  -3)
FC_05_00_04         // ( -4,   5,   0,   4)
FC_FB_02_03         // ( -4,  -5,   2,   3)
FF_0B_07_09         // ( -1,  11,   7,   9)
FB_F0_04_FA         // ( -5, -16,   4,  -6)
07_02_06_FA         // (  7,   2,   6,  -6)
04_F8_12_F7         // (  4,  -8,  18,  -9)
FD_05_FF_FE         // ( -3,   5,  -1,  -2)
FE_05_02_04         // ( -2,   5,   2,   4)
FC_FB_02_02         // ( -4,  -5,   2,   2)
01_FE_FD_08         // (  1,  -2,  -3,   8)
03_06_FE_FC         // (  3,   6,  -2,  -4)
FA_05_00_07         // ( -6,   5,   0,   7)
06_FE_03_07         // (  6,  -2,   3,   7)
08_03_FD_FE         // (  8,   3,  -3,  -2)
FF_0C_04_06         // ( -1,  12,   4,   6)
FE_09_FF_03         // ( -2,   9,  -1,   3)
00_0C_07_07         // (  0,  12,   7,   7)
FE_0C_02_06         // ( -2,  12,   2,   6)
0B_F5_FD_01         // ( 11, -11,  -3,   1)
03_02_FD_08         // (  3,   2,  -3,   8)
04_F8_09_03         // (  4,  -8,   9,   3)
05_06_02_FE         // (  5,   6,   2,  -2)
FE_F6_FD_00         // ( -2, -10,  -3,   0)
00_03_04_09         // (  0,   3,   4,   9)
00_FE_00_FC         // (  0,  -2,   0,  -4)
09_04_07_04         // (  9,   4,   7,   4)
F6_0A_05_02         // (-10,  10,   5,   2)
FC_07_02_02         // ( -4,   7,   2,   2)
FD_00_FD_05         // ( -3,   0,  -3,   5)
FF_F5_00_FE         // ( -1, -11,   0,  -2)
FE_06_FD_FB         // ( -2,   6,  -3,  -5)
09_0F_F4_02         // (  9,  15, -12,   2)
FA_FC_08_FF         // ( -6,  -4,   8,  -1)
02_FA_01_FE         // (  2,  -6,   1,  -2)
00_04_FB_FD         // (  0,   4,  -5,  -3)
F4_FB_00_FF         // (-12,  -5,   0,  -1)
05_03_04_00         // (  5,   3,   4,   0)
FF_FD_FE_F8         // ( -1,  -3,  -2,  -8)
08_FF_F7_FD         // (  8,  -1,  -9,  -3)
FE_01_00_04         // ( -2,   1,   0,   4)
FA_04_FA_FC         // ( -6,   4,  -6,  -4)
FA_F8_FF_02         // ( -6,  -8,  -1,   2)
05_00_04_05         // (  5,   0,   4,   5)
FA_00_FF_02         // ( -6,   0,  -1,   2)
04_03_F8_01         // (  4,   3,  -8,   1)
00_04_F6_FF         // (  0,   4, -10,  -1)
06_F9_FE_F8         // (  6,  -7,  -2,  -8)
03_01_07_01         // (  3,   1,   7,   1)
01_FC_FE_00         // (  1,  -4,  -2,   0)
F4_FC_F8_F6         // (-12,  -4,  -8, -10)
00_07_FF_FF         // (  0,   7,  -1,  -1)
00_FB_FB_FD         // (  0,  -5,  -5,  -3)
05_FA_FB_FB         // (  5,  -6,  -5,  -5)
01_FE_FF_FD         // (  1,  -2,  -1,  -3)
F9_02_FF_03         // ( -7,   2,  -1,   3)
08_01_0B_FF         // (  8,   1,  11,  -1)
FD_04_F9_06         // ( -3,   4,  -7,   6)
09_04_FE_02         // (  9,   4,  -2,   2)
00_02_05_02         // (  0,   2,   5,   2)
00_08_FC_FC         // (  0,   8,  -4,  -4)
FC_FF_FF_01         // ( -4,  -1,  -1,   1)
00_03_FD_FE         // (  0,   3,  -3,  -2)
0A_F6_FE_F3         // ( 10, -10,  -2, -13)
0C_FD_02_02         // ( 12,  -3,   2,   2)
0C_07_F8_F6         // ( 12,   7,  -8, -10)
03_03_0B_F7         // (  3,   3,  11,  -9)
05_F3_F6_FC         // (  5, -13, -10,  -4)
04_0A_05_0A         // (  4,  10,   5,  10)
01_05_08_FF         // (  1,   5,   8,  -1)
FB_FC_03_03         // ( -5,  -4,   3,   3)
09_FD_00_FD         // (  9,  -3,   0,  -3)
03_FD_03_04         // (  3,  -3,   3,   4)
06_FC_FA_FB         // (  6,  -4,  -6,  -5)
FF_03_0C_07         // ( -1,   3,  12,   7)
00_00_FD_FA         // (  0,   0,  -3,  -6)
00_FC_00_06         // (  0,  -4,   0,   6)
01_FF_03_FC         // (  1,  -1,   3,  -4)
0A_FD_00_04         // ( 10,  -3,   0,   4)
03_01_04_FE         // (  3,   1,   4,  -2)
FA_F8_FE_02         // ( -6,  -8,  -2,   2)
FB_FF_FF_09         // ( -5,  -1,  -1,   9)
00_05_00_00         // (  0,   5,   0,   0)
FC_02_03_05         // ( -4,   2,   3,   5)
04_02_01_03         // (  4,   2,   1,   3)
FB_01_FD_01         // ( -5,   1,  -3,   1)
F6_FF_FD_F9         // (-10,  -1,  -3,  -7)
FB_00_04_01         // ( -5,   0,   4,   1)
03_00_F9_FF         // (  3,   0,  -7,  -1)
01_03_F9_FD         // (  1,   3,  -7,  -3)
F7_F6_0B_0E         // ( -9, -10,  11,  14)
00_06_03_01         // (  0,   6,   3,   1)
19_09_00_03         // ( 25,   9,   0,   3)
23_E2_0D_FA         // ( 35, -30,  13,  -6)
09_F8_0B_0D         // (  9,  -8,  11,  13)
12_01_0F_13         // ( 18,   1,  15,  19)
E6_EE_F3_0D         // (-26, -18, -13,  13)
ED_F9_FC_0A         // (-19,  -7,  -4,  10)
13_FF_08_01         // ( 19,  -1,   8,   1)
DC_E6_F7_01         // (-36, -26,  -9,   1)
00_06_ED_F3         // (  0,   6, -19, -13)
14_02_11_FE         // ( 20,   2,  17,  -2)
14_11_F4_F1         // ( 20,  17, -12, -15)
10_00_14_F3         // ( 16,   0,  20, -13)
F9_EF_01_FC         // ( -7, -17,   1,  -4)
08_1F_EC_E7         // (  8,  31, -20, -25)
EA_F0_04_0A         // (-22, -16,   4,  10)
F5_1A_F2_08         // (-11,  26, -14,   8)
1C_08_F9_07         // ( 28,   8,  -7,   7)
01_FB_10_F0         // (  1,  -5,  16, -16)
09_02_1A_06         // (  9,   2,  26,   6)
1D_0B_0E_F3         // ( 29,  11,  14, -13)
0E_D4_02_F9         // ( 14, -44,   2,  -7)
E2_F8_F4_06         // (-30,  -8, -12,   6)
3D_17_10_01         // ( 61,  23,  16,   1)
10_05_05_FE         // ( 16,   5,   5,  -2)
FF_13_03_1E         // ( -1,  19,   3,  30)
04_FD_F8_F8         // (  4,  -3,  -8,  -8)
06_00_EE_F7         // (  6,   0, -18,  -9)
EE_0E_FF_08         // (-18,  14,  -1,   8)
28_04_E7_0F         // ( 40,   4, -25,  15)
F3_0D_F0_02         // (-13,  13, -16,   2)
F7_FE_1B_EE         // ( -9,  -2,  27, -18)
F6_F1_13_19         // (-10, -15,  19,  25)
F1_01_EB_0D         // (-15,   1, -21,  13)
0E_F2_1C_F3         // ( 14, -14,  28, -13)
FE_02_07_DF         // ( -2,   2,   7, -33)
0B_0F_1D_FC         // ( 11,  15,  29,  -4)
FC_01_F7_FE         // ( -4,   1,  -9,  -2)
0D_06_FF_F8         // ( 13,   6,  -1,  -8)
06_FE_FA_EB         // (  6,  -2,  -6, -21)
F8_FE_F1_F4         // ( -8,  -2, -15, -12)
FA_03_FD_F5         // ( -6,   3,  -3, -11)
05_FE_EC_01         // (  5,  -2, -20,   1)
F9_07_EF_F6         // ( -7,   7, -17, -10)
01_F4_E9_FA         // (  1, -12, -23,  -6)
04_F2_F4_04         // (  4, -14, -12,   4)
FE_0A_E9_F7         // ( -2,  10, -23,  -9)
0A_E5_F5_FF         // ( 10, -27, -11,  -1)
02_06_FB_EE         // (  2,   6,  -5, -18)
F3_10_03_F3         // (-13,  16,   3, -13)
00_EA_FA_FD         // (  0, -22,  -6,  -3)
FA_0E_FB_FF         // ( -6,  14,  -5,  -1)
0B_E2_F7_FA         // ( 11, -30,  -9,  -6)
F1_F9_FD_F4         // (-15,  -7,  -3, -12)
0A_FD_14_ED         // ( 10,  -3,  20, -19)
0A_02_0F_E8         // ( 10,   2,  15, -24)
08_01_F7_FB         // (  8,   1,  -9,  -5)
02_08_E8_04         // (  2,   8, -24,   4)
0D_F6_CA_03         // ( 13, -10, -54,   3)
F0_0F_F3_F2         // (-16,  15, -13, -14)
0C_06_E8_01         // ( 12,   6, -24,   1)
04_FC_F1_0A         // (  4,  -4, -15,  10)
F5_DE_02_EB         // (-11, -34,   2, -21)
F7_FC_FF_14         // ( -9,  -4,  -1,  20)
FC_E5_01_FF         // ( -4, -27,   1,  -1)
F6_DA_F8_17         // (-10, -38,  -8,  23)
00_04_EE_01         // (  0,   4, -18,   1)
EC_0D_03_E7         // (-20,  13,   3, -25)
08_05_FF_10         // (  8,   5,  -1,  16)
12_0E_F8_E4         // ( 18,  14,  -8, -28)
F9_EC_FA_07         // ( -7, -20,  -6,   7)
F4_07_0E_14         // (-12,   7,  14,  20)
FA_F9_02_1A         // ( -6,  -7,   2,  26)
F5_FC_F0_11         // (-11,  -4, -16,  17)
F5_0D_F3_06         // (-11,  13, -13,   6)
FA_0E_F9_07         // ( -6,  14,  -7,   7)
FD_FB_F1_F7         // ( -3,  -5, -15,  -9)
EB_F4_FF_0B         // (-21, -12,  -1,  11)
F6_F3_02_05         // (-10, -13,   2,   5)
00_0C_EA_F6         // (  0,  12, -22, -10)
ED_FC_14_F7         // (-19,  -4,  20,  -9)
F1_FE_08_FD         // (-15,  -2,   8,  -3)
0B_F7_07_00         // ( 11,  -9,   7,   0)
EE_FF_09_F4         // (-18,  -1,   9, -12)
0E_1A_08_F9         // ( 14,  26,   8,  -7)
05_07_02_02         // (  5,   7,   2,   2)
FB_0C_00_06         // ( -5,  12,   0,   6)
FA_FF_F8_17         // ( -6,  -1,  -8,  23)
07_F1_F7_05         // (  7, -15,  -9,   5)
F0_22_1B_00         // (-16,  34,  27,   0)
F7_13_0C_E7         // ( -9,  19,  12, -25)
FB_1C_0D_12         // ( -5,  28,  13,  18)
F4_EE_04_0A         // (-12, -18,   4,  10)
FB_EE_0B_06         // ( -5, -18,  11,   6)
F2_FE_05_16         // (-14,  -2,   5,  22)
10_03_14_12         // ( 16,   3,  20,  18)
10_F1_11_F7         // ( 16, -15,  17,  -9)
FD_07_E6_07         // ( -3,   7, -26,   7)
F3_0B_10_00         // (-13,  11,  16,   0)
EE_00_06_02         // (-18,   0,   6,   2)
09_0D_F3_11         // (  9,  13, -13,  17)
F2_07_FA_10         // (-14,   7,  -6,  16)
FE_FF_31_FB         // ( -2,  -1,  49,  -5)
0B_04_08_04         // ( 11,   4,   8,   4)
19_E9_0A_EB         // ( 25, -23,  10, -21)
F9_0B_FC_05         // ( -7,  11,  -4,   5)
0F_09_00_18         // ( 15,   9,   0,  24)
FE_F2_E9_0C         // ( -2, -14, -23,  12)
F8_F8_FB_11         // ( -8,  -8,  -5,  17)
FF_F6_EC_FE         // ( -1, -10, -20,  -2)
F0_0A_DF_F6         // (-16,  10, -33, -10)
05_F7_03_04         // (  5,  -9,   3,   4)
F8_06_07_F1         // ( -8,   6,   7, -15)
FB_F8_E7_ED         // ( -5,  -8, -25, -19)
05_E7_FE_02         // (  5, -25,  -2,   2)
F6_F9_11_08         // (-10,  -7,  17,   8)
F6_F7_06_F0         // (-10,  -9,   6, -16)
0B_00_F5_13         // ( 11,   0, -11,  19)
FA_FD_00_F7         // ( -6,  -3,   0,  -9)
E9_0D_F3_F3         // (-23,  13, -13, -13)
06_01_04_FD         // (  6,   1,   4,  -3)
08_F3_12_EB         // (  8, -13,  18, -21)
0D_16_F3_F8         // ( 13,  22, -13,  -8)
FC_04_07_F9         // ( -4,   4,   7,  -7)
EC_02_06_0D         // (-20,   2,   6,  13)
FC_E1_E5_F6         // ( -4, -31, -27, -10)
F8_06_F6_03         // ( -8,   6, -10,   3)
ED_00_E1_F7         // (-19,   0, -31,  -9)
12_EC_D9_03         // ( 18, -20, -39,   3)
15_02_02_F3         // ( 21,   2,   2, -13)
0D_FD_0C_E1         // ( 13,  -3,  12, -31)
0C_E1_F9_FF         // ( 12, -31,  -7,  -1)
0C_0E_FD_02         // ( 12,  14,  -3,   2)
FE_FF_E7_EF         // ( -2,  -1, -25, -17)
F5_FD_F4_08         // (-11,  -3, -12,   8)
01_F7_08_FA         // (  1,  -9,   8,  -6)
19_F6_F1_15         // ( 25, -10, -15,  21)
0C_09_F6_01         // ( 12,   9, -10,   1)
F8_FF_F6_14         // ( -8,  -1, -10,  20)
11_10_01_FD         // ( 17,  16,   1,  -3)
F0_09_FC_1D         // (-16,   9,  -4,  29)
FC_15_F1_17         // ( -4,  21, -15,  23)
07_07_E1_FA         // (  7,   7, -31,  -6)
05_09_0C_07         // (  5,   9,  12,   7)
FC_FF_10_04         // ( -4,  -1,  16,   4)
F8_FA_03_FD         // ( -8,  -6,   3,  -3)
FE_FB_05_04         // ( -2,  -5,   5,   4)
00_FA_09_FD         // (  0,  -6,   9,  -3)
F6_FD_05_FE         // (-10,  -3,   5,  -2)
03_F9_03_05         // (  3,  -7,   3,   5)
FD_FE_04_FF         // ( -3,  -2,   4,  -1)
02_FF_FF_FA         // (  2,  -1,  -1,  -6)
FF_03_FE_FA         // ( -1,   3,  -2,  -6)
05_02_F8_FD         // (  5,   2,  -8,  -3)
FD_02_FA_03         // ( -3,   2,  -6,   3)
FF_FD_F9_07         // ( -1,  -3,  -7,   7)
FA_FD_FD_01         // ( -6,  -3,  -3,   1)
03_03_02_FF         // (  3,   3,   2,  -1)
FF_01_0A_0C         // ( -1,   1,  10,  12)
F6_01_06_FF         // (-10,   1,   6,  -1)
FA_09_FF_01         // ( -6,   9,  -1,   1)
0B_FE_01_03         // ( 11,  -2,   1,   3)
01_F2_FB_03         // (  1, -14,  -5,   3)
FC_00_F8_05         // ( -4,   0,  -8,   5)
00_F9_03_F9         // (  0,  -7,   3,  -7)
06_04_05_FB         // (  6,   4,   5,  -5)
04_01_F8_0A         // (  4,   1,  -8,  10)
03_F5_02_03         // (  3, -11,   2,   3)
06_0A_02_02         // (  6,  10,   2,   2)
08_01_FB_09         // (  8,   1,  -5,   9)
00_F5_08_08         // (  0, -11,   8,   8)
FB_01_FC_03         // ( -5,   1,  -4,   3)
00_FF_FA_FD         // (  0,  -1,  -6,  -3)
FD_02_0B_01         // ( -3,   2,  11,   1)
06_02_07_04         // (  6,   2,   7,   4)
01_FA_02_04         // (  1,  -6,   2,   4)
F1_02_FC_09         // (-15,   2,  -4,   9)
FC_FF_0A_FB         // ( -4,  -1,  10,  -5)
FF_F5_07_FA         // ( -1, -11,   7,  -6)
06_02_F9_FA         // (  6,   2,  -7,  -6)
0B_F8_FD_FF         // ( 11,  -8,  -3,  -1)
FD_FF_FD_0A         // ( -3,  -1,  -3,  10)
05_03_FA_05         // (  5,   3,  -6,   5)
FE_07_02_00         // ( -2,   7,   2,   0)
04_0A_FD_0D         // (  4,  10,  -3,  13)
FD_03_F9_09         // ( -3,   3,  -7,   9)
F9_0C_01_09         // ( -7,  12,   1,   9)
FF_06_F9_24         // ( -1,   6,  -7,  36)
FB_02_01_FD         // ( -5,   2,   1,  -3)
FB_06_0C_FA         // ( -5,   6,  12,  -6)
00_02_0A_08         // (  0,   2,  10,   8)
02_06_FF_07         // (  2,   6,  -1,   7)
FE_FB_04_FD         // ( -2,  -5,   4,  -3)
02_FB_FF_05         // (  2,  -5,  -1,   5)
FF_10_05_FC         // ( -1,  16,   5,  -4)
03_06_FF_06         // (  3,   6,  -1,   6)
05_07_F9_0A         // (  5,   7,  -7,  10)
07_FA_05_0A         // (  7,  -6,   5,  10)
05_FD_03_00         // (  5,  -3,   3,   0)
02_FE_F1_FD         // (  2,  -2, -15,  -3)
06_06_03_FB         // (  6,   6,   3,  -5)
FF_05_01_FE         // ( -1,   5,   1,  -2)
FF_00_F9_04         // ( -1,   0,  -7,   4)
00_04_FC_FE         // (  0,   4,  -4,  -2)
FC_09_05_FF         // ( -4,   9,   5,  -1)
F8_FA_06_03         // ( -8,  -6,   6,   3)
04_02_09_FE         // (  4,   2,   9,  -2)
FB_00_01_FA         // ( -5,   0,   1,  -6)
FC_FC_03_03         // ( -4,  -4,   3,   3)
FC_FF_FD_00         // ( -4,  -1,  -3,   0)
EF_FD_FD_FB         // (-17,  -3,  -3,  -5)
F2_FE_09_FD         // (-14,  -2,   9,  -3)
F2_FC_FC_F1         // (-14,  -4,  -4, -15)
F3_FC_F6_F5         // (-13,  -4, -10, -11)
F8_14_FF_FA         // ( -8,  20,  -1,  -6)
FA_F8_00_F5         // ( -6,  -8,   0, -11)
03_F8_FC_F9         // (  3,  -8,  -4,  -7)
FF_FA_01_FF         // ( -1,  -6,   1,  -1)
0B_00_FF_01         // ( 11,   0,  -1,   1)
04_00_03_02         // (  4,   0,   3,   2)
08_F8_0A_01         // (  8,  -8,  10,   1)
0C_03_00_02         // ( 12,   3,   0,   2)
09_00_0D_04         // (  9,   0,  13,   4)
0F_FA_12_FB         // ( 15,  -6,  18,  -5)
FF_05_09_04         // ( -1,   5,   9,   4)
F3_03_00_F8         // (-13,   3,   0,  -8)
FD_FC_FB_FE         // ( -3,  -4,  -5,  -2)
FC_06_FD_FC         // ( -4,   6,  -3,  -4)
01_FF_00_FB         // (  1,  -1,   0,  -5)
FE_F4_F9_02         // ( -2, -12,  -7,   2)
ED_FF_FA_FD         // (-19,  -1,  -6,  -3)
FF_01_02_FD         // ( -1,   1,   2,  -3)
FE_F4_FE_FE         // ( -2, -12,  -2,  -2)
08_FC_EF_FE         // (  8,  -4, -17,  -2)
F9_01_F4_05         // ( -7,   1, -12,   5)
FE_F9_01_FA         // ( -2,  -7,   1,  -6)
01_FD_F4_01         // (  1,  -3, -12,   1)
FE_00_FE_FD         // ( -2,   0,  -2,  -3)
05_01_FB_04         // (  5,   1,  -5,   4)
04_F6_07_FC         // (  4, -10,   7,  -4)
FD_02_06_F9         // ( -3,   2,   6,  -7)
FB_00_03_FB         // ( -5,   0,   3,  -5)
08_FE_F7_FE         // (  8,  -2,  -9,  -2)
05_FB_EE_04         // (  5,  -5, -18,   4)
01_F4_FA_06         // (  1, -12,  -6,   6)
FF_F2_F8_FB         // ( -1, -14,  -8,  -5)
0A_F1_F3_01         // ( 10, -15, -13,   1)
0A_F0_FB_06         // ( 10, -16,  -5,   6)
F8_F4_F7_FE         // ( -8, -12,  -9,  -2)
03_F8_FE_05         // (  3,  -8,  -2,   5)
01_E8_0C_05         // (  1, -24,  12,   5)
08_00_0C_F8         // (  8,   0,  12,  -8)
01_FF_09_FD         // (  1,  -1,   9,  -3)
01_01_02_FC         // (  1,   1,   2,  -4)
05_FF_04_03         // (  5,  -1,   4,   3)
01_F4_05_F7         // (  1, -12,   5,  -9)
04_F8_01_F9         // (  4,  -8,   1,  -7)
04_04_01_F9         // (  4,   4,   1,  -7)
03_FD_FB_F4         // (  3,  -3,  -5, -12)
F6_0A_F9_F1         // (-10,  10,  -7, -15)
07_FB_FF_00         // (  7,  -5,  -1,   0)
01_01_F7_FA         // (  1,   1,  -9,  -6)
08_04_F7_F9         // (  8,   4,  -9,  -7)
FD_02_FA_F5         // ( -3,   2,  -6, -11)
FE_03_FD_00         // ( -2,   3,  -3,   0)
00_07_F9_F9         // (  0,   7,  -7,  -7)
0D_06_F8_03         // ( 13,   6,  -8,   3)
01_06_F4_05         // (  1,   6, -12,   5)
05_04_ED_FE         // (  5,   4, -19,  -2)
FF_07_FF_FC         // ( -1,   7,  -1,  -4)
FF_FF_04_01         // ( -1,  -1,   4,   1)
FA_06_0B_00         // ( -6,   6,  11,   0)
FF_FE_FF_0A         // ( -1,  -2,  -1,  10)
08_01_FD_FF         // (  8,   1,  -3,  -1)
04_F8_0E_01         // (  4,  -8,  14,   1)
0B_FF_FF_03         // ( 11,  -1,  -1,   3)
FE_F8_0B_00         // ( -2,  -8,  11,   0)
0A_F3_0A_FF         // ( 10, -13,  10,  -1)
05_08_F9_09         // (  5,   8,  -7,   9)
0B_05_FC_F5         // ( 11,   5,  -4, -11)
07_08_02_F8         // (  7,   8,   2,  -8)
F9_FB_FF_FC         // ( -7,  -5,  -1,  -4)
04_FF_00_FD         // (  4,  -1,   0,  -3)
FE_07_03_02         // ( -2,   7,   3,   2)
FF_06_01_FD         // ( -1,   6,   1,  -3)
04_0D_04_EF         // (  4,  13,   4, -17)
F7_12_01_FD         // ( -9,  18,   1,  -3)
07_04_FB_FE         // (  7,   4,  -5,  -2)
00_01_0D_FA         // (  0,   1,  13,  -6)
03_03_FF_F3         // (  3,   3,  -1, -13)
03_0E_08_FF         // (  3,  14,   8,  -1)
FA_FF_E0_F3         // ( -6,  -1, -32, -13)
FF_FB_0C_00         // ( -1,  -5,  12,   0)
FF_09_FC_F0         // ( -1,   9,  -4, -16)
FF_08_07_02         // ( -1,   8,   7,   2)
02_05_01_FC         // (  2,   5,   1,  -4)
06_02_06_FC         // (  6,   2,   6,  -4)
F5_01_02_FD         // (-11,   1,   2,  -3)
10_05_0E_FE         // ( 16,   5,  14,  -2)
03_07_EF_FE         // (  3,   7, -17,  -2)
FF_09_03_05         // ( -1,   9,   3,   5)
06_05_03_F8         // (  6,   5,   3,  -8)
FD_01_02_04         // ( -3,   1,   2,   4)
0C_06_FE_FB         // ( 12,   6,  -2,  -5)
01_F4_09_FF         // (  1, -12,   9,  -1)
FD_FF_FA_FD         // ( -3,  -1,  -6,  -3)
04_09_FC_FD         // (  4,   9,  -4,  -3)
14_08_F7_FD         // ( 20,   8,  -9,  -3)
04_08_FD_0B         // (  4,   8,  -3,  11)
FD_04_04_FE         // ( -3,   4,   4,  -2)
0A_F5_03_09         // ( 10, -11,   3,   9)
00_FD_FA_FD         // (  0,  -3,  -6,  -3)
0A_F3_FC_FA         // ( 10, -13,  -4,  -6)
03_FC_FD_FC         // (  3,  -4,  -3,  -4)
FD_09_F7_FC         // ( -3,   9,  -9,  -4)
F7_05_09_FF         // ( -9,   5,   9,  -1)
FC_00_FB_01         // ( -4,   0,  -5,   1)
01_FC_0C_F3         // (  1,  -4,  12, -13)
02_02_08_0E         // (  2,   2,   8,  14)
FD_FD_05_0C         // ( -3,  -3,   5,  12)
FF_02_08_F5         // ( -1,   2,   8, -11)
04_FC_F5_F3         // (  4,  -4, -11, -13)
F9_FC_FD_E6         // ( -7,  -4,  -3, -26)
FD_03_F6_03         // ( -3,   3, -10,   3)
FC_F8_FB_01         // ( -4,  -8,  -5,   1)
FC_00_02_0A         // ( -4,   0,   2,  10)
09_01_01_FF         // (  9,   1,   1,  -1)
03_08_03_01         // (  3,   8,   3,   1)
03_FC_FB_03         // (  3,  -4,  -5,   3)
0A_F8_FD_FB         // ( 10,  -8,  -3,  -5)
06_F9_07_06         // (  6,  -7,   7,   6)
05_0B_FF_FB         // (  5,  11,  -1,  -5)
FE_01_02_04         // ( -2,   1,   2,   4)
0E_FB_04_F9         // ( 14,  -5,   4,  -7)
00_F3_04_F9         // (  0, -13,   4,  -7)
08_FB_F3_F5         // (  8,  -5, -13, -11)
F9_01_04_FC         // ( -7,   1,   4,  -4)
04_00_FF_F9         // (  4,   0,  -1,  -7)
02_F9_F7_01         // (  2,  -7,  -9,   1)
F1_FC_FD_02         // (-15,  -4,  -3,   2)
01_F4_F6_F6         // (  1, -12, -10, -10)
03_02_03_FC         // (  3,   2,   3,  -4)
FB_FA_F9_F4         // ( -5,  -6,  -7, -12)
10_FC_F8_05         // ( 16,  -4,  -8,   5)
FA_06_0B_00         // ( -6,   6,  11,   0)
05_FE_EE_F7         // (  5,  -2, -18,  -9)
FC_FB_FB_00         // ( -4,  -5,  -5,   0)
F8_FB_03_02         // ( -8,  -5,   3,   2)
0A_FE_00_04         // ( 10,  -2,   0,   4)
01_04_FA_FE         // (  1,   4,  -6,  -2)
07_F8_03_17         // (  7,  -8,   3,  23)
FB_FD_02_06         // ( -5,  -3,   2,   6)
01_08_07_09         // (  1,   8,   7,   9)
FA_01_04_02         // ( -6,   1,   4,   2)
F9_F7_0B_FA         // ( -7,  -9,  11,  -6)
0C_05_02_01         // ( 12,   5,   2,   1)
F2_FE_FD_06         // (-14,  -2,  -3,   6)
03_F8_00_FB         // (  3,  -8,   0,  -5)
FD_15_F7_0A         // ( -3,  21,  -9,  10)
0F_02_FB_03         // ( 15,   2,  -5,   3)
F6_FE_08_06         // (-10,  -2,   8,   6)
0C_05_00_04         // ( 12,   5,   0,   4)
FB_FF_02_03         // ( -5,  -1,   2,   3)
06_03_04_02         // (  6,   3,   4,   2)
FE_01_FB_01         // ( -2,   1,  -5,   1)
0B_03_05_FF         // ( 11,   3,   5,  -1)
03_05_FD_00         // (  3,   5,  -3,   0)
06_FD_06_FA         // (  6,  -3,   6,  -6)
FF_FD_04_FB         // ( -1,  -3,   4,  -5)
04_FD_0C_FF         // (  4,  -3,  12,  -1)
06_10_03_FC         // (  6,  16,   3,  -4)
00_18_00_00         // (  0,  24,   0,   0)
F8_08_0A_FD         // ( -8,   8,  10,  -3)
00_04_05_07         // (  0,   4,   5,   7)
00_01_FB_F4         // (  0,   1,  -5, -12)
FE_11_FE_F6         // ( -2,  17,  -2, -10)
06_01_FE_05         // (  6,   1,  -2,   5)
FC_04_FD_FF         // ( -4,   4,  -3,  -1)
F6_F6_F9_FB         // (-10, -10,  -7,  -5)
FD_0A_02_00         // ( -3,  10,   2,   0)
06_FF_03_FE         // (  6,  -1,   3,  -2)
F3_06_08_00         // (-13,   6,   8,   0)
06_08_FD_01         // (  6,   8,  -3,   1)
02_07_F9_03         // (  2,   7,  -7,   3)
FD_F4_F8_00         // ( -3, -12,  -8,   0)
FD_03_02_FE         // ( -3,   3,   2,  -2)
F7_F7_F6_FC         // ( -9,  -9, -10,  -4)
FF_00_FA_02         // ( -1,   0,  -6,   2)
06_00_02_08         // (  6,   0,   2,   8)
0D_00_0E_03         // ( 13,   0,  14,   3)
FF_02_F8_FD         // ( -1,   2,  -8,  -3)
FE_FD_02_F6         // ( -2,  -3,   2, -10)
F7_08_06_FD         // ( -9,   8,   6,  -3)
EF_00_FB_00         // (-17,   0,  -5,   0)
F3_02_02_07         // (-13,   2,   2,   7)
FD_01_01_00         // ( -3,   1,   1,   0)
04_07_06_05         // (  4,   7,   6,   5)
FE_04_03_01         // ( -2,   4,   3,   1)
F9_FD_F8_01         // ( -7,  -3,  -8,   1)
08_01_00_06         // (  8,   1,   0,   6)
03_FE_11_05         // (  3,  -2,  17,   5)
00_F9_F7_FA         // (  0,  -7,  -9,  -6)
01_FD_FA_F8         // (  1,  -3,  -6,  -8)
FF_FE_07_06         // ( -1,  -2,   7,   6)
04_FB_00_03         // (  4,  -5,   0,   3)
FD_00_FD_07         // ( -3,   0,  -3,   7)
04_10_03_F8         // (  4,  16,   3,  -8)
0F_FE_00_00         // ( 15,  -2,   0,   0)
FD_1C_0F_FF         // ( -3,  28,  15,  -1)
FB_F9_13_07         // ( -5,  -7,  19,   7)
F8_FF_03_02         // ( -8,  -1,   3,   2)
FD_FD_03_01         // ( -3,  -3,   3,   1)
FD_F0_F1_FB         // ( -3, -16, -15,  -5)
04_06_FA_FF         // (  4,   6,  -6,  -1)
06_FF_F4_FA         // (  6,  -1, -12,  -6)
07_FE_05_F3         // (  7,  -2,   5, -13)
04_02_FE_FC         // (  4,   2,  -2,  -4)
03_F6_F2_06         // (  3, -10, -14,   6)
FB_04_02_FF         // ( -5,   4,   2,  -1)
F0_FD_F9_13         // (-16,  -3,  -7,  19)
06_FA_FA_00         // (  6,  -6,  -6,   0)
FA_03_F5_FE         // ( -6,   3, -11,  -2)
FE_FC_00_04         // ( -2,  -4,   0,   4)
F7_FC_FE_F6         // ( -9,  -4,  -2, -10)
FE_FC_FE_FF         // ( -2,  -4,  -2,  -1)
07_0F_FF_04         // (  7,  15,  -1,   4)
F0_FE_0C_05         // (-16,  -2,  12,   5)
FE_03_F8_FF         // ( -2,   3,  -8,  -1)
F4_01_FC_FD         // (-12,   1,  -4,  -3)
F9_05_FF_05         // ( -7,   5,  -1,   5)
FE_F9_F6_00         // ( -2,  -7, -10,   0)
F8_FD_07_02         // ( -8,  -3,   7,   2)
00_07_FF_06         // (  0,   7,  -1,   6)
F9_04_F8_04         // ( -7,   4,  -8,   4)
02_FF_0C_FD         // (  2,  -1,  12,  -3)
06_03_F0_01         // (  6,   3, -16,   1)
FC_00_EF_FC         // ( -4,   0, -17,  -4)
02_05_09_FC         // (  2,   5,   9,  -4)
00_FF_F9_FC         // (  0,  -1,  -7,  -4)
01_FB_F8_FC         // (  1,  -5,  -8,  -4)
FD_02_00_FE         // ( -3,   2,   0,  -2)
00_07_06_0E         // (  0,   7,   6,  14)
02_0C_06_00         // (  2,  12,   6,   0)
00_05_FD_00         // (  0,   5,  -3,   0)
F8_02_0C_00         // ( -8,   2,  12,   0)
0D_04_0B_11         // ( 13,   4,  11,  17)
F7_02_FE_FB         // ( -9,   2,  -2,  -5)
F9_FF_F4_0D         // ( -7,  -1, -12,  13)
FC_FA_0A_01         // ( -4,  -6,  10,   1)
0D_00_F2_06         // ( 13,   0, -14,   6)
03_FD_FE_08         // (  3,  -3,  -2,   8)
0E_F4_F8_03         // ( 14, -12,  -8,   3)
FE_FC_05_06         // ( -2,  -4,   5,   6)
02_FD_F6_05         // (  2,  -3, -10,   5)
FB_FD_FC_F9         // ( -5,  -3,  -4,  -7)
0C_FC_13_06         // ( 12,  -4,  19,   6)
06_0D_05_06         // (  6,  13,   5,   6)
05_00_FD_06         // (  5,   0,  -3,   6)
11_29_04_E9         // ( 17,  41,   4, -23)
0A_0C_F9_07         // ( 10,  12,  -7,   7)
01_0B_FE_0D         // (  1,  11,  -2,  13)
0A_0D_05_E7         // ( 10,  13,   5, -25)
04_F7_00_F8         // (  4,  -9,   0,  -8)
FB_F5_03_01         // ( -5, -11,   3,   1)
F9_0E_FF_06         // ( -7,  14,  -1,   6)
F5_03_03_08         // (-11,   3,   3,   8)
F9_08_02_FD         // ( -7,   8,   2,  -3)
F8_FA_0E_F8         // ( -8,  -6,  14,  -8)
FB_03_03_F2         // ( -5,   3,   3, -14)
F7_FF_00_F1         // ( -9,  -1,   0, -15)
03_F7_FF_F9         // (  3,  -9,  -1,  -7)
F7_FD_02_FF         // ( -9,  -3,   2,  -1)
02_0A_FA_FC         // (  2,  10,  -6,  -4)
06_F7_EB_FE         // (  6,  -9, -21,  -2)
03_07_F7_FF         // (  3,   7,  -9,  -1)
F8_0D_EE_00         // ( -8,  13, -18,   0)
18_F4_FB_0B         // ( 24, -12,  -5,  11)
08_F4_F6_00         // (  8, -12, -10,   0)
F9_F2_FA_03         // ( -7, -14,  -6,   3)
00_09_0A_02         // (  0,   9,  10,   2)
03_02_03_FD         // (  3,   2,   3,  -3)
05_05_F9_06         // (  5,   5,  -7,   6)
F6_0F_02_00         // (-10,  15,   2,   0)
FD_00_01_FB         // ( -3,   0,   1,  -5)
FE_03_EF_02         // ( -2,   3, -17,   2)
FD_F4_FB_03         // ( -3, -12,  -5,   3)
02_07_03_F4         // (  2,   7,   3, -12)
FA_FF_F8_FE         // ( -6,  -1,  -8,  -2)
FD_FD_F7_05         // ( -3,  -3,  -9,   5)
F6_09_01_FC         // (-10,   9,   1,  -4)
F7_00_08_06         // ( -9,   0,   8,   6)
07_05_FA_03         // (  7,   5,  -6,   3)
12_08_F7_FB         // ( 18,   8,  -9,  -5)
FD_0B_FD_07         // ( -3,  11,  -3,   7)
FC_ED_FB_FD         // ( -4, -19,  -5,  -3)
06_01_F9_EF         // (  6,   1,  -7, -17)
09_07_03_F7         // (  9,   7,   3,  -9)
FE_03_F9_F4         // ( -2,   3,  -7, -12)
01_FC_FA_FD         // (  1,  -4,  -6,  -3)
F7_0E_02_FE         // ( -9,  14,   2,  -2)
FD_FC_FF_EC         // ( -3,  -4,  -1, -20)
FB_0B_03_EA         // ( -5,  11,   3, -22)
F7_10_FB_F1         // ( -9,  16,  -5, -15)
09_FF_13_1A         // (  9,  -1,  19,  26)
07_FE_07_06         // (  7,  -2,   7,   6)
FF_04_0F_0E         // ( -1,   4,  15,  14)
FD_08_00_FF         // ( -3,   8,   0,  -1)
03_FD_06_F7         // (  3,  -3,   6,  -9)
06_0B_FE_F7         // (  6,  11,  -2,  -9)
F9_0A_0A_F7         // ( -7,  10,  10,  -9)
0F_FD_04_F7         // ( 15,  -3,   4,  -9)
03_F8_08_FA         // (  3,  -8,   8,  -6)
F3_1A_00_00         // (-13,  26,   0,   0)
F2_FF_F9_06         // (-14,  -1,  -7,   6)
FE_F5_00_FE         // ( -2, -11,   0,  -2)
FF_F2_FB_09         // ( -1, -14,  -5,   9)
03_04_02_09         // (  3,   4,   2,   9)
00_04_F8_02         // (  0,   4,  -8,   2)
F4_13_F9_03         // (-12,  19,  -7,   3)
06_09_FF_09         // (  6,   9,  -1,   9)
04_08_F1_0B         // (  4,   8, -15,  11)
FF_00_FB_11         // ( -1,   0,  -5,  17)
FA_0A_01_0C         // ( -6,  10,   1,  12)
F1_F9_03_13         // (-15,  -7,   3,  19)
02_F4_F6_04         // (  2, -12, -10,   4)
F3_F8_FE_FC         // (-13,  -8,  -2,  -4)
F1_FC_00_0C         // (-15,  -4,   0,  12)
05_F8_03_0B         // (  5,  -8,   3,  11)
F6_FB_04_02         // (-10,  -5,   4,   2)
F7_01_F1_0A         // ( -9,   1, -15,  10)
F5_FC_0C_EE         // (-11,  -4,  12, -18)
FE_00_02_F3         // ( -2,   0,   2, -13)
FF_0C_02_FB         // ( -1,  12,   2,  -5)
F9_F9_00_F9         // ( -7,  -7,   0,  -7)
FA_FE_FC_F5         // ( -6,  -2,  -4, -11)
01_03_06_07         // (  1,   3,   6,   7)
02_06_FD_FC         // (  2,   6,  -3,  -4)
00_FB_08_F9         // (  0,  -5,   8,  -7)
0C_06_06_04         // ( 12,   6,   6,   4)
07_F5_F1_F5         // (  7, -11, -15, -11)
01_F4_F0_FC         // (  1, -12, -16,  -4)
00_F4_EE_EC         // (  0, -12, -18, -20)
FE_FA_F8_02         // ( -2,  -6,  -8,   2)
01_03_F4_01         // (  1,   3, -12,   1)
F4_04_03_FF         // (-12,   4,   3,  -1)
0A_F8_F4_FF         // ( 10,  -8, -12,  -1)
FF_05_F9_FC         // ( -1,   5,  -7,  -4)
0C_08_FC_F7         // ( 12,   8,  -4,  -9)
09_14_0D_00         // (  9,  20,  13,   0)
FE_F5_00_F9         // ( -2, -11,   0,  -7)
00_FB_0B_F8         // (  0,  -5,  11,  -8)
11_04_0B_FF         // ( 17,   4,  11,  -1)
F9_FF_F6_FA         // ( -7,  -1, -10,  -6)
00_FF_01_F7         // (  0,  -1,   1,  -9)
11_0F_00_18         // ( 17,  15,   0,  24)
F7_F9_04_08         // ( -9,  -7,   4,   8)
02_E2_07_08         // (  2, -30,   7,   8)
02_02_FA_03         // (  2,   2,  -6,   3)
00_FF_06_FE         // (  0,  -1,   6,  -2)
FE_02_FF_F6         // ( -2,   2,  -1, -10)
F2_F7_FF_06         // (-14,  -9,  -1,   6)
F7_0F_03_F9         // ( -9,  15,   3,  -7)
F6_04_11_F7         // (-10,   4,  17,  -9)
F5_F8_F5_F6         // (-11,  -8, -11, -10)
0B_00_03_EF         // ( 11,   0,   3, -17)
0E_06_07_F4         // ( 14,   6,   7, -12)
FC_FD_F4_F8         // ( -4,  -3, -12,  -8)
FA_FD_FE_08         // ( -6,  -3,  -2,   8)
02_07_F9_16         // (  2,   7,  -7,  22)
FD_06_07_FD         // ( -3,   6,   7,  -3)
FA_01_01_FF         // ( -6,   1,   1,  -1)
00_07_05_02         // (  0,   7,   5,   2)
06_FC_F7_03         // (  6,  -4,  -9,   3)
03_FA_00_06         // (  3,  -6,   0,   6)
EE_09_FF_02         // (-18,   9,  -1,   2)
FC_F0_03_FB         // ( -4, -16,   3,  -5)
FA_F8_06_FE         // ( -6,  -8,   6,  -2)
F9_F9_08_FA         // ( -7,  -7,   8,  -6)
FB_F9_0B_03         // ( -5,  -7,  11,   3)
FB_F5_06_FC         // ( -5, -11,   6,  -4)
F9_F8_00_00         // ( -7,  -8,   0,   0)
04_0D_02_EE         // (  4,  13,   2, -18)
01_07_06_F0         // (  1,   7,   6, -16)
F7_03_02_FC         // ( -9,   3,   2,  -4)
02_07_F4_09         // (  2,   7, -12,   9)
FA_FE_09_03         // ( -6,  -2,   9,   3)
08_FD_07_05         // (  8,  -3,   7,   5)
FC_07_04_06         // ( -4,   7,   4,   6)
00_FF_FC_F6         // (  0,  -1,  -4, -10)
FC_0E_07_06         // ( -4,  14,   7,   6)
FE_FE_FB_07         // ( -2,  -2,  -5,   7)
F9_0A_F5_FF         // ( -7,  10, -11,  -1)
FD_03_FB_0C         // ( -3,   3,  -5,  12)
02_04_F9_0E         // (  2,   4,  -7,  14)
02_04_08_04         // (  2,   4,   8,   4)
FF_07_02_05         // ( -1,   7,   2,   5)
FA_04_F3_06         // ( -6,   4, -13,   6)
F6_F8_FE_06         // (-10,  -8,  -2,   6)
F6_03_FA_06         // (-10,   3,  -6,   6)
E8_F3_08_0F         // (-24, -13,   8,  15)
F4_FD_FF_FD         // (-12,  -3,  -1,  -3)
05_01_09_01         // (  5,   1,   9,   1)
03_00_FD_00         // (  3,   0,  -3,   0)
FA_FF_00_EE         // ( -6,  -1,   0, -18)
FF_FF_04_09         // ( -1,  -1,   4,   9)
00_03_FC_FC         // (  0,   3,  -4,  -4)
03_00_00_F8         // (  3,   0,   0,  -8)
FE_02_F9_FF         // ( -2,   2,  -7,  -1)
09_0A_02_FC         // (  9,  10,   2,  -4)
11_01_06_FF         // ( 17,   1,   6,  -1)
04_F7_FF_F6         // (  4,  -9,  -1, -10)
0C_F9_07_0E         // ( 12,  -7,   7,  14)
F3_F3_01_FF         // (-13, -13,   1,  -1)
EE_FE_02_04         // (-18,  -2,   2,   4)
00_FC_06_0D         // (  0,  -4,   6,  13)
F8_04_FC_FE         // ( -8,   4,  -4,  -2)
FB_06_04_02         // ( -5,   6,   4,   2)
FD_F8_FD_12         // ( -3,  -8,  -3,  18)
FE_00_EE_F9         // ( -2,   0, -18,  -7)
FC_FE_F9_02         // ( -4,  -2,  -7,   2)
04_0A_04_FF         // (  4,  10,   4,  -1)
00_FC_FC_FF         // (  0,  -4,  -4,  -1)
0A_05_EC_06         // ( 10,   5, -20,   6)
F8_05_03_FD         // ( -8,   5,   3,  -3)
01_FC_05_04         // (  1,  -4,   5,   4)
FC_FC_F2_09         // ( -4,  -4, -14,   9)
0B_FA_00_FE         // ( 11,  -6,   0,  -2)
05_FA_F5_07         // (  5,  -6, -11,   7)
FD_F3_FC_0C         // ( -3, -13,  -4,  12)
06_02_FC_00         // (  6,   2,  -4,   0)
00_04_04_FE         // (  0,   4,   4,  -2)
F7_00_F1_07         // ( -9,   0, -15,   7)
08_08_01_F7         // (  8,   8,   1,  -9)
01_FF_04_FE         // (  1,  -1,   4,  -2)
04_06_FE_FF         // (  4,   6,  -2,  -1)
0F_10_07_03         // ( 15,  16,   7,   3)
FF_02_0D_F6         // ( -1,   2,  13, -10)
FD_07_F7_FC         // ( -3,   7,  -9,  -4)
03_F6_FF_0F         // (  3, -10,  -1,  15)
F0_FE_F9_0A         // (-16,  -2,  -7,  10)
F9_FD_FE_01         // ( -7,  -3,  -2,   1)
F9_F6_FD_FF         // ( -7, -10,  -3,  -1)
EA_08_06_00         // (-22,   8,   6,   0)
F7_01_FD_0D         // ( -9,   1,  -3,  13)
04_F7_08_F6         // (  4,  -9,   8, -10)
F8_04_0B_08         // ( -8,   4,  11,   8)
F4_0A_FE_0B         // (-12,  10,  -2,  11)
04_FB_0B_FE         // (  4,  -5,  11,  -2)
02_FF_02_01         // (  2,  -1,   2,   1)
01_FC_02_01         // (  1,  -4,   2,   1)
FD_F6_0B_03         // ( -3, -10,  11,   3)
04_EF_01_06         // (  4, -17,   1,   6)
02_F4_09_FB         // (  2, -12,   9,  -5)
FD_F5_09_FF         // ( -3, -11,   9,  -1)
06_F5_0A_FD         // (  6, -11,  10,  -3)
06_00_0D_FF         // (  6,   0,  13,  -1)
01_FF_01_0F         // (  1,  -1,   1,  15)
0A_FD_F2_0A         // ( 10,  -3, -14,  10)
11_EE_FE_05         // ( 17, -18,  -2,   5)
09_EB_F6_09         // (  9, -21, -10,   9)
0A_F6_FE_FE         // ( 10, -10,  -2,  -2)
FC_F3_02_06         // ( -4, -13,   2,   6)
FD_EA_00_00         // ( -3, -22,   0,   0)
F7_FC_F8_F6         // ( -9,  -4,  -8, -10)
02_FF_00_07         // (  2,  -1,   0,   7)
02_0A_FE_0E         // (  2,  10,  -2,  14)
0E_03_07_FC         // ( 14,   3,   7,  -4)
0B_FF_09_00         // ( 11,  -1,   9,   0)
FA_09_0D_FE         // ( -6,   9,  13,  -2)
0A_03_FC_FB         // ( 10,   3,  -4,  -5)
FC_FF_00_0B         // ( -4,  -1,   0,  11)
F4_03_F2_1A         // (-12,   3, -14,  26)
F8_05_FC_0C         // ( -8,   5,  -4,  12)
FA_04_02_0F         // ( -6,   4,   2,  15)
FB_06_F8_EF         // ( -5,   6,  -8, -17)
00_F9_FE_FF         // (  0,  -7,  -2,  -1)
F4_02_FA_0A         // (-12,   2,  -6,  10)
05_0C_F5_F2         // (  5,  12, -11, -14)
06_01_FF_FC         // (  6,   1,  -1,  -4)
FC_04_05_FE         // ( -4,   4,   5,  -2)
0C_0F_05_06         // ( 12,  15,   5,   6)
03_F9_10_FF         // (  3,  -7,  16,  -1)
01_08_07_FE         // (  1,   8,   7,  -2)
FC_01_F1_03         // ( -4,   1, -15,   3)
EC_07_EE_0C         // (-20,   7, -18,  12)
F5_00_11_10         // (-11,   0,  17,  16)
FD_F6_01_00         // ( -3, -10,   1,   0)
FC_FC_EF_FE         // ( -4,  -4, -17,  -2)
F9_FD_FB_F9         // ( -7,  -3,  -5,  -7)
01_00_0D_FD         // (  1,   0,  13,  -3)
FB_FD_F4_06         // ( -5,  -3, -12,   6)
FC_F7_F6_01         // ( -4,  -9, -10,   1)
04_06_FA_FD         // (  4,   6,  -6,  -3)
08_00_FE_FF         // (  8,   0,  -2,  -1)
04_FF_01_05         // (  4,  -1,   1,   5)
02_03_FD_FF         // (  2,   3,  -3,  -1)
FB_0B_FB_F2         // ( -5,  11,  -5, -14)
FB_0A_FD_FD         // ( -5,  10,  -3,  -3)
F8_06_01_0F         // ( -8,   6,   1,  15)
FB_FE_F5_09         // ( -5,  -2, -11,   9)
FB_05_F2_00         // ( -5,   5, -14,   0)
00_04_F8_02         // (  0,   4,  -8,   2)
03_0B_FF_03         // (  3,  11,  -1,   3)
00_03_07_FD         // (  0,   3,   7,  -3)
04_FA_FD_01         // (  4,  -6,  -3,   1)
F9_F7_FE_00         // ( -7,  -9,  -2,   0)
04_01_05_06         // (  4,   1,   5,   6)
FB_02_1A_01         // ( -5,   2,  26,   1)
F5_FC_08_09         // (-11,  -4,   8,   9)
FC_FB_0C_0C         // ( -4,  -5,  12,  12)
02_F8_FD_0F         // (  2,  -8,  -3,  15)
FB_F9_FF_FC         // ( -5,  -7,  -1,  -4)
F8_FC_FC_08         // ( -8,  -4,  -4,   8)
FA_05_04_04         // ( -6,   5,   4,   4)
00_FD_08_FA         // (  0,  -3,   8,  -6)
FF_FE_05_FC         // ( -1,  -2,   5,  -4)
03_0A_04_05         // (  3,  10,   4,   5)
03_03_FF_FC         // (  3,   3,  -1,  -4)
02_06_FD_FC         // (  2,   6,  -3,  -4)
02_ED_F6_F6         // (  2, -19, -10, -10)
02_03_F6_01         // (  2,   3, -10,   1)
01_0B_F8_FC         // (  1,  11,  -8,  -4)
0C_FF_FC_03         // ( 12,  -1,  -4,   3)
F8_04_FF_03         // ( -8,   4,  -1,   3)
FC_F7_09_FB         // ( -4,  -9,   9,  -5)
F9_F7_F7_FE         // ( -7,  -9,  -9,  -2)
07_07_F2_FA         // (  7,   7, -14,  -6)
FD_FD_06_F7         // ( -3,  -3,   6,  -9)
07_01_00_05         // (  7,   1,   0,   5)
F9_FA_04_F9         // ( -7,  -6,   4,  -7)
00_F6_F4_FD         // (  0, -10, -12,  -3)
09_07_F0_05         // (  9,   7, -16,   5)
01_F0_FE_05         // (  1, -16,  -2,   5)
EE_01_0B_05         // (-18,   1,  11,   5)
F8_FA_04_05         // ( -8,  -6,   4,   5)
F5_00_FD_07         // (-11,   0,  -3,   7)
FE_13_ED_0D         // ( -2,  19, -19,  13)
04_FE_F2_03         // (  4,  -2, -14,   3)
0D_FE_FF_FF         // ( 13,  -2,  -1,  -1)
09_01_0F_FA         // (  9,   1,  15,  -6)
12_F4_F8_FD         // ( 18, -12,  -8,  -3)
04_F9_FC_04         // (  4,  -7,  -4,   4)
FE_FF_04_FB         // ( -2,  -1,   4,  -5)
06_F3_08_FD         // (  6, -13,   8,  -3)
00_0D_08_01         // (  0,  13,   8,   1)
04_15_03_F8         // (  4,  21,   3,  -8)
06_F6_F2_F6         // (  6, -10, -14, -10)
00_FB_03_F9         // (  0,  -5,   3,  -7)
04_EA_1D_02         // (  4, -22,  29,   2)
08_F6_09_11         // (  8, -10,   9,  17)
FA_02_F8_03         // ( -6,   2,  -8,   3)
FE_06_FD_FE         // ( -2,   6,  -3,  -2)
07_07_FF_00         // (  7,   7,  -1,   0)
FD_03_08_F6         // ( -3,   3,   8, -10)
FD_E8_08_14         // ( -3, -24,   8,  20)
FF_FA_09_0C         // ( -1,  -6,   9,  12)
FC_FA_00_0B         // ( -4,  -6,   0,  11)
FD_02_FF_09         // ( -3,   2,  -1,   9)
09_FA_0A_08         // (  9,  -6,  10,   8)
F5_FF_F6_FD         // (-11,  -1, -10,  -3)
F3_F8_FD_05         // (-13,  -8,  -3,   5)
0C_F9_07_05         // ( 12,  -7,   7,   5)
FB_0D_00_FD         // ( -5,  13,   0,  -3)
FA_0D_01_04         // ( -6,  13,   1,   4)
09_16_FC_FF         // (  9,  22,  -4,  -1)
11_00_09_0A         // ( 17,   0,   9,  10)
08_F9_0F_0C         // (  8,  -7,  15,  12)
05_07_07_F7         // (  5,   7,   7,  -9)
06_03_01_0D         // (  6,   3,   1,  13)
01_FA_FD_0B         // (  1,  -6,  -3,  11)
03_0F_02_F5         // (  3,  15,   2, -11)
FC_F7_FC_FA         // ( -4,  -9,  -4,  -6)
01_EB_07_04         // (  1, -21,   7,   4)
04_04_03_11         // (  4,   4,   3,  17)
FB_F6_0D_FD         // ( -5, -10,  13,  -3)
02_02_FF_08         // (  2,   2,  -1,   8)
FB_FD_F9_03         // ( -5,  -3,  -7,   3)
F7_FB_FB_0A         // ( -9,  -5,  -5,  10)
FA_00_FB_09         // ( -6,   0,  -5,   9)
01_0B_02_F9         // (  1,  11,   2,  -7)
04_02_0A_F9         // (  4,   2,  10,  -7)
F0_02_0C_08         // (-16,   2,  12,   8)
08_F7_02_FE         // (  8,  -9,   2,  -2)
F9_08_F3_0A         // ( -7,   8, -13,  10)
05_FD_FF_F9         // (  5,  -3,  -1,  -7)
FD_03_FB_04         // ( -3,   3,  -5,   4)
F5_07_F9_04         // (-11,   7,  -7,   4)
FF_F8_FD_FE         // ( -1,  -8,  -3,  -2)
08_EF_F6_F4         // (  8, -17, -10, -12)
FE_0C_F8_00         // ( -2,  12,  -8,   0)
F0_00_00_FB         // (-16,   0,   0,  -5)
0B_0E_11_0F         // ( 11,  14,  17,  15)
08_11_03_01         // (  8,  17,   3,   1)
0B_06_FA_08         // ( 11,   6,  -6,   8)
03_01_11_07         // (  3,   1,  17,   7)
06_F0_FA_03         // (  6, -16,  -6,   3)
0A_F2_F9_02         // ( 10, -14,  -7,   2)
04_02_03_14         // (  4,   2,   3,  20)
02_FE_00_FF         // (  2,  -2,   0,  -1)
09_07_01_03         // (  9,   7,   1,   3)
03_E6_16_F7         // (  3, -26,  22,  -9)
FC_F9_0A_02         // ( -4,  -7,  10,   2)
11_EC_0A_0C         // ( 17, -20,  10,  12)
FC_EF_01_03         // ( -4, -17,   1,   3)
05_F7_04_09         // (  5,  -9,   4,   9)
FE_F0_F8_07         // ( -2, -16,  -8,   7)
FF_E5_08_03         // ( -1, -27,   8,   3)
F6_FF_FA_FA         // (-10,  -1,  -6,  -6)
08_ED_F4_FF         // (  8, -19, -12,  -1)
F0_F8_FD_0B         // (-16,  -8,  -3,  11)
F5_FE_FC_01         // (-11,  -2,  -4,   1)
F4_01_00_01         // (-12,   1,   0,   1)
02_02_F9_03         // (  2,   2,  -7,   3)
0D_F7_FA_FD         // ( 13,  -9,  -6,  -3)
08_FE_0A_05         // (  8,  -2,  10,   5)
F9_FF_FF_12         // ( -7,  -1,  -1,  18)
FF_0C_04_03         // ( -1,  12,   4,   3)
00_08_F9_F8         // (  0,   8,  -7,  -8)
FF_F4_F8_F6         // ( -1, -12,  -8, -10)
09_FC_FC_0D         // (  9,  -4,  -4,  13)
00_09_F9_02         // (  0,   9,  -7,   2)
02_FE_01_F5         // (  2,  -2,   1, -11)
0A_F7_01_FA         // ( 10,  -9,   1,  -6)
FA_FB_03_0A         // ( -6,  -5,   3,  10)
01_02_00_0D         // (  1,   2,   0,  13)
00_08_FE_01         // (  0,   8,  -2,   1)
F9_FF_FF_FB         // ( -7,  -1,  -1,  -5)
FB_09_05_02         // ( -5,   9,   5,   2)
02_0D_08_06         // (  2,  13,   8,   6)
04_00_06_00         // (  4,   0,   6,   0)
EF_00_FF_01         // (-17,   0,  -1,   1)
EB_FA_F8_09         // (-21,  -6,  -8,   9)
F4_15_07_F9         // (-12,  21,   7,  -7)
F9_0B_0A_02         // ( -7,  11,  10,   2)
03_00_F8_F7         // (  3,   0,  -8,  -9)
07_0E_FB_FB         // (  7,  14,  -5,  -5)
13_FC_FB_05         // ( 19,  -4,  -5,   5)
0A_ED_03_FB         // ( 10, -19,   3,  -5)
F3_F5_01_00         // (-13, -11,   1,   0)
10_04_F9_F1         // ( 16,   4,  -7, -15)
12_18_02_FE         // ( 18,  24,   2,  -2)
F8_15_FC_01         // ( -8,  21,  -4,   1)
02_FD_F7_06         // (  2,  -3,  -9,   6)
11_1E_FB_04         // ( 17,  30,  -5,   4)
F6_01_EC_08         // (-10,   1, -20,   8)
0C_F7_02_00         // ( 12,  -9,   2,   0)
FE_FE_04_F9         // ( -2,  -2,   4,  -7)
06_FE_FF_FB         // (  6,  -2,  -1,  -5)
13_00_FD_FC         // ( 19,   0,  -3,  -4)
03_F9_02_FC         // (  3,  -7,   2,  -4)
FA_F6_00_08         // ( -6, -10,   0,   8)
0D_FA_FA_09         // ( 13,  -6,  -6,   9)
FF_04_0D_09         // ( -1,   4,  13,   9)
FF_04_FE_09         // ( -1,   4,  -2,   9)
03_ED_FB_09         // (  3, -19,  -5,   9)
00_F5_FF_F7         // (  0, -11,  -1,  -9)
FF_00_EA_F7         // ( -1,   0, -22,  -9)
FE_FD_EF_FE         // ( -2,  -3, -17,  -2)
00_FC_FC_00         // (  0,  -4,  -4,   0)
09_03_FE_09         // (  9,   3,  -2,   9)
05_04_0B_03         // (  5,   4,  11,   3)
11_09_01_F9         // ( 17,   9,   1,  -7)
02_04_F4_FC         // (  2,   4, -12,  -4)
FF_F5_07_FE         // ( -1, -11,   7,  -2)
F7_EA_0B_04         // ( -9, -22,  11,   4)
FE_ED_F6_05         // ( -2, -19, -10,   5)
FD_F5_0E_0B         // ( -3, -11,  14,  11)
13_02_E1_04         // ( 19,   2, -31,   4)
FD_01_01_08         // ( -3,   1,   1,   8)
0B_F7_0B_FB         // ( 11,  -9,  11,  -5)
06_F5_F3_FE         // (  6, -11, -13,  -2)
00_03_FE_07         // (  0,   3,  -2,   7)
0A_05_FF_09         // ( 10,   5,  -1,   9)
F7_09_0D_06         // ( -9,   9,  13,   6)
08_06_0B_07         // (  8,   6,  11,   7)
FA_FE_0A_03         // ( -6,  -2,  10,   3)
FD_07_0C_FC         // ( -3,   7,  12,  -4)
14_03_00_F7         // ( 20,   3,   0,  -9)
07_07_02_F3         // (  7,   7,   2, -13)
03_05_04_FC         // (  3,   5,   4,  -4)
FC_07_09_0B         // ( -4,   7,   9,  11)
FB_0C_02_04         // ( -5,  12,   2,   4)
FA_03_0E_08         // ( -6,   3,  14,   8)
0B_FA_05_F9         // ( 11,  -6,   5,  -7)
FF_0A_F8_03         // ( -1,  10,  -8,   3)
0A_FC_02_03         // ( 10,  -4,   2,   3)
F7_F0_02_06         // ( -9, -16,   2,   6)
08_F7_01_FA         // (  8,  -9,   1,  -6)
00_FA_0B_FA         // (  0,  -6,  11,  -6)
02_F1_08_09         // (  2, -15,   8,   9)
FF_04_01_06         // ( -1,   4,   1,   6)
0A_FA_04_01         // ( 10,  -6,   4,   1)
0B_01_0C_01         // ( 11,   1,  12,   1)
13_FB_F7_F7         // ( 19,  -5,  -9,  -9)
03_FA_22_F2         // (  3,  -6,  34, -14)
02_FA_03_FD         // (  2,  -6,   3,  -3)
08_00_FB_16         // (  8,   0,  -5,  22)
03_04_F8_01         // (  3,   4,  -8,   1)
05_F6_04_F3         // (  5, -10,   4, -13)
04_EC_0B_F4         // (  4, -20,  11, -12)
F1_FC_12_00         // (-15,  -4,  18,   0)
FF_F9_FC_FA         // ( -1,  -7,  -4,  -6)
11_F9_F5_00         // ( 17,  -7, -11,   0)
F7_05_F9_FD         // ( -9,   5,  -7,  -3)
F2_07_00_FB         // (-14,   7,   0,  -5)
0E_FB_F7_F6         // ( 14,  -5,  -9, -10)
02_F4_F1_FD         // (  2, -12, -15,  -3)
04_05_F9_FB         // (  4,   5,  -7,  -5)
FF_FA_00_0A         // ( -1,  -6,   0,  10)
04_FE_FA_01         // (  4,  -2,  -6,   1)
11_EE_02_F4         // ( 17, -18,   2, -12)
FA_09_12_FE         // ( -6,   9,  18,  -2)
FF_FE_09_F1         // ( -1,  -2,   9, -15)
FC_FD_F9_FA         // ( -4,  -3,  -7,  -6)
02_F3_05_09         // (  2, -13,   5,   9)
F4_FA_FC_E5         // (-12,  -6,  -4, -27)
FE_04_FF_F9         // ( -2,   4,  -1,  -7)
00_09_03_04         // (  0,   9,   3,   4)
0B_05_04_FC         // ( 11,   5,   4,  -4)
FE_02_06_06         // ( -2,   2,   6,   6)
09_FE_FB_F3         // (  9,  -2,  -5, -13)
F7_FE_FF_0A         // ( -9,  -2,  -1,  10)
08_FA_FE_F8         // (  8,  -6,  -2,  -8)
FD_0A_03_FA         // ( -3,  10,   3,  -6)
08_FB_03_FC         // (  8,  -5,   3,  -4)
06_04_F6_FD         // (  6,   4, -10,  -3)
FC_FB_FC_F8         // ( -4,  -5,  -4,  -8)
04_FA_03_F3         // (  4,  -6,   3, -13)
02_07_FF_00         // (  2,   7,  -1,   0)
F0_F9_04_CE         // (-16,  -7,   4, -50)
14_FE_02_03         // ( 20,  -2,   2,   3)
07_02_05_03         // (  7,   2,   5,   3)
FD_F5_FB_F6         // ( -3, -11,  -5, -10)
07_02_01_F9         // (  7,   2,   1,  -7)
00_0D_FD_00         // (  0,  13,  -3,   0)
06_02_07_06         // (  6,   2,   7,   6)
0C_FC_03_10         // ( 12,  -4,   3,  16)
FB_FD_FF_10         // ( -5,  -3,  -1,  16)
01_FA_03_0B         // (  1,  -6,   3,  11)
0F_04_00_F6         // ( 15,   4,   0, -10)
FC_0C_F9_08         // ( -4,  12,  -7,   8)
F8_FB_F5_0A         // ( -8,  -5, -11,  10)
00_FA_F4_04         // (  0,  -6, -12,   4)
FF_01_00_F7         // ( -1,   1,   0,  -9)
05_00_F4_14         // (  5,   0, -12,  20)
F6_10_06_00         // (-10,  16,   6,   0)
0A_FE_07_FE         // ( 10,  -2,   7,  -2)
0B_0B_04_0E         // ( 11,  11,   4,  14)
FE_FD_08_02         // ( -2,  -3,   8,   2)
01_04_08_05         // (  1,   4,   8,   5)
EB_07_FB_08         // (-21,   7,  -5,   8)
F8_0E_F7_F2         // ( -8,  14,  -9, -14)
FB_07_FC_1A         // ( -5,   7,  -4,  26)
F0_0B_03_05         // (-16,  11,   3,   5)
F0_FA_03_FD         // (-16,  -6,   3,  -3)
F2_13_F3_16         // (-14,  19, -13,  22)
01_09_00_F2         // (  1,   9,   0, -14)
E7_FC_08_FE         // (-25,  -4,   8,  -2)
FF_FE_FB_0B         // ( -1,  -2,  -5,  11)
01_FA_03_0B         // (  1,  -6,   3,  11)
F8_FB_02_11         // ( -8,  -5,   2,  17)
0A_05_0B_02         // ( 10,   5,  11,   2)
FB_00_F7_08         // ( -5,   0,  -9,   8)
01_03_01_09         // (  1,   3,   1,   9)
1B_05_03_07         // ( 27,   5,   3,   7)
02_07_03_0E         // (  2,   7,   3,  14)
05_FB_0A_08         // (  5,  -5,  10,   8)
11_05_05_FC         // ( 17,   5,   5,  -4)
01_FE_09_04         // (  1,  -2,   9,   4)
05_FB_11_06         // (  5,  -5,  17,   6)
FF_02_F1_06         // ( -1,   2, -15,   6)
05_F7_F3_19         // (  5,  -9, -13,  25)
0D_FF_E6_0C         // ( 13,  -1, -26,  12)
05_0B_ED_02         // (  5,  11, -19,   2)
F8_ED_EA_08         // ( -8, -19, -22,   8)
0B_02_F2_F8         // ( 11,   2, -14,  -8)
F2_FB_ED_01         // (-14,  -5, -19,   1)
07_FE_FA_04         // (  7,  -2,  -6,   4)
13_07_FD_FC         // ( 19,   7,  -3,  -4)
00_FE_E6_0B         // (  0,  -2, -26,  11)
FF_FF_04_FA         // ( -1,  -1,   4,  -6)
FE_04_F5_FF         // ( -2,   4, -11,  -1)
FF_05_FD_F9         // ( -1,   5,  -3,  -7)
0A_0F_08_09         // ( 10,  15,   8,   9)
FF_0A_0F_F9         // ( -1,  10,  15,  -7)
03_13_09_07         // (  3,  19,   9,   7)
01_05_00_FA         // (  1,   5,   0,  -6)
FD_02_02_0C         // ( -3,   2,   2,  12)
00_0C_03_06         // (  0,  12,   3,   6)
04_06_04_07         // (  4,   6,   4,   7)
03_04_F1_F1         // (  3,   4, -15, -15)
06_FC_12_F9         // (  6,  -4,  18,  -7)
FE_FA_01_FC         // ( -2,  -6,   1,  -4)
FC_04_F7_10         // ( -4,   4,  -9,  16)
0D_FE_06_F4         // ( 13,  -2,   6, -12)
FD_01_0A_00         // ( -3,   1,  10,   0)
FB_05_00_F3         // ( -5,   5,   0, -13)
02_04_00_0B         // (  2,   4,   0,  11)
F3_08_06_0A         // (-13,   8,   6,  10)
F4_FD_FC_00         // (-12,  -3,  -4,   0)
FA_FD_F8_FB         // ( -6,  -3,  -8,  -5)
FA_05_FE_04         // ( -6,   5,  -2,   4)
FF_0F_0C_00         // ( -1,  15,  12,   0)
FF_FF_F2_00         // ( -1,  -1, -14,   0)
02_06_09_09         // (  2,   6,   9,   9)
FD_03_F7_FE         // ( -3,   3,  -9,  -2)
F8_FB_F4_07         // ( -8,  -5, -12,   7)
FA_04_01_F5         // ( -6,   4,   1, -11)
FF_01_FF_00         // ( -1,   1,  -1,   0)
F1_FF_03_FF         // (-15,  -1,   3,  -1)
EB_F8_00_F3         // (-21,  -8,   0, -13)
FA_FA_02_FF         // ( -6,  -6,   2,  -1)
F3_FF_05_00         // (-13,  -1,   5,   0)
06_02_07_FC         // (  6,   2,   7,  -4)
F6_02_06_07         // (-10,   2,   6,   7)
EE_F3_01_01         // (-18, -13,   1,   1)
02_F5_F6_00         // (  2, -11, -10,   0)
FF_02_FF_01         // ( -1,   2,  -1,   1)
0B_FE_F6_07         // ( 11,  -2, -10,   7)
01_F9_FF_07         // (  1,  -7,  -1,   7)
FE_F6_F8_0B         // ( -2, -10,  -8,  11)
00_F7_F7_02         // (  0,  -9,  -9,   2)
06_07_F5_0E         // (  6,   7, -11,  14)
FF_FE_FE_03         // ( -1,  -2,  -2,   3)
04_01_F9_0C         // (  4,   1,  -7,  12)
00_EE_FC_0E         // (  0, -18,  -4,  14)
0B_F8_FE_02         // ( 11,  -8,  -2,   2)
02_01_F9_09         // (  2,   1,  -7,   9)
F9_F0_05_01         // ( -7, -16,   5,   1)
0C_F6_FF_01         // ( 12, -10,  -1,   1)
00_FB_F0_08         // (  0,  -5, -16,   8)
F8_FB_09_03         // ( -8,  -5,   9,   3)
03_10_01_03         // (  3,  16,   1,   3)
F6_03_F4_0E         // (-10,   3, -12,  14)
02_09_01_10         // (  2,   9,   1,  16)
FF_FC_09_13         // ( -1,  -4,   9,  19)
01_F2_FB_0C         // (  1, -14,  -5,  12)
F6_07_FD_F7         // (-10,   7,  -3,  -9)
FF_FF_06_05         // ( -1,  -1,   6,   5)
FA_FD_FC_FC         // ( -6,  -3,  -4,  -4)
F4_FD_03_0F         // (-12,  -3,   3,  15)
FB_05_F9_0B         // ( -5,   5,  -7,  11)
01_09_02_08         // (  1,   9,   2,   8)
0C_05_07_0E         // ( 12,   5,   7,  14)
00_03_FC_09         // (  0,   3,  -4,   9)
FD_FC_04_0B         // ( -3,  -4,   4,  11)
0C_0D_FC_00         // ( 12,  13,  -4,   0)
09_01_FC_FF         // (  9,   1,  -4,  -1)
F7_03_F6_02         // ( -9,   3, -10,   2)
10_08_FD_FE         // ( 16,   8,  -3,  -2)
FE_0A_06_05         // ( -2,  10,   6,   5)
EC_FF_F5_05         // (-20,  -1, -11,   5)
00_09_0C_03         // (  0,   9,  12,   3)
F9_F9_03_FE         // ( -7,  -7,   3,  -2)
0D_FA_0C_0A         // ( 13,  -6,  12,  10)
07_09_02_06         // (  7,   9,   2,   6)
03_FE_07_00         // (  3,  -2,   7,   0)
04_02_09_07         // (  4,   2,   9,   7)
00_1A_0F_F7         // (  0,  26,  15,  -9)
F6_0D_04_02         // (-10,  13,   4,   2)
01_0D_FF_0C         // (  1,  13,  -1,  12)
F1_05_F2_0A         // (-15,   5, -14,  10)
FB_FB_08_08         // ( -5,  -5,   8,   8)
FA_F5_04_FF         // ( -6, -11,   4,  -1)
FB_07_F1_FB         // ( -5,   7, -15,  -5)
FB_04_E9_F8         // ( -5,   4, -23,  -8)
FA_EC_FE_F0         // ( -6, -20,  -2, -16)
FE_F4_07_03         // ( -2, -12,   7,   3)
03_02_F4_06         // (  3,   2, -12,   6)
01_FB_01_02         // (  1,  -5,   1,   2)
01_04_F7_E9         // (  1,   4,  -9, -23)
02_03_F6_F7         // (  2,   3, -10,  -9)
00_00_F8_F7         // (  0,   0,  -8,  -9)
F3_FE_F5_F8         // (-13,  -2, -11,  -8)
00_FA_FC_FD         // (  0,  -6,  -4,  -3)
F3_06_01_FB         // (-13,   6,   1,  -5)
F2_06_10_FD         // (-14,   6,  16,  -3)
FC_01_FF_E8         // ( -4,   1,  -1, -24)
F5_02_03_E2         // (-11,   2,   3, -30)
1D_FB_0D_0E         // ( 29,  -5,  13,  14)
0B_05_FE_FE         // ( 11,   5,  -2,  -2)
07_07_09_08         // (  7,   7,   9,   8)
08_07_08_00         // (  8,   7,   8,   0)
05_09_FF_FD         // (  5,   9,  -1,  -3)
FE_FE_03_03         // ( -2,  -2,   3,   3)
05_FA_06_05         // (  5,  -6,   6,   5)
04_00_04_05         // (  4,   0,   4,   5)
00_04_10_03         // (  0,   4,  16,   3)
07_03_04_F6         // (  7,   3,   4, -10)
FB_FB_02_F9         // ( -5,  -5,   2,  -7)
F0_F9_0A_F9         // (-16,  -7,  10,  -7)
F8_DD_FF_FE         // ( -8, -35,  -1,  -2)
05_02_06_03         // (  5,   2,   6,   3)
03_EB_05_FC         // (  3, -21,   5,  -4)
00_F1_FA_F6         // (  0, -15,  -6, -10)
01_01_01_07         // (  1,   1,   1,   7)
02_F7_00_05         // (  2,  -9,   0,   5)
F0_F7_00_F8         // (-16,  -9,   0,  -8)
00_ED_F8_05         // (  0, -19,  -8,   5)
08_EA_FE_03         // (  8, -22,  -2,   3)
FA_FA_07_00         // ( -6,  -6,   7,   0)
FD_F6_09_FF         // ( -3, -10,   9,  -1)
F9_FA_01_01         // ( -7,  -6,   1,   1)
0A_F8_00_01         // ( 10,  -8,   0,   1)
0E_F5_F8_05         // ( 14, -11,  -8,   5)
05_FC_03_03         // (  5,  -4,   3,   3)
08_09_F8_0A         // (  8,   9,  -8,  10)
02_FC_01_03         // (  2,  -4,   1,   3)
F9_F6_01_02         // ( -7, -10,   1,   2)
F5_FC_08_04         // (-11,  -4,   8,   4)
FA_FF_F8_FB         // ( -6,  -1,  -8,  -5)
06_F9_06_00         // (  6,  -7,   6,   0)
FB_04_02_F6         // ( -5,   4,   2, -10)
08_F3_F8_FA         // (  8, -13,  -8,  -6)
0B_03_08_0A         // ( 11,   3,   8,  10)
FD_FC_FB_E6         // ( -3,  -4,  -5, -26)
02_04_F1_F3         // (  2,   4, -15, -13)
02_0E_F4_E9         // (  2,  14, -12, -23)
FB_FA_FA_F0         // ( -5,  -6,  -6, -16)
03_00_FA_00         // (  3,   0,  -6,   0)
0A_FD_06_FE         // ( 10,  -3,   6,  -2)
F8_05_F8_F1         // ( -8,   5,  -8, -15)
02_06_E8_F5         // (  2,   6, -24, -11)
0A_FE_0A_F3         // ( 10,  -2,  10, -13)
05_07_F3_F6         // (  5,   7, -13, -10)
09_FE_F5_00         // (  9,  -2, -11,   0)
0D_09_FE_FF         // ( 13,   9,  -2,  -1)
1D_F9_F8_05         // ( 29,  -7,  -8,   5)
02_F5_FD_FC         // (  2, -11,  -3,  -4)
FF_07_F5_FC         // ( -1,   7, -11,  -4)
0F_10_F2_16         // ( 15,  16, -14,  22)
03_0A_F7_05         // (  3,  10,  -9,   5)
01_19_E2_10         // (  1,  25, -30,  16)
F6_01_09_FA         // (-10,   1,   9,  -6)
FC_03_FB_F9         // ( -4,   3,  -5,  -7)
FA_0F_0F_05         // ( -6,  15,  15,   5)
F4_FD_01_FD         // (-12,  -3,   1,  -3)
EF_03_FB_04         // (-17,   3,  -5,   4)
FC_02_10_FF         // ( -4,   2,  16,  -1)
04_11_FD_00         // (  4,  17,  -3,   0)
00_02_04_02         // (  0,   2,   4,   2)
08_00_17_02         // (  8,   0,  23,   2)
03_F5_06_0C         // (  3, -11,   6,  12)
08_EB_08_04         // (  8, -21,   8,   4)
FE_FF_FF_04         // ( -2,  -1,  -1,   4)
04_FC_04_FC         // (  4,  -4,   4,  -4)
08_01_FC_F6         // (  8,   1,  -4, -10)
03_09_F5_07         // (  3,   9, -11,   7)
03_FD_00_FF         // (  3,  -3,   0,  -1)
FF_01_FC_FE         // ( -1,   1,  -4,  -2)
FE_07_01_0D         // ( -2,   7,   1,  13)
09_FB_03_05         // (  9,  -5,   3,   5)
01_02_00_01         // (  1,   2,   0,   1)
06_01_F9_04         // (  6,   1,  -7,   4)
FB_00_08_F8         // ( -5,   0,   8,  -8)
00_06_06_02         // (  0,   6,   6,   2)
10_08_E9_FE         // ( 16,   8, -23,  -2)
00_05_05_F5         // (  0,   5,   5, -11)
FD_0A_02_00         // ( -3,  10,   2,   0)
06_05_FC_08         // (  6,   5,  -4,   8)
02_01_FF_FB         // (  2,   1,  -1,  -5)
03_F8_04_05         // (  3,  -8,   4,   5)
05_04_08_F8         // (  5,   4,   8,  -8)
05_0D_07_0D         // (  5,  13,   7,  13)
04_F5_04_FC         // (  4, -11,   4,  -4)
08_03_FC_FD         // (  8,   3,  -4,  -3)
F8_02_0C_07         // ( -8,   2,  12,   7)
07_FE_05_02         // (  7,  -2,   5,   2)
FC_FF_05_FE         // ( -4,  -1,   5,  -2)
09_0C_FA_06         // (  9,  12,  -6,   6)
FF_0A_06_09         // ( -1,  10,   6,   9)
FC_F2_05_FA         // ( -4, -14,   5,  -6)
05_02_FB_FB         // (  5,   2,  -5,  -5)
02_07_0B_FA         // (  2,   7,  11,  -6)
F6_FA_01_06         // (-10,  -6,   1,   6)
01_07_0E_00         // (  1,   7,  14,   0)
FB_FD_01_05         // ( -5,  -3,   1,   5)
07_02_04_04         // (  7,   2,   4,   4)
05_0F_FD_E7         // (  5,  15,  -3, -25)
FE_FF_08_F5         // ( -2,  -1,   8, -11)
00_0C_FA_FE         // (  0,  12,  -6,  -2)
05_0D_05_FA         // (  5,  13,   5,  -6)
04_FF_FB_0D         // (  4,  -1,  -5,  13)
08_F5_01_F6         // (  8, -11,   1, -10)
FF_27_0C_FB         // ( -1,  39,  12,  -5)
F7_00_FA_01         // ( -9,   0,  -6,   1)
FF_02_F6_E5         // ( -1,   2, -10, -27)
FE_FA_04_0A         // ( -2,  -6,   4,  10)
FC_F7_FD_00         // ( -4,  -9,  -3,   0)
FE_FB_FB_06         // ( -2,  -5,  -5,   6)
05_FA_FF_05         // (  5,  -6,  -1,   5)
00_F9_05_FD         // (  0,  -7,   5,  -3)
FB_F9_FF_00         // ( -5,  -7,  -1,   0)
05_F8_EF_13         // (  5,  -8, -17,  19)
04_F7_FE_03         // (  4,  -9,  -2,   3)
03_F9_F8_09         // (  3,  -7,  -8,   9)
00_F9_F4_F6         // (  0,  -7, -12, -10)
0A_FF_02_FD         // ( 10,  -1,   2,  -3)
03_F8_F8_EF         // (  3,  -8,  -8, -17)
04_02_00_F7         // (  4,   2,   0,  -9)
FD_00_FA_FF         // ( -3,   0,  -6,  -1)
FF_FC_FE_FD         // ( -1,  -4,  -2,  -3)
07_08_FD_F5         // (  7,   8,  -3, -11)
07_FD_FF_01         // (  7,  -3,  -1,   1)
F8_FD_FB_07         // ( -8,  -3,  -5,   7)
F8_FC_FF_04         // ( -8,  -4,  -1,   4)
FD_00_04_01         // ( -3,   0,   4,   1)
01_05_03_FF         // (  1,   5,   3,  -1)
FA_FA_01_FB         // ( -6,  -6,   1,  -5)
FE_F9_F8_FF         // ( -2,  -7,  -8,  -1)
FD_03_0F_F6         // ( -3,   3,  15, -10)
FB_01_03_FD         // ( -5,   1,   3,  -3)
01_F9_01_00         // (  1,  -7,   1,   0)
FF_FE_FD_F5         // ( -1,  -2,  -3, -11)
FB_F5_0E_05         // ( -5, -11,  14,   5)
06_02_FF_FB         // (  6,   2,  -1,  -5)
05_FC_FC_FB         // (  5,  -4,  -4,  -5)
F9_F5_00_FC         // ( -7, -11,   0,  -4)
FF_FD_F8_FC         // ( -1,  -3,  -8,  -4)
F9_0C_F9_04         // ( -7,  12,  -7,   4)
00_F8_F6_F9         // (  0,  -8, -10,  -7)
00_0C_FB_08         // (  0,  12,  -5,   8)
FD_0F_FF_05         // ( -3,  15,  -1,   5)
08_F8_05_08         // (  8,  -8,   5,   8)
06_F8_0C_FD         // (  6,  -8,  12,  -3)
FA_08_00_FA         // ( -6,   8,   0,  -6)
05_FF_FA_05         // (  5,  -1,  -6,   5)
09_F8_06_02         // (  9,  -8,   6,   2)
00_05_03_F2         // (  0,   5,   3, -14)
05_FB_12_FA         // (  5,  -5,  18,  -6)
00_04_02_FC         // (  0,   4,   2,  -4)
FF_00_03_F0         // ( -1,   0,   3, -16)
FD_01_FA_FB         // ( -3,   1,  -6,  -5)
04_05_FB_04         // (  4,   5,  -5,   4)
00_01_01_FA         // (  0,   1,   1,  -6)
FC_0D_F4_FA         // ( -4,  13, -12,  -6)
00_01_04_F7         // (  0,   1,   4,  -9)
F8_F3_FE_03         // ( -8, -13,  -2,   3)
FB_03_F8_FF         // ( -5,   3,  -8,  -1)
FB_00_04_FA         // ( -5,   0,   4,  -6)
00_08_FE_FD         // (  0,   8,  -2,  -3)
06_05_09_0C         // (  6,   5,   9,  12)
FF_03_0A_FD         // ( -1,   3,  10,  -3)
FE_00_F9_FF         // ( -2,   0,  -7,  -1)
0B_0C_00_F5         // ( 11,  12,   0, -11)
02_09_05_F5         // (  2,   9,   5, -11)
FB_0A_FC_08         // ( -5,  10,  -4,   8)
01_0C_FA_03         // (  1,  12,  -6,   3)
02_0A_04_09         // (  2,  10,   4,   9)
FE_FF_07_0C         // ( -2,  -1,   7,  12)
FE_04_05_EB         // ( -2,   4,   5, -21)
FE_FB_FF_FB         // ( -2,  -5,  -1,  -5)
FA_02_03_08         // ( -6,   2,   3,   8)
0D_FE_FD_F1         // ( 13,  -2,  -3, -15)
FD_F7_FD_02         // ( -3,  -9,  -3,   2)
FD_FF_04_F2         // ( -3,  -1,   4, -14)
F8_FE_FE_FF         // ( -8,  -2,  -2,  -1)
F8_02_FA_02         // ( -8,   2,  -6,   2)
05_06_01_FD         // (  5,   6,   1,  -3)
FE_F8_F8_08         // ( -2,  -8,  -8,   8)
02_FC_F9_FA         // (  2,  -4,  -7,  -6)
05_05_FF_06         // (  5,   5,  -1,   6)
F4_F8_F1_04         // (-12,  -8, -15,   4)
FF_FC_F3_02         // ( -1,  -4, -13,   2)
09_FA_F8_FA         // (  9,  -6,  -8,  -6)
FF_02_F9_0B         // ( -1,   2,  -7,  11)
FC_FC_EF_FC         // ( -4,  -4, -17,  -4)
FE_FB_FE_FF         // ( -2,  -5,  -2,  -1)
01_05_05_04         // (  1,   5,   5,   4)
FC_F8_05_00         // ( -4,  -8,   5,   0)
08_F5_11_FA         // (  8, -11,  17,  -6)
08_09_03_00         // (  8,   9,   3,   0)
05_04_F8_FA         // (  5,   4,  -8,  -6)
FA_F5_FF_FB         // ( -6, -11,  -1,  -5)
18_FF_08_16         // ( 24,  -1,   8,  22)
08_FA_04_10         // (  8,  -6,   4,  16)
01_1A_FD_03         // (  1,  26,  -3,   3)
FE_01_01_FE         // ( -2,   1,   1,  -2)
FE_07_00_F0         // ( -2,   7,   0, -16)
07_04_11_08         // (  7,   4,  17,   8)
01_FB_FF_09         // (  1,  -5,  -1,   9)
FC_F9_F7_F8         // ( -4,  -7,  -9,  -8)
FA_FE_08_F8         // ( -6,  -2,   8,  -8)
F7_FB_EF_0B         // ( -9,  -5, -17,  11)
00_F7_01_04         // (  0,  -9,   1,   4)
04_FC_07_FB         // (  4,  -4,   7,  -5)
F7_0B_F8_01         // ( -9,  11,  -8,   1)
F6_FF_05_05         // (-10,  -1,   5,   5)
FE_02_04_F9         // ( -2,   2,   4,  -7)
FF_09_F8_FA         // ( -1,   9,  -8,  -6)
02_08_07_07         // (  2,   8,   7,   7)
FE_FB_08_03         // ( -2,  -5,   8,   3)
00_06_F7_05         // (  0,   6,  -9,   5)
FE_05_FB_FD         // ( -2,   5,  -5,  -3)
FD_FD_03_03         // ( -3,  -3,   3,   3)
00_FA_01_F6         // (  0,  -6,   1, -10)
0B_FF_03_FF         // ( 11,  -1,   3,  -1)
FC_02_FD_F2         // ( -4,   2,  -3, -14)
F6_FF_FF_F8         // (-10,  -1,  -1,  -8)
EC_ED_0E_FB         // (-20, -19,  14,  -5)
EF_08_FB_F7         // (-17,   8,  -5,  -9)
0C_14_01_FB         // ( 12,  20,   1,  -5)
01_FE_FF_FE         // (  1,  -2,  -1,  -2)
FC_05_FA_F4         // ( -4,   5,  -6, -12)
FF_0D_F0_F4         // ( -1,  13, -16, -12)
01_00_05_03         // (  1,   0,   5,   3)
0F_00_F9_F8         // ( 15,   0,  -7,  -8)
04_02_FE_05         // (  4,   2,  -2,   5)
01_F4_00_07         // (  1, -12,   0,   7)
FC_EF_F8_01         // ( -4, -17,  -8,   1)
D9_0A_02_0E         // (-39,  10,   2,  14)
07_FA_FB_1A         // (  7,  -6,  -5,  26)
FC_EB_E9_21         // ( -4, -21, -23,  33)
01_F1_E9_FC         // (  1, -15, -23,  -4)
05_00_FF_08         // (  5,   0,  -1,   8)
0B_F7_04_05         // ( 11,  -9,   4,   5)
EC_05_F7_F4         // (-20,   5,  -9, -12)
0E_F5_01_FD         // ( 14, -11,   1,  -3)
0F_F8_F4_07         // ( 15,  -8, -12,   7)
F8_F9_F8_F7         // ( -8,  -7,  -8,  -9)
09_FE_F3_F8         // (  9,  -2, -13,  -8)
02_F6_F8_08         // (  2, -10,  -8,   8)
01_07_FC_05         // (  1,   7,  -4,   5)
01_00_07_07         // (  1,   0,   7,   7)
06_FB_0A_02         // (  6,  -5,  10,   2)
F5_07_FA_01         // (-11,   7,  -6,   1)
F4_03_07_FD         // (-12,   3,   7,  -3)
04_00_0C_0B         // (  4,   0,  12,  11)
F3_0C_FC_0D         // (-13,  12,  -4,  13)
03_FB_09_0A         // (  3,  -5,   9,  10)
F7_05_03_17         // ( -9,   5,   3,  23)
08_07_06_14         // (  8,   7,   6,  20)
F6_FE_FF_13         // (-10,  -2,  -1,  19)
F8_FA_0B_10         // ( -8,  -6,  11,  16)
00_08_F5_05         // (  0,   8, -11,   5)
0B_06_EF_00         // ( 11,   6, -17,   0)
F8_F5_07_09         // ( -8, -11,   7,   9)
06_0D_FC_17         // (  6,  13,  -4,  23)
14_0B_F1_01         // ( 20,  11, -15,   1)
F4_04_11_15         // (-12,   4,  17,  21)
F4_09_0C_F9         // (-12,   9,  12,  -7)
F6_FE_0D_FF         // (-10,  -2,  13,  -1)
F9_F1_10_FE         // ( -7, -15,  16,  -2)
FE_0D_03_F2         // ( -2,  13,   3, -14)
02_01_1A_0A         // (  2,   1,  26,  10)
06_02_0F_0C         // (  6,   2,  15,  12)
FB_1F_14_F1         // ( -5,  31,  20, -15)
F7_0A_04_04         // ( -9,  10,   4,   4)
F9_03_FA_F6         // ( -7,   3,  -6, -10)
F4_F3_FF_05         // (-12, -13,  -1,   5)
E4_01_FB_F4         // (-28,   1,  -5, -12)
E8_F8_07_F9         // (-24,  -8,   7,  -7)
F8_F8_08_06         // ( -8,  -8,   8,   6)
E1_03_F9_FA         // (-31,   3,  -7,  -6)
F1_FC_F8_F3         // (-15,  -4,  -8, -13)
09_F1_05_06         // (  9, -15,   5,   6)
F6_E7_04_FC         // (-10, -25,   4,  -4)
01_E8_F6_FB         // (  1, -24, -10,  -5)
F0_0C_FD_02         // (-16,  12,  -3,   2)
F9_F3_05_EE         // ( -7, -13,   5, -18)
07_02_03_F5         // (  7,   2,   3, -11)
F9_FD_07_06         // ( -7,  -3,   7,   6)
FD_FF_FE_FC         // ( -3,  -1,  -2,  -4)
01_F5_FE_F9         // (  1, -11,  -2,  -7)
F7_06_0F_F9         // ( -9,   6,  15,  -7)
FA_05_FE_12         // ( -6,   5,  -2,  18)
09_0D_F8_F9         // (  9,  13,  -8,  -7)
17_F1_FE_FC         // ( 23, -15,  -2,  -4)
17_00_06_FE         // ( 23,   0,   6,  -2)
10_09_08_FD         // ( 16,   9,   8,  -3)
08_08_01_FC         // (  8,   8,   1,  -4)
04_EF_01_FF         // (  4, -17,   1,  -1)
FC_06_09_F9         // ( -4,   6,   9,  -7)
0B_0C_0C_04         // ( 11,  12,  12,   4)
FD_FA_0C_07         // ( -3,  -6,  12,   7)
FD_05_23_02         // ( -3,   5,  35,   2)
FB_0E_FE_FF         // ( -5,  14,  -2,  -1)
F4_06_07_FA         // (-12,   6,   7,  -6)
FD_04_13_F2         // ( -3,   4,  19, -14)
14_F3_F1_03         // ( 20, -13, -15,   3)
F1_06_0A_FC         // (-15,   6,  10,  -4)
E9_01_07_F2         // (-23,   1,   7, -14)
07_FD_EB_F4         // (  7,  -3, -21, -12)
F0_02_05_F7         // (-16,   2,   5,  -9)
E4_EF_FA_02         // (-28, -17,  -6,   2)
FB_03_0D_F6         // ( -5,   3,  13, -10)
04_F7_00_FE         // (  4,  -9,   0,  -2)
0D_01_04_F5         // ( 13,   1,   4, -11)
10_01_03_04         // ( 16,   1,   3,   4)
14_0A_06_FF         // ( 20,  10,   6,  -1)
01_08_08_FD         // (  1,   8,   8,  -3)
0F_F1_F1_F7         // ( 15, -15, -15,  -9)
FE_01_FB_FD         // ( -2,   1,  -5,  -3)
05_0A_07_FC         // (  5,  10,   7,  -4)
04_E1_FD_0A         // (  4, -31,  -3,  10)
06_F4_FA_07         // (  6, -12,  -6,   7)
11_FE_0D_04         // ( 17,  -2,  13,   4)
03_F9_01_0A         // (  3,  -7,   1,  10)
FD_F4_FF_FE         // ( -3, -12,  -1,  -2)
07_00_F8_F8         // (  7,   0,  -8,  -8)
FD_F2_00_02         // ( -3, -14,   0,   2)
02_EC_02_FC         // (  2, -20,   2,  -4)
02_FB_EC_F0         // (  2,  -5, -20, -16)
FB_ED_F1_EB         // ( -5, -19, -15, -21)
01_F6_05_01         // (  1, -10,   5,   1)
00_05_01_FA         // (  0,   5,   1,  -6)
12_FB_08_F0         // ( 18,  -5,   8, -16)
07_0A_FB_07         // (  7,  10,  -5,   7)
04_FC_01_FF         // (  4,  -4,   1,  -1)
15_F6_08_EE         // ( 21, -10,   8, -18)
05_FA_FB_F1         // (  5,  -6,  -5, -15)
FD_0A_FF_CE         // ( -3,  10,  -1, -50)
FC_FA_FD_F6         // ( -4,  -6,  -3, -10)
F9_06_06_F9         // ( -7,   6,   6,  -7)
FC_E6_F9_07         // ( -4, -26,  -7,   7)
10_0B_F5_F7         // ( 16,  11, -11,  -9)
02_09_FD_F3         // (  2,   9,  -3, -13)
03_F6_F4_01         // (  3, -10, -12,   1)
1B_11_F7_09         // ( 27,  17,  -9,   9)
09_0B_F5_03         // (  9,  11, -11,   3)
07_08_F7_0D         // (  7,   8,  -9,  13)
F2_F5_10_07         // (-14, -11,  16,   7)
EB_05_03_FD         // (-21,   5,   3,  -3)
F4_FD_17_0A         // (-12,  -3,  23,  10)
06_01_08_FA         // (  6,   1,   8,  -6)
FE_FD_F7_0C         // ( -2,  -3,  -9,  12)
FF_01_11_0A         // ( -1,   1,  17,  10)
0D_06_FD_FA         // ( 13,   6,  -3,  -6)
F8_01_09_0F         // ( -8,   1,   9,  15)
13_00_0E_F9         // ( 19,   0,  14,  -7)
06_F1_0D_01         // (  6, -15,  13,   1)
0D_FB_02_03         // ( 13,  -5,   2,   3)
F2_F8_06_0A         // (-14,  -8,   6,  10)
FD_F7_01_0D         // ( -3,  -9,   1,  13)
FE_FA_0D_EF         // ( -2,  -6,  13, -17)
0A_0A_12_FA         // ( 10,  10,  18,  -6)
00_FB_F3_0B         // (  0,  -5, -13,  11)
04_FD_01_07         // (  4,  -3,   1,   7)
02_01_F6_08         // (  2,   1, -10,   8)
F5_05_08_FE         // (-11,   5,   8,  -2)
F3_05_05_07         // (-13,   5,   5,   7)
08_05_09_04         // (  8,   5,   9,   4)
06_04_05_F1         // (  6,   4,   5, -15)
08_05_FF_F8         // (  8,   5,  -1,  -8)
00_04_0E_00         // (  0,   4,  14,   0)
06_0A_FF_F8         // (  6,  10,  -1,  -8)
FC_06_07_F9         // ( -4,   6,   7,  -7)
F8_FD_FE_02         // ( -8,  -3,  -2,   2)
F7_F3_04_11         // ( -9, -13,   4,  17)
01_0D_01_01         // (  1,  13,   1,   1)
01_02_00_01         // (  1,   2,   0,   1)
0D_DA_05_FF         // ( 13, -38,   5,  -1)
F4_F7_03_F4         // (-12,  -9,   3, -12)
F7_F9_FA_01         // ( -9,  -7,  -6,   1)
09_F5_FF_0D         // (  9, -11,  -1,  13)
FD_09_04_08         // ( -3,   9,   4,   8)
FA_02_F0_07         // ( -6,   2, -16,   7)
FC_F5_FC_00         // ( -4, -11,  -4,   0)
01_F5_FF_03         // (  1, -11,  -1,   3)
05_F7_F5_05         // (  5,  -9, -11,   5)
F9_FB_07_F8         // ( -7,  -5,   7,  -8)
FB_00_06_00         // ( -5,   0,   6,   0)
00_07_F4_06         // (  0,   7, -12,   6)
FA_00_0A_FB         // ( -6,   0,  10,  -5)
07_0B_FD_F9         // (  7,  11,  -3,  -7)
03_00_FE_14         // (  3,   0,  -2,  20)
01_1F_FB_02         // (  1,  31,  -5,   2)
05_FF_01_FA         // (  5,  -1,   1,  -6)
FD_FD_07_05         // ( -3,  -3,   7,   5)
FC_16_00_06         // ( -4,  22,   0,   6)
03_F6_06_FB         // (  3, -10,   6,  -5)
FD_F6_03_02         // ( -3, -10,   3,   2)
FE_21_02_0F         // ( -2,  33,   2,  15)
01_02_07_02         // (  1,   2,   7,   2)
F9_FA_01_00         // ( -7,  -6,   1,   0)
FB_FD_FC_FB         // ( -5,  -3,  -4,  -5)
FD_FC_05_03         // ( -3,  -4,   5,   3)
F2_FA_06_03         // (-14,  -6,   6,   3)
F9_FA_FA_04         // ( -7,  -6,  -6,   4)
F8_FD_01_F8         // ( -8,  -3,   1,  -8)
01_03_03_02         // (  1,   3,   3,   2)
08_FC_F5_08         // (  8,  -4, -11,   8)
FE_08_F4_09         // ( -2,   8, -12,   9)
FA_FF_F8_0A         // ( -6,  -1,  -8,  10)
FE_F6_0D_09         // ( -2, -10,  13,   9)
07_FC_FE_F5         // (  7,  -4,  -2, -11)
02_00_0B_F9         // (  2,   0,  11,  -7)
02_FD_FE_10         // (  2,  -3,  -2,  16)
03_FF_FB_F3         // (  3,  -1,  -5, -13)
05_02_FC_05         // (  5,   2,  -4,   5)
00_0F_0A_0A         // (  0,  15,  10,  10)
00_0A_05_F9         // (  0,  10,   5,  -7)
FA_09_09_01         // ( -6,   9,   9,   1)
F6_FF_FF_04         // (-10,  -1,  -1,   4)
01_FD_F8_FB         // (  1,  -3,  -8,  -5)
FD_FB_FE_F3         // ( -3,  -5,  -2, -13)
EE_F8_FE_04         // (-18,  -8,  -2,   4)
FB_01_01_FE         // ( -5,   1,   1,  -2)
00_F9_FA_F9         // (  0,  -7,  -6,  -7)
F4_FA_FD_03         // (-12,  -6,  -3,   3)
F5_FE_01_F3         // (-11,  -2,   1, -13)
FF_04_00_FF         // ( -1,   4,   0,  -1)
01_00_F1_FF         // (  1,   0, -15,  -1)
FF_FB_FB_FB         // ( -1,  -5,  -5,  -5)
FF_13_FD_03         // ( -1,  19,  -3,   3)
FA_FF_05_0D         // ( -6,  -1,   5,  13)
FA_FA_F7_F9         // ( -6,  -6,  -9,  -7)
FF_05_08_07         // ( -1,   5,   8,   7)
FE_07_FE_02         // ( -2,   7,  -2,   2)
FC_03_FF_FB         // ( -4,   3,  -1,  -5)
08_14_FD_07         // (  8,  20,  -3,   7)
0E_05_0E_F4         // ( 14,   5,  14, -12)
FE_00_0D_F8         // ( -2,   0,  13,  -8)
02_01_0B_FB         // (  2,   1,  11,  -5)
02_F5_FF_03         // (  2, -11,  -1,   3)
F3_07_04_FD         // (-13,   7,   4,  -3)
01_04_FC_F8         // (  1,   4,  -4,  -8)
02_FF_06_00         // (  2,  -1,   6,   0)
06_FE_06_FA         // (  6,  -2,   6,  -6)
05_01_08_F0         // (  5,   1,   8, -16)
F9_00_0E_F5         // ( -7,   0,  14, -11)
F8_10_FC_F4         // ( -8,  16,  -4, -12)
F5_01_FE_F6         // (-11,   1,  -2, -10)
09_0E_02_FC         // (  9,  14,   2,  -4)
08_FC_09_FA         // (  8,  -4,   9,  -6)
02_05_01_F2         // (  2,   5,   1, -14)
F5_14_06_FC         // (-11,  20,   6,  -4)
F7_0B_0E_01         // ( -9,  11,  14,   1)
EE_FF_F5_00         // (-18,  -1, -11,   0)
FD_FD_FE_01         // ( -3,  -3,  -2,   1)
0C_F2_F7_03         // ( 12, -14,  -9,   3)
08_FF_00_09         // (  8,  -1,   0,   9)
FD_FA_08_07         // ( -3,  -6,   8,   7)
02_04_F7_05         // (  2,   4,  -9,   5)
06_F7_02_02         // (  6,  -9,   2,   2)
01_F9_00_FE         // (  1,  -7,   0,  -2)
05_F8_F4_FC         // (  5,  -8, -12,  -4)
FE_FC_F8_03         // ( -2,  -4,  -8,   3)
05_F8_F5_04         // (  5,  -8, -11,   4)
01_FD_01_FD         // (  1,  -3,   1,  -3)
FA_F0_00_F6         // ( -6, -16,   0, -10)
05_00_09_0E         // (  5,   0,   9,  14)
07_06_FD_FB         // (  7,   6,  -3,  -5)
F7_04_02_F4         // ( -9,   4,   2, -12)
01_FA_0E_FE         // (  1,  -6,  14,  -2)
F7_FE_02_FA         // ( -9,  -2,   2,  -6)
F7_00_FF_F3         // ( -9,   0,  -1, -13)
0B_FE_EB_EC         // ( 11,  -2, -21, -20)
F5_FA_F9_FD         // (-11,  -6,  -7,  -3)
14_F9_FF_F5         // ( 20,  -7,  -1, -11)
03_07_FB_F4         // (  3,   7,  -5, -12)
FC_FB_EE_F7         // ( -4,  -5, -18,  -9)
01_FF_02_FD         // (  1,  -1,   2,  -3)
FD_05_F5_FC         // ( -3,   5, -11,  -4)
FB_FF_F2_FD         // ( -5,  -1, -14,  -3)
02_02_F1_FE         // (  2,   2, -15,  -2)
E6_00_16_FF         // (-26,   0,  22,  -1)
E8_00_06_FC         // (-24,   0,   6,  -4)
F7_01_FA_01         // ( -9,   1,  -6,   1)
F7_07_FF_05         // ( -9,   7,  -1,   5)
FA_03_FD_FC         // ( -6,   3,  -3,  -4)
F6_02_F3_00         // (-10,   2, -13,   0)
FF_06_06_18         // ( -1,   6,   6,  24)
FF_05_FD_13         // ( -1,   5,  -3,  19)
F0_09_F9_0C         // (-16,   9,  -7,  12)
E8_00_04_0C         // (-24,   0,   4,  12)
FC_08_FE_11         // ( -4,   8,  -2,  17)
F3_0D_09_00         // (-13,  13,   9,   0)
F0_06_0A_FB         // (-16,   6,  10,  -5)
02_FC_FE_07         // (  2,  -4,  -2,   7)
0D_08_0D_F1         // ( 13,   8,  13, -15)
EB_00_06_FE         // (-21,   0,   6,  -2)
01_FE_FC_FD         // (  1,  -2,  -4,  -3)
15_05_0B_FB         // ( 21,   5,  11,  -5)
0F_FA_00_09         // ( 15,  -6,   0,   9)
02_03_FF_01         // (  2,   3,  -1,   1)
FE_F7_07_09         // ( -2,  -9,   7,   9)
08_01_FB_FE         // (  8,   1,  -5,  -2)
01_08_08_FD         // (  1,   8,   8,  -3)
F9_FC_08_F8         // ( -7,  -4,   8,  -8)
01_F4_F4_FC         // (  1, -12, -12,  -4)
05_04_00_02         // (  5,   4,   0,   2)
00_F7_05_0C         // (  0,  -9,   5,  12)
00_FC_08_E3         // (  0,  -4,   8, -29)
10_01_EF_04         // ( 16,   1, -17,   4)
F3_16_15_F8         // (-13,  22,  21,  -8)
F2_0F_06_F4         // (-14,  15,   6, -12)
FE_0A_01_01         // ( -2,  10,   1,   1)
F8_0B_06_01         // ( -8,  11,   6,   1)
FC_13_0B_ED         // ( -4,  19,  11, -19)
01_19_F5_FD         // (  1,  25, -11,  -3)
FA_FF_FC_0A         // ( -6,  -1,  -4,  10)
FA_14_F9_F0         // ( -6,  20,  -7, -16)
17_01_FE_EE         // ( 23,   1,  -2, -18)
FE_F5_04_ED         // ( -2, -11,   4, -19)
FB_16_FE_FF         // ( -5,  22,  -2,  -1)
08_00_F2_12         // (  8,   0, -14,  18)
FC_FA_0B_03         // ( -4,  -6,  11,   3)
04_0F_FD_0A         // (  4,  15,  -3,  10)
10_0B_01_18         // ( 16,  11,   1,  24)
02_ED_FB_02         // (  2, -19,  -5,   2)
0F_EA_EF_F1         // ( 15, -22, -17, -15)
00_F8_09_0E         // (  0,  -8,   9,  14)
FF_EF_FA_13         // ( -1, -17,  -6,  19)
F9_06_05_F5         // ( -7,   6,   5, -11)
04_F8_FF_05         // (  4,  -8,  -1,   5)
F8_03_FA_F7         // ( -8,   3,  -6,  -9)
01_F6_F5_F6         // (  1, -10, -11, -10)
F9_14_F1_EF         // ( -7,  20, -15, -17)
F9_1D_F4_F4         // ( -7,  29, -12, -12)
00_20_15_09         // (  0,  32,  21,   9)
08_04_FD_11         // (  8,   4,  -3,  17)
EC_F6_21_F7         // (-20, -10,  33,  -9)
FA_FC_00_05         // ( -6,  -4,   0,   5)
FC_F9_FD_02         // ( -4,  -7,  -3,   2)
03_05_24_F7         // (  3,   5,  36,  -9)
F8_F7_02_04         // ( -8,  -9,   2,   4)
F6_F3_1D_FD         // (-10, -13,  29,  -3)
FB_FF_19_F7         // ( -5,  -1,  25,  -9)
E6_FB_F9_3C         // (-26,  -5,  -7,  60)
00_F7_F2_0B         // (  0,  -9, -14,  11)
F5_E8_0F_09         // (-11, -24,  15,   9)
FA_FD_03_12         // ( -6,  -3,   3,  18)
0C_F6_02_00         // ( 12, -10,   2,   0)
02_FB_06_FE         // (  2,  -5,   6,  -2)
0D_F9_0C_0E         // ( 13,  -7,  12,  14)
16_0F_04_FE         // ( 22,  15,   4,  -2)
FD_09_17_01         // ( -3,   9,  23,   1)
0B_FD_F9_F2         // ( 11,  -3,  -7, -14)
04_F8_F9_06         // (  4,  -8,  -7,   6)
10_FC_F1_03         // ( 16,  -4, -15,   3)
FC_0E_01_F3         // ( -4,  14,   1, -13)
FD_08_17_20         // ( -3,   8,  23,  32)
11_07_FF_FA         // ( 17,   7,  -1,  -6)
F3_0E_FB_00         // (-13,  14,  -5,   0)
FC_FE_04_00         // ( -4,  -2,   4,   0)
F2_01_FA_09         // (-14,   1,  -6,   9)
14_F6_FD_07         // ( 20, -10,  -3,   7)
FE_02_F5_00         // ( -2,   2, -11,   0)
FC_EC_0D_0A         // ( -4, -20,  13,  10)
00_F6_FE_F4         // (  0, -10,  -2, -12)
F8_F2_F9_0D         // ( -8, -14,  -7,  13)
F6_03_F6_F6         // (-10,   3, -10, -10)
FF_FA_10_F5         // ( -1,  -6,  16, -11)
03_FF_FA_03         // (  3,  -1,  -6,   3)
F2_0C_FE_F7         // (-14,  12,  -2,  -9)
00_E3_0D_11         // (  0, -29,  13,  17)
F3_01_09_0D         // (-13,   1,   9,  13)
E9_03_0A_FB         // (-23,   3,  10,  -5)
F4_F6_04_01         // (-12, -10,   4,   1)
F2_FD_FA_04         // (-14,  -3,  -6,   4)
EE_F9_F8_EC         // (-18,  -7,  -8, -20)
F8_02_11_FD         // ( -8,   2,  17,  -3)
F1_04_03_11         // (-15,   4,   3,  17)
FA_F5_02_09         // ( -6, -11,   2,   9)
1A_ED_FD_FB         // ( 26, -19,  -3,  -5)
0A_F4_F8_F8         // ( 10, -12,  -8,  -8)
06_FA_03_EF         // (  6,  -6,   3, -17)
00_02_09_04         // (  0,   2,   9,   4)
07_FE_0B_01         // (  7,  -2,  11,   1)
06_FB_10_F6         // (  6,  -5,  16, -10)
02_ED_06_F6         // (  2, -19,   6, -10)
03_04_01_FB         // (  3,   4,   1,  -5)
FF_0C_FB_02         // ( -1,  12,  -5,   2)
FF_F9_04_07         // ( -1,  -7,   4,   7)
F5_01_FE_F6         // (-11,   1,  -2, -10)
0F_FA_01_F9         // ( 15,  -6,   1,  -7)
02_F5_F7_02         // (  2, -11,  -9,   2)
01_EB_F9_0D         // (  1, -21,  -7,  13)
FB_F3_09_02         // ( -5, -13,   9,   2)
FC_FA_F9_FA         // ( -4,  -6,  -7,  -6)
02_0D_F8_00         // (  2,  13,  -8,   0)
FB_05_F2_F4         // ( -5,   5, -14, -12)
F5_04_E2_0B         // (-11,   4, -30,  11)
03_FD_F2_FB         // (  3,  -3, -14,  -5)
FE_0F_03_F9         // ( -2,  15,   3,  -7)
04_FF_F1_03         // (  4,  -1, -15,   3)
04_00_F6_03         // (  4,   0, -10,   3)
03_01_F9_F9         // (  3,   1,  -7,  -7)
FA_FE_ED_FA         // ( -6,  -2, -19,  -6)
02_0D_06_F4         // (  2,  13,   6, -12)
0E_04_01_FA         // ( 14,   4,   1,  -6)
17_E8_18_F1         // ( 23, -24,  24, -15)
FF_ED_16_00         // ( -1, -19,  22,   0)
FE_00_FC_F6         // ( -2,   0,  -4, -10)
07_F1_F6_EC         // (  7, -15, -10, -20)
02_EE_F0_10         // (  2, -18, -16,  16)
F6_FF_F6_04         // (-10,  -1, -10,   4)
0E_0C_EB_F8         // ( 14,  12, -21,  -8)
F5_0A_E7_05         // (-11,  10, -25,   5)
ED_13_CC_04         // (-19,  19, -52,   4)
17_F5_FE_D5         // ( 23, -11,  -2, -43)
F9_FF_F3_F4         // ( -7,  -1, -13, -12)
0E_01_06_FD         // ( 14,   1,   6,  -3)
0B_FE_02_FF         // ( 11,  -2,   2,  -1)
0A_F0_F7_FD         // ( 10, -16,  -9,  -3)
0B_07_0D_FE         // ( 11,   7,  13,  -2)
06_0E_FE_F8         // (  6,  14,  -2,  -8)
0B_EF_E8_FB         // ( 11, -17, -24,  -5)
10_0C_07_09         // ( 16,  12,   7,   9)
16_02_EC_FE         // ( 22,   2, -20,  -2)
06_07_F8_F2         // (  6,   7,  -8, -14)
08_FC_08_09         // (  8,  -4,   8,   9)
0E_FB_EE_0D         // ( 14,  -5, -18,  13)
09_04_07_F7         // (  9,   4,   7,  -9)
0E_EB_04_05         // ( 14, -21,   4,   5)
10_11_EF_16         // ( 16,  17, -17,  22)
00_EF_06_09         // (  0, -17,   6,   9)
FD_D8_06_03         // ( -3, -40,   6,   3)
EC_09_ED_01         // (-20,   9, -19,   1)
E5_F7_03_01         // (-27,  -9,   3,   1)
FA_04_17_F5         // ( -6,   4,  23, -11)
FF_F4_ED_FB         // ( -1, -12, -19,  -5)
E4_08_09_F3         // (-28,   8,   9, -13)
FF_00_09_F1         // ( -1,   0,   9, -15)
00_07_E5_F9         // (  0,   7, -27,  -7)
FB_F8_02_00         // ( -5,  -8,   2,   0)
13_F8_13_02         // ( 19,  -8,  19,   2)
F1_ED_00_FF         // (-15, -19,   0,  -1)
FA_F9_0B_D5         // ( -6,  -7,  11, -43)
04_F3_08_C9         // (  4, -13,   8, -55)
02_07_01_FF         // (  2,   7,   1,  -1)
F0_FB_F2_04         // (-16,  -5, -14,   4)
F4_FC_0E_F7         // (-12,  -4,  14,  -9)
F8_17_F8_00         // ( -8,  23,  -8,   0)
06_F2_F4_F7         // (  6, -14, -12,  -9)
FA_00_FE_06         // ( -6,   0,  -2,   6)
0F_05_FE_FE         // ( 15,   5,  -2,  -2)
0F_03_F8_01         // ( 15,   3,  -8,   1)
05_02_F4_FB         // (  5,   2, -12,  -5)
FA_04_1A_0B         // ( -6,   4,  26,  11)
FB_FF_F5_02         // ( -5,  -1, -11,   2)
05_F1_1F_FF         // (  5, -15,  31,  -1)
FB_F1_0E_FE         // ( -5, -15,  14,  -2)
F8_0A_03_FF         // ( -8,  10,   3,  -1)
FF_FC_08_F9         // ( -1,  -4,   8,  -7)
00_FC_0D_F9         // (  0,  -4,  13,  -7)
06_FA_09_08         // (  6,  -6,   9,   8)
ED_0D_0A_FA         // (-19,  13,  10,  -6)
F6_04_00_F8         // (-10,   4,   0,  -8)
FD_08_0B_F9         // ( -3,   8,  11,  -7)
F2_FB_F3_00         // (-14,  -5, -13,   0)
FB_FF_F2_FB         // ( -5,  -1, -14,  -5)
01_F7_FA_FE         // (  1,  -9,  -6,  -2)
04_FE_EE_08         // (  4,  -2, -18,   8)
F9_FD_FF_F8         // ( -7,  -3,  -1,  -8)
F8_09_03_09         // ( -8,   9,   3,   9)
FB_03_FB_F7         // ( -5,   3,  -5,  -9)
11_09_FB_07         // ( 17,   9,  -5,   7)
F3_F0_FC_03         // (-13, -16,  -4,   3)
F7_09_00_0A         // ( -9,   9,   0,  10)
0D_F5_EC_01         // ( 13, -11, -20,   1)
06_04_FB_0B         // (  6,   4,  -5,  11)
FC_FC_F9_F7         // ( -4,  -4,  -7,  -9)
F5_00_FB_0E         // (-11,   0,  -5,  14)
FC_F7_1A_07         // ( -4,  -9,  26,   7)
F9_F4_07_11         // ( -7, -12,   7,  17)
FC_F2_02_0D         // ( -4, -14,   2,  13)
09_F9_12_F4         // (  9,  -7,  18, -12)
04_03_02_02         // (  4,   3,   2,   2)
F8_F9_0D_00         // ( -8,  -7,  13,   0)
08_FB_F2_0A         // (  8,  -5, -14,  10)
FF_FC_FC_F8         // ( -1,  -4,  -4,  -8)
FF_FB_FF_FC         // ( -1,  -5,  -1,  -4)
02_FA_00_02         // (  2,  -6,   0,   2)
03_F3_07_09         // (  3, -13,   7,   9)
FD_F0_00_00         // ( -3, -16,   0,   0)
F8_0D_04_00         // ( -8,  13,   4,   0)
FD_FF_07_FD         // ( -3,  -1,   7,  -3)
FE_F0_08_00         // ( -2, -16,   8,   0)
04_FF_01_01         // (  4,  -1,   1,   1)
FD_F4_06_FC         // ( -3, -12,   6,  -4)
FC_02_04_00         // ( -4,   2,   4,   0)
00_FF_FE_07         // (  0,  -1,  -2,   7)
FD_FD_0C_FE         // ( -3,  -3,  12,  -2)
FA_06_FC_0C         // ( -6,   6,  -4,  12)
FC_17_09_15         // ( -4,  23,   9,  21)
01_02_FD_F6         // (  1,   2,  -3, -10)
05_FE_FF_FB         // (  5,  -2,  -1,  -5)
05_02_FB_06         // (  5,   2,  -5,   6)
01_F7_00_00         // (  1,  -9,   0,   0)
00_FD_05_FE         // (  0,  -3,   5,  -2)
FF_FC_12_03         // ( -1,  -4,  18,   3)
01_F2_12_02         // (  1, -14,  18,   2)
01_F4_03_FB         // (  1, -12,   3,  -5)
F9_F5_D3_ED         // ( -7, -11, -45, -19)
09_FB_F7_F3         // (  9,  -5,  -9, -13)
05_FD_FF_08         // (  5,  -3,  -1,   8)
03_0C_EA_07         // (  3,  12, -22,   7)
03_FF_ED_09         // (  3,  -1, -19,   9)
05_00_08_04         // (  5,   0,   8,   4)
EF_04_FF_04         // (-17,   4,  -1,   4)
01_02_EF_FC         // (  1,   2, -17,  -4)
04_08_FA_0A         // (  4,   8,  -6,  10)
F3_EC_20_FB         // (-13, -20,  32,  -5)
0B_EF_01_02         // ( 11, -17,   1,   2)
05_05_F9_08         // (  5,   5,  -7,   8)
09_00_F7_10         // (  9,   0,  -9,  16)
07_FC_05_05         // (  7,  -4,   5,   5)
FE_FF_00_FC         // ( -2,  -1,   0,  -4)
F7_00_FA_FE         // ( -9,   0,  -6,  -2)
0A_09_FE_FB         // ( 10,   9,  -2,  -5)
FF_00_FE_02         // ( -1,   0,  -2,   2)
F6_07_00_FF         // (-10,   7,   0,  -1)
02_FA_F5_FF         // (  2,  -6, -11,  -1)
02_FA_F9_0E         // (  2,  -6,  -7,  14)
FC_05_FB_00         // ( -4,   5,  -5,   0)
FD_F9_F2_11         // ( -3,  -7, -14,  17)
07_F7_04_FC         // (  7,  -9,   4,  -4)
03_E9_FF_00         // (  3, -23,  -1,   0)
0B_F8_0B_FE         // ( 11,  -8,  11,  -2)
FE_0B_00_FE         // ( -2,  11,   0,  -2)
04_0E_F2_03         // (  4,  14, -14,   3)
FF_06_11_05         // ( -1,   6,  17,   5)
01_0A_09_06         // (  1,  10,   9,   6)
F9_06_FB_10         // ( -7,   6,  -5,  16)
08_09_00_01         // (  8,   9,   0,   1)
F8_FC_F3_06         // ( -8,  -4, -13,   6)
03_08_F4_07         // (  3,   8, -12,   7)
EC_11_FC_F5         // (-20,  17,  -4, -11)
08_FF_F0_FC         // (  8,  -1, -16,  -4)
F4_EA_FF_06         // (-12, -22,  -1,   6)
07_15_09_F6         // (  7,  21,   9, -10)
F2_06_FA_04         // (-14,   6,  -6,   4)
01_FC_FB_08         // (  1,  -4,  -5,   8)
00_09_00_08         // (  0,   9,   0,   8)
F8_F3_01_02         // ( -8, -13,   1,   2)
FF_FF_03_07         // ( -1,  -1,   3,   7)
00_F4_FD_02         // (  0, -12,  -3,   2)
FE_03_04_08         // ( -2,   3,   4,   8)
F3_FA_FF_04         // (-13,  -6,  -1,   4)
08_08_FB_0A         // (  8,   8,  -5,  10)
07_00_F5_04         // (  7,   0, -11,   4)
01_05_05_01         // (  1,   5,   5,   1)
00_08_F8_00         // (  0,   8,  -8,   0)
FA_01_FF_F7         // ( -6,   1,  -1,  -9)
10_FF_0F_FA         // ( 16,  -1,  15,  -6)
03_FE_02_FA         // (  3,  -2,   2,  -6)
F6_00_F4_F2         // (-10,   0, -12, -14)
F4_04_0A_13         // (-12,   4,  10,  19)
04_09_0C_04         // (  4,   9,  12,   4)
FE_0A_00_05         // ( -2,  10,   0,   5)
F9_07_FE_02         // ( -7,   7,  -2,   2)
F5_03_0F_06         // (-11,   3,  15,   6)
0A_0C_F6_0B         // ( 10,  12, -10,  11)
FA_FB_F8_0B         // ( -6,  -5,  -8,  11)
00_10_FF_04         // (  0,  16,  -1,   4)
F9_EB_ED_00         // ( -7, -21, -19,   0)
04_27_F8_11         // (  4,  39,  -8,  17)
F4_E3_F6_F8         // (-12, -29, -10,  -8)
02_09_03_03         // (  2,   9,   3,   3)
FD_03_06_F7         // ( -3,   3,   6,  -9)
FC_01_0B_FF         // ( -4,   1,  11,  -1)
04_00_02_F5         // (  4,   0,   2, -11)
09_EF_00_EF         // (  9, -17,   0, -17)
0D_F6_FE_EC         // ( 13, -10,  -2, -20)
06_FF_00_FB         // (  6,  -1,   0,  -5)
FB_FB_00_FC         // ( -5,  -5,   0,  -4)
04_13_F8_FD         // (  4,  19,  -8,  -3)
02_05_01_ED         // (  2,   5,   1, -19)
10_FA_03_F9         // ( 16,  -6,   3,  -7)
02_FE_F9_F8         // (  2,  -2,  -7,  -8)
F3_FF_F7_F9         // (-13,  -1,  -9,  -7)
F5_09_F1_F6         // (-11,   9, -15, -10)
02_FE_FF_F9         // (  2,  -2,  -1,  -7)
00_09_FF_09         // (  0,   9,  -1,   9)
D7_FB_FC_05         // (-41,  -5,  -4,   5)
16_F6_0C_09         // ( 22, -10,  12,   9)
F9_05_FC_0B         // ( -7,   5,  -4,  11)
0D_0B_FC_05         // ( 13,  11,  -4,   5)
05_04_E9_03         // (  5,   4, -23,   3)
F2_06_0A_0D         // (-14,   6,  10,  13)
FD_F9_0E_08         // ( -3,  -7,  14,   8)
0B_FF_03_01         // ( 11,  -1,   3,   1)
08_09_03_E9         // (  8,   9,   3, -23)
01_F2_16_FE         // (  1, -14,  22,  -2)
FF_00_0B_FB         // ( -1,   0,  11,  -5)
03_04_06_FB         // (  3,   4,   6,  -5)
05_FE_03_0B         // (  5,  -2,   3,  11)
F8_08_00_F3         // ( -8,   8,   0, -13)
F9_07_FF_01         // ( -7,   7,  -1,   1)
0C_05_F9_FF         // ( 12,   5,  -7,  -1)
FA_ED_F9_04         // ( -6, -19,  -7,   4)
F3_FA_FF_FD         // (-13,  -6,  -1,  -3)
05_F9_05_F8         // (  5,  -7,   5,  -8)
F2_D0_0C_FB         // (-14, -48,  12,  -5)
03_EE_F6_F7         // (  3, -18, -10,  -9)
07_FC_FF_FA         // (  7,  -4,  -1,  -6)
04_F5_FB_03         // (  4, -11,  -5,   3)
F9_02_04_00         // ( -7,   2,   4,   0)
09_EB_09_F0         // (  9, -21,   9, -16)
1B_F2_04_0B         // ( 27, -14,   4,  11)
F7_FA_12_FD         // ( -9,  -6,  18,  -3)
F3_F1_FA_0C         // (-13, -15,  -6,  12)
04_F8_0A_FF         // (  4,  -8,  10,  -1)
00_03_04_02         // (  0,   3,   4,   2)
F8_F7_0B_F6         // ( -8,  -9,  11, -10)
04_FA_0D_FD         // (  4,  -6,  13,  -3)
02_FC_FF_10         // (  2,  -4,  -1,  16)
10_02_0A_03         // ( 16,   2,  10,   3)
0C_08_0B_08         // ( 12,   8,  11,   8)
06_FC_05_FD         // (  6,  -4,   5,  -3)
0A_FC_05_06         // ( 10,  -4,   5,   6)
00_0A_03_F3         // (  0,  10,   3, -13)
0D_00_13_07         // ( 13,   0,  19,   7)
EC_05_FD_13         // (-20,   5,  -3,  19)
F9_05_06_13         // ( -7,   5,   6,  19)
FB_FD_F4_01         // ( -5,  -3, -12,   1)
FC_FD_F8_04         // ( -4,  -3,  -8,   4)
F5_FE_F9_F8         // (-11,  -2,  -7,  -8)
04_0D_04_FD         // (  4,  13,   4,  -3)
E4_EE_F8_02         // (-28, -18,  -8,   2)
FA_FD_04_04         // ( -6,  -3,   4,   4)
0D_04_FB_F5         // ( 13,   4,  -5, -11)
FC_F9_F4_03         // ( -4,  -7, -12,   3)
FC_FF_F0_0A         // ( -4,  -1, -16,  10)
F7_F5_03_F4         // ( -9, -11,   3, -12)
05_F9_FF_01         // (  5,  -7,  -1,   1)
0B_F7_1C_FC         // ( 11,  -9,  28,  -4)
02_F0_03_F7         // (  2, -16,   3,  -9)
00_04_04_FF         // (  0,   4,   4,  -1)
06_06_01_09         // (  6,   6,   1,   9)
0C_04_0F_F8         // ( 12,   4,  15,  -8)
FD_04_03_F9         // ( -3,   4,   3,  -7)
FD_0F_01_FA         // ( -3,  15,   1,  -6)
ED_0D_F9_0F         // (-19,  13,  -7,  15)
F0_FD_03_FF         // (-16,  -3,   3,  -1)
F0_EC_0D_F1         // (-16, -20,  13, -15)
FA_05_DC_0D         // ( -6,   5, -36,  13)
FB_EE_F5_F8         // ( -5, -18, -11,  -8)
03_FC_FD_F0         // (  3,  -4,  -3, -16)
F8_F9_FC_0F         // ( -8,  -7,  -4,  15)
FC_F2_F0_03         // ( -4, -14, -16,   3)
FF_07_F3_FC         // ( -1,   7, -13,  -4)
0B_01_FF_02         // ( 11,   1,  -1,   2)
06_FD_F9_09         // (  6,  -3,  -7,   9)
04_0B_EE_07         // (  4,  11, -18,   7)
05_F8_0B_01         // (  5,  -8,  11,   1)
0B_F6_09_01         // ( 11, -10,   9,   1)
FC_0F_0B_02         // ( -4,  15,  11,   2)
0A_08_11_EF         // ( 10,   8,  17, -17)
04_FF_F9_F4         // (  4,  -1,  -7, -12)
08_1E_03_FD         // (  8,  30,   3,  -3)
04_FB_0B_02         // (  4,  -5,  11,   2)
F8_07_04_01         // ( -8,   7,   4,   1)
F4_FA_FF_12         // (-12,  -6,  -1,  18)
16_02_00_04         // ( 22,   2,   0,   4)
02_F9_00_FB         // (  2,  -7,   0,  -5)
F7_F2_FF_09         // ( -9, -14,  -1,   9)
F4_01_F8_FF         // (-12,   1,  -8,  -1)
F8_00_01_FD         // ( -8,   0,   1,  -3)
FF_01_00_03         // ( -1,   1,   0,   3)
02_0F_F7_FA         // (  2,  15,  -9,  -6)
FD_FC_FE_F6         // ( -3,  -4,  -2, -10)
EE_F9_0F_F7         // (-18,  -7,  15,  -9)
08_10_07_02         // (  8,  16,   7,   2)
04_00_00_F1         // (  4,   0,   0, -15)
14_16_11_F4         // ( 20,  22,  17, -12)
0C_05_E6_FE         // ( 12,   5, -26,  -2)
01_03_FA_01         // (  1,   3,  -6,   1)
E2_1A_13_F6         // (-30,  26,  19, -10)
00_02_00_FB         // (  0,   2,   0,  -5)
06_E9_F7_01         // (  6, -23,  -9,   1)
12_F9_00_FB         // ( 18,  -7,   0,  -5)
F7_17_07_FF         // ( -9,  23,   7,  -1)
0B_F6_FA_05         // ( 11, -10,  -6,   5)
08_FF_0B_0D         // (  8,  -1,  11,  13)
0D_F5_0E_F1         // ( 13, -11,  14, -15)
FA_F6_FC_F5         // ( -6, -10,  -4, -11)
08_FF_FD_F4         // (  8,  -1,  -3, -12)
FA_FF_FA_01         // ( -6,  -1,  -6,   1)
FD_FB_F4_00         // ( -3,  -5, -12,   0)
05_E8_01_F8         // (  5, -24,   1,  -8)
09_08_0B_00         // (  9,   8,  11,   0)
F6_F7_01_F8         // (-10,  -9,   1,  -8)
07_07_FB_0A         // (  7,   7,  -5,  10)
08_F4_01_00         // (  8, -12,   1,   0)
0E_F7_F8_F7         // ( 14,  -9,  -8,  -9)
19_03_FB_F5         // ( 25,   3,  -5, -11)
07_FD_EB_09         // (  7,  -3, -21,   9)
F3_04_F6_FD         // (-13,   4, -10,  -3)
FB_00_00_03         // ( -5,   0,   0,   3)
0C_03_FA_F4         // ( 12,   3,  -6, -12)
FA_04_00_0C         // ( -6,   4,   0,  12)
F2_F2_F7_F6         // (-14, -14,  -9, -10)
03_FF_03_02         // (  3,  -1,   3,   2)
FB_06_F3_FD         // ( -5,   6, -13,  -3)
F8_06_01_FC         // ( -8,   6,   1,  -4)
F1_F4_01_FC         // (-15, -12,   1,  -4)
F5_07_00_FF         // (-11,   7,   0,  -1)
F5_08_14_FC         // (-11,   8,  20,  -4)
09_20_17_F2         // (  9,  32,  23, -14)
02_11_13_07         // (  2,  17,  19,   7)
F0_0C_06_FE         // (-16,  12,   6,  -2)
F7_F4_F9_17         // ( -9, -12,  -7,  23)
FF_0B_F7_FD         // ( -1,  11,  -9,  -3)
F6_0A_00_11         // (-10,  10,   0,  17)
F7_03_00_04         // ( -9,   3,   0,   4)
FA_01_0D_FB         // ( -6,   1,  13,  -5)
F2_02_06_08         // (-14,   2,   6,   8)
F6_03_FA_07         // (-10,   3,  -6,   7)
07_FA_F5_FD         // (  7,  -6, -11,  -3)
EC_FA_FE_FF         // (-20,  -6,  -2,  -1)
F4_18_F5_0D         // (-12,  24, -11,  13)
03_08_00_F9         // (  3,   8,   0,  -7)
EE_05_F1_F5         // (-18,   5, -15, -11)
02_0E_0D_12         // (  2,  14,  13,  18)
F0_08_EE_06         // (-16,   8, -18,   6)
F5_06_FD_0F         // (-11,   6,  -3,  15)
29_02_FF_FC         // ( 41,   2,  -1,  -4)
02_0E_FC_01         // (  2,  14,  -4,   1)
FD_06_01_F4         // ( -3,   6,   1, -12)
0D_FE_FD_00         // ( 13,  -2,  -3,   0)
FB_0A_02_03         // ( -5,  10,   2,   3)
F5_09_0A_17         // (-11,   9,  10,  23)
FB_01_F9_0C         // ( -5,   1,  -7,  12)
00_08_FF_FD         // (  0,   8,  -1,  -3)
01_09_F3_0A         // (  1,   9, -13,  10)
FA_F6_FB_02         // ( -6, -10,  -5,   2)
01_11_F1_FF         // (  1,  17, -15,  -1)
FD_04_F4_09         // ( -3,   4, -12,   9)
05_01_FC_F6         // (  5,   1,  -4, -10)
05_F5_EE_00         // (  5, -11, -18,   0)
00_05_DD_0E         // (  0,   5, -35,  14)
03_F2_F2_FC         // (  3, -14, -14,  -4)
01_01_F2_F7         // (  1,   1, -14,  -9)
0E_F8_06_FC         // ( 14,  -8,   6,  -4)
FA_FC_FA_F1         // ( -6,  -4,  -6, -15)
05_01_FD_F8         // (  5,   1,  -3,  -8)
06_F4_0B_03         // (  6, -12,  11,   3)
ED_0D_F3_0F         // (-19,  13, -13,  15)
FF_FD_10_EE         // ( -1,  -3,  16, -18)
06_FC_02_04         // (  6,  -4,   2,   4)
F8_0A_09_0E         // ( -8,  10,   9,  14)
FA_12_09_06         // ( -6,  18,   9,   6)
0B_0D_02_FB         // ( 11,  13,   2,  -5)
F6_09_0E_0B         // (-10,   9,  14,  11)
01_02_05_02         // (  1,   2,   5,   2)
06_F3_02_F7         // (  6, -13,   2,  -9)
FD_FF_25_01         // ( -3,  -1,  37,   1)
07_01_03_0A         // (  7,   1,   3,  10)
F5_FB_0F_FF         // (-11,  -5,  15,  -1)
FC_11_07_F8         // ( -4,  17,   7,  -8)
EA_01_F6_02         // (-22,   1, -10,   2)
F5_FA_FF_16         // (-11,  -6,  -1,  22)
05_05_FA_FE         // (  5,   5,  -6,  -2)
09_FC_0B_FB         // (  9,  -4,  11,  -5)
08_FE_12_07         // (  8,  -2,  18,   7)
05_13_FB_14         // (  5,  19,  -5,  20)
05_FA_F0_FE         // (  5,  -6, -16,  -2)
07_01_04_FD         // (  7,   1,   4,  -3)
09_01_FB_04         // (  9,   1,  -5,   4)
01_E8_03_0B         // (  1, -24,   3,  11)
FE_F9_FA_09         // ( -2,  -7,  -6,   9)
05_00_0D_FA         // (  5,   0,  13,  -6)
0B_02_FF_04         // ( 11,   2,  -1,   4)
FE_F6_FF_F2         // ( -2, -10,  -1, -14)
16_04_FF_1B         // ( 22,   4,  -1,  27)
03_FB_06_0B         // (  3,  -5,   6,  11)
02_0A_0A_0D         // (  2,  10,  10,  13)
05_F4_13_00         // (  5, -12,  19,   0)
06_05_FC_0E         // (  6,   5,  -4,  14)
FA_05_06_FC         // ( -6,   5,   6,  -4)
FD_F9_02_FF         // ( -3,  -7,   2,  -1)
FF_FF_09_FD         // ( -1,  -1,   9,  -3)
01_FB_04_00         // (  1,  -5,   4,   0)
FA_04_FD_EC         // ( -6,   4,  -3, -20)
F3_FE_F9_0A         // (-13,  -2,  -7,  10)
FA_08_10_09         // ( -6,   8,  16,   9)
05_00_03_FE         // (  5,   0,   3,  -2)
01_FC_F3_03         // (  1,  -4, -13,   3)
03_FE_04_F7         // (  3,  -2,   4,  -9)
FF_FE_00_FC         // ( -1,  -2,   0,  -4)
06_05_FD_FB         // (  6,   5,  -3,  -5)
0B_E9_FF_E7         // ( 11, -23,  -1, -25)
FA_0A_FF_F8         // ( -6,  10,  -1,  -8)
F2_FC_03_F6         // (-14,  -4,   3, -10)
FE_05_06_FB         // ( -2,   5,   6,  -5)
FA_F6_FD_F9         // ( -6, -10,  -3,  -7)
FD_FF_1A_F9         // ( -3,  -1,  26,  -7)
00_FA_1B_13         // (  0,  -6,  27,  19)
FF_F9_F9_FA         // ( -1,  -7,  -7,  -6)
0C_07_0E_06         // ( 12,   7,  14,   6)
06_04_0F_0F         // (  6,   4,  15,  15)
FF_EB_FE_F3         // ( -1, -21,  -2, -13)
F7_FE_02_00         // ( -9,  -2,   2,   0)
06_F9_FA_07         // (  6,  -7,  -6,   7)
0C_F7_F8_FF         // ( 12,  -9,  -8,  -1)
00_F0_FE_02         // (  0, -16,  -2,   2)
05_08_FC_00         // (  5,   8,  -4,   0)
00_03_FE_FE         // (  0,   3,  -2,  -2)
09_F6_0B_FB         // (  9, -10,  11,  -5)
05_FD_09_02         // (  5,  -3,   9,   2)
F7_FF_21_FC         // ( -9,  -1,  33,  -4)
FF_08_07_FE         // ( -1,   8,   7,  -2)
F4_F5_13_FC         // (-12, -11,  19,  -4)
F8_00_FB_02         // ( -8,   0,  -5,   2)
EC_06_15_F7         // (-20,   6,  21,  -9)
03_10_0E_FB         // (  3,  16,  14,  -5)
07_FC_02_02         // (  7,  -4,   2,   2)
FE_06_15_FC         // ( -2,   6,  21,  -4)
07_06_00_01         // (  7,   6,   0,   1)
F5_F6_FA_08         // (-11, -10,  -6,   8)
F1_09_FD_FE         // (-15,   9,  -3,  -2)
FB_FB_EE_F6         // ( -5,  -5, -18, -10)
02_00_F5_09         // (  2,   0, -11,   9)
F8_08_0D_03         // ( -8,   8,  13,   3)
EE_F8_FD_01         // (-18,  -8,  -3,   1)
FD_FF_F2_09         // ( -3,  -1, -14,   9)
07_01_0E_06         // (  7,   1,  14,   6)
FC_01_0E_02         // ( -4,   1,  14,   2)
FD_03_F3_05         // ( -3,   3, -13,   5)
13_04_0E_FC         // ( 19,   4,  14,  -4)
0F_EF_FF_06         // ( 15, -17,  -1,   6)
0B_FA_00_01         // ( 11,  -6,   0,   1)
00_05_F7_F4         // (  0,   5,  -9, -12)
0D_0A_05_09         // ( 13,  10,   5,   9)
0E_FA_FF_FC         // ( 14,  -6,  -1,  -4)
00_02_0B_03         // (  0,   2,  11,   3)
00_FE_0D_FD         // (  0,  -2,  13,  -3)
F8_F9_04_FA         // ( -8,  -7,   4,  -6)
02_04_EB_0E         // (  2,   4, -21,  14)
FE_06_F5_FA         // ( -2,   6, -11,  -6)
FC_EE_05_06         // ( -4, -18,   5,   6)
12_F7_0C_0A         // ( 18,  -9,  12,  10)
09_FC_FC_08         // (  9,  -4,  -4,   8)
14_EF_0B_04         // ( 20, -17,  11,   4)
