FD_04_F8_FF         // (253,   4, 248, 255)
FA_02_F6_FE         // (250,   2, 246, 254)
FA_08_FD_00         // (250,   8, 253,   0)
01_00_03_00         // (  1,   0,   3,   0)
FE_FE_F8_F9         // (254, 254, 248, 249)
FB_04_FA_FB         // (251,   4, 250, 251)
F4_F6_09_F9         // (244, 246,   9, 249)
FC_04_FD_FA         // (252,   4, 253, 250)
F9_00_F9_F7         // (249,   0, 249, 247)
FB_FC_F9_06         // (251, 252, 249,   6)
00_FE_06_FB         // (  0, 254,   6, 251)
09_FF_FB_06         // (  9, 255, 251,   6)
06_FE_ED_FE         // (  6, 254, 237, 254)
02_FB_FF_F2         // (  2, 251, 255, 242)
02_FC_F8_04         // (  2, 252, 248,   4)
06_01_EA_FE         // (  6,   1, 234, 254)
06_02_FC_FC         // (  6,   2, 252, 252)
0B_FE_FE_04         // ( 11, 254, 254,   4)
07_04_00_FF         // (  7,   4,   0, 255)
FB_FC_FB_FE         // (251, 252, 251, 254)
FF_FF_03_06         // (255, 255,   3,   6)
03_00_04_04         // (  3,   0,   4,   4)
05_05_00_04         // (  5,   5,   0,   4)
04_FE_01_04         // (  4, 254,   1,   4)
04_01_F2_02         // (  4,   1, 242,   2)
FE_FE_FE_05         // (254, 254, 254,   5)
FD_02_FE_0E         // (253,   2, 254,  14)
FE_FC_05_FD         // (254, 252,   5, 253)
FC_FD_03_00         // (252, 253,   3,   0)
FC_FB_00_0C         // (252, 251,   0,  12)
00_FA_01_FC         // (  0, 250,   1, 252)
00_FD_FC_FA         // (  0, 253, 252, 250)
FE_F6_FE_04         // (254, 246, 254,   4)
0C_FC_00_F9         // ( 12, 252,   0, 249)
0A_00_00_FC         // ( 10,   0,   0, 252)
06_FA_09_00         // (  6, 250,   9,   0)
FB_06_03_01         // (251,   6,   3,   1)
FF_FC_FB_01         // (255, 252, 251,   1)
03_04_FF_05         // (  3,   4, 255,   5)
02_FF_00_01         // (  2, 255,   0,   1)
05_F8_01_05         // (  5, 248,   1,   5)
03_FA_01_03         // (  3, 250,   1,   3)
08_05_FC_02         // (  8,   5, 252,   2)
05_FE_FF_01         // (  5, 254, 255,   1)
0A_01_02_FF         // ( 10,   1,   2, 255)
FF_FF_FB_FF         // (255, 255, 251, 255)
03_FB_02_00         // (  3, 251,   2,   0)
04_00_FA_03         // (  4,   0, 250,   3)
00_01_FB_02         // (  0,   1, 251,   2)
FC_02_FF_FE         // (252,   2, 255, 254)
00_FD_F3_02         // (  0, 253, 243,   2)
FF_02_FC_FB         // (255,   2, 252, 251)
01_FF_FF_FF         // (  1, 255, 255, 255)
01_02_F6_FC         // (  1,   2, 246, 252)
F2_FD_00_FD         // (242, 253,   0, 253)
F8_FD_FC_05         // (248, 253, 252,   5)
FB_02_00_07         // (251,   2,   0,   7)
FB_FE_01_FF         // (251, 254,   1, 255)
04_00_01_03         // (  4,   0,   1,   3)
FF_FF_03_FC         // (255, 255,   3, 252)
F5_01_02_F8         // (245,   1,   2, 248)
FF_FD_11_FF         // (255, 253,  17, 255)
FE_07_07_F7         // (254,   7,   7, 247)
05_02_04_03         // (  5,   2,   4,   3)
FD_10_04_02         // (253,  16,   4,   2)
04_05_02_05         // (  4,   5,   2,   5)
FC_08_00_01         // (252,   8,   0,   1)
FB_13_0A_04         // (251,  19,  10,   4)
00_05_FE_03         // (  0,   5, 254,   3)
FF_07_F7_F6         // (255,   7, 247, 246)
04_08_01_FA         // (  4,   8,   1, 250)
FD_00_FB_EF         // (253,   0, 251, 239)
FD_F9_01_FB         // (253, 249,   1, 251)
F8_F8_FC_01         // (248, 248, 252,   1)
FC_FE_FF_FE         // (252, 254, 255, 254)
05_02_FE_01         // (  5,   2, 254,   1)
07_03_00_04         // (  7,   3,   0,   4)
FC_FE_04_02         // (252, 254,   4,   2)
02_01_03_FB         // (  2,   1,   3, 251)
FD_FF_04_09         // (253, 255,   4,   9)
08_FD_0A_08         // (  8, 253,  10,   8)
01_FD_F4_F7         // (  1, 253, 244, 247)
F7_03_FD_05         // (247,   3, 253,   5)
FB_02_FF_03         // (251,   2, 255,   3)
04_00_F3_F5         // (  4,   0, 243, 245)
FD_FE_00_F9         // (253, 254,   0, 249)
F9_04_01_02         // (249,   4,   1,   2)
0A_FC_EF_03         // ( 10, 252, 239,   3)
0C_FD_FB_FF         // ( 12, 253, 251, 255)
F0_02_FB_06         // (240,   2, 251,   6)
F4_04_F7_01         // (244,   4, 247,   1)
04_03_08_02         // (  4,   3,   8,   2)
05_01_03_02         // (  5,   1,   3,   2)
08_FD_F8_F9         // (  8, 253, 248, 249)
07_00_F5_FC         // (  7,   0, 245, 252)
03_02_FE_02         // (  3,   2, 254,   2)
0D_0E_F1_FB         // ( 13,  14, 241, 251)
07_06_F7_FC         // (  7,   6, 247, 252)
FE_01_F6_F5         // (254,   1, 246, 245)
05_05_01_09         // (  5,   5,   1,   9)
03_FE_FC_01         // (  3, 254, 252,   1)
FF_FE_01_00         // (255, 254,   1,   0)
00_FF_FF_FA         // (  0, 255, 255, 250)
00_F5_FE_EE         // (  0, 245, 254, 238)
FB_00_FB_F6         // (251,   0, 251, 246)
F9_FB_03_E6         // (249, 251,   3, 230)
F5_FD_01_EB         // (245, 253,   1, 235)
F4_04_02_E5         // (244,   4,   2, 229)
07_09_FE_04         // (  7,   9, 254,   4)
02_F7_FE_01         // (  2, 247, 254,   1)
08_06_00_04         // (  8,   6,   0,   4)
03_07_01_FF         // (  3,   7,   1, 255)
FC_00_00_05         // (252,   0,   0,   5)
03_0B_FF_FE         // (  3,  11, 255, 254)
10_0B_03_03         // ( 16,  11,   3,   3)
05_09_02_06         // (  5,   9,   2,   6)
04_11_08_00         // (  4,  17,   8,   0)
FD_F9_FC_02         // (253, 249, 252,   2)
FF_FF_FF_FC         // (255, 255, 255, 252)
01_FD_05_F7         // (  1, 253,   5, 247)
00_FA_01_00         // (  0, 250,   1,   0)
FE_02_00_F6         // (254,   2,   0, 246)
FC_FE_00_FB         // (252, 254,   0, 251)
03_F5_03_EA         // (  3, 245,   3, 234)
06_FC_F8_EC         // (  6, 252, 248, 236)
08_FE_FE_D5         // (  8, 254, 254, 213)
F7_FC_FF_00         // (247, 252, 255,   0)
04_FB_00_FD         // (  4, 251,   0, 253)
06_07_01_03         // (  6,   7,   1,   3)
FE_FE_02_FE         // (254, 254,   2, 254)
08_00_FF_FC         // (  8,   0, 255, 252)
0E_FF_01_02         // ( 14, 255,   1,   2)
FD_00_02_00         // (253,   0,   2,   0)
03_03_00_01         // (  3,   3,   0,   1)
06_FD_FF_08         // (  6, 253, 255,   8)
FF_00_FF_02         // (255,   0, 255,   2)
FF_05_F8_FE         // (255,   5, 248, 254)
FA_05_01_FF         // (250,   5,   1, 255)
FE_08_02_FE         // (254,   8,   2, 254)
02_FF_FD_FB         // (  2, 255, 253, 251)
FE_05_01_F7         // (254,   5,   1, 247)
FF_02_0A_02         // (255,   2,  10,   2)
FF_03_01_02         // (255,   3,   1,   2)
03_09_FF_02         // (  3,   9, 255,   2)
00_00_00_00         // (  0,   0,   0,   0)
00_00_00_00         // (  0,   0,   0,   0)
00_00_00_00         // (  0,   0,   0,   0)
00_00_00_00         // (  0,   0,   0,   0)
00_00_00_00         // (  0,   0,   0,   0)
00_00_00_00         // (  0,   0,   0,   0)
00_00_00_00         // (  0,   0,   0,   0)
00_00_00_00         // (  0,   0,   0,   0)
00_00_00_00         // (  0,   0,   0,   0)
00_00_00_00         // (  0,   0,   0,   0)
00_00_00_00         // (  0,   0,   0,   0)
00_00_00_00         // (  0,   0,   0,   0)
00_00_00_00         // (  0,   0,   0,   0)
00_00_00_00         // (  0,   0,   0,   0)
00_00_00_00         // (  0,   0,   0,   0)
00_00_00_00         // (  0,   0,   0,   0)
00_00_00_00         // (  0,   0,   0,   0)
00_00_00_00         // (  0,   0,   0,   0)
00_00_00_00         // (  0,   0,   0,   0)
00_00_00_00         // (  0,   0,   0,   0)
00_00_00_00         // (  0,   0,   0,   0)
00_00_00_00         // (  0,   0,   0,   0)
00_00_00_00         // (  0,   0,   0,   0)
00_00_00_00         // (  0,   0,   0,   0)
00_00_00_00         // (  0,   0,   0,   0)
00_00_00_00         // (  0,   0,   0,   0)
00_00_00_00         // (  0,   0,   0,   0)
00_00_00_00         // (  0,   0,   0,   0)
00_00_00_00         // (  0,   0,   0,   0)
00_00_00_00         // (  0,   0,   0,   0)
00_00_00_00         // (  0,   0,   0,   0)
00_00_00_00         // (  0,   0,   0,   0)
00_00_00_00         // (  0,   0,   0,   0)
00_00_00_00         // (  0,   0,   0,   0)
00_00_00_00         // (  0,   0,   0,   0)
00_00_00_00         // (  0,   0,   0,   0)
00_00_00_00         // (  0,   0,   0,   0)
00_00_00_00         // (  0,   0,   0,   0)
00_00_00_00         // (  0,   0,   0,   0)
00_00_00_00         // (  0,   0,   0,   0)
00_00_00_00         // (  0,   0,   0,   0)
00_00_00_00         // (  0,   0,   0,   0)
00_00_00_00         // (  0,   0,   0,   0)
00_00_00_00         // (  0,   0,   0,   0)
00_00_00_00         // (  0,   0,   0,   0)
00_00_00_00         // (  0,   0,   0,   0)
00_00_00_00         // (  0,   0,   0,   0)
00_00_00_00         // (  0,   0,   0,   0)
00_00_00_00         // (  0,   0,   0,   0)
00_00_00_00         // (  0,   0,   0,   0)
00_00_00_00         // (  0,   0,   0,   0)
00_00_00_00         // (  0,   0,   0,   0)
00_00_00_00         // (  0,   0,   0,   0)
00_00_00_00         // (  0,   0,   0,   0)
00_00_00_00         // (  0,   0,   0,   0)
00_00_00_00         // (  0,   0,   0,   0)
00_00_00_00         // (  0,   0,   0,   0)
00_00_00_00         // (  0,   0,   0,   0)
00_00_00_00         // (  0,   0,   0,   0)
00_00_00_00         // (  0,   0,   0,   0)
00_00_00_00         // (  0,   0,   0,   0)
00_00_00_00         // (  0,   0,   0,   0)
00_00_00_00         // (  0,   0,   0,   0)
00_00_00_00         // (  0,   0,   0,   0)
00_00_00_00         // (  0,   0,   0,   0)
00_00_00_00         // (  0,   0,   0,   0)
00_00_00_00         // (  0,   0,   0,   0)
00_00_00_00         // (  0,   0,   0,   0)
00_00_00_00         // (  0,   0,   0,   0)
00_00_00_00         // (  0,   0,   0,   0)
00_00_00_00         // (  0,   0,   0,   0)
00_00_00_00         // (  0,   0,   0,   0)
00_00_00_00         // (  0,   0,   0,   0)
00_00_00_00         // (  0,   0,   0,   0)
00_00_00_00         // (  0,   0,   0,   0)
00_00_00_00         // (  0,   0,   0,   0)
00_00_00_00         // (  0,   0,   0,   0)
00_00_00_00         // (  0,   0,   0,   0)
00_00_00_00         // (  0,   0,   0,   0)
00_00_00_00         // (  0,   0,   0,   0)
00_00_00_00         // (  0,   0,   0,   0)
00_00_00_00         // (  0,   0,   0,   0)
00_00_00_00         // (  0,   0,   0,   0)
00_00_00_00         // (  0,   0,   0,   0)
00_00_00_00         // (  0,   0,   0,   0)
00_00_00_00         // (  0,   0,   0,   0)
00_00_00_00         // (  0,   0,   0,   0)
00_00_00_00         // (  0,   0,   0,   0)
00_00_00_00         // (  0,   0,   0,   0)
00_00_00_00         // (  0,   0,   0,   0)
00_00_00_00         // (  0,   0,   0,   0)
00_00_00_00         // (  0,   0,   0,   0)
00_00_00_00         // (  0,   0,   0,   0)
00_00_00_00         // (  0,   0,   0,   0)
00_00_00_00         // (  0,   0,   0,   0)
00_00_00_00         // (  0,   0,   0,   0)
00_00_00_00         // (  0,   0,   0,   0)
00_00_00_00         // (  0,   0,   0,   0)
00_00_00_00         // (  0,   0,   0,   0)
00_00_00_00         // (  0,   0,   0,   0)
00_00_00_00         // (  0,   0,   0,   0)
00_00_00_00         // (  0,   0,   0,   0)
00_00_00_00         // (  0,   0,   0,   0)
00_00_00_00         // (  0,   0,   0,   0)
00_00_00_00         // (  0,   0,   0,   0)
00_00_00_00         // (  0,   0,   0,   0)
00_00_00_00         // (  0,   0,   0,   0)
00_00_00_00         // (  0,   0,   0,   0)
00_00_00_00         // (  0,   0,   0,   0)
00_00_00_00         // (  0,   0,   0,   0)
00_00_00_00         // (  0,   0,   0,   0)
00_00_00_00         // (  0,   0,   0,   0)
00_00_00_00         // (  0,   0,   0,   0)
00_00_00_00         // (  0,   0,   0,   0)
00_00_00_00         // (  0,   0,   0,   0)
00_00_00_00         // (  0,   0,   0,   0)
00_00_00_00         // (  0,   0,   0,   0)
00_00_00_00         // (  0,   0,   0,   0)
00_00_00_00         // (  0,   0,   0,   0)
00_00_00_00         // (  0,   0,   0,   0)
00_00_00_00         // (  0,   0,   0,   0)
00_00_00_00         // (  0,   0,   0,   0)
00_00_00_00         // (  0,   0,   0,   0)
00_00_00_00         // (  0,   0,   0,   0)
00_00_00_00         // (  0,   0,   0,   0)
00_00_00_00         // (  0,   0,   0,   0)
00_00_00_00         // (  0,   0,   0,   0)
00_00_00_00         // (  0,   0,   0,   0)
00_00_00_00         // (  0,   0,   0,   0)
00_00_00_00         // (  0,   0,   0,   0)
00_00_00_00         // (  0,   0,   0,   0)
00_00_00_00         // (  0,   0,   0,   0)
00_00_00_00         // (  0,   0,   0,   0)
00_00_00_00         // (  0,   0,   0,   0)
00_00_00_00         // (  0,   0,   0,   0)
00_00_00_00         // (  0,   0,   0,   0)
00_00_00_00         // (  0,   0,   0,   0)
00_00_00_00         // (  0,   0,   0,   0)
00_00_00_00         // (  0,   0,   0,   0)
00_00_00_00         // (  0,   0,   0,   0)
00_00_00_00         // (  0,   0,   0,   0)
00_00_00_00         // (  0,   0,   0,   0)
00_00_00_00         // (  0,   0,   0,   0)
00_00_00_00         // (  0,   0,   0,   0)
02_08_FD_FD         // (  2,   8, 253, 253)
02_10_EC_FE         // (  2,  16, 236, 254)
0F_00_04_F5         // ( 15,   0,   4, 245)
FB_F5_F8_F9         // (251, 245, 248, 249)
FC_08_E3_F6         // (252,   8, 227, 246)
08_F7_FF_F6         // (  8, 247, 255, 246)
FF_FA_ED_F2         // (255, 250, 237, 242)
02_1E_E8_F5         // (  2,  30, 232, 245)
03_1E_02_FF         // (  3,  30,   2, 255)
25_FD_FA_08         // ( 37, 253, 250,   8)
2D_07_03_01         // ( 45,   7,   3,   1)
14_FA_F0_F0         // ( 20, 250, 240, 240)
1B_FF_FE_11         // ( 27, 255, 254,  17)
0F_FE_0E_F5         // ( 15, 254,  14, 245)
13_F4_13_FA         // ( 19, 244,  19, 250)
05_01_FE_1C         // (  5,   1, 254,  28)
13_FF_0A_0D         // ( 19, 255,  10,  13)
05_FA_00_09         // (  5, 250,   0,   9)
F6_FE_08_F1         // (246, 254,   8, 241)
E7_05_16_F6         // (231,   5,  22, 246)
FE_08_0C_F0         // (254,   8,  12, 240)
03_03_F6_F8         // (  3,   3, 246, 248)
0A_06_01_FC         // ( 10,   6,   1, 252)
04_F9_F5_09         // (  4, 249, 245,   9)
02_08_00_E6         // (  2,   8,   0, 230)
11_FE_F2_F2         // ( 17, 254, 242, 242)
0C_FA_EB_F4         // ( 12, 250, 235, 244)
EC_F5_F7_09         // (236, 245, 247,   9)
26_05_F7_06         // ( 38,   5, 247,   6)
F5_FF_01_0D         // (245, 255,   1,  13)
02_F7_00_09         // (  2, 247,   0,   9)
EC_FB_FF_11         // (236, 251, 255,  17)
FC_F9_FC_0C         // (252, 249, 252,  12)
0F_FB_FF_02         // ( 15, 251, 255,   2)
EC_FC_FF_0B         // (236, 252, 255,  11)
F1_FD_FD_05         // (241, 253, 253,   5)
FA_05_FB_F6         // (250,   5, 251, 246)
04_08_FE_00         // (  4,   8, 254,   0)
0C_04_FE_F7         // ( 12,   4, 254, 247)
EC_06_F5_FE         // (236,   6, 245, 254)
05_F9_04_FD         // (  5, 249,   4, 253)
FF_F6_03_03         // (255, 246,   3,   3)
E9_FC_F6_FB         // (233, 252, 246, 251)
E6_03_02_F1         // (230,   3,   2, 241)
EB_09_02_F6         // (235,   9,   2, 246)
07_04_F4_02         // (  7,   4, 244,   2)
0A_03_19_FE         // ( 10,   3,  25, 254)
F9_01_0F_02         // (249,   1,  15,   2)
03_FB_02_04         // (  3, 251,   2,   4)
0B_06_F1_01         // ( 11,   6, 241,   1)
F9_FA_05_FE         // (249, 250,   5, 254)
03_F8_05_FB         // (  3, 248,   5, 251)
05_F2_F0_04         // (  5, 242, 240,   4)
00_00_06_FD         // (  0,   0,   6, 253)
15_01_E9_F0         // ( 21,   1, 233, 240)
1C_07_20_F9         // ( 28,   7,  32, 249)
03_FB_F5_F9         // (  3, 251, 245, 249)
FD_FD_F8_0A         // (253, 253, 248,  10)
F8_FC_0B_FE         // (248, 252,  11, 254)
00_FF_F9_F7         // (  0, 255, 249, 247)
09_F4_E9_02         // (  9, 244, 233,   2)
06_03_F1_0D         // (  6,   3, 241,  13)
0E_FC_07_09         // ( 14, 252,   7,   9)
02_E1_0A_05         // (  2, 225,  10,   5)
FF_FA_FF_1B         // (255, 250, 255,  27)
02_01_10_F5         // (  2,   1,  16, 245)
F8_FA_06_01         // (248, 250,   6,   1)
06_03_08_0A         // (  6,   3,   8,  10)
FB_0E_FB_01         // (251,  14, 251,   1)
FF_E7_FB_1A         // (255, 231, 251,  26)
FE_F4_15_39         // (254, 244,  21,  57)
F5_0E_14_21         // (245,  14,  20,  33)
28_FE_02_0F         // ( 40, 254,   2,  15)
09_F6_05_16         // (  9, 246,   5,  22)
0E_07_F9_0F         // ( 14,   7, 249,  15)
FC_F9_05_09         // (252, 249,   5,   9)
FE_00_FE_04         // (254,   0, 254,   4)
FD_01_FD_08         // (253,   1, 253,   8)
EE_07_04_05         // (238,   7,   4,   5)
01_F6_01_0F         // (  1, 246,   1,  15)
F7_06_06_18         // (247,   6,   6,  24)
02_FF_1A_DA         // (  2, 255,  26, 218)
F0_06_25_DB         // (240,   6,  37, 219)
F2_FA_28_F6         // (242, 250,  40, 246)
EF_FE_00_E9         // (239, 254,   0, 233)
F6_02_04_D2         // (246,   2,   4, 210)
F3_01_07_F2         // (243,   1,   7, 242)
D0_05_02_E1         // (208,   5,   2, 225)
F2_F8_16_F4         // (242, 248,  22, 244)
FA_F3_14_ED         // (250, 243,  20, 237)
F8_E6_F6_0A         // (248, 230, 246,  10)
11_1D_FB_0A         // ( 17,  29, 251,  10)
06_0E_E1_06         // (  6,  14, 225,   6)
F6_F5_11_FB         // (246, 245,  17, 251)
F7_F7_04_00         // (247, 247,   4,   0)
1A_06_0E_FC         // ( 26,   6,  14, 252)
0E_0A_FD_F9         // ( 14,  10, 253, 249)
F9_EE_05_F6         // (249, 238,   5, 246)
1E_F3_E0_FA         // ( 30, 243, 224, 250)
EE_FA_05_00         // (238, 250,   5,   0)
F8_FC_05_F2         // (248, 252,   5, 242)
F7_02_FC_05         // (247,   2, 252,   5)
01_05_01_13         // (  1,   5,   1,  19)
FB_11_02_04         // (251,  17,   2,   4)
FB_05_FC_05         // (251,   5, 252,   5)
F8_F7_03_15         // (248, 247,   3,  21)
FE_01_02_09         // (254,   1,   2,   9)
FD_02_04_FD         // (253,   2,   4, 253)
22_0A_05_FC         // ( 34,  10,   5, 252)
03_F3_FB_01         // (  3, 243, 251,   1)
13_0E_04_FA         // ( 19,  14,   4, 250)
2D_F1_FE_F9         // ( 45, 241, 254, 249)
09_F8_0C_F8         // (  9, 248,  12, 248)
16_03_05_06         // ( 22,   3,   5,   6)
24_FD_F9_FA         // ( 36, 253, 249, 250)
48_E7_01_02         // ( 72, 231,   1,   2)
3C_FA_FE_00         // ( 60, 250, 254,   0)
11_08_0A_F9         // ( 17,   8,  10, 249)
0B_FF_02_08         // ( 11, 255,   2,   8)
04_0C_02_F8         // (  4,  12,   2, 248)
04_FE_FF_01         // (  4, 254, 255,   1)
04_FF_04_01         // (  4, 255,   4,   1)
03_06_02_EE         // (  3,   6,   2, 238)
08_01_FD_02         // (  8,   1, 253,   2)
00_FD_07_F1         // (  0, 253,   7, 241)
03_FB_01_F9         // (  3, 251,   1, 249)
F1_0A_08_F9         // (241,  10,   8, 249)
C2_06_0E_0A         // (194,   6,  14,  10)
D0_FF_03_0B         // (208, 255,   3,  11)
06_EC_03_01         // (  6, 236,   3,   1)
06_FB_03_FF         // (  6, 251,   3, 255)
10_F8_03_03         // ( 16, 248,   3,   3)
F7_F7_08_FB         // (247, 247,   8, 251)
EE_F9_03_00         // (238, 249,   3,   0)
E0_F4_FA_F3         // (224, 244, 250, 243)
FF_00_02_FE         // (255,   0,   2, 254)
09_FF_03_08         // (  9, 255,   3,   8)
02_FC_F7_04         // (  2, 252, 247,   4)
02_F5_02_02         // (  2, 245,   2,   2)
F9_04_FE_FA         // (249,   4, 254, 250)
04_00_00_F9         // (  4,   0,   0, 249)
05_F9_03_FE         // (  5, 249,   3, 254)
06_03_04_03         // (  6,   3,   4,   3)
FA_05_00_03         // (250,   5,   0,   3)
FD_FE_FF_FE         // (253, 254, 255, 254)
FE_FA_FD_00         // (254, 250, 253,   0)
FC_FC_02_FC         // (252, 252,   2, 252)
02_FE_01_02         // (  2, 254,   1,   2)
02_03_FD_01         // (  2,   3, 253,   1)
00_08_FF_04         // (  0,   8, 255,   4)
03_02_FB_FF         // (  3,   2, 251, 255)
00_FC_06_00         // (  0, 252,   6,   0)
01_FE_00_01         // (  1, 254,   0,   1)
01_FF_06_FD         // (  1, 255,   6, 253)
FF_FF_06_00         // (255, 255,   6,   0)
02_FF_07_FE         // (  2, 255,   7, 254)
FF_01_04_F8         // (255,   1,   4, 248)
05_FD_FF_FD         // (  5, 253, 255, 253)
02_FE_02_FF         // (  2, 254,   2, 255)
01_00_01_08         // (  1,   0,   1,   8)
02_FC_01_02         // (  2, 252,   1,   2)
00_03_FD_FD         // (  0,   3, 253, 253)
FF_01_FF_FE         // (255,   1, 255, 254)
FE_FF_FF_FC         // (254, 255, 255, 252)
FC_FE_00_F9         // (252, 254,   0, 249)
00_FF_F9_04         // (  0, 255, 249,   4)
05_FD_FF_FF         // (  5, 253, 255, 255)
0B_FD_FF_FD         // ( 11, 253, 255, 253)
00_00_FE_00         // (  0,   0, 254,   0)
FC_00_FB_FE         // (252,   0, 251, 254)
FA_01_06_03         // (250,   1,   6,   3)
FB_04_00_04         // (251,   4,   0,   4)
F9_01_02_FE         // (249,   1,   2, 254)
07_02_01_08         // (  7,   2,   1,   8)
F9_04_00_01         // (249,   4,   0,   1)
04_FD_FB_FD         // (  4, 253, 251, 253)
01_05_FB_FE         // (  1,   5, 251, 254)
FD_01_FE_01         // (253,   1, 254,   1)
08_02_00_FE         // (  8,   2,   0, 254)
03_03_02_01         // (  3,   3,   2,   1)
FB_FE_04_09         // (251, 254,   4,   9)
F1_01_02_F2         // (241,   1,   2, 242)
F7_01_00_F8         // (247,   1,   0, 248)
04_02_03_FE         // (  4,   2,   3, 254)
FF_0A_01_01         // (255,  10,   1,   1)
FE_03_FF_FF         // (254,   3, 255, 255)
00_06_02_00         // (  0,   6,   2,   0)
FE_05_02_04         // (254,   5,   2,   4)
FB_00_FE_00         // (251,   0, 254,   0)
01_FF_F9_FD         // (  1, 255, 249, 253)
FE_06_FD_00         // (254,   6, 253,   0)
02_00_04_00         // (  2,   0,   4,   0)
04_01_02_FD         // (  4,   1,   2, 253)
01_00_00_02         // (  1,   0,   0,   2)
FF_00_02_FF         // (255,   0,   2, 255)
FF_FF_F6_02         // (255, 255, 246,   2)
FF_06_06_FC         // (255,   6,   6, 252)
FF_02_04_FE         // (255,   2,   4, 254)
FC_01_FF_FD         // (252,   1, 255, 253)
F9_04_0C_FD         // (249,   4,  12, 253)
FD_02_08_01         // (253,   2,   8,   1)
03_08_FD_FD         // (  3,   8, 253, 253)
00_F6_04_00         // (  0, 246,   4,   0)
F9_FA_01_FD         // (249, 250,   1, 253)
01_FD_00_F9         // (  1, 253,   0, 249)
02_FC_0B_F7         // (  2, 252,  11, 247)
FE_02_FD_01         // (254,   2, 253,   1)
01_FC_00_FE         // (  1, 252,   0, 254)
F9_0C_FB_03         // (249,  12, 251,   3)
FE_0A_FE_03         // (254,  10, 254,   3)
FF_FB_FF_FE         // (255, 251, 255, 254)
FB_08_02_FB         // (251,   8,   2, 251)
03_FD_04_00         // (  3, 253,   4,   0)
FE_F6_02_FC         // (254, 246,   2, 252)
03_00_FD_FC         // (  3,   0, 253, 252)
01_FC_FD_01         // (  1, 252, 253,   1)
F4_FF_FE_03         // (244, 255, 254,   3)
00_04_FE_00         // (  0,   4, 254,   0)
FF_01_00_FF         // (255,   1,   0, 255)
FF_00_FF_FF         // (255,   0, 255, 255)
0C_FD_03_04         // ( 12, 253,   3,   4)
FD_FF_02_01         // (253, 255,   2,   1)
F9_03_02_FF         // (249,   3,   2, 255)
04_FF_FF_05         // (  4, 255, 255,   5)
05_FE_01_01         // (  5, 254,   1,   1)
FB_FF_FD_10         // (251, 255, 253,  16)
FB_02_00_0D         // (251,   2,   0,  13)
FC_04_FF_0F         // (252,   4, 255,  15)
FE_01_00_08         // (254,   1,   0,   8)
F9_FD_02_FD         // (249, 253,   2, 253)
FA_FE_FD_FF         // (250, 254, 253, 255)
FD_FC_FF_03         // (253, 252, 255,   3)
06_00_01_F8         // (  6,   0,   1, 248)
02_01_FF_01         // (  2,   1, 255,   1)
02_FF_FC_00         // (  2, 255, 252,   0)
03_FE_06_00         // (  3, 254,   6,   0)
FF_03_0D_05         // (255,   3,  13,   5)
FE_FB_FF_00         // (254, 251, 255,   0)
FF_05_05_05         // (255,   5,   5,   5)
FE_F7_F8_03         // (254, 247, 248,   3)
FA_03_02_02         // (250,   3,   2,   2)
FD_FD_00_03         // (253, 253,   0,   3)
FD_02_05_02         // (253,   2,   5,   2)
01_FC_02_06         // (  1, 252,   2,   6)
FE_05_00_02         // (254,   5,   0,   2)
FB_08_FE_07         // (251,   8, 254,   7)
02_05_02_02         // (  2,   5,   2,   2)
01_FF_06_FD         // (  1, 255,   6, 253)
02_FE_FC_00         // (  2, 254, 252,   0)
FE_FC_FE_05         // (254, 252, 254,   5)
FF_FD_FE_00         // (255, 253, 254,   0)
FB_FB_00_00         // (251, 251,   0,   0)
01_FB_FD_FD         // (  1, 251, 253, 253)
05_FC_FF_FF         // (  5, 252, 255, 255)
FD_FD_00_00         // (253, 253,   0,   0)
FF_FB_01_02         // (255, 251,   1,   2)
00_02_02_FE         // (  0,   2,   2, 254)
F9_02_05_FF         // (249,   2,   5, 255)
FE_F9_01_05         // (254, 249,   1,   5)
06_04_FF_04         // (  6,   4, 255,   4)
00_02_04_FF         // (  0,   2,   4, 255)
FE_FC_03_04         // (254, 252,   3,   4)
FA_FF_FD_01         // (250, 255, 253,   1)
00_04_02_FD         // (  0,   4,   2, 253)
01_FE_FD_FC         // (  1, 254, 253, 252)
FF_FF_FE_FC         // (255, 255, 254, 252)
FE_02_01_FB         // (254,   2,   1, 251)
02_FF_FF_F8         // (  2, 255, 255, 248)
01_01_02_FA         // (  1,   1,   2, 250)
03_FE_FB_01         // (  3, 254, 251,   1)
06_FF_FC_01         // (  6, 255, 252,   1)
01_03_03_02         // (  1,   3,   3,   2)
01_FD_02_02         // (  1, 253,   2,   2)
01_03_FE_FE         // (  1,   3, 254, 254)
FC_01_02_02         // (252,   1,   2,   2)
00_FD_FF_FF         // (  0, 253, 255, 255)
FC_FC_02_FE         // (252, 252,   2, 254)
FC_02_03_FD         // (252,   2,   3, 253)
FF_01_FE_04         // (255,   1, 254,   4)
02_F5_03_05         // (  2, 245,   3,   5)
01_06_FB_02         // (  1,   6, 251,   2)
02_05_00_FF         // (  2,   5,   0, 255)
FD_03_01_03         // (253,   3,   1,   3)
01_F9_FB_03         // (  1, 249, 251,   3)
FD_FA_FD_02         // (253, 250, 253,   2)
03_03_02_01         // (  3,   3,   2,   1)
FA_00_00_FE         // (250,   0,   0, 254)
01_FC_05_FD         // (  1, 252,   5, 253)
03_03_FE_00         // (  3,   3, 254,   0)
FD_FE_01_00         // (253, 254,   1,   0)
FB_08_F5_FF         // (251,   8, 245, 255)
03_05_FE_FD         // (  3,   5, 254, 253)
01_FE_00_01         // (  1, 254,   0,   1)
01_06_F8_03         // (  1,   6, 248,   3)
02_01_04_FE         // (  2,   1,   4, 254)
FF_04_03_FE         // (255,   4,   3, 254)
03_01_FA_03         // (  3,   1, 250,   3)
02_01_00_01         // (  2,   1,   0,   1)
00_FF_FE_FA         // (  0, 255, 254, 250)
02_03_FA_FD         // (  2,   3, 250, 253)
04_FF_03_00         // (  4, 255,   3,   0)
00_00_F7_FC         // (  0,   0, 247, 252)
02_FE_01_03         // (  2, 254,   1,   3)
06_00_05_00         // (  6,   0,   5,   0)
FC_00_FC_00         // (252,   0, 252,   0)
01_FF_FE_08         // (  1, 255, 254,   8)
FD_FE_04_08         // (253, 254,   4,   8)
F7_00_00_04         // (247,   0,   0,   4)
F8_00_00_00         // (248,   0,   0,   0)
03_04_07_01         // (  3,   4,   7,   1)
02_02_FE_FE         // (  2,   2, 254, 254)
FD_FD_05_03         // (253, 253,   5,   3)
00_02_FD_05         // (  0,   2, 253,   5)
00_01_FF_01         // (  0,   1, 255,   1)
FB_FE_06_FE         // (251, 254,   6, 254)
02_FF_00_FD         // (  2, 255,   0, 253)
F9_FE_03_FD         // (249, 254,   3, 253)
FC_FE_00_01         // (252, 254,   0,   1)
F9_FC_01_FC         // (249, 252,   1, 252)
0F_FE_02_04         // ( 15, 254,   2,   4)
08_00_00_04         // (  8,   0,   0,   4)
FE_FD_FF_02         // (254, 253, 255,   2)
04_01_FF_07         // (  4,   1, 255,   7)
02_FD_01_09         // (  2, 253,   1,   9)
14_FE_00_0B         // ( 20, 254,   0,  11)
08_00_00_FF         // (  8,   0,   0, 255)
0E_01_FF_FA         // ( 14,   1, 255, 250)
04_FF_00_FA         // (  4, 255,   0, 250)
FD_07_FB_11         // (253,   7, 251,  17)
03_03_01_07         // (  3,   3,   1,   7)
06_FF_04_FD         // (  6, 255,   4, 253)
FE_F7_00_F9         // (254, 247,   0, 249)
00_F8_02_01         // (  0, 248,   2,   1)
FE_FA_FE_FC         // (254, 250, 254, 252)
01_03_FA_04         // (  1,   3, 250,   4)
01_01_F7_FE         // (  1,   1, 247, 254)
FF_FF_FE_02         // (255, 255, 254,   2)
FC_FD_FF_00         // (252, 253, 255,   0)
FD_FD_02_FF         // (253, 253,   2, 255)
03_FF_05_02         // (  3, 255,   5,   2)
02_FE_02_00         // (  2, 254,   2,   0)
FE_01_FC_03         // (254,   1, 252,   3)
0A_FD_05_02         // ( 10, 253,   5,   2)
03_02_0B_04         // (  3,   2,  11,   4)
06_FF_03_05         // (  6, 255,   3,   5)
FE_02_01_02         // (254,   2,   1,   2)
02_F9_F6_0A         // (  2, 249, 246,  10)
07_00_FB_02         // (  7,   0, 251,   2)
03_01_00_03         // (  3,   1,   0,   3)
FD_06_F8_05         // (253,   6, 248,   5)
08_03_F9_0C         // (  8,   3, 249,  12)
FC_FE_03_FA         // (252, 254,   3, 250)
03_0C_04_FD         // (  3,  12,   4, 253)
04_02_FD_03         // (  4,   2, 253,   3)
02_FD_FF_FF         // (  2, 253, 255, 255)
FD_05_01_01         // (253,   5,   1,   1)
02_F7_FE_07         // (  2, 247, 254,   7)
FF_00_02_05         // (255,   0,   2,   5)
FC_01_00_01         // (252,   1,   0,   1)
00_FA_03_0B         // (  0, 250,   3,  11)
FE_FE_FE_0A         // (254, 254, 254,  10)
00_01_FF_05         // (  0,   1, 255,   5)
F6_01_FE_FF         // (246,   1, 254, 255)
FF_02_01_0A         // (255,   2,   1,  10)
FD_02_FE_04         // (253,   2, 254,   4)
F7_FD_02_FF         // (247, 253,   2, 255)
FE_FE_01_07         // (254, 254,   1,   7)
FD_03_FF_00         // (253,   3, 255,   0)
FB_05_05_FE         // (251,   5,   5, 254)
04_FC_03_FD         // (  4, 252,   3, 253)
04_03_FE_09         // (  4,   3, 254,   9)
04_02_06_01         // (  4,   2,   6,   1)
FF_FA_02_06         // (255, 250,   2,   6)
FD_03_01_FF         // (253,   3,   1, 255)
07_02_02_06         // (  7,   2,   2,   6)
00_00_05_02         // (  0,   0,   5,   2)
02_00_06_07         // (  2,   0,   6,   7)
05_02_04_FD         // (  5,   2,   4, 253)
FB_FC_FE_FD         // (251, 252, 254, 253)
FE_03_FD_FD         // (254,   3, 253, 253)
01_FC_06_07         // (  1, 252,   6,   7)
03_05_FA_FB         // (  3,   5, 250, 251)
05_05_07_FE         // (  5,   5,   7, 254)
01_FB_F9_03         // (  1, 251, 249,   3)
03_FA_00_01         // (  3, 250,   0,   1)
07_FD_FB_01         // (  7, 253, 251,   1)
03_FA_08_08         // (  3, 250,   8,   8)
FE_FD_00_05         // (254, 253,   0,   5)
03_02_01_F4         // (  3,   2,   1, 244)
02_05_00_FA         // (  2,   5,   0, 250)
FC_05_00_01         // (252,   5,   0,   1)
06_FA_06_FD         // (  6, 250,   6, 253)
01_F8_FF_FD         // (  1, 248, 255, 253)
00_02_FF_FE         // (  0,   2, 255, 254)
00_FF_FE_05         // (  0, 255, 254,   5)
00_00_FA_FF         // (  0,   0, 250, 255)
FE_04_02_FE         // (254,   4,   2, 254)
01_04_FF_FE         // (  1,   4, 255, 254)
03_FE_FF_05         // (  3, 254, 255,   5)
FC_01_00_03         // (252,   1,   0,   3)
FC_02_FD_FF         // (252,   2, 253, 255)
01_01_FF_01         // (  1,   1, 255,   1)
FE_01_02_05         // (254,   1,   2,   5)
01_05_05_FC         // (  1,   5,   5, 252)
09_F8_00_FE         // (  9, 248,   0, 254)
FE_01_FF_FE         // (254,   1, 255, 254)
03_00_00_03         // (  3,   0,   0,   3)
02_00_FD_FF         // (  2,   0, 253, 255)
FE_00_FF_FB         // (254,   0, 255, 251)
03_03_FE_FF         // (  3,   3, 254, 255)
01_FD_01_05         // (  1, 253,   1,   5)
FE_00_00_FC         // (254,   0,   0, 252)
FF_03_FE_02         // (255,   3, 254,   2)
FE_00_02_06         // (254,   0,   2,   6)
04_FF_05_FF         // (  4, 255,   5, 255)
03_01_08_06         // (  3,   1,   8,   6)
FC_FF_00_FE         // (252, 255,   0, 254)
08_FE_00_04         // (  8, 254,   0,   4)
02_FF_05_03         // (  2, 255,   5,   3)
03_FC_00_04         // (  3, 252,   0,   4)
05_FE_01_02         // (  5, 254,   1,   2)
03_05_FF_00         // (  3,   5, 255,   0)
03_00_FF_FF         // (  3,   0, 255, 255)
00_F0_FF_FF         // (  0, 240, 255, 255)
FF_03_FC_00         // (255,   3, 252,   0)
FF_0E_00_01         // (255,  14,   0,   1)
03_0A_02_02         // (  3,  10,   2,   2)
FC_F4_FF_07         // (252, 244, 255,   7)
02_FA_FF_00         // (  2, 250, 255,   0)
02_07_01_FD         // (  2,   7,   1, 253)
01_07_02_04         // (  1,   7,   2,   4)
00_FF_F9_FE         // (  0, 255, 249, 254)
FF_0A_0B_0C         // (255,  10,  11,  12)
F8_09_FE_EE         // (248,   9, 254, 238)
F8_00_F4_F6         // (248,   0, 244, 246)
01_04_FF_FD         // (  1,   4, 255, 253)
02_07_F8_04         // (  2,   7, 248,   4)
F9_F4_03_FF         // (249, 244,   3, 255)
F4_05_FD_FB         // (244,   5, 253, 251)
00_00_F1_FD         // (  0,   0, 241, 253)
F6_ED_03_10         // (246, 237,   3,  16)
F7_04_FF_0B         // (247,   4, 255,  11)
F5_06_00_03         // (245,   6,   0,   3)
04_FD_00_FA         // (  4, 253,   0, 250)
FE_FC_F6_10         // (254, 252, 246,  16)
00_FA_FE_09         // (  0, 250, 254,   9)
0D_FA_01_02         // ( 13, 250,   1,   2)
F6_06_F5_F5         // (246,   6, 245, 245)
FA_03_EE_05         // (250,   3, 238,   5)
0F_FF_02_F3         // ( 15, 255,   2, 243)
FA_FD_04_01         // (250, 253,   4,   1)
01_FB_00_01         // (  1, 251,   0,   1)
08_07_F9_FE         // (  8,   7, 249, 254)
FA_F9_05_00         // (250, 249,   5,   0)
02_03_02_FB         // (  2,   3,   2, 251)
FF_05_F6_02         // (255,   5, 246,   2)
04_05_FB_03         // (  4,   5, 251,   3)
02_FB_01_FF         // (  2, 251,   1, 255)
0D_FF_FB_0A         // ( 13, 255, 251,  10)
FA_FE_07_08         // (250, 254,   7,   8)
13_02_00_F8         // ( 19,   2,   0, 248)
11_06_F9_13         // ( 17,   6, 249,  19)
F6_FC_FF_08         // (246, 252, 255,   8)
08_F7_FA_03         // (  8, 247, 250,   3)
06_FA_F8_0C         // (  6, 250, 248,  12)
F5_F9_02_07         // (245, 249,   2,   7)
04_FF_06_01         // (  4, 255,   6,   1)
F7_00_04_07         // (247,   0,   4,   7)
FB_02_05_06         // (251,   2,   5,   6)
FC_04_04_01         // (252,   4,   4,   1)
F9_FF_07_08         // (249, 255,   7,   8)
01_FC_0A_FA         // (  1, 252,  10, 250)
FB_F9_09_03         // (251, 249,   9,   3)
05_FC_04_03         // (  5, 252,   4,   3)
F3_F9_04_FB         // (243, 249,   4, 251)
00_FC_FC_02         // (  0, 252, 252,   2)
08_05_05_03         // (  8,   5,   5,   3)
FC_FB_FA_FE         // (252, 251, 250, 254)
04_04_FD_02         // (  4,   4, 253,   2)
03_0B_10_04         // (  3,  11,  16,   4)
FE_02_00_0E         // (254,   2,   0,  14)
01_00_04_01         // (  1,   0,   4,   1)
FE_03_18_06         // (254,   3,  24,   6)
00_06_FA_03         // (  0,   6, 250,   3)
FC_FB_F7_01         // (252, 251, 247,   1)
FF_00_0B_03         // (255,   0,  11,   3)
01_00_0D_FF         // (  1,   0,  13, 255)
01_0E_08_04         // (  1,  14,   8,   4)
03_09_F3_09         // (  3,   9, 243,   9)
FE_05_11_FE         // (254,   5,  17, 254)
FB_02_0D_FF         // (251,   2,  13, 255)
F6_F8_0A_03         // (246, 248,  10,   3)
EF_FD_FE_F7         // (239, 253, 254, 247)
F7_05_06_FC         // (247,   5,   6, 252)
FB_00_05_0B         // (251,   0,   5,  11)
FC_04_04_F4         // (252,   4,   4, 244)
FC_F3_FE_FC         // (252, 243, 254, 252)
04_0F_FF_FB         // (  4,  15, 255, 251)
FB_FD_01_E8         // (251, 253,   1, 232)
FF_0C_00_FE         // (255,  12,   0, 254)
FC_16_09_F7         // (252,  22,   9, 247)
FB_07_FB_EA         // (251,   7, 251, 234)
04_F8_FE_FA         // (  4, 248, 254, 250)
02_02_09_FF         // (  2,   2,   9, 255)
F3_FF_FD_FB         // (243, 255, 253, 251)
01_07_FB_03         // (  1,   7, 251,   3)
10_F2_05_FB         // ( 16, 242,   5, 251)
F5_FE_02_07         // (245, 254,   2,   7)
04_00_FD_07         // (  4,   0, 253,   7)
01_02_06_0B         // (  1,   2,   6,  11)
F8_F7_03_FA         // (248, 247,   3, 250)
09_01_0C_07         // (  9,   1,  12,   7)
07_FB_00_FB         // (  7, 251,   0, 251)
FB_FC_FC_FE         // (251, 252, 252, 254)
F7_FF_F9_F8         // (247, 255, 249, 248)
0F_F6_FE_1D         // ( 15, 246, 254,  29)
0A_F7_FB_1C         // ( 10, 247, 251,  28)
F5_FC_02_F9         // (245, 252,   2, 249)
FC_FD_05_F8         // (252, 253,   5, 248)
0D_FF_05_1E         // ( 13, 255,   5,  30)
0D_FB_FB_E5         // ( 13, 251, 251, 229)
12_FD_08_F3         // ( 18, 253,   8, 243)
FA_FA_0D_F7         // (250, 250,  13, 247)
F2_00_04_04         // (242,   0,   4,   4)
FC_0D_F0_04         // (252,  13, 240,   4)
05_00_00_E9         // (  5,   0,   0, 233)
FE_03_08_F7         // (254,   3,   8, 247)
03_10_FC_EE         // (  3,  16, 252, 238)
00_F4_07_F3         // (  0, 244,   7, 243)
04_00_FC_06         // (  4,   0, 252,   6)
FE_FF_E1_FB         // (254, 255, 225, 251)
01_FD_FC_09         // (  1, 253, 252,   9)
06_03_01_06         // (  6,   3,   1,   6)
08_FC_08_0B         // (  8, 252,   8,  11)
FE_02_02_0D         // (254,   2,   2,  13)
FC_07_FE_06         // (252,   7, 254,   6)
04_05_01_F7         // (  4,   5,   1, 247)
02_03_FD_13         // (  2,   3, 253,  19)
03_01_F8_09         // (  3,   1, 248,   9)
FF_FA_02_04         // (255, 250,   2,   4)
DF_07_F4_03         // (223,   7, 244,   3)
E9_01_FD_01         // (233,   1, 253,   1)
FA_D8_02_F5         // (250, 216,   2, 245)
EC_05_FF_FC         // (236,   5, 255, 252)
F0_02_FE_FD         // (240,   2, 254, 253)
E9_FB_00_F2         // (233, 251,   0, 242)
E0_F0_03_FE         // (224, 240,   3, 254)
02_0F_F8_00         // (  2,  15, 248,   0)
00_0A_FD_FA         // (  0,  10, 253, 250)
FB_00_FF_07         // (251,   0, 255,   7)
FE_03_FB_FC         // (254,   3, 251, 252)
00_06_00_FC         // (  0,   6,   0, 252)
06_00_00_00         // (  6,   0,   0,   0)
FE_FD_04_01         // (254, 253,   4,   1)
01_FF_06_02         // (  1, 255,   6,   2)
F7_03_FF_F3         // (247,   3, 255, 243)
FE_05_FF_02         // (254,   5, 255,   2)
04_FD_02_F8         // (  4, 253,   2, 248)
0E_FD_03_0C         // ( 14, 253,   3,  12)
F8_F6_FC_07         // (248, 246, 252,   7)
F5_E5_03_04         // (245, 229,   3,   4)
09_03_03_04         // (  9,   3,   3,   4)
FE_05_06_F9         // (254,   5,   6, 249)
EA_EB_F4_0A         // (234, 235, 244,  10)
04_FE_FE_FF         // (  4, 254, 254, 255)
F3_FA_06_05         // (243, 250,   6,   5)
EF_E6_00_05         // (239, 230,   0,   5)
FD_F3_F8_05         // (253, 243, 248,   5)
FE_F6_FC_02         // (254, 246, 252,   2)
F8_01_00_0D         // (248,   1,   0,  13)
F5_0A_02_05         // (245,  10,   2,   5)
FC_04_08_01         // (252,   4,   8,   1)
FB_05_F7_0D         // (251,   5, 247,  13)
F8_09_FF_02         // (248,   9, 255,   2)
FA_FF_00_FE         // (250, 255,   0, 254)
F8_FD_FD_05         // (248, 253, 253,   5)
00_01_01_FC         // (  0,   1,   1, 252)
01_00_00_FE         // (  1,   0,   0, 254)
01_F4_0B_F7         // (  1, 244,  11, 247)
00_FF_02_00         // (  0, 255,   2,   0)
FE_05_FF_FE         // (254,   5, 255, 254)
FF_FD_FE_FB         // (255, 253, 254, 251)
02_01_FD_04         // (  2,   1, 253,   4)
FF_04_06_FB         // (255,   4,   6, 251)
01_04_08_F7         // (  1,   4,   8, 247)
FF_03_01_FD         // (255,   3,   1, 253)
FE_02_03_FE         // (254,   2,   3, 254)
FE_01_05_03         // (254,   1,   5,   3)
02_00_02_FA         // (  2,   0,   2, 250)
02_FF_06_04         // (  2, 255,   6,   4)
FE_01_05_FD         // (254,   1,   5, 253)
05_FB_01_FC         // (  5, 251,   1, 252)
04_FE_05_F9         // (  4, 254,   5, 249)
05_FF_FD_FA         // (  5, 255, 253, 250)
FE_01_FC_01         // (254,   1, 252,   1)
FF_FD_FE_01         // (255, 253, 254,   1)
F8_00_01_FF         // (248,   0,   1, 255)
03_FE_00_02         // (  3, 254,   0,   2)
06_FD_F8_02         // (  6, 253, 248,   2)
FE_02_FB_FF         // (254,   2, 251, 255)
0C_02_01_04         // ( 12,   2,   1,   4)
00_01_FB_04         // (  0,   1, 251,   4)
00_01_00_00         // (  0,   1,   0,   0)
F3_02_03_FA         // (243,   2,   3, 250)
00_02_01_00         // (  0,   2,   1,   0)
FF_FF_FD_04         // (255, 255, 253,   4)
FC_00_05_00         // (252,   0,   5,   0)
07_04_00_02         // (  7,   4,   0,   2)
10_00_01_04         // ( 16,   0,   1,   4)
FD_FF_04_00         // (253, 255,   4,   0)
0C_FE_FE_03         // ( 12, 254, 254,   3)
06_FB_04_02         // (  6, 251,   4,   2)
FF_02_FB_FA         // (255,   2, 251, 250)
00_01_FC_FF         // (  0,   1, 252, 255)
FE_FF_00_FD         // (254, 255,   0, 253)
04_FF_00_FF         // (  4, 255,   0, 255)
FD_02_FF_04         // (253,   2, 255,   4)
FB_00_FE_FB         // (251,   0, 254, 251)
04_FF_06_04         // (  4, 255,   6,   4)
FE_01_03_FA         // (254,   1,   3, 250)
FA_FC_04_00         // (250, 252,   4,   0)
FD_FD_F8_FF         // (253, 253, 248, 255)
01_FC_03_00         // (  1, 252,   3,   0)
00_FE_FB_05         // (  0, 254, 251,   5)
FC_02_F2_01         // (252,   2, 242,   1)
04_04_FC_01         // (  4,   4, 252,   1)
03_02_FC_01         // (  3,   2, 252,   1)
02_01_F0_00         // (  2,   1, 240,   0)
02_03_F7_00         // (  2,   3, 247,   0)
FF_00_F2_FF         // (255,   0, 242, 255)
05_00_07_F8         // (  5,   0,   7, 248)
FE_01_07_FA         // (254,   1,   7, 250)
0A_FD_01_02         // ( 10, 253,   1,   2)
06_00_02_FA         // (  6,   0,   2, 250)
03_00_F6_FB         // (  3,   0, 246, 251)
0C_FF_0A_F8         // ( 12, 255,  10, 248)
06_FD_04_FA         // (  6, 253,   4, 250)
06_03_02_FF         // (  6,   3,   2, 255)
01_FF_06_FA         // (  1, 255,   6, 250)
FE_12_04_F6         // (254,  18,   4, 246)
FE_02_03_FF         // (254,   2,   3, 255)
00_05_FE_01         // (  0,   5, 254,   1)
FF_FA_05_F9         // (255, 250,   5, 249)
02_00_04_01         // (  2,   0,   4,   1)
FC_02_01_FE         // (252,   2,   1, 254)
FE_05_04_05         // (254,   5,   4,   5)
FE_08_FB_FF         // (254,   8, 251, 255)
FF_05_FD_FE         // (255,   5, 253, 254)
F9_FE_03_04         // (249, 254,   3,   4)
09_02_FF_00         // (  9,   2, 255,   0)
05_F9_03_04         // (  5, 249,   3,   4)
F4_01_FD_FE         // (244,   1, 253, 254)
FD_FF_00_00         // (253, 255,   0,   0)
02_FD_FF_FE         // (  2, 253, 255, 254)
EF_FD_01_05         // (239, 253,   1,   5)
FF_02_00_00         // (255,   2,   0,   0)
F6_05_05_00         // (246,   5,   5,   0)
FC_01_03_FB         // (252,   1,   3, 251)
FB_01_00_FA         // (251,   1,   0, 250)
FC_00_01_01         // (252,   0,   1,   1)
01_FE_03_12         // (  1, 254,   3,  18)
FF_FD_05_05         // (255, 253,   5,   5)
06_04_FF_17         // (  6,   4, 255,  23)
F6_00_03_24         // (246,   0,   3,  36)
FB_04_00_1E         // (251,   4,   0,  30)
FC_00_07_26         // (252,   0,   7,  38)
03_04_00_FA         // (  3,   4,   0, 250)
FD_FF_03_F8         // (253, 255,   3, 248)
03_04_04_FD         // (  3,   4,   4, 253)
FF_FC_05_FC         // (255, 252,   5, 252)
05_01_FF_FC         // (  5,   1, 255, 252)
FE_02_FF_FE         // (254,   2, 255, 254)
FE_04_06_01         // (254,   4,   6,   1)
02_0E_04_05         // (  2,  14,   4,   5)
05_FF_F3_FF         // (  5, 255, 243, 255)
01_01_FB_01         // (  1,   1, 251,   1)
03_F9_FD_08         // (  3, 249, 253,   8)
FE_FF_FF_F5         // (254, 255, 255, 245)
03_FF_02_F2         // (  3, 255,   2, 242)
FA_01_02_F7         // (250,   1,   2, 247)
02_01_04_F5         // (  2,   1,   4, 245)
03_FF_03_FB         // (  3, 255,   3, 251)
00_06_04_01         // (  0,   6,   4,   1)
00_04_02_FD         // (  0,   4,   2, 253)
04_05_FE_00         // (  4,   5, 254,   0)
FC_08_02_F9         // (252,   8,   2, 249)
EF_FC_02_F9         // (239, 252,   2, 249)
01_FB_05_FE         // (  1, 251,   5, 254)
02_02_05_02         // (  2,   2,   5,   2)
F9_FD_02_03         // (249, 253,   2,   3)
03_FE_FF_FE         // (  3, 254, 255, 254)
04_FF_00_02         // (  4, 255,   0,   2)
00_F6_FE_05         // (  0, 246, 254,   5)
FA_FB_FF_05         // (250, 251, 255,   5)
FC_FE_00_01         // (252, 254,   0,   1)
FD_FA_FD_FC         // (253, 250, 253, 252)
03_FE_03_FD         // (  3, 254,   3, 253)
00_FE_03_FA         // (  0, 254,   3, 250)
02_04_02_FE         // (  2,   4,   2, 254)
03_02_01_00         // (  3,   2,   1,   0)
02_05_FE_FD         // (  2,   5, 254, 253)
06_00_01_02         // (  6,   0,   1,   2)
FA_FF_08_FF         // (250, 255,   8, 255)
F1_02_04_FB         // (241,   2,   4, 251)
FA_02_FF_FD         // (250,   2, 255, 253)
FE_00_FF_FA         // (254,   0, 255, 250)
FB_00_04_FF         // (251,   0,   4, 255)
F7_FB_01_01         // (247, 251,   1,   1)
04_04_07_02         // (  4,   4,   7,   2)
03_04_01_01         // (  3,   4,   1,   1)
FB_FF_00_01         // (251, 255,   0,   1)
FC_05_FE_FD         // (252,   5, 254, 253)
00_01_00_03         // (  0,   1,   0,   3)
00_00_FD_FF         // (  0,   0, 253, 255)
FF_04_03_FE         // (255,   4,   3, 254)
FB_FA_05_FC         // (251, 250,   5, 252)
00_05_FC_03         // (  0,   5, 252,   3)
FC_FE_FD_04         // (252, 254, 253,   4)
04_08_FE_01         // (  4,   8, 254,   1)
FD_04_02_03         // (253,   4,   2,   3)
02_FA_00_FD         // (  2, 250,   0, 253)
00_FE_06_04         // (  0, 254,   6,   4)
01_00_03_01         // (  1,   0,   3,   1)
02_FC_FC_01         // (  2, 252, 252,   1)
01_FE_02_02         // (  1, 254,   2,   2)
03_0B_02_FF         // (  3,  11,   2, 255)
01_FA_FF_02         // (  1, 250, 255,   2)
06_01_FD_FF         // (  6,   1, 253, 255)
00_05_FD_FB         // (  0,   5, 253, 251)
05_01_00_F9         // (  5,   1,   0, 249)
05_02_FD_00         // (  5,   2, 253,   0)
03_01_00_00         // (  3,   1,   0,   0)
04_01_04_FF         // (  4,   1,   4, 255)
04_01_FC_F8         // (  4,   1, 252, 248)
05_01_01_03         // (  5,   1,   1,   3)
01_FB_05_04         // (  1, 251,   5,   4)
06_FE_05_05         // (  6, 254,   5,   5)
FD_FD_07_02         // (253, 253,   7,   2)
01_02_FB_FE         // (  1,   2, 251, 254)
01_FD_00_01         // (  1, 253,   0,   1)
01_01_00_FD         // (  1,   1,   0, 253)
02_FF_FB_FF         // (  2, 255, 251, 255)
02_01_FD_04         // (  2,   1, 253,   4)
01_00_FE_FF         // (  1,   0, 254, 255)
FF_01_07_01         // (255,   1,   7,   1)
01_FD_FF_01         // (  1, 253, 255,   1)
01_FF_04_01         // (  1, 255,   4,   1)
02_00_FF_05         // (  2,   0, 255,   5)
F6_FF_01_FF         // (246, 255,   1, 255)
01_03_FE_01         // (  1,   3, 254,   1)
00_04_FA_04         // (  0,   4, 250,   4)
00_02_FE_00         // (  0,   2, 254,   0)
06_00_04_05         // (  6,   0,   4,   5)
FF_0D_00_05         // (255,  13,   0,   5)
02_02_FE_03         // (  2,   2, 254,   3)
FE_02_00_02         // (254,   2,   0,   2)
FB_03_FE_06         // (251,   3, 254,   6)
02_FB_03_F9         // (  2, 251,   3, 249)
02_FF_FE_00         // (  2, 255, 254,   0)
FD_FE_00_FC         // (253, 254,   0, 252)
00_00_02_10         // (  0,   0,   2,  16)
01_05_FC_FF         // (  1,   5, 252, 255)
F9_FF_FE_FD         // (249, 255, 254, 253)
F9_F8_FF_FD         // (249, 248, 255, 253)
00_03_FE_FC         // (  0,   3, 254, 252)
00_FF_02_05         // (  0, 255,   2,   5)
FF_FC_05_00         // (255, 252,   5,   0)
00_02_07_FD         // (  0,   2,   7, 253)
FE_FE_00_03         // (254, 254,   0,   3)
03_02_FD_FC         // (  3,   2, 253, 252)
04_FE_02_FA         // (  4, 254,   2, 250)
FF_FF_08_01         // (255, 255,   8,   1)
00_FC_FA_01         // (  0, 252, 250,   1)
02_FD_00_00         // (  2, 253,   0,   0)
F7_FF_00_01         // (247, 255,   0,   1)
FD_00_0C_FB         // (253,   0,  12, 251)
02_06_01_01         // (  2,   6,   1,   1)
F8_04_FF_FE         // (248,   4, 255, 254)
05_F3_F7_05         // (  5, 243, 247,   5)
04_01_00_03         // (  4,   1,   0,   3)
FE_01_00_03         // (254,   1,   0,   3)
03_04_FE_05         // (  3,   4, 254,   5)
08_05_02_FE         // (  8,   5,   2, 254)
FF_F8_FB_FE         // (255, 248, 251, 254)
FF_FC_00_07         // (255, 252,   0,   7)
02_02_01_01         // (  2,   2,   1,   1)
03_FC_06_04         // (  3, 252,   6,   4)
06_01_00_03         // (  6,   1,   0,   3)
FE_05_01_00         // (254,   5,   1,   0)
01_FF_07_07         // (  1, 255,   7,   7)
FE_FB_FE_07         // (254, 251, 254,   7)
00_05_03_01         // (  0,   5,   3,   1)
05_FE_01_FB         // (  5, 254,   1, 251)
FD_FC_01_02         // (253, 252,   1,   2)
04_04_01_01         // (  4,   4,   1,   1)
05_02_00_FA         // (  5,   2,   0, 250)
F9_01_02_FD         // (249,   1,   2, 253)
04_04_FC_FF         // (  4,   4, 252, 255)
00_02_03_01         // (  0,   2,   3,   1)
FF_FF_00_FD         // (255, 255,   0, 253)
FC_00_FE_01         // (252,   0, 254,   1)
FD_00_01_F3         // (253,   0,   1, 243)
FB_FF_02_EF         // (251, 255,   2, 239)
FF_00_02_FB         // (255,   0,   2, 251)
03_FF_03_EF         // (  3, 255,   3, 239)
01_01_03_F4         // (  1,   1,   3, 244)
01_01_01_F8         // (  1,   1,   1, 248)
02_00_03_EA         // (  2,   0,   3, 234)
01_FB_02_EC         // (  1, 251,   2, 236)
03_04_03_FA         // (  3,   4,   3, 250)
02_02_FE_0B         // (  2,   2, 254,  11)
02_FE_FF_07         // (  2, 254, 255,   7)
00_F8_03_10         // (  0, 248,   3,  16)
02_00_FE_0B         // (  2,   0, 254,  11)
00_FC_FF_05         // (  0, 252, 255,   5)
FF_03_05_08         // (255,   3,   5,   8)
05_F8_F9_07         // (  5, 248, 249,   7)
FE_00_FD_06         // (254,   0, 253,   6)
01_01_FF_05         // (  1,   1, 255,   5)
FE_06_01_FF         // (254,   6,   1, 255)
00_04_FE_FD         // (  0,   4, 254, 253)
FF_FF_03_FE         // (255, 255,   3, 254)
04_FE_FD_04         // (  4, 254, 253,   4)
01_F8_05_01         // (  1, 248,   5,   1)
03_FE_03_01         // (  3, 254,   3,   1)
05_02_FF_FB         // (  5,   2, 255, 251)
01_01_FC_FE         // (  1,   1, 252, 254)
01_FF_03_FB         // (  1, 255,   3, 251)
07_00_FF_02         // (  7,   0, 255,   2)
0A_04_FE_FF         // ( 10,   4, 254, 255)
06_02_03_06         // (  6,   2,   3,   6)
03_FE_05_00         // (  3, 254,   5,   0)
0B_04_FD_FE         // ( 11,   4, 253, 254)
06_FD_FD_FF         // (  6, 253, 253, 255)
02_FC_FF_00         // (  2, 252, 255,   0)
09_FE_00_02         // (  9, 254,   0,   2)
04_F9_00_03         // (  4, 249,   0,   3)
05_FE_01_04         // (  5, 254,   1,   4)
FD_00_04_03         // (253,   0,   4,   3)
FE_FF_FD_04         // (254, 255, 253,   4)
00_00_FC_01         // (  0,   0, 252,   1)
01_03_01_FE         // (  1,   3,   1, 254)
00_01_00_02         // (  0,   1,   0,   2)
FB_03_FF_04         // (251,   3, 255,   4)
FF_FF_FD_02         // (255, 255, 253,   2)
FF_00_00_01         // (255,   0,   0,   1)
01_FF_FE_FB         // (  1, 255, 254, 251)
04_01_FF_FC         // (  4,   1, 255, 252)
01_02_02_F9         // (  1,   2,   2, 249)
FA_FC_FF_00         // (250, 252, 255,   0)
02_FC_02_FF         // (  2, 252,   2, 255)
04_FE_06_FB         // (  4, 254,   6, 251)
FD_FB_FD_02         // (253, 251, 253,   2)
04_FC_01_01         // (  4, 252,   1,   1)
02_FE_02_FD         // (  2, 254,   2, 253)
01_FB_FF_01         // (  1, 251, 255,   1)
FE_0D_FF_02         // (254,  13, 255,   2)
01_00_FD_FD         // (  1,   0, 253, 253)
01_06_02_FE         // (  1,   6,   2, 254)
00_ED_FC_FD         // (  0, 237, 252, 253)
FF_02_04_FB         // (255,   2,   4, 251)
FB_FF_02_01         // (251, 255,   2,   1)
00_06_04_00         // (  0,   6,   4,   0)
00_04_FC_00         // (  0,   4, 252,   0)
F9_0D_06_FF         // (249,  13,   6, 255)
FD_03_0E_F4         // (253,   3,  14, 244)
03_01_0A_FD         // (  3,   1,  10, 253)
02_FE_FD_F7         // (  2, 254, 253, 247)
06_09_03_FE         // (  6,   9,   3, 254)
FD_FE_FF_FF         // (253, 254, 255, 255)
F6_FC_03_F9         // (246, 252,   3, 249)
FE_03_0D_02         // (254,   3,  13,   2)
02_03_05_00         // (  2,   3,   5,   0)
F2_01_FC_02         // (242,   1, 252,   2)
FA_06_F9_FF         // (250,   6, 249, 255)
03_03_F5_02         // (  3,   3, 245,   2)
FA_FA_F6_0B         // (250, 250, 246,  11)
FA_FB_FD_1F         // (250, 251, 253,  31)
FC_00_F2_08         // (252,   0, 242,   8)
F3_FD_FC_FE         // (243, 253, 252, 254)
EF_05_FB_04         // (239,   5, 251,   4)
07_01_F9_03         // (  7,   1, 249,   3)
F4_02_FA_FF         // (244,   2, 250, 255)
03_FF_F7_07         // (  3, 255, 247,   7)
F9_07_00_04         // (249,   7,   0,   4)
F9_F8_FD_FF         // (249, 248, 253, 255)
F1_FB_0A_01         // (241, 251,  10,   1)
FE_FE_05_FA         // (254, 254,   5, 250)
F8_03_FE_F9         // (248,   3, 254, 249)
F9_04_00_02         // (249,   4,   0,   2)
00_FF_01_FF         // (  0, 255,   1, 255)
04_FF_0B_FC         // (  4, 255,  11, 252)
15_02_00_FC         // ( 21,   2,   0, 252)
07_FD_FD_02         // (  7, 253, 253,   2)
09_F2_FA_F3         // (  9, 242, 250, 243)
FA_FB_08_0E         // (250, 251,   8,  14)
09_FF_03_03         // (  9, 255,   3,   3)
0F_FC_01_F8         // ( 15, 252,   1, 248)
07_04_FF_FA         // (  7,   4, 255, 250)
0E_FF_04_00         // ( 14, 255,   4,   0)
FF_FB_03_01         // (255, 251,   3,   1)
FE_FF_FC_0C         // (254, 255, 252,  12)
04_FF_00_FF         // (  4, 255,   0, 255)
FC_03_FA_03         // (252,   3, 250,   3)
FC_F8_00_F7         // (252, 248,   0, 247)
05_FE_FF_FA         // (  5, 254, 255, 250)
F2_F9_09_FC         // (242, 249,   9, 252)
FB_03_02_FE         // (251,   3,   2, 254)
04_04_01_F8         // (  4,   4,   1, 248)
FC_02_F6_F9         // (252,   2, 246, 249)
02_FF_0A_FD         // (  2, 255,  10, 253)
FE_F9_F7_00         // (254, 249, 247,   0)
00_FD_F1_03         // (  0, 253, 241,   3)
05_02_03_F7         // (  5,   2,   3, 247)
02_FC_FE_FB         // (  2, 252, 254, 251)
03_FA_06_01         // (  3, 250,   6,   1)
00_FE_FA_01         // (  0, 254, 250,   1)
FE_FA_FF_FA         // (254, 250, 255, 250)
F9_FF_06_07         // (249, 255,   6,   7)
FC_F9_FA_04         // (252, 249, 250,   4)
FB_01_07_FB         // (251,   1,   7, 251)
FC_00_0F_03         // (252,   0,  15,   3)
FB_13_FC_F6         // (251,  19, 252, 246)
FD_FA_0D_FB         // (253, 250,  13, 251)
FA_F7_08_FC         // (250, 247,   8, 252)
02_02_0C_FA         // (  2,   2,  12, 250)
FF_FA_0B_01         // (255, 250,  11,   1)
01_06_FB_0C         // (  1,   6, 251,  12)
02_06_FF_05         // (  2,   6, 255,   5)
FF_F8_00_00         // (255, 248,   0,   0)
FD_13_FB_F5         // (253,  19, 251, 245)
FF_01_FF_07         // (255,   1, 255,   7)
FD_16_FD_00         // (253,  22, 253,   0)
F0_09_01_FD         // (240,   9,   1, 253)
00_0B_F9_01         // (  0,  11, 249,   1)
FB_08_01_FD         // (251,   8,   1, 253)
FA_00_00_F9         // (250,   0,   0, 249)
18_FF_00_0C         // ( 24, 255,   0,  12)
07_03_00_01         // (  7,   3,   0,   1)
FF_06_FB_07         // (255,   6, 251,   7)
F6_02_01_FC         // (246,   2,   1, 252)
F7_FE_03_02         // (247, 254,   3,   2)
03_F1_FF_ED         // (  3, 241, 255, 237)
FC_03_00_04         // (252,   3,   0,   4)
02_01_00_FE         // (  2,   1,   0, 254)
03_05_04_E6         // (  3,   5,   4, 230)
FB_FE_01_FF         // (251, 254,   1, 255)
FA_FE_FE_FA         // (250, 254, 254, 250)
F5_F9_F3_D7         // (245, 249, 243, 215)
FD_02_FC_E8         // (253,   2, 252, 232)
02_FE_01_F7         // (  2, 254,   1, 247)
07_06_FC_F4         // (  7,   6, 252, 244)
00_02_F8_F4         // (  0,   2, 248, 244)
FF_FE_02_FF         // (255, 254,   2, 255)
0B_00_FA_FD         // ( 11,   0, 250, 253)
0A_0A_01_03         // ( 10,  10,   1,   3)
02_03_06_03         // (  2,   3,   6,   3)
0C_06_10_FB         // ( 12,   6,  16, 251)
FD_FF_F1_01         // (253, 255, 241,   1)
01_FD_00_04         // (  1, 253,   0,   4)
F9_FD_02_FA         // (249, 253,   2, 250)
04_FB_0F_FC         // (  4, 251,  15, 252)
FF_02_F4_03         // (255,   2, 244,   3)
FE_FC_FB_04         // (254, 252, 251,   4)
FA_FA_FB_03         // (250, 250, 251,   3)
FB_FB_FE_01         // (251, 251, 254,   1)
FF_02_FF_09         // (255,   2, 255,   9)
FD_00_F8_06         // (253,   0, 248,   6)
FA_FD_01_01         // (250, 253,   1,   1)
F7_FA_F9_FE         // (247, 250, 249, 254)
FB_03_05_FF         // (251,   3,   5, 255)
FE_FB_FF_01         // (254, 251, 255,   1)
FF_0A_F5_F9         // (255,  10, 245, 249)
10_08_02_03         // ( 16,   8,   2,   3)
F9_01_04_00         // (249,   1,   4,   0)
F5_02_07_0C         // (245,   2,   7,  12)
FE_0D_00_FD         // (254,  13,   0, 253)
02_06_FE_01         // (  2,   6, 254,   1)
FA_08_F7_FB         // (250,   8, 247, 251)
F7_05_FE_FD         // (247,   5, 254, 253)
FF_00_FF_FF         // (255,   0, 255, 255)
04_00_0F_0C         // (  4,   0,  15,  12)
06_02_FC_EC         // (  6,   2, 252, 236)
FF_FC_06_02         // (255, 252,   6,   2)
02_F4_F8_FB         // (  2, 244, 248, 251)
02_FB_FF_0F         // (  2, 251, 255,  15)
00_F8_FB_02         // (  0, 248, 251,   2)
F2_F7_FF_00         // (242, 247, 255,   0)
FF_FC_00_FC         // (255, 252,   0, 252)
FA_02_03_FA         // (250,   2,   3, 250)
FA_01_FF_07         // (250,   1, 255,   7)
0C_FE_FF_FC         // ( 12, 254, 255, 252)
00_06_02_01         // (  0,   6,   2,   1)
F8_FE_FD_FF         // (248, 254, 253, 255)
04_00_02_FF         // (  4,   0,   2, 255)
08_FF_FF_FD         // (  8, 255, 255, 253)
0C_01_FD_03         // ( 12,   1, 253,   3)
FB_04_04_FF         // (251,   4,   4, 255)
06_0B_00_F6         // (  6,  11,   0, 246)
00_00_FB_01         // (  0,   0, 251,   1)
FF_F1_FF_FC         // (255, 241, 255, 252)
01_FF_01_FF         // (  1, 255,   1, 255)
F7_FB_0D_02         // (247, 251,  13,   2)
00_12_05_02         // (  0,  18,   5,   2)
05_03_01_FB         // (  5,   3,   1, 251)
F3_FF_F2_F3         // (243, 255, 242, 243)
01_00_07_F9         // (  1,   0,   7, 249)
FF_FD_FE_FD         // (255, 253, 254, 253)
FF_FC_FF_FF         // (255, 252, 255, 255)
05_04_FA_00         // (  5,   4, 250,   0)
00_02_FC_00         // (  0,   2, 252,   0)
01_FB_F8_FF         // (  1, 251, 248, 255)
01_04_F9_02         // (  1,   4, 249,   2)
F6_FE_FE_05         // (246, 254, 254,   5)
F9_03_F3_02         // (249,   3, 243,   2)
FC_06_F9_09         // (252,   6, 249,   9)
F6_FD_FE_0F         // (246, 253, 254,  15)
0A_05_FA_00         // ( 10,   5, 250,   0)
09_02_FC_01         // (  9,   2, 252,   1)
FF_02_03_FE         // (255,   2,   3, 254)
13_00_03_F4         // ( 19,   0,   3, 244)
01_07_05_0C         // (  1,   7,   5,  12)
03_01_0C_03         // (  3,   1,  12,   3)
0D_02_02_02         // ( 13,   2,   2,   2)
08_00_01_06         // (  8,   0,   1,   6)
04_00_FF_01         // (  4,   0, 255,   1)
F8_01_02_F7         // (248,   1,   2, 247)
03_05_FF_FD         // (  3,   5, 255, 253)
FF_FE_F7_FF         // (255, 254, 247, 255)
08_0C_FA_FA         // (  8,  12, 250, 250)
07_03_0A_FD         // (  7,   3,  10, 253)
05_F8_00_00         // (  5, 248,   0,   0)
06_09_00_01         // (  6,   9,   0,   1)
07_FC_FB_FE         // (  7, 252, 251, 254)
0E_00_F6_FB         // ( 14,   0, 246, 251)
04_00_FE_03         // (  4,   0, 254,   3)
04_FE_03_FC         // (  4, 254,   3, 252)
FE_FA_FA_02         // (254, 250, 250,   2)
0E_00_02_00         // ( 14,   0,   2,   0)
F4_FC_05_0A         // (244, 252,   5,  10)
FC_FE_FE_00         // (252, 254, 254,   0)
F4_FF_FB_08         // (244, 255, 251,   8)
FF_01_FD_03         // (255,   1, 253,   3)
01_FF_FC_02         // (  1, 255, 252,   2)
09_02_FA_FE         // (  9,   2, 250, 254)
02_03_03_09         // (  2,   3,   3,   9)
02_01_04_08         // (  2,   1,   4,   8)
04_00_F8_0B         // (  4,   0, 248,  11)
01_07_FD_F8         // (  1,   7, 253, 248)
01_FB_FB_03         // (  1, 251, 251,   3)
01_00_FE_03         // (  1,   0, 254,   3)
07_03_04_01         // (  7,   3,   4,   1)
0E_FC_00_02         // ( 14, 252,   0,   2)
02_04_05_03         // (  2,   4,   5,   3)
03_FE_0E_FF         // (  3, 254,  14, 255)
02_03_07_FB         // (  2,   3,   7, 251)
01_03_03_01         // (  1,   3,   3,   1)
04_05_F8_02         // (  4,   5, 248,   2)
05_04_01_02         // (  5,   4,   1,   2)
FF_02_F8_FF         // (255,   2, 248, 255)
03_FF_FF_03         // (  3, 255, 255,   3)
FA_FF_F4_FA         // (250, 255, 244, 250)
02_FF_F5_00         // (  2, 255, 245,   0)
FE_FF_00_03         // (254, 255,   0,   3)
00_FE_F8_FB         // (  0, 254, 248, 251)
03_00_03_03         // (  3,   0,   3,   3)
03_0C_FA_02         // (  3,  12, 250,   2)
FF_02_FC_FB         // (255,   2, 252, 251)
01_FF_00_00         // (  1, 255,   0,   0)
FF_01_01_FD         // (255,   1,   1, 253)
FE_FB_05_F3         // (254, 251,   5, 243)
04_F7_07_04         // (  4, 247,   7,   4)
02_FF_04_0A         // (  2, 255,   4,  10)
FC_FF_02_09         // (252, 255,   2,   9)
FF_0F_FB_0D         // (255,  15, 251,  13)
01_FE_04_00         // (  1, 254,   4,   0)
FE_03_FA_09         // (254,   3, 250,   9)
FE_F9_FD_0A         // (254, 249, 253,  10)
FD_FE_FD_0D         // (253, 254, 253,  13)
FC_06_FF_F9         // (252,   6, 255, 249)
FD_01_05_03         // (253,   1,   5,   3)
01_FC_FB_04         // (  1, 252, 251,   4)
01_FC_01_01         // (  1, 252,   1,   1)
02_FF_05_05         // (  2, 255,   5,   5)
10_04_F7_05         // ( 16,   4, 247,   5)
06_FC_FC_F5         // (  6, 252, 252, 245)
F5_00_FA_FF         // (245,   0, 250, 255)
F3_05_FB_FC         // (243,   5, 251, 252)
F8_05_01_00         // (248,   5,   1,   0)
03_03_02_0D         // (  3,   3,   2,  13)
09_FF_08_09         // (  9, 255,   8,   9)
04_02_03_FC         // (  4,   2,   3, 252)
FB_05_FF_F3         // (251,   5, 255, 243)
FD_FE_00_04         // (253, 254,   0,   4)
F9_01_01_06         // (249,   1,   1,   6)
00_03_FA_16         // (  0,   3, 250,  22)
F7_FD_02_F8         // (247, 253,   2, 248)
F9_FE_FD_F6         // (249, 254, 253, 246)
05_F7_F8_0B         // (  5, 247, 248,  11)
FD_FA_FE_04         // (253, 250, 254,   4)
FB_05_00_06         // (251,   5,   0,   6)
02_09_01_07         // (  2,   9,   1,   7)
F6_FE_FC_02         // (246, 254, 252,   2)
01_08_FD_FE         // (  1,   8, 253, 254)
07_FD_F6_07         // (  7, 253, 246,   7)
00_07_03_05         // (  0,   7,   3,   5)
FE_F5_F7_FB         // (254, 245, 247, 251)
FB_00_00_06         // (251,   0,   0,   6)
FE_02_FF_F8         // (254,   2, 255, 248)
02_FB_06_FD         // (  2, 251,   6, 253)
FB_FA_F8_FB         // (251, 250, 248, 251)
FF_07_FD_08         // (255,   7, 253,   8)
04_00_00_FC         // (  4,   0,   0, 252)
01_00_01_FD         // (  1,   0,   1, 253)
01_06_00_00         // (  1,   6,   0,   0)
01_00_01_FC         // (  1,   0,   1, 252)
0B_04_04_02         // ( 11,   4,   4,   2)
05_02_00_01         // (  5,   2,   0,   1)
0F_FD_FA_FD         // ( 15, 253, 250, 253)
18_08_04_FB         // ( 24,   8,   4, 251)
04_07_01_FD         // (  4,   7,   1, 253)
07_02_05_FD         // (  7,   2,   5, 253)
04_03_02_01         // (  4,   3,   2,   1)
0A_07_04_FE         // ( 10,   7,   4, 254)
0B_0D_FB_FC         // ( 11,  13, 251, 252)
06_01_FE_00         // (  6,   1, 254,   0)
03_01_03_F9         // (  3,   1,   3, 249)
09_FC_F6_01         // (  9, 252, 246,   1)
01_01_04_F6         // (  1,   1,   4, 246)
05_02_F9_12         // (  5,   2, 249,  18)
02_05_FE_FE         // (  2,   5, 254, 254)
00_04_02_FB         // (  0,   4,   2, 251)
04_FF_FE_FC         // (  4, 255, 254, 252)
01_FE_03_FD         // (  1, 254,   3, 253)
F8_FA_07_FC         // (248, 250,   7, 252)
F6_FD_01_FD         // (246, 253,   1, 253)
FB_F9_FD_00         // (251, 249, 253,   0)
FB_FC_02_FC         // (251, 252,   2, 252)
F8_02_07_06         // (248,   2,   7,   6)
12_FF_00_05         // ( 18, 255,   0,   5)
FC_03_02_FD         // (252,   3,   2, 253)
ED_05_01_01         // (237,   5,   1,   1)
FA_FC_06_01         // (250, 252,   6,   1)
FE_05_08_FB         // (254,   5,   8, 251)
00_F6_FE_FE         // (  0, 246, 254, 254)
FE_00_01_FD         // (254,   0,   1, 253)
02_F9_01_FD         // (  2, 249,   1, 253)
03_0B_09_FD         // (  3,  11,   9, 253)
F9_FC_FD_08         // (249, 252, 253,   8)
F8_FD_06_FB         // (248, 253,   6, 251)
05_FD_FF_FF         // (  5, 253, 255, 255)
F9_FA_FC_01         // (249, 250, 252,   1)
00_FC_F8_F6         // (  0, 252, 248, 246)
00_0A_06_00         // (  0,  10,   6,   0)
0A_06_0C_04         // ( 10,   6,  12,   4)
04_FC_EE_FB         // (  4, 252, 238, 251)
00_F9_02_FA         // (  0, 249,   2, 250)
03_02_FB_06         // (  3,   2, 251,   6)
03_F9_FC_FB         // (  3, 249, 252, 251)
03_00_05_FC         // (  3,   0,   5, 252)
07_03_01_FF         // (  7,   3,   1, 255)
02_FB_F8_03         // (  2, 251, 248,   3)
FC_FE_F4_00         // (252, 254, 244,   0)
FD_FC_F4_07         // (253, 252, 244,   7)
FE_FF_FB_F8         // (254, 255, 251, 248)
FF_F9_F7_08         // (255, 249, 247,   8)
FB_FE_06_02         // (251, 254,   6,   2)
FE_03_FE_FD         // (254,   3, 254, 253)
FD_02_FF_04         // (253,   2, 255,   4)
FB_FE_F9_07         // (251, 254, 249,   7)
FE_08_FC_F6         // (254,   8, 252, 246)
01_FF_FB_00         // (  1, 255, 251,   0)
FB_06_F9_02         // (251,   6, 249,   2)
04_FB_FC_FD         // (  4, 251, 252, 253)
FD_00_FF_00         // (253,   0, 255,   0)
F3_F7_FE_FE         // (243, 247, 254, 254)
FF_01_00_FE         // (255,   1,   0, 254)
FF_FE_00_01         // (255, 254,   0,   1)
FB_FF_FC_FF         // (251, 255, 252, 255)
06_03_01_FB         // (  6,   3,   1, 251)
08_03_08_FF         // (  8,   3,   8, 255)
0E_F9_02_F9         // ( 14, 249,   2, 249)
09_03_03_FE         // (  9,   3,   3, 254)
F4_FF_FB_09         // (244, 255, 251,   9)
FC_FD_04_F8         // (252, 253,   4, 248)
10_00_02_04         // ( 16,   0,   2,   4)
FF_02_FF_01         // (255,   2, 255,   1)
FC_FC_FE_00         // (252, 252, 254,   0)
FC_F8_FB_00         // (252, 248, 251,   0)
FA_00_F9_01         // (250,   0, 249,   1)
F4_02_FA_FF         // (244,   2, 250, 255)
FB_FC_F8_FC         // (251, 252, 248, 252)
FE_00_00_00         // (254,   0,   0,   0)
F3_00_FB_FF         // (243,   0, 251, 255)
01_FE_00_01         // (  1, 254,   0,   1)
FC_00_FF_01         // (252,   0, 255,   1)
FB_05_FE_FF         // (251,   5, 254, 255)
FE_05_FB_FA         // (254,   5, 251, 250)
01_FE_FB_FD         // (  1, 254, 251, 253)
F7_04_EB_F7         // (247,   4, 235, 247)
FF_00_03_FC         // (255,   0,   3, 252)
00_08_F6_FD         // (  0,   8, 246, 253)
02_FF_EC_00         // (  2, 255, 236,   0)
FC_FE_12_F8         // (252, 254,  18, 248)
03_FE_01_02         // (  3, 254,   1,   2)
01_FE_FC_FE         // (  1, 254, 252, 254)
FF_02_09_03         // (255,   2,   9,   3)
FC_04_04_07         // (252,   4,   4,   7)
07_07_03_FF         // (  7,   7,   3, 255)
01_FE_FF_03         // (  1, 254, 255,   3)
FF_FF_09_FE         // (255, 255,   9, 254)
FF_FF_01_FD         // (255, 255,   1, 253)
03_FD_04_04         // (  3, 253,   4,   4)
01_FC_FE_02         // (  1, 252, 254,   2)
00_FF_01_00         // (  0, 255,   1,   0)
FF_FC_FE_FF         // (255, 252, 254, 255)
02_07_01_01         // (  2,   7,   1,   1)
02_FE_FA_FA         // (  2, 254, 250, 250)
FD_F6_03_FE         // (253, 246,   3, 254)
02_03_FF_FE         // (  2,   3, 255, 254)
01_F4_FA_F7         // (  1, 244, 250, 247)
FA_FD_FF_01         // (250, 253, 255,   1)
00_FB_01_05         // (  0, 251,   1,   5)
01_FB_FB_FB         // (  1, 251, 251, 251)
06_02_FE_0C         // (  6,   2, 254,  12)
03_00_02_09         // (  3,   0,   2,   9)
F6_01_F8_06         // (246,   1, 248,   6)
F4_02_01_02         // (244,   2,   1,   2)
05_FF_FB_02         // (  5, 255, 251,   2)
F7_00_FE_05         // (247,   0, 254,   5)
02_01_01_04         // (  2,   1,   1,   4)
07_00_01_03         // (  7,   0,   1,   3)
FD_01_F9_07         // (253,   1, 249,   7)
00_FB_FF_FC         // (  0, 251, 255, 252)
FE_FF_00_1B         // (254, 255,   0,  27)
FA_FB_FE_18         // (250, 251, 254,  24)
FE_05_00_03         // (254,   5,   0,   3)
FE_01_03_02         // (254,   1,   3,   2)
F2_01_FA_04         // (242,   1, 250,   4)
FE_05_04_0C         // (254,   5,   4,  12)
05_F9_06_0C         // (  5, 249,   6,  12)
FB_07_FD_EF         // (251,   7, 253, 239)
FC_03_ED_07         // (252,   3, 237,   7)
01_FF_F5_FE         // (  1, 255, 245, 254)
02_03_F8_06         // (  2,   3, 248,   6)
FF_02_EB_FF         // (255,   2, 235, 255)
F9_04_FE_FD         // (249,   4, 254, 253)
FF_08_0C_05         // (255,   8,  12,   5)
0C_00_F7_03         // ( 12,   0, 247,   3)
FF_01_02_FB         // (255,   1,   2, 251)
03_06_00_FC         // (  3,   6,   0, 252)
02_FC_F9_02         // (  2, 252, 249,   2)
00_FD_FD_F9         // (  0, 253, 253, 249)
FB_01_05_02         // (251,   1,   5,   2)
FC_FC_02_00         // (252, 252,   2,   0)
01_06_00_02         // (  1,   6,   0,   2)
00_07_03_FC         // (  0,   7,   3, 252)
FC_00_01_FF         // (252,   0,   1, 255)
F8_01_01_01         // (248,   1,   1,   1)
FF_FE_FC_00         // (255, 254, 252,   0)
13_04_00_0A         // ( 19,   4,   0,  10)
0D_06_FF_00         // ( 13,   6, 255,   0)
11_09_00_11         // ( 17,   9,   0,  17)
FF_06_00_03         // (255,   6,   0,   3)
08_06_01_00         // (  8,   6,   1,   0)
FF_08_03_05         // (255,   8,   3,   5)
0C_0C_03_02         // ( 12,  12,   3,   2)
06_FF_04_FB         // (  6, 255,   4, 251)
0D_05_01_FE         // ( 13,   5,   1, 254)
01_03_05_FD         // (  1,   3,   5, 253)
FE_03_05_0B         // (254,   3,   5,  11)
03_04_05_09         // (  3,   4,   5,   9)
FC_FD_08_04         // (252, 253,   8,   4)
FB_02_02_04         // (251,   2,   2,   4)
FE_FB_FF_01         // (254, 251, 255,   1)
00_04_03_00         // (  0,   4,   3,   0)
FC_00_03_FF         // (252,   0,   3, 255)
FE_01_02_FA         // (254,   1,   2, 250)
02_F9_06_F9         // (  2, 249,   6, 249)
02_0A_01_FD         // (  2,  10,   1, 253)
F2_05_06_FE         // (242,   5,   6, 254)
FF_F6_FE_F9         // (255, 246, 254, 249)
05_02_02_01         // (  5,   2,   2,   1)
FA_0B_02_F9         // (250,  11,   2, 249)
01_FD_00_02         // (  1, 253,   0,   2)
FE_FF_00_01         // (254, 255,   0,   1)
FD_0B_00_FE         // (253,  11,   0, 254)
02_FD_08_FE         // (  2, 253,   8, 254)
FF_FE_03_FF         // (255, 254,   3, 255)
05_FF_00_00         // (  5, 255,   0,   0)
02_FF_01_02         // (  2, 255,   1,   2)
01_FC_01_FC         // (  1, 252,   1, 252)
04_00_07_FD         // (  4,   0,   7, 253)
04_00_FF_FE         // (  4,   0, 255, 254)
00_01_FD_04         // (  0,   1, 253,   4)
03_02_FF_06         // (  3,   2, 255,   6)
02_03_08_00         // (  2,   3,   8,   0)
07_02_00_02         // (  7,   2,   0,   2)
03_00_FF_00         // (  3,   0, 255,   0)
07_FF_03_FC         // (  7, 255,   3, 252)
09_02_07_02         // (  9,   2,   7,   2)
01_00_03_FF         // (  1,   0,   3, 255)
06_F9_03_01         // (  6, 249,   3,   1)
04_FE_08_01         // (  4, 254,   8,   1)
03_FA_04_FB         // (  3, 250,   4, 251)
FD_FD_FA_00         // (253, 253, 250,   0)
FF_01_FD_05         // (255,   1, 253,   5)
03_01_04_FD         // (  3,   1,   4, 253)
F9_02_02_FE         // (249,   2,   2, 254)
FF_F8_FC_06         // (255, 248, 252,   6)
06_03_06_FE         // (  6,   3,   6, 254)
F5_FE_05_0A         // (245, 254,   5,  10)
FA_04_FC_07         // (250,   4, 252,   7)
FD_02_FC_01         // (253,   2, 252,   1)
05_FE_FF_00         // (  5, 254, 255,   0)
FD_01_FE_FE         // (253,   1, 254, 254)
08_02_00_FD         // (  8,   2,   0, 253)
FE_02_02_05         // (254,   2,   2,   5)
FA_00_04_FD         // (250,   0,   4, 253)
01_FC_FF_04         // (  1, 252, 255,   4)
FB_FD_0A_05         // (251, 253,  10,   5)
FF_02_04_FD         // (255,   2,   4, 253)
02_01_FF_03         // (  2,   1, 255,   3)
08_FF_FE_FE         // (  8, 255, 254, 254)
04_01_FF_FF         // (  4,   1, 255, 255)
08_04_03_FF         // (  8,   4,   3, 255)
01_01_01_FF         // (  1,   1,   1, 255)
F3_FC_FE_06         // (243, 252, 254,   6)
F7_FE_02_FE         // (247, 254,   2, 254)
00_07_01_03         // (  0,   7,   1,   3)
01_FE_FE_01         // (  1, 254, 254,   1)
02_FE_03_FC         // (  2, 254,   3, 252)
09_02_FE_F6         // (  9,   2, 254, 246)
00_00_02_0C         // (  0,   0,   2,  12)
FE_01_02_01         // (254,   1,   2,   1)
FC_FC_01_05         // (252, 252,   1,   5)
00_FC_FC_F2         // (  0, 252, 252, 242)
01_FC_04_FC         // (  1, 252,   4, 252)
F5_FE_00_00         // (245, 254,   0,   0)
F6_0B_FF_00         // (246,  11, 255,   0)
FD_FF_03_FC         // (253, 255,   3, 252)
FE_FB_02_03         // (254, 251,   2,   3)
02_03_FF_06         // (  2,   3, 255,   6)
04_01_01_04         // (  4,   1,   1,   4)
FA_00_FF_FD         // (250,   0, 255, 253)
02_FF_FB_03         // (  2, 255, 251,   3)
FD_FE_04_01         // (253, 254,   4,   1)
03_FF_02_FA         // (  3, 255,   2, 250)
FF_FE_03_FF         // (255, 254,   3, 255)
00_00_01_01         // (  0,   0,   1,   1)
05_01_FE_FE         // (  5,   1, 254, 254)
04_FF_F3_01         // (  4, 255, 243,   1)
06_FC_01_02         // (  6, 252,   1,   2)
05_FE_FA_FC         // (  5, 254, 250, 252)
04_08_FC_04         // (  4,   8, 252,   4)
05_04_09_FD         // (  5,   4,   9, 253)
09_FD_FA_FC         // (  9, 253, 250, 252)
01_F8_F6_FF         // (  1, 248, 246, 255)
05_FE_FE_01         // (  5, 254, 254,   1)
07_04_03_FC         // (  7,   4,   3, 252)
03_03_02_06         // (  3,   3,   2,   6)
01_06_FE_02         // (  1,   6, 254,   2)
FD_04_FF_FB         // (253,   4, 255, 251)
FC_F5_02_FB         // (252, 245,   2, 251)
FD_01_FC_FC         // (253,   1, 252, 252)
00_F6_01_FE         // (  0, 246,   1, 254)
07_FA_FC_FE         // (  7, 250, 252, 254)
01_FE_FE_FD         // (  1, 254, 254, 253)
F8_FF_FD_02         // (248, 255, 253,   2)
03_FF_FD_01         // (  3, 255, 253,   1)
06_00_07_02         // (  6,   0,   7,   2)
FE_FD_FD_04         // (254, 253, 253,   4)
FD_FC_FE_FF         // (253, 252, 254, 255)
0B_01_01_0A         // ( 11,   1,   1,  10)
01_FF_01_01         // (  1, 255,   1,   1)
03_FD_FC_FC         // (  3, 253, 252, 252)
07_FF_06_02         // (  7, 255,   6,   2)
FE_FE_00_F8         // (254, 254,   0, 248)
FD_FF_02_F4         // (253, 255,   2, 244)
FE_FE_05_F9         // (254, 254,   5, 249)
FC_05_02_F5         // (252,   5,   2, 245)
0A_FD_01_FB         // ( 10, 253,   1, 251)
00_FC_04_F9         // (  0, 252,   4, 249)
FE_04_01_06         // (254,   4,   1,   6)
0A_FB_03_EE         // ( 10, 251,   3, 238)
03_02_00_EB         // (  3,   2,   0, 235)
FD_FB_00_FE         // (253, 251,   0, 254)
01_03_01_01         // (  1,   3,   1,   1)
02_FE_FC_FA         // (  2, 254, 252, 250)
01_02_00_F8         // (  1,   2,   0, 248)
02_05_02_FE         // (  2,   5,   2, 254)
06_01_00_F9         // (  6,   1,   0, 249)
FE_F5_02_FE         // (254, 245,   2, 254)
FD_00_01_00         // (253,   0,   1,   0)
02_FC_08_FC         // (  2, 252,   8, 252)
FE_00_FF_07         // (254,   0, 255,   7)
03_F6_FE_FF         // (  3, 246, 254, 255)
FE_FE_FC_06         // (254, 254, 252,   6)
FF_04_FF_FD         // (255,   4, 255, 253)
FF_09_FE_02         // (255,   9, 254,   2)
FE_01_00_FE         // (254,   1,   0, 254)
FE_FB_FF_00         // (254, 251, 255,   0)
02_F9_06_02         // (  2, 249,   6,   2)
FD_FA_FF_FF         // (253, 250, 255, 255)
FD_03_02_FF         // (253,   3,   2, 255)
FF_05_04_02         // (255,   5,   4,   2)
FC_FE_02_02         // (252, 254,   2,   2)
FB_07_00_F7         // (251,   7,   0, 247)
03_06_FE_F7         // (  3,   6, 254, 247)
FF_FA_01_01         // (255, 250,   1,   1)
FC_FD_02_FF         // (252, 253,   2, 255)
03_FF_FD_FE         // (  3, 255, 253, 254)
02_FA_01_00         // (  2, 250,   1,   0)
FF_07_01_FC         // (255,   7,   1, 252)
FF_02_FF_00         // (255,   2, 255,   0)
04_FF_01_FA         // (  4, 255,   1, 250)
FF_03_00_00         // (255,   3,   0,   0)
FE_FA_FC_06         // (254, 250, 252,   6)
FE_FF_FE_FA         // (254, 255, 254, 250)
FF_03_FE_02         // (255,   3, 254,   2)
03_05_FF_02         // (  3,   5, 255,   2)
FE_03_FD_00         // (254,   3, 253,   0)
05_09_01_01         // (  5,   9,   1,   1)
03_02_03_FF         // (  3,   2,   3, 255)
F8_FF_FF_00         // (248, 255, 255,   0)
03_04_FC_06         // (  3,   4, 252,   6)
FF_03_01_FC         // (255,   3,   1, 252)
FF_FD_02_09         // (255, 253,   2,   9)
02_04_FE_04         // (  2,   4, 254,   4)
FE_05_FE_02         // (254,   5, 254,   2)
FF_FE_01_01         // (255, 254,   1,   1)
00_09_FC_04         // (  0,   9, 252,   4)
FF_F7_FF_01         // (255, 247, 255,   1)
00_FF_01_04         // (  0, 255,   1,   4)
FB_FC_FF_00         // (251, 252, 255,   0)
FD_17_00_FC         // (253,  23,   0, 252)
00_01_FF_01         // (  0,   1, 255,   1)
00_01_03_FF         // (  0,   1,   3, 255)
04_01_02_FF         // (  4,   1,   2, 255)
02_FC_02_FF         // (  2, 252,   2, 255)
00_00_00_00         // (  0,   0,   0,   0)
00_00_00_00         // (  0,   0,   0,   0)
00_00_00_00         // (  0,   0,   0,   0)
00_00_00_00         // (  0,   0,   0,   0)
00_00_00_00         // (  0,   0,   0,   0)
00_00_00_00         // (  0,   0,   0,   0)
00_00_00_00         // (  0,   0,   0,   0)
00_00_00_00         // (  0,   0,   0,   0)
00_00_00_00         // (  0,   0,   0,   0)
00_00_00_00         // (  0,   0,   0,   0)
00_00_00_00         // (  0,   0,   0,   0)
00_00_00_00         // (  0,   0,   0,   0)
00_00_00_00         // (  0,   0,   0,   0)
00_00_00_00         // (  0,   0,   0,   0)
00_00_00_00         // (  0,   0,   0,   0)
00_00_00_00         // (  0,   0,   0,   0)
00_00_00_00         // (  0,   0,   0,   0)
00_00_00_00         // (  0,   0,   0,   0)
00_00_00_00         // (  0,   0,   0,   0)
00_00_00_00         // (  0,   0,   0,   0)
00_00_00_00         // (  0,   0,   0,   0)
00_00_00_00         // (  0,   0,   0,   0)
00_00_00_00         // (  0,   0,   0,   0)
00_00_00_00         // (  0,   0,   0,   0)
00_00_00_00         // (  0,   0,   0,   0)
00_00_00_00         // (  0,   0,   0,   0)
00_00_00_00         // (  0,   0,   0,   0)
00_00_00_00         // (  0,   0,   0,   0)
00_00_00_00         // (  0,   0,   0,   0)
00_00_00_00         // (  0,   0,   0,   0)
00_00_00_00         // (  0,   0,   0,   0)
00_00_00_00         // (  0,   0,   0,   0)
00_00_00_00         // (  0,   0,   0,   0)
00_00_00_00         // (  0,   0,   0,   0)
00_00_00_00         // (  0,   0,   0,   0)
00_00_00_00         // (  0,   0,   0,   0)
00_00_00_00         // (  0,   0,   0,   0)
00_00_00_00         // (  0,   0,   0,   0)
00_00_00_00         // (  0,   0,   0,   0)
00_00_00_00         // (  0,   0,   0,   0)
00_00_00_00         // (  0,   0,   0,   0)
00_00_00_00         // (  0,   0,   0,   0)
00_00_00_00         // (  0,   0,   0,   0)
00_00_00_00         // (  0,   0,   0,   0)
00_00_00_00         // (  0,   0,   0,   0)
00_00_00_00         // (  0,   0,   0,   0)
00_00_00_00         // (  0,   0,   0,   0)
00_00_00_00         // (  0,   0,   0,   0)
00_00_00_00         // (  0,   0,   0,   0)
00_00_00_00         // (  0,   0,   0,   0)
00_00_00_00         // (  0,   0,   0,   0)
00_00_00_00         // (  0,   0,   0,   0)
00_00_00_00         // (  0,   0,   0,   0)
00_00_00_00         // (  0,   0,   0,   0)
00_00_00_00         // (  0,   0,   0,   0)
00_00_00_00         // (  0,   0,   0,   0)
00_00_00_00         // (  0,   0,   0,   0)
00_00_00_00         // (  0,   0,   0,   0)
00_00_00_00         // (  0,   0,   0,   0)
00_00_00_00         // (  0,   0,   0,   0)
00_00_00_00         // (  0,   0,   0,   0)
00_00_00_00         // (  0,   0,   0,   0)
00_00_00_00         // (  0,   0,   0,   0)
00_00_00_00         // (  0,   0,   0,   0)
00_00_00_00         // (  0,   0,   0,   0)
00_00_00_00         // (  0,   0,   0,   0)
00_00_00_00         // (  0,   0,   0,   0)
00_00_00_00         // (  0,   0,   0,   0)
00_00_00_00         // (  0,   0,   0,   0)
00_00_00_00         // (  0,   0,   0,   0)
00_00_00_00         // (  0,   0,   0,   0)
00_00_00_00         // (  0,   0,   0,   0)
00_00_00_00         // (  0,   0,   0,   0)
00_00_00_00         // (  0,   0,   0,   0)
00_00_00_00         // (  0,   0,   0,   0)
00_00_00_00         // (  0,   0,   0,   0)
00_00_00_00         // (  0,   0,   0,   0)
00_00_00_00         // (  0,   0,   0,   0)
00_00_00_00         // (  0,   0,   0,   0)
00_00_00_00         // (  0,   0,   0,   0)
00_00_00_00         // (  0,   0,   0,   0)
00_00_00_00         // (  0,   0,   0,   0)
00_00_00_00         // (  0,   0,   0,   0)
00_00_00_00         // (  0,   0,   0,   0)
00_00_00_00         // (  0,   0,   0,   0)
00_00_00_00         // (  0,   0,   0,   0)
00_00_00_00         // (  0,   0,   0,   0)
00_00_00_00         // (  0,   0,   0,   0)
00_00_00_00         // (  0,   0,   0,   0)
00_00_00_00         // (  0,   0,   0,   0)
00_00_00_00         // (  0,   0,   0,   0)
00_00_00_00         // (  0,   0,   0,   0)
00_00_00_00         // (  0,   0,   0,   0)
00_00_00_00         // (  0,   0,   0,   0)
00_00_00_00         // (  0,   0,   0,   0)
00_00_00_00         // (  0,   0,   0,   0)
00_00_00_00         // (  0,   0,   0,   0)
00_00_00_00         // (  0,   0,   0,   0)
00_00_00_00         // (  0,   0,   0,   0)
00_00_00_00         // (  0,   0,   0,   0)
00_00_00_00         // (  0,   0,   0,   0)
00_00_00_00         // (  0,   0,   0,   0)
00_00_00_00         // (  0,   0,   0,   0)
00_00_00_00         // (  0,   0,   0,   0)
00_00_00_00         // (  0,   0,   0,   0)
00_00_00_00         // (  0,   0,   0,   0)
00_00_00_00         // (  0,   0,   0,   0)
00_00_00_00         // (  0,   0,   0,   0)
00_00_00_00         // (  0,   0,   0,   0)
00_00_00_00         // (  0,   0,   0,   0)
00_00_00_00         // (  0,   0,   0,   0)
00_00_00_00         // (  0,   0,   0,   0)
00_00_00_00         // (  0,   0,   0,   0)
00_00_00_00         // (  0,   0,   0,   0)
00_00_00_00         // (  0,   0,   0,   0)
00_00_00_00         // (  0,   0,   0,   0)
00_00_00_00         // (  0,   0,   0,   0)
00_00_00_00         // (  0,   0,   0,   0)
00_00_00_00         // (  0,   0,   0,   0)
00_00_00_00         // (  0,   0,   0,   0)
00_00_00_00         // (  0,   0,   0,   0)
00_00_00_00         // (  0,   0,   0,   0)
00_00_00_00         // (  0,   0,   0,   0)
00_00_00_00         // (  0,   0,   0,   0)
00_00_00_00         // (  0,   0,   0,   0)
00_00_00_00         // (  0,   0,   0,   0)
00_00_00_00         // (  0,   0,   0,   0)
00_00_00_00         // (  0,   0,   0,   0)
00_00_00_00         // (  0,   0,   0,   0)
00_00_00_00         // (  0,   0,   0,   0)
00_00_00_00         // (  0,   0,   0,   0)
00_00_00_00         // (  0,   0,   0,   0)
00_00_00_00         // (  0,   0,   0,   0)
00_00_00_00         // (  0,   0,   0,   0)
00_00_00_00         // (  0,   0,   0,   0)
00_00_00_00         // (  0,   0,   0,   0)
00_00_00_00         // (  0,   0,   0,   0)
00_00_00_00         // (  0,   0,   0,   0)
00_00_00_00         // (  0,   0,   0,   0)
00_00_00_00         // (  0,   0,   0,   0)
00_00_00_00         // (  0,   0,   0,   0)
00_00_00_00         // (  0,   0,   0,   0)
00_00_00_00         // (  0,   0,   0,   0)
00_00_00_00         // (  0,   0,   0,   0)
FE_01_09_03         // (254,   1,   9,   3)
FF_01_01_01         // (255,   1,   1,   1)
FA_02_FD_02         // (250,   2, 253,   2)
FF_02_03_00         // (255,   2,   3,   0)
02_00_00_01         // (  2,   0,   0,   1)
FF_02_02_05         // (255,   2,   2,   5)
FC_00_FF_01         // (252,   0, 255,   1)
FF_FC_FF_FC         // (255, 252, 255, 252)
FC_F8_FF_01         // (252, 248, 255,   1)
FB_00_FE_00         // (251,   0, 254,   0)
F9_FF_07_01         // (249, 255,   7,   1)
02_03_00_03         // (  2,   3,   0,   3)
01_04_FC_F7         // (  1,   4, 252, 247)
FF_FE_01_05         // (255, 254,   1,   5)
07_FA_05_01         // (  7, 250,   5,   1)
03_01_FD_ED         // (  3,   1, 253, 237)
FA_00_FF_F9         // (250,   0, 255, 249)
FC_FF_FD_FF         // (252, 255, 253, 255)
03_FF_00_FD         // (  3, 255,   0, 253)
04_FF_02_FC         // (  4, 255,   2, 252)
01_00_00_FC         // (  1,   0,   0, 252)
FA_04_FD_FF         // (250,   4, 253, 255)
05_FA_03_FC         // (  5, 250,   3, 252)
05_FF_02_02         // (  5, 255,   2,   2)
FF_01_FF_FE         // (255,   1, 255, 254)
01_FE_03_FF         // (  1, 254,   3, 255)
FD_04_07_FC         // (253,   4,   7, 252)
00_FE_FC_FB         // (  0, 254, 252, 251)
04_03_03_01         // (  4,   3,   3,   1)
FB_07_FD_FE         // (251,   7, 253, 254)
05_FE_FD_00         // (  5, 254, 253,   0)
EE_FE_FE_04         // (238, 254, 254,   4)
FC_FF_00_00         // (252, 255,   0,   0)
11_07_00_FF         // ( 17,   7,   0, 255)
01_00_04_01         // (  1,   0,   4,   1)
00_00_02_FE         // (  0,   0,   2, 254)
F7_FE_FD_FC         // (247, 254, 253, 252)
F9_05_02_08         // (249,   5,   2,   8)
FB_07_FE_FC         // (251,   7, 254, 252)
FE_FF_00_04         // (254, 255,   0,   4)
FE_01_01_F6         // (254,   1,   1, 246)
01_FC_03_04         // (  1, 252,   3,   4)
03_00_FD_FE         // (  3,   0, 253, 254)
FF_05_02_FD         // (255,   5,   2, 253)
01_00_FC_04         // (  1,   0, 252,   4)
FE_01_02_FF         // (254,   1,   2, 255)
FE_05_04_00         // (254,   5,   4,   0)
03_FD_01_FF         // (  3, 253,   1, 255)
06_FF_0E_00         // (  6, 255,  14,   0)
00_04_FE_FE         // (  0,   4, 254, 254)
03_00_08_01         // (  3,   0,   8,   1)
03_01_07_04         // (  3,   1,   7,   4)
02_01_FC_FE         // (  2,   1, 252, 254)
00_FC_FF_01         // (  0, 252, 255,   1)
FC_FE_FD_06         // (252, 254, 253,   6)
FE_FF_07_06         // (254, 255,   7,   6)
05_01_05_07         // (  5,   1,   5,   7)
FA_FE_FA_06         // (250, 254, 250,   6)
FC_03_15_04         // (252,   3,  21,   4)
FC_FE_0A_0E         // (252, 254,  10,  14)
FC_04_0A_07         // (252,   4,  10,   7)
FD_00_0E_01         // (253,   0,  14,   1)
FC_FF_00_07         // (252, 255,   0,   7)
01_01_FF_FF         // (  1,   1, 255, 255)
FE_01_00_00         // (254,   1,   0,   0)
04_F9_00_02         // (  4, 249,   0,   2)
FF_FE_FE_FC         // (255, 254, 254, 252)
FE_FC_07_FC         // (254, 252,   7, 252)
FF_FE_01_00         // (255, 254,   1,   0)
03_02_FD_FE         // (  3,   2, 253, 254)
02_FD_03_01         // (  2, 253,   3,   1)
FF_FC_FF_01         // (255, 252, 255,   1)
FA_FC_FE_FA         // (250, 252, 254, 250)
06_FE_01_00         // (  6, 254,   1,   0)
02_FC_FE_FF         // (  2, 252, 254, 255)
09_01_01_FE         // (  9,   1,   1, 254)
00_02_FB_05         // (  0,   2, 251,   5)
FD_F8_FA_FC         // (253, 248, 250, 252)
10_FE_FF_FE         // ( 16, 254, 255, 254)
0B_FE_FE_00         // ( 11, 254, 254,   0)
04_00_FB_FB         // (  4,   0, 251, 251)
06_03_F9_F9         // (  6,   3, 249, 249)
04_02_FD_0C         // (  4,   2, 253,  12)
05_00_FA_F4         // (  5,   0, 250, 244)
0D_FD_FE_F3         // ( 13, 253, 254, 243)
02_FC_FE_17         // (  2, 252, 254,  23)
0C_FC_FB_EE         // ( 12, 252, 251, 238)
07_03_FD_F5         // (  7,   3, 253, 245)
04_FE_FB_0A         // (  4, 254, 251,  10)
0A_00_F7_F1         // ( 10,   0, 247, 241)
03_FD_03_FB         // (  3, 253,   3, 251)
FF_02_FC_FA         // (255,   2, 252, 250)
FD_09_0D_FD         // (253,   9,  13, 253)
06_01_FE_03         // (  6,   1, 254,   3)
FE_FC_02_FE         // (254, 252,   2, 254)
03_01_F9_06         // (  3,   1, 249,   6)
00_06_00_02         // (  0,   6,   0,   2)
FF_01_04_FE         // (255,   1,   4, 254)
FE_03_06_00         // (254,   3,   6,   0)
FE_00_03_EF         // (254,   0,   3, 239)
01_01_00_0E         // (  1,   1,   0,  14)
01_03_01_06         // (  1,   3,   1,   6)
02_FD_05_FF         // (  2, 253,   5, 255)
FE_08_00_06         // (254,   8,   0,   6)
00_FF_FD_05         // (  0, 255, 253,   5)
04_03_02_01         // (  4,   3,   2,   1)
02_FD_FF_00         // (  2, 253, 255,   0)
02_FE_00_02         // (  2, 254,   0,   2)
FB_06_FF_FF         // (251,   6, 255, 255)
01_FE_02_00         // (  1, 254,   2,   0)
F7_05_FC_04         // (247,   5, 252,   4)
01_0A_02_FF         // (  1,  10,   2, 255)
FC_F8_FF_FF         // (252, 248, 255, 255)
F9_F9_FE_02         // (249, 249, 254,   2)
02_0D_FE_FF         // (  2,  13, 254, 255)
FD_FC_00_FC         // (253, 252,   0, 252)
FA_F2_00_FF         // (250, 242,   0, 255)
00_FA_FD_01         // (  0, 250, 253,   1)
02_03_00_04         // (  2,   3,   0,   4)
04_03_03_05         // (  4,   3,   3,   5)
FF_FE_00_FD         // (255, 254,   0, 253)
01_FE_00_FF         // (  1, 254,   0, 255)
00_FB_01_FE         // (  0, 251,   1, 254)
FE_FE_01_FF         // (254, 254,   1, 255)
FE_FF_02_00         // (254, 255,   2,   0)
01_02_FE_FF         // (  1,   2, 254, 255)
FB_FA_FF_FF         // (251, 250, 255, 255)
F9_FE_02_FF         // (249, 254,   2, 255)
07_FD_FC_00         // (  7, 253, 252,   0)
FD_F6_01_04         // (253, 246,   1,   4)
03_FE_FF_01         // (  3, 254, 255,   1)
05_04_FF_01         // (  5,   4, 255,   1)
05_F5_FB_00         // (  5, 245, 251,   0)
03_FD_03_00         // (  3, 253,   3,   0)
FE_07_04_FE         // (254,   7,   4, 254)
FD_08_01_FE         // (253,   8,   1, 254)
03_F4_FB_00         // (  3, 244, 251,   0)
02_04_FD_FE         // (  2,   4, 253, 254)
01_FA_FF_00         // (  1, 250, 255,   0)
01_0E_06_07         // (  1,  14,   6,   7)
FF_FB_00_FF         // (255, 251,   0, 255)
01_FF_06_00         // (  1, 255,   6,   0)
FD_05_02_02         // (253,   5,   2,   2)
00_FF_04_FF         // (  0, 255,   4, 255)
FE_02_07_06         // (254,   2,   7,   6)
03_04_07_FF         // (  3,   4,   7, 255)
FB_FE_0B_FC         // (251, 254,  11, 252)
FD_FF_09_04         // (253, 255,   9,   4)
00_FF_05_01         // (  0, 255,   5,   1)
FA_08_05_FC         // (250,   8,   5, 252)
FB_01_03_FE         // (251,   1,   3, 254)
FD_FE_04_01         // (253, 254,   4,   1)
F7_F7_08_F9         // (247, 247,   8, 249)
04_FD_03_F7         // (  4, 253,   3, 247)
FF_FF_FD_FF         // (255, 255, 253, 255)
03_FE_08_02         // (  3, 254,   8,   2)
07_F7_02_0E         // (  7, 247,   2,  14)
FD_FD_01_05         // (253, 253,   1,   5)
FF_03_05_03         // (255,   3,   5,   3)
0B_FD_05_F5         // ( 11, 253,   5, 245)
04_FC_01_04         // (  4, 252,   1,   4)
05_FD_FE_F9         // (  5, 253, 254, 249)
01_01_FC_01         // (  1,   1, 252,   1)
07_FE_FF_FC         // (  7, 254, 255, 252)
FC_03_00_FE         // (252,   3,   0, 254)
FE_FD_02_00         // (254, 253,   2,   0)
FE_FE_04_FF         // (254, 254,   4, 255)
F7_FE_FF_F8         // (247, 254, 255, 248)
FF_02_F9_02         // (255,   2, 249,   2)
F8_FE_FE_FD         // (248, 254, 254, 253)
EA_01_02_02         // (234,   1,   2,   2)
02_08_FD_00         // (  2,   8, 253,   0)
F6_00_02_FF         // (246,   0,   2, 255)
FF_03_FC_06         // (255,   3, 252,   6)
03_02_FF_0A         // (  3,   2, 255,  10)
07_00_FD_02         // (  7,   0, 253,   2)
FF_02_FD_09         // (255,   2, 253,   9)
10_FF_07_07         // ( 16, 255,   7,   7)
FC_F7_FF_04         // (252, 247, 255,   4)
06_03_03_02         // (  6,   3,   3,   2)
03_FC_FA_01         // (  3, 252, 250,   1)
FF_FB_FE_03         // (255, 251, 254,   3)
FE_02_02_00         // (254,   2,   2,   0)
FC_00_FF_09         // (252,   0, 255,   9)
FB_02_01_F6         // (251,   2,   1, 246)
FA_FE_FE_FB         // (250, 254, 254, 251)
F8_04_01_F1         // (248,   4,   1, 241)
F6_04_02_F7         // (246,   4,   2, 247)
FB_03_07_F3         // (251,   3,   7, 243)
00_05_07_00         // (  0,   5,   7,   0)
FC_FF_0C_FA         // (252, 255,  12, 250)
07_03_08_09         // (  7,   3,   8,   9)
01_FD_05_FD         // (  1, 253,   5, 253)
FC_06_0A_FE         // (252,   6,  10, 254)
02_FE_00_05         // (  2, 254,   0,   5)
FE_04_05_01         // (254,   4,   5,   1)
FE_01_F8_FA         // (254,   1, 248, 250)
00_FD_0D_04         // (  0, 253,  13,   4)
00_03_08_09         // (  0,   3,   8,   9)
F8_01_02_FD         // (248,   1,   2, 253)
F9_F9_0C_FF         // (249, 249,  12, 255)
FB_01_FF_03         // (251,   1, 255,   3)
FA_FE_0C_05         // (250, 254,  12,   5)
FD_FC_04_04         // (253, 252,   4,   4)
00_FF_05_02         // (  0, 255,   5,   2)
FB_F2_09_FE         // (251, 242,   9, 254)
F9_FB_08_01         // (249, 251,   8,   1)
FD_07_01_05         // (253,   7,   1,   5)
FF_FC_FD_0D         // (255, 252, 253,  13)
00_01_FB_04         // (  0,   1, 251,   4)
FC_FC_01_03         // (252, 252,   1,   3)
FA_03_FE_0A         // (250,   3, 254,  10)
01_FF_FD_04         // (  1, 255, 253,   4)
00_1B_FB_05         // (  0,  27, 251,   5)
FE_FA_FE_05         // (254, 250, 254,   5)
06_FC_03_F8         // (  6, 252,   3, 248)
11_03_02_FB         // ( 17,   3,   2, 251)
FE_FE_FC_01         // (254, 254, 252,   1)
00_FC_04_FF         // (  0, 252,   4, 255)
FD_FF_FE_FA         // (253, 255, 254, 250)
FD_FC_00_FC         // (253, 252,   0, 252)
0B_FE_07_01         // ( 11, 254,   7,   1)
FF_00_01_F5         // (255,   0,   1, 245)
FE_FC_02_F7         // (254, 252,   2, 247)
06_03_09_00         // (  6,   3,   9,   0)
FD_00_FE_13         // (253,   0, 254,  19)
08_FF_FA_11         // (  8, 255, 250,  17)
FA_FD_FD_0C         // (250, 253, 253,  12)
03_00_FC_10         // (  3,   0, 252,  16)
06_03_FC_FC         // (  6,   3, 252, 252)
F7_01_FA_08         // (247,   1, 250,   8)
00_02_FF_F3         // (  0,   2, 255, 243)
03_02_FA_08         // (  3,   2, 250,   8)
EB_00_FF_04         // (235,   0, 255,   4)
02_FC_FA_04         // (  2, 252, 250,   4)
FD_FA_FD_08         // (253, 250, 253,   8)
FE_FF_FC_09         // (254, 255, 252,   9)
02_FA_FE_05         // (  2, 250, 254,   5)
FF_05_FD_FE         // (255,   5, 253, 254)
FE_00_FE_04         // (254,   0, 254,   4)
0C_F9_02_0A         // ( 12, 249,   2,  10)
FD_FD_F8_08         // (253, 253, 248,   8)
FE_01_FD_07         // (254,   1, 253,   7)
FD_02_00_FF         // (253,   2,   0, 255)
FB_09_02_F5         // (251,   9,   2, 245)
FB_01_03_03         // (251,   1,   3,   3)
FC_FD_01_FC         // (252, 253,   1, 252)
02_0A_04_F9         // (  2,  10,   4, 249)
FB_00_FE_01         // (251,   0, 254,   1)
00_FE_00_01         // (  0, 254,   0,   1)
FA_FD_01_FE         // (250, 253,   1, 254)
FC_FF_03_0C         // (252, 255,   3,  12)
FA_00_FD_04         // (250,   0, 253,   4)
05_F9_FB_04         // (  5, 249, 251,   4)
00_FE_02_FE         // (  0, 254,   2, 254)
02_F7_F8_02         // (  2, 247, 248,   2)
02_F7_FF_03         // (  2, 247, 255,   3)
FF_FD_00_03         // (255, 253,   0,   3)
0E_FD_00_FF         // ( 14, 253,   0, 255)
05_04_FF_03         // (  5,   4, 255,   3)
FB_F6_04_00         // (251, 246,   4,   0)
FC_0B_06_01         // (252,  11,   6,   1)
FC_01_02_03         // (252,   1,   2,   3)
FF_01_01_FB         // (255,   1,   1, 251)
FF_00_FE_FC         // (255,   0, 254, 252)
F7_FE_FC_FF         // (247, 254, 252, 255)
01_FB_03_F9         // (  1, 251,   3, 249)
FE_FF_03_F3         // (254, 255,   3, 243)
F8_FB_FC_F5         // (248, 251, 252, 245)
FD_01_01_F2         // (253,   1,   1, 242)
08_FE_01_03         // (  8, 254,   1,   3)
FB_FE_FE_03         // (251, 254, 254,   3)
FB_01_FE_02         // (251,   1, 254,   2)
07_04_FA_00         // (  7,   4, 250,   0)
03_F8_FB_02         // (  3, 248, 251,   2)
06_FD_00_02         // (  6, 253,   0,   2)
02_05_FF_FF         // (  2,   5, 255, 255)
FD_FE_02_05         // (253, 254,   2,   5)
08_FB_FE_04         // (  8, 251, 254,   4)
00_01_04_00         // (  0,   1,   4,   0)
FE_FC_FD_FD         // (254, 252, 253, 253)
01_03_FE_FF         // (  1,   3, 254, 255)
00_F1_FE_FF         // (  0, 241, 254, 255)
02_0D_FB_06         // (  2,  13, 251,   6)
FE_03_FB_FC         // (254,   3, 251, 252)
FE_FD_02_03         // (254, 253,   2,   3)
05_FC_04_03         // (  5, 252,   4,   3)
05_F3_05_00         // (  5, 243,   5,   0)
02_FD_F6_FA         // (  2, 253, 246, 250)
00_06_00_FA         // (  0,   6,   0, 250)
05_FE_FE_FA         // (  5, 254, 254, 250)
02_FD_FB_00         // (  2, 253, 251,   0)
01_FB_02_05         // (  1, 251,   2,   5)
FC_03_FF_01         // (252,   3, 255,   1)
02_01_F4_FB         // (  2,   1, 244, 251)
07_FE_03_03         // (  7, 254,   3,   3)
01_04_FE_FF         // (  1,   4, 254, 255)
00_02_0C_F8         // (  0,   2,  12, 248)
FF_03_07_F5         // (255,   3,   7, 245)
FE_00_05_F6         // (254,   0,   5, 246)
03_05_0A_FE         // (  3,   5,  10, 254)
FD_00_FF_03         // (253,   0, 255,   3)
FC_00_02_F8         // (252,   0,   2, 248)
06_02_0C_0B         // (  6,   2,  12,  11)
FF_FC_02_07         // (255, 252,   2,   7)
FE_FE_0D_FD         // (254, 254,  13, 253)
F8_FE_00_FC         // (248, 254,   0, 252)
F4_03_00_FA         // (244,   3,   0, 250)
F7_05_04_FF         // (247,   5,   4, 255)
FE_02_00_03         // (254,   2,   0,   3)
F9_02_0D_FF         // (249,   2,  13, 255)
F4_02_02_FF         // (244,   2,   2, 255)
FF_03_02_01         // (255,   3,   2,   1)
FD_FD_00_FD         // (253, 253,   0, 253)
F0_FB_03_FF         // (240, 251,   3, 255)
01_03_04_01         // (  1,   3,   4,   1)
F7_FF_00_04         // (247, 255,   0,   4)
FC_FE_03_06         // (252, 254,   3,   6)
00_00_03_03         // (  0,   0,   3,   3)
FF_FE_00_FF         // (255, 254,   0, 255)
F3_FF_FD_02         // (243, 255, 253,   2)
FF_0C_FC_00         // (255,  12, 252,   0)
00_FE_00_01         // (  0, 254,   0,   1)
09_03_02_06         // (  9,   3,   2,   6)
04_FA_FB_FE         // (  4, 250, 251, 254)
F9_00_00_07         // (249,   0,   0,   7)
FD_FC_01_FC         // (253, 252,   1, 252)
03_03_FC_06         // (  3,   3, 252,   6)
FD_FC_01_F3         // (253, 252,   1, 243)
FF_03_FE_FD         // (255,   3, 254, 253)
0A_00_FE_05         // ( 10,   0, 254,   5)
04_08_00_02         // (  4,   8,   0,   2)
00_00_FD_03         // (  0,   0, 253,   3)
05_FF_FD_FF         // (  5, 255, 253, 255)
06_01_F8_09         // (  6,   1, 248,   9)
FC_02_FE_04         // (252,   2, 254,   4)
03_02_F3_06         // (  3,   2, 243,   6)
FE_01_FA_F8         // (254,   1, 250, 248)
03_FE_00_FC         // (  3, 254,   0, 252)
FF_04_FD_00         // (255,   4, 253,   0)
00_03_F8_03         // (  0,   3, 248,   3)
FD_FA_03_FE         // (253, 250,   3, 254)
07_03_F3_0E         // (  7,   3, 243,  14)
04_00_FA_08         // (  4,   0, 250,   8)
04_FE_00_07         // (  4, 254,   0,   7)
0B_FD_F9_0A         // ( 11, 253, 249,  10)
05_05_04_05         // (  5,   5,   4,   5)
04_FE_FD_06         // (  4, 254, 253,   6)
0B_05_0B_09         // ( 11,   5,  11,   9)
01_F9_07_07         // (  1, 249,   7,   7)
03_00_07_0B         // (  3,   0,   7,  11)
FF_FB_01_03         // (255, 251,   1,   3)
03_FB_FD_04         // (  3, 251, 253,   4)
05_F6_00_FE         // (  5, 246,   0, 254)
FE_0A_01_01         // (254,  10,   1,   1)
00_FE_00_FD         // (  0, 254,   0, 253)
FF_F8_FF_04         // (255, 248, 255,   4)
FF_08_00_04         // (255,   8,   0,   4)
02_04_02_07         // (  2,   4,   2,   7)
00_F7_01_04         // (  0, 247,   1,   4)
03_FD_F9_10         // (  3, 253, 249,  16)
02_02_00_05         // (  2,   2,   0,   5)
02_FE_F7_09         // (  2, 254, 247,   9)
04_00_01_03         // (  4,   0,   1,   3)
FD_FD_02_FF         // (253, 253,   2, 255)
FE_FF_FD_FE         // (254, 255, 253, 254)
F8_01_05_13         // (248,   1,   5,  19)
FE_FE_05_FF         // (254, 254,   5, 255)
FC_08_FE_03         // (252,   8, 254,   3)
FF_FB_07_09         // (255, 251,   7,   9)
00_FD_05_0B         // (  0, 253,   5,  11)
FC_01_03_04         // (252,   1,   3,   4)
05_03_00_FC         // (  5,   3,   0, 252)
0B_00_05_06         // ( 11,   0,   5,   6)
05_FE_04_FE         // (  5, 254,   4, 254)
06_FE_09_F7         // (  6, 254,   9, 247)
01_FE_00_03         // (  1, 254,   0,   3)
02_01_00_FE         // (  2,   1,   0, 254)
03_FC_FD_FC         // (  3, 252, 253, 252)
00_05_FC_03         // (  0,   5, 252,   3)
02_03_09_03         // (  2,   3,   9,   3)
FD_0C_00_03         // (253,  12,   0,   3)
FC_FC_05_00         // (252, 252,   5,   0)
FF_FE_FB_00         // (255, 254, 251,   0)
06_F5_F6_FB         // (  6, 245, 246, 251)
FE_FB_02_FE         // (254, 251,   2, 254)
03_FA_FA_05         // (  3, 250, 250,   5)
02_00_FF_FD         // (  2,   0, 255, 253)
00_FF_FC_FD         // (  0, 255, 252, 253)
FC_01_FD_01         // (252,   1, 253,   1)
FE_01_FE_FD         // (254,   1, 254, 253)
FE_0A_03_FE         // (254,  10,   3, 254)
FF_03_FF_F5         // (255,   3, 255, 245)
03_02_00_FC         // (  3,   2,   0, 252)
F7_03_05_F5         // (247,   3,   5, 245)
FE_FD_03_F8         // (254, 253,   3, 248)
F4_FC_01_02         // (244, 252,   1,   2)
F9_F5_FE_FB         // (249, 245, 254, 251)
F0_F7_05_01         // (240, 247,   5,   1)
00_01_FE_01         // (  0,   1, 254,   1)
