FB_F3_0A_F6         // ( -5, -13,  10, -10)
11_01_F3_F1         // ( 17,   1, -13, -15)
FA_F9_FA_FF         // ( -6,  -7,  -6,  -1)
04_FE_05_FF         // (  4,  -2,   5,  -1)
06_0B_F4_FE         // (  6,  11, -12,  -2)
F2_07_02_00         // (-14,   7,   2,   0)
0A_F4_02_DF         // ( 10, -12,   2, -33)
FC_04_04_FD         // ( -4,   4,   4,  -3)
F4_03_FE_F5         // (-12,   3,  -2, -11)
F4_08_03_10         // (-12,   8,   3,  16)
01_FF_FA_10         // (  1,  -1,  -6,  16)
FB_07_00_FA         // ( -5,   7,   0,  -6)
FB_FB_0A_04         // ( -5,  -5,  10,   4)
06_F9_05_F8         // (  6,  -7,   5,  -8)
00_09_FD_FC         // (  0,   9,  -3,  -4)
F0_09_FE_02         // (-16,   9,  -2,   2)
FB_11_F7_FE         // ( -5,  17,  -9,  -2)
03_14_F4_F9         // (  3,  20, -12,  -7)
13_00_0A_06         // ( 19,   0,  10,   6)
05_08_00_FD         // (  5,   8,   0,  -3)
0A_03_00_0C         // ( 10,   3,   0,  12)
12_06_06_FC         // ( 18,   6,   6,  -4)
04_FF_01_F8         // (  4,  -1,   1,  -8)
09_0C_09_F9         // (  9,  12,   9,  -7)
0E_10_F1_FB         // ( 14,  16, -15,  -5)
08_05_F9_F2         // (  8,   5,  -7, -14)
F7_0E_0C_F7         // ( -9,  14,  12,  -9)
07_09_F8_09         // (  7,   9,  -8,   9)
0C_FB_03_0A         // ( 12,  -5,   3,  10)
08_E8_F5_0A         // (  8, -24, -11,  10)
0D_06_F0_FD         // ( 13,   6, -16,  -3)
F8_FD_01_05         // ( -8,  -3,   1,   5)
F4_F8_0C_06         // (-12,  -8,  12,   6)
16_ED_EE_FF         // ( 22, -19, -18,  -1)
08_E6_FA_F5         // (  8, -26,  -6, -11)
F0_E8_02_04         // (-16, -24,   2,   4)
FA_09_FA_04         // ( -6,   9,  -6,   4)
FB_03_09_0A         // ( -5,   3,   9,  10)
F9_08_07_F5         // ( -7,   8,   7, -11)
07_0B_02_03         // (  7,  11,   2,   3)
03_0D_01_06         // (  3,  13,   1,   6)
FE_04_0F_FF         // ( -2,   4,  15,  -1)
07_0A_F1_FD         // (  7,  10, -15,  -3)
11_F7_F8_F0         // ( 17,  -9,  -8, -16)
F7_03_0B_FA         // ( -9,   3,  11,  -6)
F9_02_FD_11         // ( -7,   2,  -3,  17)
FE_FC_F2_FE         // ( -2,  -4, -14,  -2)
04_FF_14_03         // (  4,  -1,  20,   3)
FE_FC_F3_00         // ( -2,  -4, -13,   0)
09_FF_E7_FA         // (  9,  -1, -25,  -6)
1E_FC_10_09         // ( 30,  -4,  16,   9)
0F_04_03_F6         // ( 15,   4,   3, -10)
06_FC_04_F3         // (  6,  -4,   4, -13)
F3_EB_0E_FC         // (-13, -21,  14,  -4)
10_FF_06_FA         // ( 16,  -1,   6,  -6)
09_00_06_FD         // (  9,   0,   6,  -3)
FE_F1_13_FA         // ( -2, -15,  19,  -6)
11_0E_11_F2         // ( 17,  14,  17, -14)
04_FE_11_01         // (  4,  -2,  17,   1)
04_F0_0A_F3         // (  4, -16,  10, -13)
F8_FB_FD_00         // ( -8,  -5,  -3,   0)
FB_FB_0A_FD         // ( -5,  -5,  10,  -3)
09_FC_0F_FB         // (  9,  -4,  15,  -5)
0E_06_04_F1         // ( 14,   6,   4, -15)
06_07_0E_ED         // (  6,   7,  14, -19)
05_F3_FB_EC         // (  5, -13,  -5, -20)
05_FB_04_F9         // (  5,  -5,   4,  -7)
07_FF_0F_04         // (  7,  -1,  15,   4)
0C_05_00_01         // ( 12,   5,   0,   1)
05_FC_07_F9         // (  5,  -4,   7,  -7)
FD_02_09_0D         // ( -3,   2,   9,  13)
06_03_03_0C         // (  6,   3,   3,  12)
03_02_F9_0D         // (  3,   2,  -7,  13)
FF_02_EB_FB         // ( -1,   2, -21,  -5)
1B_08_05_FD         // ( 27,   8,   5,  -3)
0D_FE_0A_F2         // ( 13,  -2,  10, -14)
FB_00_04_EE         // ( -5,   0,   4, -18)
FE_F9_FA_F6         // ( -2,  -7,  -6, -10)
06_0C_04_E5         // (  6,  12,   4, -27)
04_06_F1_EE         // (  4,   6, -15, -18)
FC_F8_05_F1         // ( -4,  -8,   5, -15)
05_F0_10_FF         // (  5, -16,  16,  -1)
FB_E8_F0_03         // ( -5, -24, -16,   3)
06_FC_F6_06         // (  6,  -4, -10,   6)
05_E0_0E_03         // (  5, -32,  14,   3)
0A_E1_F5_0E         // ( 10, -31, -11,  14)
0B_F7_F0_F4         // ( 11,  -9, -16, -12)
06_00_0D_01         // (  6,   0,  13,   1)
08_01_04_FC         // (  8,   1,   4,  -4)
08_09_FB_F9         // (  8,   9,  -5,  -7)
FF_EF_FA_02         // ( -1, -17,  -6,   2)
05_0E_09_05         // (  5,  14,   9,   5)
FD_F9_0C_FD         // ( -3,  -7,  12,  -3)
03_07_02_08         // (  3,   7,   2,   8)
0B_06_01_FB         // ( 11,   6,   1,  -5)
FD_00_00_06         // ( -3,   0,   0,   6)
15_F3_FD_07         // ( 21, -13,  -3,   7)
09_03_04_04         // (  9,   3,   4,   4)
0B_04_01_FC         // ( 11,   4,   1,  -4)
06_1A_00_F3         // (  6,  26,   0, -13)
FC_0B_09_FE         // ( -4,  11,   9,  -2)
F4_04_FE_13         // (-12,   4,  -2,  19)
FE_01_00_F9         // ( -2,   1,   0,  -7)
F8_01_09_F9         // ( -8,   1,   9,  -7)
0A_05_F4_0C         // ( 10,   5, -12,  12)
F3_F8_FE_F8         // (-13,  -8,  -2,  -8)
06_08_08_FC         // (  6,   8,   8,  -4)
00_15_02_0E         // (  0,  21,   2,  14)
F4_FE_FE_F3         // (-12,  -2,  -2, -13)
F8_05_F7_02         // ( -8,   5,  -9,   2)
F5_FB_E2_FC         // (-11,  -5, -30,  -4)
E8_06_FE_02         // (-24,   6,  -2,   2)
FF_00_F9_00         // ( -1,   0,  -7,   0)
01_03_E6_06         // (  1,   3, -26,   6)
FC_F3_04_04         // ( -4, -13,   4,   4)
07_FE_0A_00         // (  7,  -2,  10,   0)
FE_F9_F8_FA         // ( -2,  -7,  -8,  -6)
F7_01_FB_F4         // ( -9,   1,  -5, -12)
0E_FA_05_02         // ( 14,  -6,   5,   2)
08_FE_FC_FF         // (  8,  -2,  -4,  -1)
F2_FB_06_FF         // (-14,  -5,   6,  -1)
04_F2_0E_05         // (  4, -14,  14,   5)
FB_01_FA_04         // ( -5,   1,  -6,   4)
EE_FB_FE_02         // (-18,  -5,  -2,   2)
02_0F_02_04         // (  2,  15,   2,   4)
09_01_FF_F9         // (  9,   1,  -1,  -7)
FA_FF_F5_0E         // ( -6,  -1, -11,  14)
FE_FE_11_03         // ( -2,  -2,  17,   3)
10_0A_19_02         // ( 16,  10,  25,   2)
FF_E7_FC_03         // ( -1, -25,  -4,   3)
FF_FE_01_02         // ( -1,  -2,   1,   2)
FD_0D_F8_0C         // ( -3,  13,  -8,  12)
14_FC_FF_00         // ( 20,  -4,  -1,   0)
08_F9_0A_F7         // (  8,  -7,  10,  -9)
17_FF_FF_04         // ( 23,  -1,  -1,   4)
F0_02_EC_FB         // (-16,   2, -20,  -5)
FC_0A_FF_0A         // ( -4,  10,  -1,  10)
E6_0D_E4_11         // (-26,  13, -28,  17)
FC_F4_F8_0C         // ( -4, -12,  -8,  12)
FA_FF_FB_07         // ( -6,  -1,  -5,   7)
FC_0C_F9_FC         // ( -4,  12,  -7,  -4)
F3_F3_03_F9         // (-13, -13,   3,  -7)
FC_05_02_E6         // ( -4,   5,   2, -26)
FB_03_FC_F8         // ( -5,   3,  -4,  -8)
FB_FE_04_FB         // ( -5,  -2,   4,  -5)
F7_06_FE_FE         // ( -9,   6,  -2,  -2)
FC_03_FB_FB         // ( -4,   3,  -5,  -5)
00_01_01_FA         // (  0,   1,   1,  -6)
07_04_F8_06         // (  7,   4,  -8,   6)
0C_02_FF_FF         // ( 12,   2,  -1,  -1)
F9_FE_FF_00         // ( -7,  -2,  -1,   0)
F7_05_F6_FD         // ( -9,   5, -10,  -3)
04_07_FD_FF         // (  4,   7,  -3,  -1)
F7_F8_F9_F7         // ( -9,  -8,  -7,  -9)
FB_F4_00_FA         // ( -5, -12,   0,  -6)
FC_F8_01_FD         // ( -4,  -8,   1,  -3)
FD_03_09_FE         // ( -3,   3,   9,  -2)
01_01_03_09         // (  1,   1,   3,   9)
03_03_02_FF         // (  3,   3,   2,  -1)
FF_FD_F8_FC         // ( -1,  -3,  -8,  -4)
F7_FF_F7_FC         // ( -9,  -1,  -9,  -4)
FC_FA_FD_FA         // ( -4,  -6,  -3,  -6)
FD_00_FC_F7         // ( -3,   0,  -4,  -9)
F3_02_FB_FD         // (-13,   2,  -5,  -3)
FC_FF_01_06         // ( -4,  -1,   1,   6)
0B_FE_FF_0B         // ( 11,  -2,  -1,  11)
F1_FE_E3_F8         // (-15,  -2, -29,  -8)
00_FC_00_0C         // (  0,  -4,   0,  12)
03_00_F9_00         // (  3,   0,  -7,   0)
F5_FD_FF_05         // (-11,  -3,  -1,   5)
FE_F8_FC_04         // ( -2,  -8,  -4,   4)
03_FA_F4_01         // (  3,  -6, -12,   1)
01_FF_00_FE         // (  1,  -1,   0,  -2)
FC_F7_F7_FF         // ( -4,  -9,  -9,  -1)
06_06_08_FE         // (  6,   6,   8,  -2)
EE_03_FC_FE         // (-18,   3,  -4,  -2)
FD_0A_FF_01         // ( -3,  10,  -1,   1)
FD_FD_F6_04         // ( -3,  -3, -10,   4)
F6_04_FD_05         // (-10,   4,  -3,   5)
03_F9_FE_F9         // (  3,  -7,  -2,  -7)
FA_FD_01_06         // ( -6,  -3,   1,   6)
02_00_02_00         // (  2,   0,   2,   0)
FB_EF_FE_00         // ( -5, -17,  -2,   0)
FD_F2_F9_FE         // ( -3, -14,  -7,  -2)
FD_15_01_F5         // ( -3,  21,   1, -11)
FE_0A_01_F8         // ( -2,  10,   1,  -8)
FD_FF_FA_07         // ( -3,  -1,  -6,   7)
FF_FD_F0_01         // ( -1,  -3, -16,   1)
FE_F2_00_02         // ( -2, -14,   0,   2)
02_F7_02_02         // (  2,  -9,   2,   2)
05_FB_00_FC         // (  5,  -5,   0,  -4)
06_FE_01_FB         // (  6,  -2,   1,  -5)
04_00_02_04         // (  4,   0,   2,   4)
04_07_08_F6         // (  4,   7,   8, -10)
FE_02_04_06         // ( -2,   2,   4,   6)
03_F3_F8_EF         // (  3, -13,  -8, -17)
FF_FA_FF_FA         // ( -1,  -6,  -1,  -6)
01_F6_04_F4         // (  1, -10,   4, -12)
02_FC_FF_FD         // (  2,  -4,  -1,  -3)
09_FE_FC_FA         // (  9,  -2,  -4,  -6)
04_FD_FD_F7         // (  4,  -3,  -3,  -9)
02_06_FF_FE         // (  2,   6,  -1,  -2)
07_F4_01_FE         // (  7, -12,   1,  -2)
03_05_FD_03         // (  3,   5,  -3,   3)
01_F8_02_02         // (  1,  -8,   2,   2)
06_FB_01_FC         // (  6,  -5,   1,  -4)
07_F6_04_F8         // (  7, -10,   4,  -8)
06_FE_FB_F8         // (  6,  -2,  -5,  -8)
06_FE_00_FB         // (  6,  -2,   0,  -5)
FC_FA_FC_FF         // ( -4,  -6,  -4,  -1)
01_09_00_04         // (  1,   9,   0,   4)
01_00_00_EE         // (  1,   0,   0, -18)
04_06_00_04         // (  4,   6,   0,   4)
02_00_FD_00         // (  2,   0,  -3,   0)
05_00_01_F8         // (  5,   0,   1,  -8)
01_FF_00_F7         // (  1,  -1,   0,  -9)
F8_01_03_FF         // ( -8,   1,   3,  -1)
F9_FC_00_07         // ( -7,  -4,   0,   7)
FE_FE_03_07         // ( -2,  -2,   3,   7)
06_0B_0A_FF         // (  6,  11,  10,  -1)
01_01_FF_FD         // (  1,   1,  -1,  -3)
01_06_02_01         // (  1,   6,   2,   1)
FA_03_04_01         // ( -6,   3,   4,   1)
FD_F8_FE_05         // ( -3,  -8,  -2,   5)
01_00_01_0A         // (  1,   0,   1,  10)
02_02_06_FB         // (  2,   2,   6,  -5)
04_01_05_FE         // (  4,   1,   5,  -2)
00_FC_06_FE         // (  0,  -4,   6,  -2)
05_07_FD_FD         // (  5,   7,  -3,  -3)
03_FE_04_FF         // (  3,  -2,   4,  -1)
04_03_FF_FD         // (  4,   3,  -1,  -3)
02_08_FE_00         // (  2,   8,  -2,   0)
00_FB_05_FE         // (  0,  -5,   5,  -2)
03_F9_04_03         // (  3,  -7,   4,   3)
F4_02_02_FF         // (-12,   2,   2,  -1)
F1_05_00_05         // (-15,   5,   0,   5)
F3_01_FD_03         // (-13,   1,  -3,   3)
F9_07_05_04         // ( -7,   7,   5,   4)
09_01_01_0A         // (  9,   1,   1,  10)
06_04_00_00         // (  6,   4,   0,   0)
EA_05_04_01         // (-22,   5,   4,   1)
FA_03_05_00         // ( -6,   3,   5,   0)
F2_FE_00_01         // (-14,  -2,   0,   1)
FF_FA_FE_F4         // ( -1,  -6,  -2, -12)
06_FA_00_09         // (  6,  -6,   0,   9)
FF_F5_00_FE         // ( -1, -11,   0,  -2)
FF_FD_02_0A         // ( -1,  -3,   2,  10)
00_F9_F7_F4         // (  0,  -7,  -9, -12)
01_FE_FE_00         // (  1,  -2,  -2,   0)
FC_FE_FB_FA         // ( -4,  -2,  -5,  -6)
F5_FB_FB_FA         // (-11,  -5,  -5,  -6)
00_F5_FB_01         // (  0, -11,  -5,   1)
FC_FC_FC_03         // ( -4,  -4,  -4,   3)
01_FC_04_FF         // (  1,  -4,   4,  -1)
FB_F7_FE_FE         // ( -5,  -9,  -2,  -2)
09_01_02_FE         // (  9,   1,   2,  -2)
03_07_0C_FD         // (  3,   7,  12,  -3)
FF_FE_FC_FC         // ( -1,  -2,  -4,  -4)
04_F7_07_FF         // (  4,  -9,   7,  -1)
00_FC_FD_03         // (  0,  -4,  -3,   3)
FF_01_FB_04         // ( -1,   1,  -5,   4)
FB_FB_FE_01         // ( -5,  -5,  -2,   1)
F3_FF_FE_FB         // (-13,  -1,  -2,  -5)
FA_07_FC_F5         // ( -6,   7,  -4, -11)
FC_FD_F9_03         // ( -4,  -3,  -7,   3)
F8_FF_FA_0C         // ( -8,  -1,  -6,  12)
04_01_02_FE         // (  4,   1,   2,  -2)
FA_06_09_F8         // ( -6,   6,   9,  -8)
FB_04_03_F8         // ( -5,   4,   3,  -8)
F5_02_FB_FF         // (-11,   2,  -5,  -1)
FC_01_FB_05         // ( -4,   1,  -5,   5)
F7_01_FC_00         // ( -9,   1,  -4,   0)
FF_09_F9_FC         // ( -1,   9,  -7,  -4)
13_00_05_FF         // ( 19,   0,   5,  -1)
F7_FD_FD_00         // ( -9,  -3,  -3,   0)
05_04_00_01         // (  5,   4,   0,   1)
03_FE_F2_FF         // (  3,  -2, -14,  -1)
FC_04_F6_FC         // ( -4,   4, -10,  -4)
FC_0B_F8_FD         // ( -4,  11,  -8,  -3)
00_FF_01_FB         // (  0,  -1,   1,  -5)
07_06_05_F4         // (  7,   6,   5, -12)
03_07_FF_FB         // (  3,   7,  -1,  -5)
FF_01_04_05         // ( -1,   1,   4,   5)
01_17_FF_FF         // (  1,  23,  -1,  -1)
06_05_02_01         // (  6,   5,   2,   1)
FE_FF_01_FE         // ( -2,  -1,   1,  -2)
04_0A_FD_04         // (  4,  10,  -3,   4)
01_02_03_04         // (  1,   2,   3,   4)
FF_05_FF_FF         // ( -1,   5,  -1,  -1)
02_FD_FE_03         // (  2,  -3,  -2,   3)
03_FE_FF_FD         // (  3,  -2,  -1,  -3)
FC_02_00_F9         // ( -4,   2,   0,  -7)
03_07_02_FC         // (  3,   7,   2,  -4)
00_F8_F9_FE         // (  0,  -8,  -7,  -2)
02_F5_00_03         // (  2, -11,   0,   3)
FE_FA_02_07         // ( -2,  -6,   2,   7)
09_F1_06_01         // (  9, -15,   6,   1)
04_04_00_FF         // (  4,   4,   0,  -1)
F8_FB_00_02         // ( -8,  -5,   0,   2)
00_F8_FB_00         // (  0,  -8,  -5,   0)
03_FB_FA_FB         // (  3,  -5,  -6,  -5)
F9_FA_FC_06         // ( -7,  -6,  -4,   6)
00_F9_FF_F8         // (  0,  -7,  -1,  -8)
03_FD_FD_F8         // (  3,  -3,  -3,  -8)
F9_FB_06_04         // ( -7,  -5,   6,   4)
FF_FE_02_FD         // ( -1,  -2,   2,  -3)
00_FD_06_FD         // (  0,  -3,   6,  -3)
03_FB_FD_FC         // (  3,  -5,  -3,  -4)
02_FD_00_FC         // (  2,  -3,   0,  -4)
FD_FE_FF_FF         // ( -3,  -2,  -1,  -1)
FF_FA_01_FA         // ( -1,  -6,   1,  -6)
FA_01_00_00         // ( -6,   1,   0,   0)
02_FC_FE_FC         // (  2,  -4,  -2,  -4)
01_FC_05_FB         // (  1,  -4,   5,  -5)
01_FE_01_01         // (  1,  -2,   1,   1)
09_FC_FD_03         // (  9,  -4,  -3,   3)
FB_03_FF_FD         // ( -5,   3,  -1,  -3)
06_F9_03_05         // (  6,  -7,   3,   5)
05_FF_FE_FD         // (  5,  -1,  -2,  -3)
01_03_FD_02         // (  1,   3,  -3,   2)
09_01_06_00         // (  9,   1,   6,   0)
F5_01_00_FE         // (-11,   1,   0,  -2)
FC_04_FF_00         // ( -4,   4,  -1,   0)
05_03_02_00         // (  5,   3,   2,   0)
FF_00_02_04         // ( -1,   0,   2,   4)
F7_FE_FC_00         // ( -9,  -2,  -4,   0)
FB_FF_05_FB         // ( -5,  -1,   5,  -5)
00_06_02_00         // (  0,   6,   2,   0)
FF_FC_05_FE         // ( -1,  -4,   5,  -2)
FC_01_FF_FF         // ( -4,   1,  -1,  -1)
01_01_05_03         // (  1,   1,   5,   3)
01_FC_02_03         // (  1,  -4,   2,   3)
01_04_FF_05         // (  1,   4,  -1,   5)
01_01_FC_FD         // (  1,   1,  -4,  -3)
00_04_00_07         // (  0,   4,   0,   7)
06_FC_FE_FD         // (  6,  -4,  -2,  -3)
01_07_FD_FE         // (  1,   7,  -3,  -2)
FF_FF_FF_0B         // ( -1,  -1,  -1,  11)
02_04_02_FD         // (  2,   4,   2,  -3)
FB_07_00_FF         // ( -5,   7,   0,  -1)
FA_04_FB_07         // ( -6,   4,  -5,   7)
00_FC_05_FF         // (  0,  -4,   5,  -1)
03_FA_FB_03         // (  3,  -6,  -5,   3)
FF_05_F8_02         // ( -1,   5,  -8,   2)
01_02_FF_00         // (  1,   2,  -1,   0)
05_F8_03_08         // (  5,  -8,   3,   8)
03_06_FB_05         // (  3,   6,  -5,   5)
FF_FE_04_01         // ( -1,  -2,   4,   1)
FC_F8_06_00         // ( -4,  -8,   6,   0)
FD_02_06_F9         // ( -3,   2,   6,  -7)
FD_FB_FA_FE         // ( -3,  -5,  -6,  -2)
FC_FB_FF_FD         // ( -4,  -5,  -1,  -3)
01_02_FF_06         // (  1,   2,  -1,   6)
01_F9_FF_FF         // (  1,  -7,  -1,  -1)
02_02_02_00         // (  2,   2,   2,   0)
FE_04_FA_02         // ( -2,   4,  -6,   2)
FF_FA_01_FC         // ( -1,  -6,   1,  -4)
05_01_04_FE         // (  5,   1,   4,  -2)
FE_01_00_04         // ( -2,   1,   0,   4)
00_05_02_03         // (  0,   5,   2,   3)
F9_02_F7_FB         // ( -7,   2,  -9,  -5)
05_FD_F5_FE         // (  5,  -3, -11,  -2)
FF_FA_F8_06         // ( -1,  -6,  -8,   6)
F9_FE_00_FE         // ( -7,  -2,   0,  -2)
02_FB_F7_FF         // (  2,  -5,  -9,  -1)
FE_F9_08_FC         // ( -2,  -7,   8,  -4)
FF_04_FE_05         // ( -1,   4,  -2,   5)
FE_FD_02_00         // ( -2,  -3,   2,   0)
04_FF_02_02         // (  4,  -1,   2,   2)
01_FE_05_05         // (  1,  -2,   5,   5)
03_00_04_04         // (  3,   0,   4,   4)
02_FF_05_FA         // (  2,  -1,   5,  -6)
FC_FA_06_FD         // ( -4,  -6,   6,  -3)
03_FF_00_FE         // (  3,  -1,   0,  -2)
FF_FE_07_FD         // ( -1,  -2,   7,  -3)
FC_02_00_FF         // ( -4,   2,   0,  -1)
FE_04_FD_00         // ( -2,   4,  -3,   0)
FB_02_FD_FA         // ( -5,   2,  -3,  -6)
09_03_05_01         // (  9,   3,   5,   1)
FC_FE_01_01         // ( -4,  -2,   1,   1)
03_FC_07_07         // (  3,  -4,   7,   7)
FA_03_02_FE         // ( -6,   3,   2,  -2)
00_06_05_06         // (  0,   6,   5,   6)
01_FE_FE_FE         // (  1,  -2,  -2,  -2)
FC_05_00_03         // ( -4,   5,   0,   3)
03_F9_FD_09         // (  3,  -7,  -3,   9)
04_FA_FB_FC         // (  4,  -6,  -5,  -4)
01_08_05_04         // (  1,   8,   5,   4)
01_06_02_05         // (  1,   6,   2,   5)
FC_09_FF_FE         // ( -4,   9,  -1,  -2)
F9_02_03_FF         // ( -7,   2,   3,  -1)
FD_05_07_03         // ( -3,   5,   7,   3)
04_FC_02_FD         // (  4,  -4,   2,  -3)
03_05_04_F9         // (  3,   5,   4,  -7)
FE_07_07_0A         // ( -2,   7,   7,  10)
04_07_03_F6         // (  4,   7,   3, -10)
01_01_00_00         // (  1,   1,   0,   0)
09_02_03_02         // (  9,   2,   3,   2)
FF_04_04_03         // ( -1,   4,   4,   3)
FE_02_FD_05         // ( -2,   2,  -3,   5)
F8_06_05_01         // ( -8,   6,   5,   1)
06_00_FE_05         // (  6,   0,  -2,   5)
06_05_06_02         // (  6,   5,   6,   2)
06_FD_00_F6         // (  6,  -3,   0, -10)
02_00_FB_05         // (  2,   0,  -5,   5)
FE_01_01_02         // ( -2,   1,   1,   2)
00_00_FA_FF         // (  0,   0,  -6,  -1)
08_FD_02_04         // (  8,  -3,   2,   4)
00_FF_FF_FF         // (  0,  -1,  -1,  -1)
FC_02_05_03         // ( -4,   2,   5,   3)
FF_FF_05_0A         // ( -1,  -1,   5,  10)
06_00_FB_FC         // (  6,   0,  -5,  -4)
02_F6_00_FE         // (  2, -10,   0,  -2)
04_02_04_04         // (  4,   2,   4,   4)
03_03_FB_FB         // (  3,   3,  -5,  -5)
08_FB_04_F9         // (  8,  -5,   4,  -7)
FD_01_FF_FA         // ( -3,   1,  -1,  -6)
00_FD_FB_00         // (  0,  -3,  -5,   0)
04_00_09_01         // (  4,   0,   9,   1)
01_03_FE_FD         // (  1,   3,  -2,  -3)
02_07_FE_FD         // (  2,   7,  -2,  -3)
FD_03_01_FE         // ( -3,   3,   1,  -2)
00_04_04_FE         // (  0,   4,   4,  -2)
04_07_F5_02         // (  4,   7, -11,   2)
06_FB_02_00         // (  6,  -5,   2,   0)
FF_FF_FD_01         // ( -1,  -1,  -3,   1)
02_01_00_FD         // (  2,   1,   0,  -3)
01_FD_02_04         // (  1,  -3,   2,   4)
02_FE_FA_FF         // (  2,  -2,  -6,  -1)
05_02_FB_0A         // (  5,   2,  -5,  10)
05_FF_FF_0A         // (  5,  -1,  -1,  10)
04_06_FD_FB         // (  4,   6,  -3,  -5)
FF_02_01_0A         // ( -1,   2,   1,  10)
FC_0C_01_04         // ( -4,  12,   1,   4)
01_FF_03_03         // (  1,  -1,   3,   3)
FC_FB_FF_02         // ( -4,  -5,  -1,   2)
F6_00_FD_08         // (-10,   0,  -3,   8)
F5_04_01_05         // (-11,   4,   1,   5)
03_01_05_FF         // (  3,   1,   5,  -1)
FD_FC_FE_06         // ( -3,  -4,  -2,   6)
F8_10_01_FC         // ( -8,  16,   1,  -4)
0F_FB_05_F2         // ( 15,  -5,   5, -14)
09_04_FF_00         // (  9,   4,  -1,   0)
0B_FE_0A_FD         // ( 11,  -2,  10,  -3)
0A_03_03_02         // ( 10,   3,   3,   2)
0B_01_FE_FA         // ( 11,   1,  -2,  -6)
06_0B_FF_06         // (  6,  11,  -1,   6)
09_01_0B_02         // (  9,   1,  11,   2)
01_03_FE_FC         // (  1,   3,  -2,  -4)
FA_10_F9_00         // ( -6,  16,  -7,   0)
FA_00_09_FF         // ( -6,   0,   9,  -1)
F9_01_01_09         // ( -7,   1,   1,   9)
FE_05_09_13         // ( -2,   5,   9,  19)
F3_04_FA_07         // (-13,   4,  -6,   7)
02_06_FF_0C         // (  2,   6,  -1,  12)
0A_05_01_05         // ( 10,   5,   1,   5)
FB_FF_FC_F5         // ( -5,  -1,  -4, -11)
0A_04_02_03         // ( 10,   4,   2,   3)
0D_05_FE_F9         // ( 13,   5,  -2,  -7)
FD_FD_08_02         // ( -3,  -3,   8,   2)
F7_FB_FC_02         // ( -9,  -5,  -4,   2)
F6_FE_F8_FA         // (-10,  -2,  -8,  -6)
FA_F6_0A_FE         // ( -6, -10,  10,  -2)
FC_00_04_02         // ( -4,   0,   4,   2)
05_03_FD_FC         // (  5,   3,  -3,  -4)
FE_01_09_02         // ( -2,   1,   9,   2)
07_F7_FC_01         // (  7,  -9,  -4,   1)
04_02_F4_FF         // (  4,   2, -12,  -1)
FB_03_05_FC         // ( -5,   3,   5,  -4)
F9_03_FB_09         // ( -7,   3,  -5,   9)
01_FA_07_FD         // (  1,  -6,   7,  -3)
00_03_FB_F9         // (  0,   3,  -5,  -7)
01_02_02_FE         // (  1,   2,   2,  -2)
03_FE_FA_02         // (  3,  -2,  -6,   2)
00_F6_F6_FD         // (  0, -10, -10,  -3)
00_02_EF_FF         // (  0,   2, -17,  -1)
FE_FE_F0_F2         // ( -2,  -2, -16, -14)
00_04_FF_FF         // (  0,   4,  -1,  -1)
F7_12_FD_03         // ( -9,  18,  -3,   3)
FA_0E_00_00         // ( -6,  14,   0,   0)
F8_F9_06_04         // ( -8,  -7,   6,   4)
00_01_02_FF         // (  0,   1,   2,  -1)
05_FE_FF_07         // (  5,  -2,  -1,   7)
EF_FD_FF_08         // (-17,  -3,  -1,   8)
00_F6_05_00         // (  0, -10,   5,   0)
F8_00_06_01         // ( -8,   0,   6,   1)
FA_FA_F7_07         // ( -6,  -6,  -9,   7)
F9_FA_03_FF         // ( -7,  -6,   3,  -1)
FF_FB_0D_00         // ( -1,  -5,  13,   0)
FE_01_FF_03         // ( -2,   1,  -1,   3)
FD_03_FD_06         // ( -3,   3,  -3,   6)
00_01_01_FF         // (  0,   1,   1,  -1)
F7_FF_FF_F7         // ( -9,  -1,  -1,  -9)
F0_FE_FD_F9         // (-16,  -2,  -3,  -7)
FD_00_FC_07         // ( -3,   0,  -4,   7)
09_05_FD_FD         // (  9,   5,  -3,  -3)
F7_00_FC_03         // ( -9,   0,  -4,   3)
F1_FE_FB_FC         // (-15,  -2,  -5,  -4)
00_00_F7_06         // (  0,   0,  -9,   6)
03_00_F9_FC         // (  3,   0,  -7,  -4)
00_FA_FB_FD         // (  0,  -6,  -5,  -3)
01_00_06_FC         // (  1,   0,   6,  -4)
06_06_FC_FE         // (  6,   6,  -4,  -2)
06_FB_03_FD         // (  6,  -5,   3,  -3)
02_03_02_0E         // (  2,   3,   2,  14)
FE_FD_F9_FE         // ( -2,  -3,  -7,  -2)
02_07_02_FE         // (  2,   7,   2,  -2)
F9_FE_FA_01         // ( -7,  -2,  -6,   1)
FB_03_1A_08         // ( -5,   3,  26,   8)
0B_FC_10_03         // ( 11,  -4,  16,   3)
FD_00_F9_11         // ( -3,   0,  -7,  17)
FC_07_0B_FE         // ( -4,   7,  11,  -2)
03_03_FD_02         // (  3,   3,  -3,   2)
FD_F6_F7_00         // ( -3, -10,  -9,   0)
01_09_FA_0E         // (  1,   9,  -6,  14)
FC_05_FB_13         // ( -4,   5,  -5,  19)
FC_FF_FA_FF         // ( -4,  -1,  -6,  -1)
FE_08_05_FA         // ( -2,   8,   5,  -6)
01_03_17_ED         // (  1,   3,  23, -19)
FC_FF_FA_FA         // ( -4,  -1,  -6,  -6)
01_02_F6_01         // (  1,   2, -10,   1)
FF_FF_06_04         // ( -1,  -1,   6,   4)
FA_10_0C_FE         // ( -6,  16,  12,  -2)
FC_01_FE_00         // ( -4,   1,  -2,   0)
F6_F9_00_06         // (-10,  -7,   0,   6)
FE_02_04_FF         // ( -2,   2,   4,  -1)
06_F8_03_0B         // (  6,  -8,   3,  11)
04_FC_F7_05         // (  4,  -4,  -9,   5)
FF_05_FF_01         // ( -1,   5,  -1,   1)
F7_FE_FF_02         // ( -9,  -2,  -1,   2)
07_F8_00_05         // (  7,  -8,   0,   5)
03_01_F9_FF         // (  3,   1,  -7,  -1)
F8_FD_05_08         // ( -8,  -3,   5,   8)
FD_F6_0D_FC         // ( -3, -10,  13,  -4)
0A_03_FA_06         // ( 10,   3,  -6,   6)
FE_02_F7_04         // ( -2,   2,  -9,   4)
01_F8_FF_FE         // (  1,  -8,  -1,  -2)
0D_FE_F7_00         // ( 13,  -2,  -9,   0)
01_FD_FC_F7         // (  1,  -3,  -4,  -9)
FC_FB_00_F4         // ( -4,  -5,   0, -12)
F8_02_F0_10         // ( -8,   2, -16,  16)
0A_01_FF_04         // ( 10,   1,  -1,   4)
FD_01_00_02         // ( -3,   1,   0,   2)
00_FA_FA_02         // (  0,  -6,  -6,   2)
FF_02_05_05         // ( -1,   2,   5,   5)
FE_08_01_F5         // ( -2,   8,   1, -11)
01_01_F6_14         // (  1,   1, -10,  20)
FA_05_FD_07         // ( -6,   5,  -3,   7)
F0_F7_03_03         // (-16,  -9,   3,   3)
F5_F5_FF_05         // (-11, -11,  -1,   5)
FC_FB_FE_FC         // ( -4,  -5,  -2,  -4)
07_0A_07_FE         // (  7,  10,   7,  -2)
FB_02_00_00         // ( -5,   2,   0,   0)
F3_FB_FE_01         // (-13,  -5,  -2,   1)
00_04_00_03         // (  0,   4,   0,   3)
01_FF_04_FF         // (  1,  -1,   4,  -1)
05_00_03_03         // (  5,   0,   3,   3)
F8_FC_09_0E         // ( -8,  -4,   9,  14)
02_F6_0C_0A         // (  2, -10,  12,  10)
00_03_01_01         // (  0,   3,   1,   1)
00_0E_FF_00         // (  0,  14,  -1,   0)
0B_01_00_05         // ( 11,   1,   0,   5)
04_07_03_FE         // (  4,   7,   3,  -2)
FC_FE_FF_01         // ( -4,  -2,  -1,   1)
FF_09_00_02         // ( -1,   9,   0,   2)
02_04_FB_FF         // (  2,   4,  -5,  -1)
FC_F7_FD_08         // ( -4,  -9,  -3,   8)
FA_0E_08_07         // ( -6,  14,   8,   7)
FA_05_0A_09         // ( -6,   5,  10,   9)
FB_00_03_08         // ( -5,   0,   3,   8)
00_FB_05_FC         // (  0,  -5,   5,  -4)
01_FA_04_F8         // (  1,  -6,   4,  -8)
F6_FE_04_F6         // (-10,  -2,   4, -10)
00_FD_0A_05         // (  0,  -3,  10,   5)
07_F7_FB_04         // (  7,  -9,  -5,   4)
F4_FD_08_F6         // (-12,  -3,   8, -10)
F8_FF_04_FD         // ( -8,  -1,   4,  -3)
F5_06_00_01         // (-11,   6,   0,   1)
F6_FC_FC_00         // (-10,  -4,  -4,   0)
FE_05_0A_05         // ( -2,   5,  10,   5)
04_03_FB_02         // (  4,   3,  -5,   2)
FB_08_01_01         // ( -5,   8,   1,   1)
00_10_FC_09         // (  0,  16,  -4,   9)
0A_F7_06_06         // ( 10,  -9,   6,   6)
02_07_05_06         // (  2,   7,   5,   6)
F4_03_FD_12         // (-12,   3,  -3,  18)
FF_FB_FD_05         // ( -1,  -5,  -3,   5)
07_F4_FF_FE         // (  7, -12,  -1,  -2)
00_06_00_11         // (  0,   6,   0,  17)
00_FB_FD_00         // (  0,  -5,  -3,   0)
01_00_06_FD         // (  1,   0,   6,  -3)
01_F6_FE_04         // (  1, -10,  -2,   4)
03_08_FF_FF         // (  3,   8,  -1,  -1)
F6_03_05_FA         // (-10,   3,   5,  -6)
03_02_0A_0B         // (  3,   2,  10,  11)
04_00_FC_0A         // (  4,   0,  -4,  10)
01_05_07_0A         // (  1,   5,   7,  10)
07_FD_FF_FE         // (  7,  -3,  -1,  -2)
FC_00_FF_07         // ( -4,   0,  -1,   7)
FF_04_00_10         // ( -1,   4,   0,  16)
05_FE_03_F9         // (  5,  -2,   3,  -7)
03_03_FE_FD         // (  3,   3,  -2,  -3)
FF_09_05_FA         // ( -1,   9,   5,  -6)
FE_FD_04_FE         // ( -2,  -3,   4,  -2)
07_00_08_03         // (  7,   0,   8,   3)
02_FE_00_FE         // (  2,  -2,   0,  -2)
FB_FE_FC_04         // ( -5,  -2,  -4,   4)
FC_FF_F9_01         // ( -4,  -1,  -7,   1)
05_04_F7_FC         // (  5,   4,  -9,  -4)
FF_02_02_0B         // ( -1,   2,   2,  11)
FE_F7_FE_09         // ( -2,  -9,  -2,   9)
11_03_F6_FE         // ( 17,   3, -10,  -2)
F2_06_05_F9         // (-14,   6,   5,  -7)
F4_0C_04_FC         // (-12,  12,   4,  -4)
ED_06_0E_FB         // (-19,   6,  14,  -5)
F6_FE_06_00         // (-10,  -2,   6,   0)
FE_01_02_03         // ( -2,   1,   2,   3)
F6_02_04_08         // (-10,   2,   4,   8)
FD_F9_01_02         // ( -3,  -7,   1,   2)
FA_F9_06_0A         // ( -6,  -7,   6,  10)
F5_FE_FB_F8         // (-11,  -2,  -5,  -8)
FE_F7_08_0B         // ( -2,  -9,   8,  11)
03_0A_07_04         // (  3,  10,   7,   4)
0D_00_0D_FB         // ( 13,   0,  13,  -5)
0D_00_FC_04         // ( 13,   0,  -4,   4)
0F_03_FF_08         // ( 15,   3,  -1,   8)
FF_01_04_FE         // ( -1,   1,   4,  -2)
F0_07_01_01         // (-16,   7,   1,   1)
F8_03_FC_02         // ( -8,   3,  -4,   2)
F9_F8_FF_F7         // ( -7,  -8,  -1,  -9)
02_F3_0E_01         // (  2, -13,  14,   1)
FF_FA_0B_FA         // ( -1,  -6,  11,  -6)
FD_07_FD_F8         // ( -3,   7,  -3,  -8)
11_FF_00_06         // ( 17,  -1,   0,   6)
0D_FF_F9_05         // ( 13,  -1,  -7,   5)
01_08_FC_FC         // (  1,   8,  -4,  -4)
FB_06_02_F8         // ( -5,   6,   2,  -8)
00_02_06_FF         // (  0,   2,   6,  -1)
05_02_F9_FE         // (  5,   2,  -7,  -2)
0C_FC_0A_F8         // ( 12,  -4,  10,  -8)
F3_FF_06_FF         // (-13,  -1,   6,  -1)
FD_FE_F2_F7         // ( -3,  -2, -14,  -9)
03_FA_07_F6         // (  3,  -6,   7, -10)
FC_FC_03_09         // ( -4,  -4,   3,   9)
FD_FE_F9_FE         // ( -3,  -2,  -7,  -2)
06_FD_03_00         // (  6,  -3,   3,   0)
F4_FC_FC_0A         // (-12,  -4,  -4,  10)
FF_00_FB_05         // ( -1,   0,  -5,   5)
FD_06_FE_00         // ( -3,   6,  -2,   0)
05_FC_00_04         // (  5,  -4,   0,   4)
10_00_F7_FC         // ( 16,   0,  -9,  -4)
FE_F7_03_F8         // ( -2,  -9,   3,  -8)
04_01_09_01         // (  4,   1,   9,   1)
10_F5_01_03         // ( 16, -11,   1,   3)
04_05_05_07         // (  4,   5,   5,   7)
F8_FB_0A_02         // ( -8,  -5,  10,   2)
05_01_04_02         // (  5,   1,   4,   2)
03_0A_01_05         // (  3,  10,   1,   5)
02_F4_04_01         // (  2, -12,   4,   1)
08_04_06_F9         // (  8,   4,   6,  -7)
FA_F4_FC_FB         // ( -6, -12,  -4,  -5)
FE_F8_F7_FE         // ( -2,  -8,  -9,  -2)
0C_02_02_07         // ( 12,   2,   2,   7)
06_FA_01_F9         // (  6,  -6,   1,  -7)
FF_FD_F3_FD         // ( -1,  -3, -13,  -3)
FF_06_FF_FD         // ( -1,   6,  -1,  -3)
FC_F4_F7_F8         // ( -4, -12,  -9,  -8)
FF_FD_FD_02         // ( -1,  -3,  -3,   2)
07_FF_00_FB         // (  7,  -1,   0,  -5)
F8_06_F2_01         // ( -8,   6, -14,   1)
03_0A_FD_F6         // (  3,  10,  -3, -10)
F9_FD_F7_FD         // ( -7,  -3,  -9,  -3)
01_EF_04_0E         // (  1, -17,   4,  14)
FB_FD_F6_FD         // ( -5,  -3, -10,  -3)
FE_FE_09_F7         // ( -2,  -2,   9,  -9)
FA_F4_03_02         // ( -6, -12,   3,   2)
F6_0E_FF_04         // (-10,  14,  -1,   4)
03_03_04_FF         // (  3,   3,   4,  -1)
FC_04_01_FD         // ( -4,   4,   1,  -3)
04_F9_03_04         // (  4,  -7,   3,   4)
FA_06_01_02         // ( -6,   6,   1,   2)
1C_FE_FB_FE         // ( 28,  -2,  -5,  -2)
FE_05_02_09         // ( -2,   5,   2,   9)
0A_01_00_FE         // ( 10,   1,   0,  -2)
0A_03_01_00         // ( 10,   3,   1,   0)
05_F1_05_FF         // (  5, -15,   5,  -1)
06_FC_FF_02         // (  6,  -4,  -1,   2)
03_FD_03_FF         // (  3,  -3,   3,  -1)
03_FF_FD_02         // (  3,  -1,  -3,   2)
00_FF_FE_FC         // (  0,  -1,  -2,  -4)
03_02_F6_06         // (  3,   2, -10,   6)
04_F8_FE_FB         // (  4,  -8,  -2,  -5)
F9_FB_04_02         // ( -7,  -5,   4,   2)
FD_FF_0E_EC         // ( -3,  -1,  14, -20)
03_09_05_04         // (  3,   9,   5,   4)
FE_04_07_FC         // ( -2,   4,   7,  -4)
F8_FF_0A_F8         // ( -8,  -1,  10,  -8)
FF_FA_09_00         // ( -1,  -6,   9,   0)
05_F9_FE_F6         // (  5,  -7,  -2, -10)
00_F2_FF_F9         // (  0, -14,  -1,  -7)
FF_EC_02_F7         // ( -1, -20,   2,  -9)
00_F3_0C_F9         // (  0, -13,  12,  -7)
02_FD_0E_09         // (  2,  -3,  14,   9)
FD_04_0B_01         // ( -3,   4,  11,   1)
FF_00_05_FB         // ( -1,   0,   5,  -5)
FC_F5_04_02         // ( -4, -11,   4,   2)
00_02_0A_05         // (  0,   2,  10,   5)
02_00_02_03         // (  2,   0,   2,   3)
FB_03_FA_00         // ( -5,   3,  -6,   0)
FD_02_02_FA         // ( -3,   2,   2,  -6)
03_FB_FF_FE         // (  3,  -5,  -1,  -2)
F4_FF_09_05         // (-12,  -1,   9,   5)
F5_01_03_03         // (-11,   1,   3,   3)
EE_F7_0D_05         // (-18,  -9,  13,   5)
FA_02_0B_FE         // ( -6,   2,  11,  -2)
F8_FD_06_FF         // ( -8,  -3,   6,  -1)
03_FD_06_01         // (  3,  -3,   6,   1)
FE_03_05_EE         // ( -2,   3,   5, -18)
05_FC_FF_04         // (  5,  -4,  -1,   4)
F8_FF_01_00         // ( -8,  -1,   1,   0)
FE_08_07_01         // ( -2,   8,   7,   1)
06_FC_FA_FD         // (  6,  -4,  -6,  -3)
00_01_FC_F6         // (  0,   1,  -4, -10)
FE_00_FF_01         // ( -2,   0,  -1,   1)
01_FF_02_FC         // (  1,  -1,   2,  -4)
08_FD_FF_FA         // (  8,  -3,  -1,  -6)
FB_FA_00_08         // ( -5,  -6,   0,   8)
04_FB_06_FE         // (  4,  -5,   6,  -2)
FF_01_FC_FF         // ( -1,   1,  -4,  -1)
09_FC_00_FC         // (  9,  -4,   0,  -4)
FE_FF_00_FF         // ( -2,  -1,   0,  -1)
01_00_0A_00         // (  1,   0,  10,   0)
04_01_01_FB         // (  4,   1,   1,  -5)
05_FE_07_04         // (  5,  -2,   7,   4)
03_01_07_09         // (  3,   1,   7,   9)
01_FD_03_FE         // (  1,  -3,   3,  -2)
FF_F4_04_FE         // ( -1, -12,   4,  -2)
04_FA_09_00         // (  4,  -6,   9,   0)
FD_06_03_00         // ( -3,   6,   3,   0)
FD_04_FC_01         // ( -3,   4,  -4,   1)
FF_09_FB_F4         // ( -1,   9,  -5, -12)
02_01_FE_06         // (  2,   1,  -2,   6)
07_06_06_01         // (  7,   6,   6,   1)
00_FE_02_0D         // (  0,  -2,   2,  13)
FB_04_FD_FF         // ( -5,   4,  -3,  -1)
00_07_04_02         // (  0,   7,   4,   2)
FF_FE_04_F8         // ( -1,  -2,   4,  -8)
01_FF_01_01         // (  1,  -1,   1,   1)
04_FE_03_FF         // (  4,  -2,   3,  -1)
FF_07_07_FF         // ( -1,   7,   7,  -1)
02_01_FD_FA         // (  2,   1,  -3,  -6)
06_00_05_01         // (  6,   0,   5,   1)
F9_05_03_00         // ( -7,   5,   3,   0)
FD_06_F8_00         // ( -3,   6,  -8,   0)
00_02_04_FB         // (  0,   2,   4,  -5)
02_07_FF_FF         // (  2,   7,  -1,  -1)
FD_FD_FF_07         // ( -3,  -3,  -1,   7)
FC_FA_F9_02         // ( -4,  -6,  -7,   2)
FC_FA_F7_FF         // ( -4,  -6,  -9,  -1)
FE_FE_00_00         // ( -2,  -2,   0,   0)
FE_F9_07_02         // ( -2,  -7,   7,   2)
01_F6_FC_07         // (  1, -10,  -4,   7)
FF_FD_01_03         // ( -1,  -3,   1,   3)
FE_FD_0B_03         // ( -2,  -3,  11,   3)
03_04_07_FD         // (  3,   4,   7,  -3)
FD_F8_F5_01         // ( -3,  -8, -11,   1)
05_FE_00_FC         // (  5,  -2,   0,  -4)
F9_FF_FF_FC         // ( -7,  -1,  -1,  -4)
03_07_FF_FE         // (  3,   7,  -1,  -2)
F7_04_05_02         // ( -9,   4,   5,   2)
F2_03_FC_02         // (-14,   3,  -4,   2)
F0_FA_01_06         // (-16,  -6,   1,   6)
02_00_F8_0B         // (  2,   0,  -8,  11)
07_01_FE_01         // (  7,   1,  -2,   1)
02_FB_01_FD         // (  2,  -5,   1,  -3)
01_0B_FC_FF         // (  1,  11,  -4,  -1)
F2_02_05_01         // (-14,   2,   5,   1)
FD_FB_03_FF         // ( -3,  -5,   3,  -1)
FE_03_0A_F7         // ( -2,   3,  10,  -9)
05_08_FB_02         // (  5,   8,  -5,   2)
FC_FE_00_04         // ( -4,  -2,   0,   4)
F8_01_FE_00         // ( -8,   1,  -2,   0)
FC_02_04_06         // ( -4,   2,   4,   6)
FF_07_FF_08         // ( -1,   7,  -1,   8)
02_06_F9_03         // (  2,   6,  -7,   3)
00_00_00_05         // (  0,   0,   0,   5)
F6_0B_00_02         // (-10,  11,   0,   2)
FA_00_FB_FC         // ( -6,   0,  -5,  -4)
FB_06_04_02         // ( -5,   6,   4,   2)
FC_05_FE_00         // ( -4,   5,  -2,   0)
03_02_FC_F8         // (  3,   2,  -4,  -8)
06_02_00_01         // (  6,   2,   0,   1)
03_0B_00_F6         // (  3,  11,   0, -10)
FF_0C_FF_00         // ( -1,  12,  -1,   0)
FF_00_07_03         // ( -1,   0,   7,   3)
03_07_FA_FA         // (  3,   7,  -6,  -6)
02_00_08_FE         // (  2,   0,   8,  -2)
06_FD_00_05         // (  6,  -3,   0,   5)
FE_FE_08_FE         // ( -2,  -2,   8,  -2)
00_03_0A_F4         // (  0,   3,  10, -12)
04_FB_F9_FB         // (  4,  -5,  -7,  -5)
FF_00_09_FA         // ( -1,   0,   9,  -6)
01_04_02_FC         // (  1,   4,   2,  -4)
02_FD_00_FF         // (  2,  -3,   0,  -1)
FA_FB_02_F7         // ( -6,  -5,   2,  -9)
F9_FC_00_02         // ( -7,  -4,   0,   2)
FB_02_FC_06         // ( -5,   2,  -4,   6)
FB_FB_FA_01         // ( -5,  -5,  -6,   1)
FB_F5_06_06         // ( -5, -11,   6,   6)
FE_06_00_F9         // ( -2,   6,   0,  -7)
07_09_0A_FD         // (  7,   9,  10,  -3)
00_0B_FD_FF         // (  0,  11,  -3,  -1)
00_FD_00_FD         // (  0,  -3,   0,  -3)
FB_08_03_01         // ( -5,   8,   3,   1)
02_FC_01_FE         // (  2,  -4,   1,  -2)
00_FE_05_FA         // (  0,  -2,   5,  -6)
00_F5_FB_01         // (  0, -11,  -5,   1)
01_00_FD_FB         // (  1,   0,  -3,  -5)
F8_04_FF_FB         // ( -8,   4,  -1,  -5)
01_FD_0D_06         // (  1,  -3,  13,   6)
0A_01_03_FF         // ( 10,   1,   3,  -1)
04_FF_04_FE         // (  4,  -1,   4,  -2)
00_FD_00_FC         // (  0,  -3,   0,  -4)
03_FC_05_09         // (  3,  -4,   5,   9)
00_02_FF_00         // (  0,   2,  -1,   0)
04_FC_FA_07         // (  4,  -4,  -6,   7)
01_F8_04_FD         // (  1,  -8,   4,  -3)
F6_01_03_05         // (-10,   1,   3,   5)
FB_FB_00_02         // ( -5,  -5,   0,   2)
04_FA_06_F8         // (  4,  -6,   6,  -8)
FB_FF_00_00         // ( -5,  -1,   0,   0)
07_FD_FD_02         // (  7,  -3,  -3,   2)
FF_FA_F6_F8         // ( -1,  -6, -10,  -8)
FD_FC_F9_FC         // ( -3,  -4,  -7,  -4)
05_FC_01_F9         // (  5,  -4,   1,  -7)
00_FC_00_FB         // (  0,  -4,   0,  -5)
02_FE_01_F9         // (  2,  -2,   1,  -7)
FD_01_02_FF         // ( -3,   1,   2,  -1)
FF_06_02_FA         // ( -1,   6,   2,  -6)
03_06_00_06         // (  3,   6,   0,   6)
07_05_FC_FE         // (  7,   5,  -4,  -2)
F8_00_FC_F5         // ( -8,   0,  -4, -11)
FC_05_01_FD         // ( -4,   5,   1,  -3)
06_04_08_FA         // (  6,   4,   8,  -6)
08_02_00_FA         // (  8,   2,   0,  -6)
FF_09_FD_F1         // ( -1,   9,  -3, -15)
FE_01_FD_09         // ( -2,   1,  -3,   9)
FE_FE_FA_03         // ( -2,  -2,  -6,   3)
FE_03_00_0A         // ( -2,   3,   0,  10)
00_0A_FD_FE         // (  0,  10,  -3,  -2)
00_01_FE_00         // (  0,   1,  -2,   0)
00_FF_08_0A         // (  0,  -1,   8,  10)
FD_09_01_05         // ( -3,   9,   1,   5)
FD_08_03_00         // ( -3,   8,   3,   0)
FF_04_03_07         // ( -1,   4,   3,   7)
06_FF_FF_01         // (  6,  -1,  -1,   1)
03_04_09_FE         // (  3,   4,   9,  -2)
01_06_FD_02         // (  1,   6,  -3,   2)
02_00_FE_00         // (  2,   0,  -2,   0)
02_F8_FD_09         // (  2,  -8,  -3,   9)
00_00_F9_02         // (  0,   0,  -7,   2)
FE_FB_FB_04         // ( -2,  -5,  -5,   4)
09_FD_03_FE         // (  9,  -3,   3,  -2)
FD_03_FC_F8         // ( -3,   3,  -4,  -8)
05_02_05_08         // (  5,   2,   5,   8)
FB_FC_F8_04         // ( -5,  -4,  -8,   4)
F8_F4_FF_FF         // ( -8, -12,  -1,  -1)
F9_FC_FA_09         // ( -7,  -4,  -6,   9)
01_02_FB_FF         // (  1,   2,  -5,  -1)
F5_F3_04_03         // (-11, -13,   4,   3)
FA_F2_FD_03         // ( -6, -14,  -3,   3)
F9_FD_FE_FC         // ( -7,  -3,  -2,  -4)
F7_EF_01_00         // ( -9, -17,   1,   0)
00_FF_FA_02         // (  0,  -1,  -6,   2)
01_01_03_01         // (  1,   1,   3,   1)
FE_0B_FA_F8         // ( -2,  11,  -6,  -8)
0C_FD_F3_09         // ( 12,  -3, -13,   9)
02_02_F9_01         // (  2,   2,  -7,   1)
09_08_F3_FB         // (  9,   8, -13,  -5)
06_03_F9_04         // (  6,   3,  -7,   4)
00_00_FD_FC         // (  0,   0,  -3,  -4)
09_FF_EA_FD         // (  9,  -1, -22,  -3)
06_F6_FB_FE         // (  6, -10,  -5,  -2)
01_F7_FC_0E         // (  1,  -9,  -4,  14)
FD_FE_00_02         // ( -3,  -2,   0,   2)
01_FE_FA_EF         // (  1,  -2,  -6, -17)
FC_FB_FA_FF         // ( -4,  -5,  -6,  -1)
F8_05_00_00         // ( -8,   5,   0,   0)
08_FE_F7_F9         // (  8,  -2,  -9,  -7)
FC_FD_FE_03         // ( -4,  -3,  -2,   3)
04_FA_04_07         // (  4,  -6,   4,   7)
0A_03_FB_FC         // ( 10,   3,  -5,  -4)
07_05_02_01         // (  7,   5,   2,   1)
02_03_02_02         // (  2,   3,   2,   2)
00_F4_FF_00         // (  0, -12,  -1,   0)
00_FC_F9_FA         // (  0,  -4,  -7,  -6)
F9_00_05_FA         // ( -7,   0,   5,  -6)
FE_F4_09_00         // ( -2, -12,   9,   0)
04_F2_F5_00         // (  4, -14, -11,   0)
FA_FC_08_05         // ( -6,  -4,   8,   5)
03_0D_FF_01         // (  3,  13,  -1,   1)
01_FC_05_05         // (  1,  -4,   5,   5)
F2_03_05_01         // (-14,   3,   5,   1)
FA_0D_FE_07         // ( -6,  13,  -2,   7)
FF_01_00_03         // ( -1,   1,   0,   3)
02_FD_FF_F7         // (  2,  -3,  -1,  -9)
E8_0C_04_00         // (-24,  12,   4,   0)
08_F5_04_01         // (  8, -11,   4,   1)
0D_00_06_00         // ( 13,   0,   6,   0)
F8_01_FC_01         // ( -8,   1,  -4,   1)
03_05_06_FD         // (  3,   5,   6,  -3)
00_00_FC_FB         // (  0,   0,  -4,  -5)
EF_FB_FB_02         // (-17,  -5,  -5,   2)
00_01_02_00         // (  0,   1,   2,   0)
FA_FD_03_FE         // ( -6,  -3,   3,  -2)
FA_FE_01_02         // ( -6,  -2,   1,   2)
FF_FE_FB_03         // ( -1,  -2,  -5,   3)
FB_03_FB_04         // ( -5,   3,  -5,   4)
00_F8_07_07         // (  0,  -8,   7,   7)
04_03_02_02         // (  4,   3,   2,   2)
04_01_04_04         // (  4,   1,   4,   4)
FE_07_05_0B         // ( -2,   7,   5,  11)
01_02_FC_01         // (  1,   2,  -4,   1)
FD_00_FD_03         // ( -3,   0,  -3,   3)
FE_07_04_08         // ( -2,   7,   4,   8)
FF_09_01_F8         // ( -1,   9,   1,  -8)
03_06_02_02         // (  3,   6,   2,   2)
00_12_FD_08         // (  0,  18,  -3,   8)
FB_03_FC_04         // ( -5,   3,  -4,   4)
04_F1_F7_FD         // (  4, -15,  -9,  -3)
04_03_F9_09         // (  4,   3,  -7,   9)
06_FE_F9_04         // (  6,  -2,  -7,   4)
0A_FB_01_FC         // ( 10,  -5,   1,  -4)
04_F7_FC_04         // (  4,  -9,  -4,   4)
03_04_FE_02         // (  3,   4,  -2,   2)
0D_07_02_FF         // ( 13,   7,   2,  -1)
FD_FE_FC_F6         // ( -3,  -2,  -4, -10)
FB_01_FC_01         // ( -5,   1,  -4,   1)
FE_0E_0E_FC         // ( -2,  14,  14,  -4)
FE_09_FE_FB         // ( -2,   9,  -2,  -5)
01_02_03_00         // (  1,   2,   3,   0)
06_03_00_05         // (  6,   3,   0,   5)
F3_0E_F8_04         // (-13,  14,  -8,   4)
F8_FF_05_04         // ( -8,  -1,   5,   4)
F8_00_00_0A         // ( -8,   0,   0,  10)
FD_09_FF_0C         // ( -3,   9,  -1,  12)
05_F9_FE_FC         // (  5,  -7,  -2,  -4)
FC_FC_FA_FA         // ( -4,  -4,  -6,  -6)
FA_04_F4_F7         // ( -6,   4, -12,  -9)
FC_03_FD_FE         // ( -4,   3,  -3,  -2)
FC_05_FE_F7         // ( -4,   5,  -2,  -9)
FD_01_ED_F8         // ( -3,   1, -19,  -8)
FD_FE_FB_09         // ( -3,  -2,  -5,   9)
03_01_FD_0F         // (  3,   1,  -3,  15)
FB_FA_FA_F3         // ( -5,  -6,  -6, -13)
00_FF_FC_FC         // (  0,  -1,  -4,  -4)
FA_FC_F8_FA         // ( -6,  -4,  -8,  -6)
02_FB_05_F3         // (  2,  -5,   5, -13)
FB_FD_00_FE         // ( -5,  -3,   0,  -2)
F6_07_F8_02         // (-10,   7,  -8,   2)
00_03_03_FB         // (  0,   3,   3,  -5)
FC_FD_01_04         // ( -4,  -3,   1,   4)
F8_06_FC_FB         // ( -8,   6,  -4,  -5)
F7_09_05_0C         // ( -9,   9,   5,  12)
FC_F8_FE_FE         // ( -4,  -8,  -2,  -2)
FD_F8_F6_FE         // ( -3,  -8, -10,  -2)
0C_05_06_09         // ( 12,   5,   6,   9)
FE_06_F2_04         // ( -2,   6, -14,   4)
F9_FF_FD_FC         // ( -7,  -1,  -3,  -4)
0D_02_08_07         // ( 13,   2,   8,   7)
FA_02_FB_FD         // ( -6,   2,  -5,  -3)
F5_04_05_FD         // (-11,   4,   5,  -3)
08_04_03_FA         // (  8,   4,   3,  -6)
04_F8_02_07         // (  4,  -8,   2,   7)
05_F9_00_FC         // (  5,  -7,   0,  -4)
00_FD_0B_04         // (  0,  -3,  11,   4)
FD_F7_01_04         // ( -3,  -9,   1,   4)
05_F8_FE_09         // (  5,  -8,  -2,   9)
00_01_06_05         // (  0,   1,   6,   5)
01_01_03_FE         // (  1,   1,   3,  -2)
F4_01_04_03         // (-12,   1,   4,   3)
F3_F5_02_F9         // (-13, -11,   2,  -7)
03_01_02_FE         // (  3,   1,   2,  -2)
FB_05_00_08         // ( -5,   5,   0,   8)
05_FF_0B_FB         // (  5,  -1,  11,  -5)
03_F9_0B_FA         // (  3,  -7,  11,  -6)
FE_FB_03_FB         // ( -2,  -5,   3,  -5)
F9_01_01_13         // ( -7,   1,   1,  19)
FD_F9_02_06         // ( -3,  -7,   2,   6)
FC_F6_FE_FD         // ( -4, -10,  -2,  -3)
01_F8_07_E0         // (  1,  -8,   7, -32)
F8_07_FB_F7         // ( -8,   7,  -5,  -9)
FE_FD_05_F3         // ( -2,  -3,   5, -13)
FF_F5_0C_F0         // ( -1, -11,  12, -16)
F7_04_FF_00         // ( -9,   4,  -1,   0)
FA_F5_09_F9         // ( -6, -11,   9,  -7)
FE_FC_00_EA         // ( -2,  -4,   0, -22)
04_02_F6_F8         // (  4,   2, -10,  -8)
FB_FD_F9_F9         // ( -5,  -3,  -7,  -7)
10_03_FA_FF         // ( 16,   3,  -6,  -1)
09_02_FB_02         // (  9,   2,  -5,   2)
02_02_08_F7         // (  2,   2,   8,  -9)
01_FF_F9_05         // (  1,  -1,  -7,   5)
07_FD_01_FE         // (  7,  -3,   1,  -2)
0C_03_0A_F8         // ( 12,   3,  10,  -8)
FE_FD_05_08         // ( -2,  -3,   5,   8)
04_FF_FF_03         // (  4,  -1,  -1,   3)
0C_07_FC_01         // ( 12,   7,  -4,   1)
FC_FE_FF_05         // ( -4,  -2,  -1,   5)
FF_0B_F8_05         // ( -1,  11,  -8,   5)
07_03_00_06         // (  7,   3,   0,   6)
FB_00_05_07         // ( -5,   0,   5,   7)
0B_01_03_06         // ( 11,   1,   3,   6)
08_05_03_00         // (  8,   5,   3,   0)
02_0A_02_0A         // (  2,  10,   2,  10)
00_F4_04_01         // (  0, -12,   4,   1)
00_07_FD_FD         // (  0,   7,  -3,  -3)
FC_0C_03_F9         // ( -4,  12,   3,  -7)
FC_08_FB_05         // ( -4,   8,  -5,   5)
FA_F7_EB_03         // ( -6,  -9, -21,   3)
06_F8_E1_F4         // (  6,  -8, -31, -12)
05_04_E7_FF         // (  5,   4, -25,  -1)
04_F4_E2_02         // (  4, -12, -30,   2)
02_02_F4_F9         // (  2,   2, -12,  -7)
04_FE_02_09         // (  4,  -2,   2,   9)
F7_F7_F1_08         // ( -9,  -9, -15,   8)
FF_F1_FF_F2         // ( -1, -15,  -1, -14)
FE_F7_02_08         // ( -2,  -9,   2,   8)
FB_EC_03_FB         // ( -5, -20,   3,  -5)
F9_FD_FE_FB         // ( -7,  -3,  -2,  -5)
FE_FF_FC_FD         // ( -2,  -1,  -4,  -3)
F7_F8_08_09         // ( -9,  -8,   8,   9)
FF_FF_F8_FF         // ( -1,  -1,  -8,  -1)
F8_03_FB_0E         // ( -8,   3,  -5,  14)
F6_FA_05_09         // (-10,  -6,   5,   9)
F5_01_F9_FA         // (-11,   1,  -7,  -6)
FA_FC_02_05         // ( -6,  -4,   2,   5)
03_FB_0B_FF         // (  3,  -5,  11,  -1)
01_FC_F6_08         // (  1,  -4, -10,   8)
00_FC_F9_FA         // (  0,  -4,  -7,  -6)
FF_FB_FE_08         // ( -1,  -5,  -2,   8)
FE_FF_FA_04         // ( -2,  -1,  -6,   4)
F8_F2_03_04         // ( -8, -14,   3,   4)
FC_FB_05_01         // ( -4,  -5,   5,   1)
F0_04_02_03         // (-16,   4,   2,   3)
F2_FC_03_FB         // (-14,  -4,   3,  -5)
E9_0A_FA_F0         // (-23,  10,  -6, -16)
F7_0E_0D_FE         // ( -9,  14,  13,  -2)
F0_09_03_FF         // (-16,   9,   3,  -1)
FC_05_04_F3         // ( -4,   5,   4, -13)
EF_0B_0E_08         // (-17,  11,  14,   8)
FA_FC_03_02         // ( -6,  -4,   3,   2)
02_04_00_F8         // (  2,   4,   0,  -8)
0B_09_FE_FF         // ( 11,   9,  -2,  -1)
03_02_FD_FB         // (  3,   2,  -3,  -5)
F8_FC_FD_FD         // ( -8,  -4,  -3,  -3)
FC_FC_00_08         // ( -4,  -4,   0,   8)
03_02_FF_04         // (  3,   2,  -1,   4)
00_05_FC_FE         // (  0,   5,  -4,  -2)
02_FF_06_0A         // (  2,  -1,   6,  10)
08_F6_FC_05         // (  8, -10,  -4,   5)
FE_FE_09_F2         // ( -2,  -2,   9, -14)
06_06_07_F9         // (  6,   6,   7,  -7)
04_02_00_FC         // (  4,   2,   0,  -4)
F5_06_04_02         // (-11,   6,   4,   2)
02_07_08_02         // (  2,   7,   8,   2)
01_FF_00_05         // (  1,  -1,   0,   5)
07_04_04_FF         // (  7,   4,   4,  -1)
06_0D_FF_10         // (  6,  13,  -1,  16)
05_00_FC_0A         // (  5,   0,  -4,  10)
FE_F4_04_FF         // ( -2, -12,   4,  -1)
FA_0A_07_FD         // ( -6,  10,   7,  -3)
F0_07_07_FA         // (-16,   7,   7,  -6)
FF_FE_FE_FA         // ( -1,  -2,  -2,  -6)
FE_0A_FF_FA         // ( -2,  10,  -1,  -6)
00_09_01_01         // (  0,   9,   1,   1)
0C_05_FE_FE         // ( 12,   5,  -2,  -2)
FF_0B_00_13         // ( -1,  11,   0,  19)
02_03_00_01         // (  2,   3,   0,   1)
08_04_04_FE         // (  8,   4,   4,  -2)
01_0B_F7_0B         // (  1,  11,  -9,  11)
08_03_08_FB         // (  8,   3,   8,  -5)
06_02_0D_05         // (  6,   2,  13,   5)
01_01_0D_F9         // (  1,   1,  13,  -7)
07_01_03_02         // (  7,   1,   3,   2)
02_00_FD_0E         // (  2,   0,  -3,  14)
00_02_09_FF         // (  0,   2,   9,  -1)
00_01_01_09         // (  0,   1,   1,   9)
F3_FB_00_00         // (-13,  -5,   0,   0)
FF_02_02_03         // ( -1,   2,   2,   3)
F7_FE_0B_05         // ( -9,  -2,  11,   5)
02_09_10_FC         // (  2,   9,  16,  -4)
01_E3_FD_0F         // (  1, -29,  -3,  15)
F8_EC_07_F2         // ( -8, -20,   7, -14)
FA_FA_06_FA         // ( -6,  -6,   6,  -6)
FE_E4_F7_F9         // ( -2, -28,  -9,  -7)
03_F9_04_F9         // (  3,  -7,   4,  -7)
04_03_00_0B         // (  4,   3,   0,  11)
ED_00_FD_F9         // (-19,   0,  -3,  -7)
F8_06_00_FF         // ( -8,   6,   0,  -1)
FF_FF_08_F8         // ( -1,  -1,   8,  -8)
FB_F7_0F_F9         // ( -5,  -9,  15,  -7)
0D_FD_F9_FC         // ( 13,  -3,  -7,  -4)
F7_00_03_ED         // ( -9,   0,   3, -19)
01_07_10_E9         // (  1,   7,  16, -23)
02_05_06_FE         // (  2,   5,   6,  -2)
F7_03_0A_F0         // ( -9,   3,  10, -16)
FC_01_03_FC         // ( -4,   1,   3,  -4)
FE_04_FB_FE         // ( -2,   4,  -5,  -2)
02_FF_03_07         // (  2,  -1,   3,   7)
08_0A_FE_F6         // (  8,  10,  -2, -10)
02_00_FB_F7         // (  2,   0,  -5,  -9)
FE_04_03_0B         // ( -2,   4,   3,  11)
01_0E_10_FE         // (  1,  14,  16,  -2)
02_FF_01_FC         // (  2,  -1,   1,  -4)
F7_FF_04_02         // ( -9,  -1,   4,   2)
0E_FD_08_01         // ( 14,  -3,   8,   1)
00_FE_05_03         // (  0,  -2,   5,   3)
03_F4_06_F2         // (  3, -12,   6, -14)
03_07_12_FF         // (  3,   7,  18,  -1)
00_07_FD_08         // (  0,   7,  -3,   8)
ED_F6_02_01         // (-19, -10,   2,   1)
08_01_15_FC         // (  8,   1,  21,  -4)
08_06_FD_01         // (  8,   6,  -3,   1)
FE_FD_00_FF         // ( -2,  -3,   0,  -1)
F3_FD_F9_11         // (-13,  -3,  -7,  17)
FF_03_FA_FA         // ( -1,   3,  -6,  -6)
01_01_F4_FF         // (  1,   1, -12,  -1)
FF_F9_10_FE         // ( -1,  -7,  16,  -2)
03_02_F4_F8         // (  3,   2, -12,  -8)
04_05_F9_05         // (  4,   5,  -7,   5)
F6_01_05_07         // (-10,   1,   5,   7)
03_02_FA_06         // (  3,   2,  -6,   6)
FF_05_FD_FE         // ( -1,   5,  -3,  -2)
0B_01_FC_05         // ( 11,   1,  -4,   5)
08_08_09_FB         // (  8,   8,   9,  -5)
05_FF_01_FF         // (  5,  -1,   1,  -1)
FC_E7_01_0E         // ( -4, -25,   1,  14)
F6_F5_FE_F8         // (-10, -11,  -2,  -8)
02_0D_F6_04         // (  2,  13, -10,   4)
01_E9_F4_10         // (  1, -23, -12,  16)
04_05_FD_FF         // (  4,   5,  -3,  -1)
02_10_F6_04         // (  2,  16, -10,   4)
FC_04_FF_08         // ( -4,   4,  -1,   8)
03_04_FC_FB         // (  3,   4,  -4,  -5)
00_F9_08_FC         // (  0,  -7,   8,  -4)
F1_0F_FD_FF         // (-15,  15,  -3,  -1)
05_FE_01_FE         // (  5,  -2,   1,  -2)
0D_FE_02_FE         // ( 13,  -2,   2,  -2)
FF_0A_02_FE         // ( -1,  10,   2,  -2)
FA_03_04_F8         // ( -6,   3,   4,  -8)
05_05_F9_0A         // (  5,   5,  -7,  10)
FB_F2_01_FF         // ( -5, -14,   1,  -1)
07_04_00_00         // (  7,   4,   0,   0)
03_05_FB_FF         // (  3,   5,  -5,  -1)
FE_F5_FF_05         // ( -2, -11,  -1,   5)
00_01_00_01         // (  0,   1,   0,   1)
FE_FA_02_FA         // ( -2,  -6,   2,  -6)
F6_F5_FE_04         // (-10, -11,  -2,   4)
05_FA_07_03         // (  5,  -6,   7,   3)
01_00_02_04         // (  1,   0,   2,   4)
FA_02_FE_F5         // ( -6,   2,  -2, -11)
F6_00_F8_FA         // (-10,   0,  -8,  -6)
EE_0C_E6_F7         // (-18,  12, -26,  -9)
FF_F5_F9_03         // ( -1, -11,  -7,   3)
FE_F8_F7_FC         // ( -2,  -8,  -9,  -4)
F9_06_E3_FF         // ( -7,   6, -29,  -1)
01_FA_FE_FE         // (  1,  -6,  -2,  -2)
FE_02_FC_FE         // ( -2,   2,  -4,  -2)
F8_FB_F0_FD         // ( -8,  -5, -16,  -3)
04_03_FA_FB         // (  4,   3,  -6,  -5)
FE_F8_FD_FD         // ( -2,  -8,  -3,  -3)
FF_F1_FA_F3         // ( -1, -15,  -6, -13)
0A_FB_F8_FF         // ( 10,  -5,  -8,  -1)
00_01_F8_04         // (  0,   1,  -8,   4)
FE_F9_FD_04         // ( -2,  -7,  -3,   4)
0D_02_F4_F6         // ( 13,   2, -12, -10)
07_FF_F9_FF         // (  7,  -1,  -7,  -1)
0B_00_F9_02         // ( 11,   0,  -7,   2)
FD_00_01_05         // ( -3,   0,   1,   5)
04_F7_05_03         // (  4,  -9,   5,   3)
0F_FA_0D_03         // ( 15,  -6,  13,   3)
FF_06_03_FE         // ( -1,   6,   3,  -2)
04_FE_03_FC         // (  4,  -2,   3,  -4)
07_03_0C_F7         // (  7,   3,  12,  -9)
F7_FB_FB_FD         // ( -9,  -5,  -5,  -3)
00_F5_FE_FB         // (  0, -11,  -2,  -5)
05_ED_FD_01         // (  5, -19,  -3,   1)
FC_FC_FD_F9         // ( -4,  -4,  -3,  -7)
F4_08_FE_FD         // (-12,   8,  -2,  -3)
EF_03_07_FC         // (-17,   3,   7,  -4)
04_07_F9_F8         // (  4,   7,  -7,  -8)
03_03_04_FB         // (  3,   3,   4,  -5)
FD_0A_02_02         // ( -3,  10,   2,   2)
FF_FB_F8_05         // ( -1,  -5,  -8,   5)
FB_00_FF_04         // ( -5,   0,  -1,   4)
01_FC_04_FE         // (  1,  -4,   4,  -2)
02_00_FE_02         // (  2,   0,  -2,   2)
FF_07_FF_00         // ( -1,   7,  -1,   0)
03_06_FE_02         // (  3,   6,  -2,   2)
FF_05_EF_FE         // ( -1,   5, -17,  -2)
01_07_01_FC         // (  1,   7,   1,  -4)
FD_F2_F8_FA         // ( -3, -14,  -8,  -6)
02_01_FB_0A         // (  2,   1,  -5,  10)
07_FA_F8_08         // (  7,  -6,  -8,   8)
FF_FC_F6_FC         // ( -1,  -4, -10,  -4)
08_FA_FE_09         // (  8,  -6,  -2,   9)
FF_FD_02_00         // ( -1,  -3,   2,   0)
FD_FD_0E_06         // ( -3,  -3,  14,   6)
F6_FB_09_02         // (-10,  -5,   9,   2)
00_FC_09_FF         // (  0,  -4,   9,  -1)
F5_03_07_F8         // (-11,   3,   7,  -8)
F4_08_04_02         // (-12,   8,   4,   2)
F8_FF_FB_FC         // ( -8,  -1,  -5,  -4)
F5_FC_0A_FE         // (-11,  -4,  10,  -2)
07_08_03_FB         // (  7,   8,   3,  -5)
FE_01_06_06         // ( -2,   1,   6,   6)
03_07_F4_FB         // (  3,   7, -12,  -5)
FD_FD_FE_FF         // ( -3,  -3,  -2,  -1)
EE_FA_F8_01         // (-18,  -6,  -8,   1)
FA_02_F9_08         // ( -6,   2,  -7,   8)
FC_02_07_FD         // ( -4,   2,   7,  -3)
FB_FA_01_07         // ( -5,  -6,   1,   7)
0A_02_FC_F6         // ( 10,   2,  -4, -10)
FF_00_04_F8         // ( -1,   0,   4,  -8)
FC_01_01_FC         // ( -4,   1,   1,  -4)
02_FA_FD_03         // (  2,  -6,  -3,   3)
FB_FF_EF_01         // ( -5,  -1, -17,   1)
02_F7_F5_00         // (  2,  -9, -11,   0)
FD_00_FA_06         // ( -3,   0,  -6,   6)
FB_FA_0E_06         // ( -5,  -6,  14,   6)
FA_F6_FE_07         // ( -6, -10,  -2,   7)
FC_FE_01_10         // ( -4,  -2,   1,  16)
07_FD_02_0A         // (  7,  -3,   2,  10)
05_01_01_0E         // (  5,   1,   1,  14)
0B_F3_17_06         // ( 11, -13,  23,   6)
FD_04_06_FB         // ( -3,   4,   6,  -5)
FC_FB_01_FD         // ( -4,  -5,   1,  -3)
FD_FD_0D_F1         // ( -3,  -3,  13, -15)
04_FD_01_ED         // (  4,  -3,   1, -19)
06_F4_FD_FA         // (  6, -12,  -3,  -6)
02_FE_12_F3         // (  2,  -2,  18, -13)
F9_09_FD_00         // ( -7,   9,  -3,   0)
00_01_06_FF         // (  0,   1,   6,  -1)
00_06_00_EE         // (  0,   6,   0, -18)
FE_00_FA_F8         // ( -2,   0,  -6,  -8)
FD_F9_FC_01         // ( -3,  -7,  -4,   1)
FE_F8_F9_F3         // ( -2,  -8,  -7, -13)
02_02_03_05         // (  2,   2,   3,   5)
09_03_FF_FF         // (  9,   3,  -1,  -1)
03_0A_FC_FD         // (  3,  10,  -4,  -3)
FF_06_02_04         // ( -1,   6,   2,   4)
FF_03_08_FC         // ( -1,   3,   8,  -4)
F7_00_FF_FA         // ( -9,   0,  -1,  -6)
06_08_00_05         // (  6,   8,   0,   5)
01_04_01_FF         // (  1,   4,   1,  -1)
00_FE_F8_FF         // (  0,  -2,  -8,  -1)
0F_01_04_FA         // ( 15,   1,   4,  -6)
04_FE_05_FA         // (  4,  -2,   5,  -6)
03_FB_03_FA         // (  3,  -5,   3,  -6)
12_04_06_06         // ( 18,   4,   6,   6)
FC_FF_FE_03         // ( -4,  -1,  -2,   3)
FE_FC_08_FD         // ( -2,  -4,   8,  -3)
0A_03_0E_0A         // ( 10,   3,  14,  10)
00_01_FE_0E         // (  0,   1,  -2,  14)
FA_FA_07_0A         // ( -6,  -6,   7,  10)
0D_0B_06_FF         // ( 13,  11,   6,  -1)
01_06_06_01         // (  1,   6,   6,   1)
04_00_04_10         // (  4,   0,   4,  16)
F5_06_FF_07         // (-11,   6,  -1,   7)
F3_FD_01_0C         // (-13,  -3,   1,  12)
F5_02_04_04         // (-11,   2,   4,   4)
08_FA_00_09         // (  8,  -6,   0,   9)
05_FE_FD_FF         // (  5,  -2,  -3,  -1)
02_06_FF_07         // (  2,   6,  -1,   7)
08_FD_02_0B         // (  8,  -3,   2,  11)
05_03_06_09         // (  5,   3,   6,   9)
09_07_03_03         // (  9,   7,   3,   3)
09_F7_03_FD         // (  9,  -9,   3,  -3)
08_01_06_F8         // (  8,   1,   6,  -8)
04_05_08_F8         // (  4,   5,   8,  -8)
F8_FE_FF_FD         // ( -8,  -2,  -1,  -3)
FF_FF_FF_FD         // ( -1,  -1,  -1,  -3)
01_05_08_FE         // (  1,   5,   8,  -2)
07_03_F9_FE         // (  7,   3,  -7,  -2)
04_03_F7_F1         // (  4,   3,  -9, -15)
FB_01_F5_FE         // ( -5,   1, -11,  -2)
08_08_01_07         // (  8,   8,   1,   7)
07_FF_FF_FF         // (  7,  -1,  -1,  -1)
00_02_0A_FB         // (  0,   2,  10,  -5)
01_FE_05_FB         // (  1,  -2,   5,  -5)
FD_FF_06_F6         // ( -3,  -1,   6, -10)
04_FC_07_FD         // (  4,  -4,   7,  -3)
02_FC_06_FF         // (  2,  -4,   6,  -1)
00_FC_03_01         // (  0,  -4,   3,   1)
00_FB_06_FF         // (  0,  -5,   6,  -1)
F1_05_FC_F8         // (-15,   5,  -4,  -8)
FD_03_F2_FC         // ( -3,   3, -14,  -4)
F8_0D_FD_F9         // ( -8,  13,  -3,  -7)
07_02_02_02         // (  7,   2,   2,   2)
FE_FF_FE_FE         // ( -2,  -1,  -2,  -2)
01_FF_01_FC         // (  1,  -1,   1,  -4)
00_06_07_02         // (  0,   6,   7,   2)
04_08_01_F4         // (  4,   8,   1, -12)
07_0D_05_02         // (  7,  13,   5,   2)
F5_FF_FE_0E         // (-11,  -1,  -2,  14)
08_05_FC_FD         // (  8,   5,  -4,  -3)
FD_02_FD_FF         // ( -3,   2,  -3,  -1)
06_00_FF_08         // (  6,   0,  -1,   8)
04_00_00_05         // (  4,   0,   0,   5)
FC_FC_02_00         // ( -4,  -4,   2,   0)
F8_F7_F7_08         // ( -8,  -9,  -9,   8)
00_F5_F7_FD         // (  0, -11,  -9,  -3)
0A_FB_FE_F4         // ( 10,  -5,  -2, -12)
F9_F9_04_10         // ( -7,  -7,   4,  16)
02_05_FA_EB         // (  2,   5,  -6, -21)
02_09_0D_D7         // (  2,   9,  13, -41)
01_F6_02_05         // (  1, -10,   2,   5)
FC_FA_FC_EA         // ( -4,  -6,  -4, -22)
03_03_04_01         // (  3,   3,   4,   1)
03_00_F8_FE         // (  3,   0,  -8,  -2)
02_FE_FF_EC         // (  2,  -2,  -1, -20)
04_FF_06_FB         // (  4,  -1,   6,  -5)
06_FB_FA_08         // (  6,  -5,  -6,   8)
FB_FB_08_03         // ( -5,  -5,   8,   3)
F7_F3_06_00         // ( -9, -13,   6,   0)
05_FA_F6_00         // (  5,  -6, -10,   0)
0D_02_02_FC         // ( 13,   2,   2,  -4)
00_F9_01_FB         // (  0,  -7,   1,  -5)
02_F6_01_FD         // (  2, -10,   1,  -3)
04_FE_FC_FB         // (  4,  -2,  -4,  -5)
FF_01_01_07         // ( -1,   1,   1,   7)
FF_0E_04_F7         // ( -1,  14,   4,  -9)
FF_06_FA_FC         // ( -1,   6,  -6,  -4)
FD_0D_07_F3         // ( -3,  13,   7, -13)
FA_00_02_FE         // ( -6,   0,   2,  -2)
F8_FE_FB_F5         // ( -8,  -2,  -5, -11)
FD_F2_FF_FD         // ( -3, -14,  -1,  -3)
FD_0A_02_00         // ( -3,  10,   2,   0)
03_01_06_05         // (  3,   1,   6,   5)
F8_02_F9_0C         // ( -8,   2,  -7,  12)
F6_08_03_10         // (-10,   8,   3,  16)
FE_F6_05_09         // ( -2, -10,   5,   9)
1A_FB_19_02         // ( 26,  -5,  25,   2)
00_05_F6_FE         // (  0,   5, -10,  -2)
03_08_FD_F5         // (  3,   8,  -3, -11)
F2_05_FD_FA         // (-14,   5,  -3,  -6)
01_01_00_06         // (  1,   1,   0,   6)
05_01_04_F4         // (  5,   1,   4, -12)
10_F6_07_06         // ( 16, -10,   7,   6)
0E_00_09_F5         // ( 14,   0,   9, -11)
00_01_00_F8         // (  0,   1,   0,  -8)
FD_06_FC_FA         // ( -3,   6,  -4,  -6)
F7_0B_FF_02         // ( -9,  11,  -1,   2)
05_03_FD_FC         // (  5,   3,  -3,  -4)
FF_FE_01_00         // ( -1,  -2,   1,   0)
05_00_0D_01         // (  5,   0,  13,   1)
0A_FF_01_06         // ( 10,  -1,   1,   6)
F8_FA_FF_01         // ( -8,  -6,  -1,   1)
FA_F8_0B_F5         // ( -6,  -8,  11, -11)
03_F5_03_00         // (  3, -11,   3,   0)
06_FA_FF_08         // (  6,  -6,  -1,   8)
FF_08_08_FD         // ( -1,   8,   8,  -3)
02_FF_07_02         // (  2,  -1,   7,   2)
00_FB_FF_FE         // (  0,  -5,  -1,  -2)
05_F9_03_FB         // (  5,  -7,   3,  -5)
FD_00_03_FF         // ( -3,   0,   3,  -1)
FC_F9_10_FF         // ( -4,  -7,  16,  -1)
FA_05_F3_F6         // ( -6,   5, -13, -10)
FE_02_10_FE         // ( -2,   2,  16,  -2)
02_07_02_03         // (  2,   7,   2,   3)
FB_FE_FA_FA         // ( -5,  -2,  -6,  -6)
FD_FB_FF_09         // ( -3,  -5,  -1,   9)
FD_F4_02_01         // ( -3, -12,   2,   1)
F8_08_FC_FF         // ( -8,   8,  -4,  -1)
FC_F3_07_04         // ( -4, -13,   7,   4)
FC_02_FB_01         // ( -4,   2,  -5,   1)
FF_0D_F4_02         // ( -1,  13, -12,   2)
F7_07_03_FD         // ( -9,   7,   3,  -3)
FB_00_E1_0A         // ( -5,   0, -31,  10)
F9_11_01_FF         // ( -7,  17,   1,  -1)
06_07_EF_FF         // (  6,   7, -17,  -1)
F8_FB_F8_08         // ( -8,  -5,  -8,   8)
05_F9_F2_06         // (  5,  -7, -14,   6)
FE_FE_FA_03         // ( -2,  -2,  -6,   3)
F7_F4_E6_06         // ( -9, -12, -26,   6)
FD_EF_F5_FB         // ( -3, -17, -11,  -5)
00_FD_02_FF         // (  0,  -3,   2,  -1)
FA_FA_F6_01         // ( -6,  -6, -10,   1)
07_F4_FB_FA         // (  7, -12,  -5,  -6)
FE_FD_05_0A         // ( -2,  -3,   5,  10)
02_FB_FF_01         // (  2,  -5,  -1,   1)
0C_F4_E7_00         // ( 12, -12, -25,   0)
FB_FE_F4_01         // ( -5,  -2, -12,   1)
05_FB_E8_F6         // (  5,  -5, -24, -10)
FB_05_F8_F6         // ( -5,   5,  -8, -10)
05_F8_FB_FF         // (  5,  -8,  -5,  -1)
0A_F8_05_F8         // ( 10,  -8,   5,  -8)
F9_F4_FF_FB         // ( -7, -12,  -1,  -5)
FF_00_FD_02         // ( -1,   0,  -3,   2)
FB_0F_FA_F7         // ( -5,  15,  -6,  -9)
FF_F8_03_00         // ( -1,  -8,   3,   0)
FC_FD_FD_01         // ( -4,  -3,  -3,   1)
FB_FB_07_FD         // ( -5,  -5,   7,  -3)
F0_F7_02_01         // (-16,  -9,   2,   1)
EE_F5_FA_04         // (-18, -11,  -6,   4)
FC_02_F0_01         // ( -4,   2, -16,   1)
0A_07_FF_FC         // ( 10,   7,  -1,  -4)
F9_07_FF_FA         // ( -7,   7,  -1,  -6)
FD_F8_FC_F7         // ( -3,  -8,  -4,  -9)
FF_0D_03_F6         // ( -1,  13,   3, -10)
01_FE_FC_FD         // (  1,  -2,  -4,  -3)
12_00_05_F8         // ( 18,   0,   5,  -8)
FB_FE_07_F9         // ( -5,  -2,   7,  -7)
FC_05_F6_07         // ( -4,   5, -10,   7)
07_07_FC_06         // (  7,   7,  -4,   6)
02_00_FB_01         // (  2,   0,  -5,   1)
06_00_FE_05         // (  6,   0,  -2,   5)
06_07_FD_00         // (  6,   7,  -3,   0)
F8_FC_FF_FF         // ( -8,  -4,  -1,  -1)
F3_F7_02_FC         // (-13,  -9,   2,  -4)
01_01_F6_FC         // (  1,   1, -10,  -4)
FE_FB_01_FD         // ( -2,  -5,   1,  -3)
FD_FD_0A_03         // ( -3,  -3,  10,   3)
03_F9_0B_F8         // (  3,  -7,  11,  -8)
FF_FC_FC_FC         // ( -1,  -4,  -4,  -4)
0A_03_F2_F8         // ( 10,   3, -14,  -8)
08_FF_04_F8         // (  8,  -1,   4,  -8)
00_02_05_F1         // (  0,   2,   5, -15)
FC_04_FF_FE         // ( -4,   4,  -1,  -2)
FA_FE_00_FA         // ( -6,  -2,   0,  -6)
F9_00_EC_F6         // ( -7,   0, -20, -10)
00_F5_FE_06         // (  0, -11,  -2,   6)
F9_FF_F7_01         // ( -7,  -1,  -9,   1)
F3_EF_06_F9         // (-13, -17,   6,  -7)
05_F5_06_FC         // (  5, -11,   6,  -4)
FA_F2_04_FA         // ( -6, -14,   4,  -6)
F3_FB_FF_03         // (-13,  -5,  -1,   3)
F3_F7_FE_08         // (-13,  -9,  -2,   8)
FA_09_FA_03         // ( -6,   9,  -6,   3)
FF_05_FB_FC         // ( -1,   5,  -5,  -4)
01_00_FD_FD         // (  1,   0,  -3,  -3)
02_03_FF_FE         // (  2,   3,  -1,  -2)
FF_FB_FF_FE         // ( -1,  -5,  -1,  -2)
FD_FF_FF_FB         // ( -3,  -1,  -1,  -5)
FE_FC_00_03         // ( -2,  -4,   0,   3)
FD_F2_FE_FF         // ( -3, -14,  -2,  -1)
FC_07_04_FC         // ( -4,   7,   4,  -4)
FC_02_06_FF         // ( -4,   2,   6,  -1)
FE_04_06_FB         // ( -2,   4,   6,  -5)
FF_02_06_03         // ( -1,   2,   6,   3)
FA_08_01_02         // ( -6,   8,   1,   2)
FC_FD_F9_FB         // ( -4,  -3,  -7,  -5)
06_02_FE_01         // (  6,   2,  -2,   1)
00_FE_FB_00         // (  0,  -2,  -5,   0)
00_07_F8_00         // (  0,   7,  -8,   0)
04_00_FA_02         // (  4,   0,  -6,   2)
FE_FF_F8_07         // ( -2,  -1,  -8,   7)
FB_00_02_01         // ( -5,   0,   2,   1)
00_02_05_01         // (  0,   2,   5,   1)
00_05_FC_04         // (  0,   5,  -4,   4)
FF_FD_04_FB         // ( -1,  -3,   4,  -5)
02_FF_02_FA         // (  2,  -1,   2,  -6)
FE_05_02_00         // ( -2,   5,   2,   0)
FD_01_FD_01         // ( -3,   1,  -3,   1)
00_FF_FF_07         // (  0,  -1,  -1,   7)
01_FE_04_08         // (  1,  -2,   4,   8)
07_07_FD_FD         // (  7,   7,  -3,  -3)
04_01_FA_03         // (  4,   1,  -6,   3)
01_05_01_FC         // (  1,   5,   1,  -4)
02_05_FC_FD         // (  2,   5,  -4,  -3)
FD_00_FD_FD         // ( -3,   0,  -3,  -3)
FD_FE_02_02         // ( -3,  -2,   2,   2)
01_FF_FD_FF         // (  1,  -1,  -3,  -1)
01_02_FB_FB         // (  1,   2,  -5,  -5)
F9_FB_01_01         // ( -7,  -5,   1,   1)
FE_F8_FE_FE         // ( -2,  -8,  -2,  -2)
FD_FE_FE_01         // ( -3,  -2,  -2,   1)
02_04_FC_FF         // (  2,   4,  -4,  -1)
01_0A_01_FF         // (  1,  10,   1,  -1)
FF_FD_04_02         // ( -1,  -3,   4,   2)
FF_FF_02_FA         // ( -1,  -1,   2,  -6)
02_08_02_FF         // (  2,   8,   2,  -1)
FF_03_05_00         // ( -1,   3,   5,   0)
01_FE_FF_FA         // (  1,  -2,  -1,  -6)
FB_00_FD_FD         // ( -5,   0,  -3,  -3)
F7_FE_F6_FE         // ( -9,  -2, -10,  -2)
FB_FB_FF_FC         // ( -5,  -5,  -1,  -4)
FC_FB_02_FE         // ( -4,  -5,   2,  -2)
FE_00_FD_03         // ( -2,   0,  -3,   3)
FC_04_FC_F9         // ( -4,   4,  -4,  -7)
FC_02_FD_F7         // ( -4,   2,  -3,  -9)
FF_F8_F9_FB         // ( -1,  -8,  -7,  -5)
FE_FF_FE_FF         // ( -2,  -1,  -2,  -1)
FB_05_03_00         // ( -5,   5,   3,   0)
02_03_FD_FE         // (  2,   3,  -3,  -2)
FC_03_FD_FF         // ( -4,   3,  -3,  -1)
F6_FE_07_05         // (-10,  -2,   7,   5)
00_FC_F5_06         // (  0,  -4, -11,   6)
00_07_F7_07         // (  0,   7,  -9,   7)
FD_FA_07_0A         // ( -3,  -6,   7,  10)
02_06_FB_03         // (  2,   6,  -5,   3)
05_01_F9_07         // (  5,   1,  -7,   7)
FD_04_00_00         // ( -3,   4,   0,   0)
02_FE_FD_06         // (  2,  -2,  -3,   6)
05_03_FE_00         // (  5,   3,  -2,   0)
03_01_00_F7         // (  3,   1,   0,  -9)
FE_FF_FE_FD         // ( -2,  -1,  -2,  -3)
0A_FF_05_FB         // ( 10,  -1,   5,  -5)
03_0B_03_FD         // (  3,  11,   3,  -3)
00_01_FE_02         // (  0,   1,  -2,   2)
06_0A_FF_01         // (  6,  10,  -1,   1)
00_08_FC_FE         // (  0,   8,  -4,  -2)
FB_03_09_FF         // ( -5,   3,   9,  -1)
00_02_07_00         // (  0,   2,   7,   0)
01_02_01_01         // (  1,   2,   1,   1)
FB_05_01_00         // ( -5,   5,   1,   0)
0E_FC_06_FA         // ( 14,  -4,   6,  -6)
FF_FB_FD_FC         // ( -1,  -5,  -3,  -4)
FF_FE_03_02         // ( -1,  -2,   3,   2)
F9_FF_06_FD         // ( -7,  -1,   6,  -3)
00_00_FD_03         // (  0,   0,  -3,   3)
02_00_FD_FF         // (  2,   0,  -3,  -1)
F9_04_FB_F7         // ( -7,   4,  -5,  -9)
FB_FF_FD_05         // ( -5,  -1,  -3,   5)
FB_03_FF_FF         // ( -5,   3,  -1,  -1)
02_07_FD_06         // (  2,   7,  -3,   6)
00_00_03_03         // (  0,   0,   3,   3)
07_00_F8_00         // (  7,   0,  -8,   0)
06_FF_FF_0F         // (  6,  -1,  -1,  15)
07_F9_FC_02         // (  7,  -7,  -4,   2)
01_F9_F8_04         // (  1,  -7,  -8,   4)
03_02_02_07         // (  3,   2,   2,   7)
00_FD_F9_F5         // (  0,  -3,  -7, -11)
FF_01_02_FC         // ( -1,   1,   2,  -4)
FB_FF_02_00         // ( -5,  -1,   2,   0)
08_FA_FB_F8         // (  8,  -6,  -5,  -8)
02_FA_00_FD         // (  2,  -6,   0,  -3)
04_04_FA_FD         // (  4,   4,  -6,  -3)
FA_FF_0A_04         // ( -6,  -1,  10,   4)
00_01_00_FE         // (  0,   1,   0,  -2)
02_FD_01_FF         // (  2,  -3,   1,  -1)
00_04_00_09         // (  0,   4,   0,   9)
04_FF_FD_00         // (  4,  -1,  -3,   0)
01_01_02_07         // (  1,   1,   2,   7)
FB_01_01_00         // ( -5,   1,   1,   0)
F9_07_02_FD         // ( -7,   7,   2,  -3)
F8_03_FD_02         // ( -8,   3,  -3,   2)
FA_FD_FF_F8         // ( -6,  -3,  -1,  -8)
03_02_FE_F9         // (  3,   2,  -2,  -7)
FF_03_FF_02         // ( -1,   3,  -1,   2)
FD_00_FD_FD         // ( -3,   0,  -3,  -3)
FE_04_00_00         // ( -2,   4,   0,   0)
01_01_F7_06         // (  1,   1,  -9,   6)
01_FB_05_FB         // (  1,  -5,   5,  -5)
FD_01_06_FE         // ( -3,   1,   6,  -2)
03_FB_FC_01         // (  3,  -5,  -4,   1)
00_02_03_05         // (  0,   2,   3,   5)
FF_02_00_01         // ( -1,   2,   0,   1)
06_03_03_07         // (  6,   3,   3,   7)
05_05_03_01         // (  5,   5,   3,   1)
01_05_F8_02         // (  1,   5,  -8,   2)
00_02_FE_04         // (  0,   2,  -2,   4)
04_02_FC_06         // (  4,   2,  -4,   6)
FF_04_F8_05         // ( -1,   4,  -8,   5)
01_03_FF_FF         // (  1,   3,  -1,  -1)
03_FC_01_07         // (  3,  -4,   1,   7)
00_FF_00_FF         // (  0,  -1,   0,  -1)
02_FB_00_02         // (  2,  -5,   0,   2)
06_01_00_05         // (  6,   1,   0,   5)
FB_FF_01_F9         // ( -5,  -1,   1,  -7)
01_F9_F6_FF         // (  1,  -7, -10,  -1)
FF_05_FB_03         // ( -1,   5,  -5,   3)
05_FD_FE_FD         // (  5,  -3,  -2,  -3)
06_FC_FD_03         // (  6,  -4,  -3,   3)
01_00_F9_05         // (  1,   0,  -7,   5)
02_02_03_FF         // (  2,   2,   3,  -1)
FC_02_07_FE         // ( -4,   2,   7,  -2)
FE_F7_FF_03         // ( -2,  -9,  -1,   3)
FF_FD_02_04         // ( -1,  -3,   2,   4)
03_00_03_03         // (  3,   0,   3,   3)
FE_F7_FE_00         // ( -2,  -9,  -2,   0)
FF_FB_03_06         // ( -1,  -5,   3,   6)
03_02_FF_06         // (  3,   2,  -1,   6)
FD_01_00_02         // ( -3,   1,   0,   2)
04_F8_FC_01         // (  4,  -8,  -4,   1)
0B_02_07_00         // ( 11,   2,   7,   0)
FE_09_FF_09         // ( -2,   9,  -1,   9)
03_F6_0A_FC         // (  3, -10,  10,  -4)
FB_02_FC_FE         // ( -5,   2,  -4,  -2)
06_FA_F9_FF         // (  6,  -6,  -7,  -1)
0D_FB_FD_0C         // ( 13,  -5,  -3,  12)
00_F4_F5_F9         // (  0, -12, -11,  -7)
F0_0B_F1_07         // (-16,  11, -15,   7)
F4_03_FA_07         // (-12,   3,  -6,   7)
F6_02_E8_F2         // (-10,   2, -24, -14)
F6_FE_EF_06         // (-10,  -2, -17,   6)
F9_05_F5_05         // ( -7,   5, -11,   5)
02_F2_EF_FD         // (  2, -14, -17,  -3)
EB_0C_F4_09         // (-21,  12, -12,   9)
FF_00_F4_FA         // ( -1,   0, -12,  -6)
FD_E9_ED_FD         // ( -3, -23, -19,  -3)
0A_F8_F6_FF         // ( 10,  -8, -10,  -1)
FC_F2_F4_00         // ( -4, -14, -12,   0)
FE_F8_F6_04         // ( -2,  -8, -10,   4)
0E_05_F8_0B         // ( 14,   5,  -8,  11)
02_00_F8_0B         // (  2,   0,  -8,  11)
F6_F8_06_FD         // (-10,  -8,   6,  -3)
0C_FE_F3_0A         // ( 12,  -2, -13,  10)
FD_FE_FB_0C         // ( -3,  -2,  -5,  12)
0B_03_03_FE         // ( 11,   3,   3,  -2)
F7_09_FE_FD         // ( -9,   9,  -2,  -3)
02_FB_05_FC         // (  2,  -5,   5,  -4)
F8_FF_0C_FD         // ( -8,  -1,  12,  -3)
F5_02_02_FE         // (-11,   2,   2,  -2)
FF_FE_FD_04         // ( -1,  -2,  -3,   4)
04_FE_07_FE         // (  4,  -2,   7,  -2)
00_FC_FA_07         // (  0,  -4,  -6,   7)
08_02_F9_FF         // (  8,   2,  -7,  -1)
FD_F8_FB_F5         // ( -3,  -8,  -5, -11)
F3_FF_05_FB         // (-13,  -1,   5,  -5)
EE_04_FB_00         // (-18,   4,  -5,   0)
FD_00_FA_FF         // ( -3,   0,  -6,  -1)
04_10_01_FC         // (  4,  16,   1,  -4)
02_0A_FF_02         // (  2,  10,  -1,   2)
FC_05_F9_FD         // ( -4,   5,  -7,  -3)
F9_FF_12_F8         // ( -7,  -1,  18,  -8)
F6_02_0A_FF         // (-10,   2,  10,  -1)
FD_0E_F5_02         // ( -3,  14, -11,   2)
0B_FC_09_F8         // ( 11,  -4,   9,  -8)
06_FB_05_F8         // (  6,  -5,   5,  -8)
08_03_00_FD         // (  8,   3,   0,  -3)
FA_EE_0F_0B         // ( -6, -18,  15,  11)
05_02_F9_F9         // (  5,   2,  -7,  -7)
F1_09_FC_03         // (-15,   9,  -4,   3)
FF_F7_05_F6         // ( -1,  -9,   5, -10)
11_09_02_FA         // ( 17,   9,   2,  -6)
07_F9_08_00         // (  7,  -7,   8,   0)
F7_05_0E_01         // ( -9,   5,  14,   1)
F1_FB_11_FE         // (-15,  -5,  17,  -2)
F0_FF_FC_FF         // (-16,  -1,  -4,  -1)
EE_02_FF_00         // (-18,   2,  -1,   0)
EB_FA_07_FB         // (-21,  -6,   7,  -5)
ED_03_06_07         // (-19,   3,   6,   7)
F3_FE_F6_05         // (-13,  -2, -10,   5)
ED_FB_FF_02         // (-19,  -5,  -1,   2)
F7_F3_FE_FC         // ( -9, -13,  -2,  -4)
F5_0D_04_FB         // (-11,  13,   4,  -5)
F5_09_00_FB         // (-11,   9,   0,  -5)
FE_07_0E_02         // ( -2,   7,  14,   2)
06_07_FD_F9         // (  6,   7,  -3,  -7)
FD_08_FC_FD         // ( -3,   8,  -4,  -3)
01_09_FD_0C         // (  1,   9,  -3,  12)
00_00_F9_F1         // (  0,   0,  -7, -15)
F5_04_F5_F7         // (-11,   4, -11,  -9)
F2_08_FB_01         // (-14,   8,  -5,   1)
F8_0B_FD_01         // ( -8,  11,  -3,   1)
FC_01_04_F7         // ( -4,   1,   4,  -9)
FB_01_FC_0F         // ( -5,   1,  -4,  15)
FC_02_01_02         // ( -4,   2,   1,   2)
F5_FF_08_F9         // (-11,  -1,   8,  -7)
F7_FF_ED_08         // ( -9,  -1, -19,   8)
F1_0C_00_05         // (-15,  12,   0,   5)
F4_07_FF_00         // (-12,   7,  -1,   0)
EC_06_11_09         // (-20,   6,  17,   9)
FC_FC_0C_0B         // ( -4,  -4,  12,  11)
03_FE_11_07         // (  3,  -2,  17,   7)
F5_FF_13_FC         // (-11,  -1,  19,  -4)
F9_03_FD_11         // ( -7,   3,  -3,  17)
FE_08_13_FC         // ( -2,   8,  19,  -4)
F3_FC_04_FE         // (-13,  -4,   4,  -2)
FF_F7_F2_1C         // ( -1,  -9, -14,  28)
00_F6_05_08         // (  0, -10,   5,   8)
FC_FD_15_00         // ( -4,  -3,  21,   0)
FC_04_07_00         // ( -4,   4,   7,   0)
F9_00_F8_F4         // ( -7,   0,  -8, -12)
05_07_FA_F9         // (  5,   7,  -6,  -7)
02_F7_00_02         // (  2,  -9,   0,   2)
0C_F2_FF_05         // ( 12, -14,  -1,   5)
0A_FE_FE_F5         // ( 10,  -2,  -2, -11)
04_FD_0B_FD         // (  4,  -3,  11,  -3)
FE_00_07_00         // ( -2,   0,   7,   0)
02_02_FD_F1         // (  2,   2,  -3, -15)
FF_0D_03_F7         // ( -1,  13,   3,  -9)
FA_0A_03_04         // ( -6,  10,   3,   4)
F7_03_05_02         // ( -9,   3,   5,   2)
FE_FD_EC_F5         // ( -2,  -3, -20, -11)
04_00_08_04         // (  4,   0,   8,   4)
F6_F5_07_FC         // (-10, -11,   7,  -4)
F8_FA_0B_FE         // ( -8,  -6,  11,  -2)
EE_09_12_07         // (-18,   9,  18,   7)
FA_05_12_05         // ( -6,   5,  18,   5)
0D_09_03_F6         // ( 13,   9,   3, -10)
FB_06_02_F8         // ( -5,   6,   2,  -8)
FD_FB_0D_F1         // ( -3,  -5,  13, -15)
06_FC_FC_FD         // (  6,  -4,  -4,  -3)
07_02_FC_09         // (  7,   2,  -4,   9)
FF_F7_10_0A         // ( -1,  -9,  16,  10)
12_01_02_F7         // ( 18,   1,   2,  -9)
02_02_00_FF         // (  2,   2,   0,  -1)
F7_11_09_FC         // ( -9,  17,   9,  -4)
FE_F9_FE_06         // ( -2,  -7,  -2,   6)
FC_09_03_03         // ( -4,   9,   3,   3)
FB_05_FB_06         // ( -5,   5,  -5,   6)
00_FA_07_01         // (  0,  -6,   7,   1)
03_07_FD_FD         // (  3,   7,  -3,  -3)
0F_02_FE_09         // ( 15,   2,  -2,   9)
FF_06_FA_0B         // ( -1,   6,  -6,  11)
03_06_FB_05         // (  3,   6,  -5,   5)
06_0C_00_03         // (  6,  12,   0,   3)
0C_06_FF_FE         // ( 12,   6,  -1,  -2)
0E_FE_05_F1         // ( 14,  -2,   5, -15)
F9_02_FF_FC         // ( -7,   2,  -1,  -4)
06_F6_FD_04         // (  6, -10,  -3,   4)
FA_FF_F9_FC         // ( -6,  -1,  -7,  -4)
03_03_FD_07         // (  3,   3,  -3,   7)
05_07_F4_00         // (  5,   7, -12,   0)
05_01_F9_F0         // (  5,   1,  -7, -16)
FA_00_F8_F6         // ( -6,   0,  -8, -10)
05_FF_01_05         // (  5,  -1,   1,   5)
F9_FB_08_FD         // ( -7,  -5,   8,  -3)
FC_00_09_F5         // ( -4,   0,   9, -11)
FB_0A_01_0A         // ( -5,  10,   1,  10)
FD_00_FC_F8         // ( -3,   0,  -4,  -8)
09_04_01_03         // (  9,   4,   1,   3)
FC_03_00_14         // ( -4,   3,   0,  20)
FF_05_08_FD         // ( -1,   5,   8,  -3)
FC_04_01_0C         // ( -4,   4,   1,  12)
FF_12_03_DC         // ( -1,  18,   3, -36)
F8_EA_01_08         // ( -8, -22,   1,   8)
19_FD_FB_08         // ( 25,  -3,  -5,   8)
E1_FD_FF_09         // (-31,  -3,  -1,   9)
0C_2E_15_04         // ( 12,  46,  21,   4)
FF_E4_FC_0B         // ( -1, -28,  -4,  11)
E2_EA_13_09         // (-30, -22,  19,   9)
DD_2B_09_F5         // (-35,  43,   9, -11)
DD_F7_F6_ED         // (-35,  -9, -10, -19)
F3_E0_F7_15         // (-13, -32,  -9,  21)
EF_03_09_FD         // (-17,   3,   9,  -3)
02_19_09_0D         // (  2,  25,   9,  13)
DF_F2_02_F1         // (-33, -14,   2, -15)
F2_0F_F6_F5         // (-14,  15, -10, -11)
06_10_12_0B         // (  6,  16,  18,  11)
FA_D4_09_F4         // ( -6, -44,   9, -12)
06_11_0E_0F         // (  6,  17,  14,  15)
FD_FD_0D_15         // ( -3,  -3,  13,  21)
15_FC_F0_F7         // ( 21,  -4, -16,  -9)
E8_FB_F5_EC         // (-24,  -5, -11, -20)
F7_1C_07_08         // ( -9,  28,   7,   8)
0D_08_F7_15         // ( 13,   8,  -9,  21)
10_DA_01_EE         // ( 16, -38,   1, -18)
08_03_FA_DC         // (  8,   3,  -6, -36)
0C_12_00_03         // ( 12,  18,   0,   3)
08_10_E4_E7         // (  8,  16, -28, -25)
F9_14_C4_D8         // ( -7,  20, -60, -40)
27_04_0B_04         // ( 39,   4,  11,   4)
FF_E7_1B_FB         // ( -1, -25,  27,  -5)
06_15_02_EA         // (  6,  21,   2, -22)
0B_1A_26_FE         // ( 11,  26,  38,  -2)
F0_F1_0F_03         // (-16, -15,  15,   3)
07_F6_FA_F6         // (  7, -10,  -6, -10)
15_06_33_F6         // ( 21,   6,  51, -10)
12_15_14_F5         // ( 18,  21,  20, -11)
2B_EF_1D_F3         // ( 43, -17,  29, -13)
0A_00_FA_D4         // ( 10,   0,  -6, -44)
0D_18_08_F9         // ( 13,  24,   8,  -7)
FE_0A_19_EB         // ( -2,  10,  25, -21)
F5_FA_F4_EB         // (-11,  -6, -12, -21)
14_E8_EE_07         // ( 20, -24, -18,   7)
E1_07_FF_06         // (-31,   7,  -1,   6)
0F_0D_01_FE         // ( 15,  13,   1,  -2)
FC_D9_FA_CF         // ( -4, -39,  -6, -49)
FD_05_FC_DA         // ( -3,   5,  -4, -38)
E2_07_CB_01         // (-30,   7, -53,   1)
F7_FE_F2_FE         // ( -9,  -2, -14,  -2)
FD_EE_07_F4         // ( -3, -18,   7, -12)
03_FC_ED_FB         // (  3,  -4, -19,  -5)
06_01_D8_0A         // (  6,   1, -40,  10)
24_FD_F0_FC         // ( 36,  -3, -16,  -4)
F9_07_E8_07         // ( -7,   7, -24,   7)
FE_F0_C9_FA         // ( -2, -16, -55,  -6)
11_08_B7_FC         // ( 17,   8, -73,  -4)
0A_C9_F9_22         // ( 10, -55,  -7,  34)
FE_DF_00_2F         // ( -2, -33,   0,  47)
21_F5_EE_FB         // ( 33, -11, -18,  -5)
0A_F7_EB_F4         // ( 10,  -9, -21, -12)
08_F8_F1_05         // (  8,  -8, -15,   5)
F0_FB_10_E3         // (-16,  -5,  16, -29)
FC_06_07_EC         // ( -4,   6,   7, -20)
07_0A_E2_EF         // (  7,  10, -30, -17)
03_11_E5_D6         // (  3,  17, -27, -42)
19_D9_EC_20         // ( 25, -39, -20,  32)
05_0E_F8_FB         // (  5,  14,  -8,  -5)
0E_F6_13_EF         // ( 14, -10,  19, -17)
F7_F1_0B_00         // ( -9, -15,  11,   0)
FA_F8_F5_1B         // ( -6,  -8, -11,  27)
05_11_0A_F9         // (  5,  17,  10,  -7)
F7_FC_0E_07         // ( -9,  -4,  14,   7)
08_F2_09_14         // (  8, -14,   9,  20)
DD_FB_08_FC         // (-35,  -5,   8,  -4)
05_EC_F1_0C         // (  5, -20, -15,  12)
FD_13_E2_EF         // ( -3,  19, -30, -17)
19_08_06_04         // ( 25,   8,   6,   4)
0C_F7_0F_F6         // ( 12,  -9,  15, -10)
05_04_F3_F7         // (  5,   4, -13,  -9)
0B_03_E2_E5         // ( 11,   3, -30, -27)
F9_E9_10_06         // ( -7, -23,  16,   6)
FF_08_FE_FA         // ( -1,   8,  -2,  -6)
0F_0B_FC_F7         // ( 15,  11,  -4,  -9)
1E_E2_D1_FB         // ( 30, -30, -47,  -5)
F8_E6_EC_16         // ( -8, -26, -20,  22)
F9_21_E8_08         // ( -7,  33, -24,   8)
2E_DF_06_F4         // ( 46, -33,   6, -12)
19_E6_F1_FF         // ( 25, -26, -15,  -1)
01_0C_D4_FB         // (  1,  12, -44,  -5)
1C_FF_08_F0         // ( 28,  -1,   8, -16)
0D_EC_F9_F7         // ( 13, -20,  -7,  -9)
00_00_FE_EA         // (  0,   0,  -2, -22)
15_C6_12_E5         // ( 21, -58,  18, -27)
08_0E_07_E5         // (  8,  14,   7, -27)
0D_07_13_EE         // ( 13,   7,  19, -18)
07_F7_08_00         // (  7,  -9,   8,   0)
F5_10_FE_0D         // (-11,  16,  -2,  13)
FD_FB_FC_00         // ( -3,  -5,  -4,   0)
09_E9_12_18         // (  9, -23,  18,  24)
02_FE_06_1E         // (  2,  -2,   6,  30)
F3_0F_01_31         // (-13,  15,   1,  49)
27_0C_F3_F0         // ( 39,  12, -13, -16)
31_12_F6_D5         // ( 49,  18, -10, -43)
14_15_E8_E8         // ( 20,  21, -24, -24)
FA_01_F2_0E         // ( -6,   1, -14,  14)
FB_1E_F2_0D         // ( -5,  30, -14,  13)
FE_FA_F3_11         // ( -2,  -6, -13,  17)
24_ED_F1_F9         // ( 36, -19, -15,  -7)
FF_09_EB_F6         // ( -1,   9, -21, -10)
EE_11_D9_FF         // (-18,  17, -39,  -1)
D1_26_07_33         // (-47,  38,   7,  51)
0E_1F_0D_12         // ( 14,  31,  13,  18)
22_04_0C_34         // ( 34,   4,  12,  52)
D4_02_E4_1D         // (-44,   2, -28,  29)
E8_F0_FF_02         // (-24, -16,  -1,   2)
0F_08_EE_15         // ( 15,   8, -18,  21)
D7_14_0F_0E         // (-41,  20,  15,  14)
EE_00_0E_15         // (-18,   0,  14,  21)
F0_19_D2_17         // (-16,  25, -46,  23)
13_E7_DD_F1         // ( 19, -25, -35, -15)
01_07_0C_07         // (  1,   7,  12,   7)
00_E9_1D_F3         // (  0, -23,  29, -13)
10_F3_D9_0B         // ( 16, -13, -39,  11)
EF_14_0C_0D         // (-17,  20,  12,  13)
FA_1F_1D_FB         // ( -6,  31,  29,  -5)
F1_ED_E4_EE         // (-15, -19, -28, -18)
02_F1_06_0D         // (  2, -15,   6,  13)
06_00_0F_E2         // (  6,   0,  15, -30)
FE_0D_D8_00         // ( -2,  13, -40,   0)
F3_F7_E3_F5         // (-13,  -9, -29, -11)
04_12_F3_EC         // (  4,  18, -13, -20)
06_09_FB_05         // (  6,   9,  -5,   5)
F9_F9_D9_08         // ( -7,  -7, -39,   8)
01_11_08_11         // (  1,  17,   8,  17)
FA_02_FE_F4         // ( -6,   2,  -2, -12)
0D_18_0A_EC         // ( 13,  24,  10, -20)
08_DC_F0_D6         // (  8, -36, -16, -42)
FA_09_D4_F7         // ( -6,   9, -44,  -9)
F9_09_E8_0F         // ( -7,   9, -24,  15)
0B_05_19_1F         // ( 11,   5,  25,  31)
04_09_E7_F8         // (  4,   9, -25,  -8)
01_01_E8_0D         // (  1,   1, -24,  13)
05_F5_FD_22         // (  5, -11,  -3,  34)
F1_F4_0C_03         // (-15, -12,  12,   3)
ED_04_E3_20         // (-19,   4, -29,  32)
E2_18_00_13         // (-30,  24,   0,  19)
FC_0B_F9_02         // ( -4,  11,  -7,   2)
01_FC_05_08         // (  1,  -4,   5,   8)
FE_09_01_01         // ( -2,   9,   1,   1)
FD_0E_02_00         // ( -3,  14,   2,   0)
F6_FC_FF_04         // (-10,  -4,  -1,   4)
F7_FB_06_03         // ( -9,  -5,   6,   3)
FF_10_FF_01         // ( -1,  16,  -1,   1)
F7_06_00_00         // ( -9,   6,   0,   0)
FA_00_07_F8         // ( -6,   0,   7,  -8)
FC_FC_F8_F2         // ( -4,  -4,  -8, -14)
0F_03_09_04         // ( 15,   3,   9,   4)
04_FE_FA_00         // (  4,  -2,  -6,   0)
FF_00_01_F3         // ( -1,   0,   1, -13)
E9_F9_02_F9         // (-23,  -7,   2,  -7)
FB_F9_07_00         // ( -5,  -7,   7,   0)
00_F5_FF_FE         // (  0, -11,  -1,  -2)
04_FF_00_FB         // (  4,  -1,   0,  -5)
F5_F7_FE_09         // (-11,  -9,  -2,   9)
F7_FE_F9_02         // ( -9,  -2,  -7,   2)
FE_FF_03_01         // ( -2,  -1,   3,   1)
01_FB_FB_FD         // (  1,  -5,  -5,  -3)
F9_02_F6_08         // ( -7,   2, -10,   8)
05_01_0C_11         // (  5,   1,  12,  17)
FA_FD_01_09         // ( -6,  -3,   1,   9)
02_0E_F7_09         // (  2,  14,  -9,   9)
03_01_FE_14         // (  3,   1,  -2,  20)
01_0E_F7_FD         // (  1,  14,  -9,  -3)
03_FE_F7_02         // (  3,  -2,  -9,   2)
F4_F3_FA_00         // (-12, -13,  -6,   0)
FF_FC_04_00         // ( -1,  -4,   4,   0)
FD_FE_FC_FD         // ( -3,  -2,  -4,  -3)
0A_F9_FF_01         // ( 10,  -7,  -1,   1)
FB_FE_02_FE         // ( -5,  -2,   2,  -2)
FF_00_FD_FA         // ( -1,   0,  -3,  -6)
FA_FB_F8_05         // ( -6,  -5,  -8,   5)
FE_07_F5_F9         // ( -2,   7, -11,  -7)
F8_04_FC_08         // ( -8,   4,  -4,   8)
0A_04_FD_03         // ( 10,   4,  -3,   3)
03_00_FE_03         // (  3,   0,  -2,   3)
FA_FD_FD_04         // ( -6,  -3,  -3,   4)
08_FF_F5_02         // (  8,  -1, -11,   2)
FE_F9_F8_01         // ( -2,  -7,  -8,   1)
01_F8_00_FE         // (  1,  -8,   0,  -2)
07_F9_02_03         // (  7,  -7,   2,   3)
08_FA_F0_04         // (  8,  -6, -16,   4)
FE_FF_F9_01         // ( -2,  -1,  -7,   1)
F4_0A_F4_F5         // (-12,  10, -12, -11)
FD_F7_F9_01         // ( -3,  -9,  -7,   1)
FA_FE_FD_04         // ( -6,  -2,  -3,   4)
F7_03_02_F6         // ( -9,   3,   2, -10)
01_0B_F9_03         // (  1,  11,  -7,   3)
FA_02_FD_01         // ( -6,   2,  -3,   1)
F3_04_F4_FA         // (-13,   4, -12,  -6)
06_FE_F0_04         // (  6,  -2, -16,   4)
F7_FD_02_03         // ( -9,  -3,   2,   3)
FE_FE_01_FE         // ( -2,  -2,   1,  -2)
04_FA_F7_F9         // (  4,  -6,  -9,  -7)
FF_F5_FB_03         // ( -1, -11,  -5,   3)
F9_F6_FF_02         // ( -7, -10,  -1,   2)
F7_03_02_FB         // ( -9,   3,   2,  -5)
0C_FB_F7_FF         // ( 12,  -5,  -9,  -1)
00_01_F7_F6         // (  0,   1,  -9, -10)
F9_EE_F6_F8         // ( -7, -18, -10,  -8)
FA_07_04_FB         // ( -6,   7,   4,  -5)
F9_05_01_10         // ( -7,   5,   1,  16)
FA_04_06_F8         // ( -6,   4,   6,  -8)
F4_FC_07_05         // (-12,  -4,   7,   5)
FA_FF_F9_11         // ( -6,  -1,  -7,  17)
FB_FD_07_FB         // ( -5,  -3,   7,  -5)
F4_FF_03_F5         // (-12,  -1,   3, -11)
FC_FC_FF_00         // ( -4,  -4,  -1,   0)
06_05_FF_F4         // (  6,   5,  -1, -12)
FF_FA_FB_06         // ( -1,  -6,  -5,   6)
FF_FB_FE_07         // ( -1,  -5,  -2,   7)
F9_FB_FE_0B         // ( -7,  -5,  -2,  11)
00_FC_04_02         // (  0,  -4,   4,   2)
01_FF_07_FF         // (  1,  -1,   7,  -1)
FC_03_0A_13         // ( -4,   3,  10,  19)
FE_07_FF_FC         // ( -2,   7,  -1,  -4)
01_00_FD_05         // (  1,   0,  -3,   5)
FF_F9_0A_08         // ( -1,  -7,  10,   8)
06_08_00_FF         // (  6,   8,   0,  -1)
02_FB_02_02         // (  2,  -5,   2,   2)
FA_F1_09_FE         // ( -6, -15,   9,  -2)
08_0D_0A_01         // (  8,  13,  10,   1)
08_08_FD_F7         // (  8,   8,  -3,  -9)
F8_08_01_F6         // ( -8,   8,   1, -10)
04_F5_FD_04         // (  4, -11,  -3,   4)
18_FE_09_07         // ( 24,  -2,   9,   7)
02_08_FA_01         // (  2,   8,  -6,   1)
FB_FC_FC_FD         // ( -5,  -4,  -4,  -3)
10_00_03_FE         // ( 16,   0,   3,  -2)
FD_FD_04_FC         // ( -3,  -3,   4,  -4)
FE_F9_01_FE         // ( -2,  -7,   1,  -2)
FC_03_06_04         // ( -4,   3,   6,   4)
FD_03_FE_04         // ( -3,   3,  -2,   4)
FD_F7_05_00         // ( -3,  -9,   5,   0)
F6_F5_FF_FB         // (-10, -11,  -1,  -5)
F6_07_02_09         // (-10,   7,   2,   9)
0C_F3_F9_FB         // ( 12, -13,  -7,  -5)
FD_F7_FB_FB         // ( -3,  -9,  -5,  -5)
FB_FB_FF_04         // ( -5,  -5,  -1,   4)
04_F6_FF_02         // (  4, -10,  -1,   2)
0D_FF_00_FB         // ( 13,  -1,   0,  -5)
F3_05_F9_F9         // (-13,   5,  -7,  -7)
08_FA_FF_07         // (  8,  -6,  -1,   7)
02_00_02_02         // (  2,   0,   2,   2)
F9_01_FB_FD         // ( -7,   1,  -5,  -3)
02_F7_FF_0D         // (  2,  -9,  -1,  13)
09_01_0D_F8         // (  9,   1,  13,  -8)
02_F8_03_08         // (  2,  -8,   3,   8)
03_FD_0A_FC         // (  3,  -3,  10,  -4)
F7_09_0C_FF         // ( -9,   9,  12,  -1)
05_FF_01_FA         // (  5,  -1,   1,  -6)
F6_FA_FF_01         // (-10,  -6,  -1,   1)
01_01_0B_03         // (  1,   1,  11,   3)
F7_FA_05_06         // ( -9,  -6,   5,   6)
FB_FD_FB_FC         // ( -5,  -3,  -5,  -4)
F8_04_0A_03         // ( -8,   4,  10,   3)
F4_0A_FF_F2         // (-12,  10,  -1, -14)
FC_FF_F6_FE         // ( -4,  -1, -10,  -2)
0A_FA_05_FC         // ( 10,  -6,   5,  -4)
FC_09_FF_F9         // ( -4,   9,  -1,  -7)
F8_FA_FC_07         // ( -8,  -6,  -4,   7)
02_F8_03_06         // (  2,  -8,   3,   6)
F4_00_F5_F5         // (-12,   0, -11, -11)
05_04_FB_00         // (  5,   4,  -5,   0)
F1_04_09_F7         // (-15,   4,   9,  -9)
06_07_01_FB         // (  6,   7,   1,  -5)
00_F5_07_05         // (  0, -11,   7,   5)
07_07_03_F8         // (  7,   7,   3,  -8)
03_FE_FE_FC         // (  3,  -2,  -2,  -4)
03_01_01_01         // (  3,   1,   1,   1)
00_00_FA_05         // (  0,   0,  -6,   5)
FF_F8_F3_05         // ( -1,  -8, -13,   5)
07_02_00_F5         // (  7,   2,   0, -11)
0E_0B_09_00         // ( 14,  11,   9,   0)
03_FF_F9_F8         // (  3,  -1,  -7,  -8)
07_FD_FC_02         // (  7,  -3,  -4,   2)
09_FB_08_05         // (  9,  -5,   8,   5)
01_FA_00_FA         // (  1,  -6,   0,  -6)
03_FA_F8_02         // (  3,  -6,  -8,   2)
F6_FE_02_FF         // (-10,  -2,   2,  -1)
0D_FD_F7_FB         // ( 13,  -3,  -9,  -5)
11_F1_0C_04         // ( 17, -15,  12,   4)
FE_FF_0F_FE         // ( -2,  -1,  15,  -2)
F5_F4_FD_05         // (-11, -12,  -3,   5)
03_F7_05_FB         // (  3,  -9,   5,  -5)
F8_FA_05_06         // ( -8,  -6,   5,   6)
0B_08_00_02         // ( 11,   8,   0,   2)
14_E6_05_FA         // ( 20, -26,   5,  -6)
FA_FF_05_00         // ( -6,  -1,   5,   0)
00_FC_EF_F3         // (  0,  -4, -17, -13)
F5_FA_F2_04         // (-11,  -6, -14,   4)
F5_06_F6_F6         // (-11,   6, -10, -10)
F8_13_EB_EE         // ( -8,  19, -21, -18)
01_FC_F8_FE         // (  1,  -4,  -8,  -2)
05_0A_FC_F8         // (  5,  10,  -4,  -8)
01_FB_09_FA         // (  1,  -5,   9,  -6)
FD_FD_E1_FC         // ( -3,  -3, -31,  -4)
0E_01_ED_EB         // ( 14,   1, -19, -21)
0C_01_E9_F4         // ( 12,   1, -23, -12)
FF_CD_F7_FF         // ( -1, -51,  -9,  -1)
FF_E2_F8_00         // ( -1, -30,  -8,   0)
FA_E7_F8_04         // ( -6, -25,  -8,   4)
13_F3_F3_F5         // ( 19, -13, -13, -11)
F4_F5_F0_F4         // (-12, -11, -16, -12)
01_F7_FB_F6         // (  1,  -9,  -5, -10)
0A_F7_FA_F5         // ( 10,  -9,  -6, -11)
0C_FD_F9_07         // ( 12,  -3,  -7,   7)
F6_EF_03_0B         // (-10, -17,   3,  11)
FE_F9_12_FE         // ( -2,  -7,  18,  -2)
06_F5_06_08         // (  6, -11,   6,   8)
04_07_0C_F0         // (  4,   7,  12, -16)
F3_F5_0A_F5         // (-13, -11,  10, -11)
FC_FE_F6_F7         // ( -4,  -2, -10,  -9)
02_01_07_07         // (  2,   1,   7,   7)
EC_EC_F8_FD         // (-20, -20,  -8,  -3)
FB_FE_F3_0A         // ( -5,  -2, -13,  10)
03_FA_0D_FE         // (  3,  -6,  13,  -2)
F7_07_FD_06         // ( -9,   7,  -3,   6)
02_04_03_0E         // (  2,   4,   3,  14)
05_04_F9_01         // (  5,   4,  -7,   1)
00_07_05_ED         // (  0,   7,   5, -19)
06_F6_FC_FC         // (  6, -10,  -4,  -4)
00_09_08_08         // (  0,   9,   8,   8)
10_04_15_F7         // ( 16,   4,  21,  -9)
07_01_03_0A         // (  7,   1,   3,  10)
00_FD_01_F8         // (  0,  -3,   1,  -8)
F0_04_00_E0         // (-16,   4,   0, -32)
02_12_03_F6         // (  2,  18,   3, -10)
F3_14_FC_FB         // (-13,  20,  -4,  -5)
E2_09_F6_FB         // (-30,   9, -10,  -5)
FC_12_09_0A         // ( -4,  18,   9,  10)
FA_13_01_0E         // ( -6,  19,   1,  14)
EE_FF_F7_EA         // (-18,  -1,  -9, -22)
03_0D_FE_0D         // (  3,  13,  -2,  13)
03_0E_FB_0A         // (  3,  14,  -5,  10)
F6_0D_03_00         // (-10,  13,   3,   0)
FD_FA_02_F1         // ( -3,  -6,   2, -15)
03_F4_0E_FE         // (  3, -12,  14,  -2)
0B_03_F7_00         // ( 11,   3,  -9,   0)
04_FA_FF_00         // (  4,  -6,  -1,   0)
E8_F3_11_F9         // (-24, -13,  17,  -7)
F1_03_08_0C         // (-15,   3,   8,  12)
FF_09_01_01         // ( -1,   9,   1,   1)
F9_08_F9_04         // ( -7,   8,  -7,   4)
F3_0D_0E_03         // (-13,  13,  14,   3)
EA_03_FE_10         // (-22,   3,  -2,  16)
FA_08_0B_01         // ( -6,   8,  11,   1)
E6_FA_02_F8         // (-26,  -6,   2,  -8)
E6_00_F5_11         // (-26,   0, -11,  17)
E5_06_04_0C         // (-27,   6,   4,  12)
F1_F5_04_F6         // (-15, -11,   4, -10)
EF_08_FE_F9         // (-17,   8,  -2,  -7)
F7_FD_0B_05         // ( -9,  -3,  11,   5)
F3_09_F6_FF         // (-13,   9, -10,  -1)
03_00_06_FB         // (  3,   0,   6,  -5)
F3_11_FA_08         // (-13,  17,  -6,   8)
EE_04_F0_05         // (-18,   4, -16,   5)
06_02_04_FA         // (  6,   2,   4,  -6)
03_12_09_07         // (  3,  18,   9,   7)
C6_12_F4_03         // (-58,  18, -12,   3)
E1_FD_F1_08         // (-31,  -3, -15,   8)
E2_0B_00_06         // (-30,  11,   0,   6)
EE_00_02_EE         // (-18,   0,   2, -18)
00_FF_FA_FA         // (  0,  -1,  -6,  -6)
FA_FB_FC_07         // ( -6,  -5,  -4,   7)
F6_F5_FA_05         // (-10, -11,  -6,   5)
07_04_E9_05         // (  7,   4, -23,   5)
FD_FD_F4_FC         // ( -3,  -3, -12,  -4)
F0_FE_EE_F9         // (-16,  -2, -18,  -7)
02_FA_EF_0A         // (  2,  -6, -17,  10)
03_06_00_F0         // (  3,   6,   0, -16)
11_F5_F4_F7         // ( 17, -11, -12,  -9)
05_01_09_F6         // (  5,   1,   9, -10)
06_12_03_EC         // (  6,  18,   3, -20)
0F_FA_F5_ED         // ( 15,  -6, -11, -19)
05_05_03_EC         // (  5,   5,   3, -20)
FE_FD_06_FA         // ( -2,  -3,   6,  -6)
FF_FC_F8_EF         // ( -1,  -4,  -8, -17)
05_F6_FE_FE         // (  5, -10,  -2,  -2)
FC_11_FE_FC         // ( -4,  17,  -2,  -4)
01_0E_04_21         // (  1,  14,   4,  33)
F1_FF_00_F7         // (-15,  -1,   0,  -9)
E6_0A_00_FF         // (-26,  10,   0,  -1)
04_F0_F1_06         // (  4, -16, -15,   6)
05_FE_F9_F8         // (  5,  -2,  -7,  -8)
12_01_00_0F         // ( 18,   1,   0,  15)
0A_FF_09_05         // ( 10,  -1,   9,   5)
FF_04_F9_04         // ( -1,   4,  -7,   4)
F2_0A_F8_0D         // (-14,  10,  -8,  13)
08_F1_0C_E5         // (  8, -15,  12, -27)
FD_FA_01_00         // ( -3,  -6,   1,   0)
F8_F4_0D_FB         // ( -8, -12,  13,  -5)
0F_F0_06_FA         // ( 15, -16,   6,  -6)
FA_FC_01_06         // ( -6,  -4,   1,   6)
FF_F4_09_05         // ( -1, -12,   9,   5)
0F_05_01_05         // ( 15,   5,   1,   5)
03_FF_05_07         // (  3,  -1,   5,   7)
FA_02_0D_04         // ( -6,   2,  13,   4)
10_FF_F5_01         // ( 16,  -1, -11,   1)
09_F9_FF_04         // (  9,  -7,  -1,   4)
00_01_10_03         // (  0,   1,  16,   3)
0F_EE_F0_F5         // ( 15, -18, -16, -11)
F9_ED_F6_FC         // ( -7, -19, -10,  -4)
F6_0C_F6_05         // (-10,  12, -10,   5)
10_F0_FC_00         // ( 16, -16,  -4,   0)
FF_F4_F5_05         // ( -1, -12, -11,   5)
08_0B_F6_FF         // (  8,  11, -10,  -1)
05_16_FA_B9         // (  5,  22,  -6, -71)
FA_F3_F3_EF         // ( -6, -13, -13, -17)
F4_08_06_F0         // (-12,   8,   6, -16)
06_09_10_E1         // (  6,   9,  16, -31)
F9_F8_02_02         // ( -7,  -8,   2,   2)
F6_FE_06_FB         // (-10,  -2,   6,  -5)
05_21_07_CE         // (  5,  33,   7, -50)
FD_F5_F3_EF         // ( -3, -11, -13, -17)
EE_FE_FC_F2         // (-18,  -2,  -4, -14)
FF_F9_0C_04         // ( -1,  -7,  12,   4)
0D_FF_FA_F7         // ( 13,  -1,  -6,  -9)
02_F9_EE_F7         // (  2,  -7, -18,  -9)
F3_02_FE_0E         // (-13,   2,  -2,  14)
FF_04_0A_FA         // ( -1,   4,  10,  -6)
FC_07_07_FC         // ( -4,   7,   7,  -4)
1B_FC_F4_11         // ( 27,  -4, -12,  17)
12_00_02_FC         // ( 18,   0,   2,  -4)
FC_FD_F6_FF         // ( -4,  -3, -10,  -1)
FB_F3_FF_FB         // ( -5, -13,  -1,  -5)
07_FD_FC_FA         // (  7,  -3,  -4,  -6)
F9_04_FF_FF         // ( -7,   4,  -1,  -1)
FD_FE_01_00         // ( -3,  -2,   1,   0)
08_FE_04_F9         // (  8,  -2,   4,  -7)
00_00_FF_F8         // (  0,   0,  -1,  -8)
FE_05_02_01         // ( -2,   5,   2,   1)
08_F8_00_02         // (  8,  -8,   0,   2)
FC_02_03_00         // ( -4,   2,   3,   0)
00_01_FF_FD         // (  0,   1,  -1,  -3)
F8_03_03_00         // ( -8,   3,   3,   0)
00_FE_01_00         // (  0,  -2,   1,   0)
FD_05_06_04         // ( -3,   5,   6,   4)
04_04_FD_03         // (  4,   4,  -3,   3)
00_01_00_FD         // (  0,   1,   0,  -3)
FC_00_00_FC         // ( -4,   0,   0,  -4)
0B_FA_FB_F7         // ( 11,  -6,  -5,  -9)
03_FE_05_FC         // (  3,  -2,   5,  -4)
FB_FE_05_00         // ( -5,  -2,   5,   0)
04_F8_F8_F6         // (  4,  -8,  -8, -10)
02_FA_03_04         // (  2,  -6,   3,   4)
01_05_00_09         // (  1,   5,   0,   9)
09_03_F6_05         // (  9,   3, -10,   5)
07_01_FC_FB         // (  7,   1,  -4,  -5)
FE_FE_05_07         // ( -2,  -2,   5,   7)
FC_08_FD_00         // ( -4,   8,  -3,   0)
01_FF_01_FF         // (  1,  -1,   1,  -1)
FA_00_FD_07         // ( -6,   0,  -3,   7)
03_09_03_03         // (  3,   9,   3,   3)
0A_FB_06_06         // ( 10,  -5,   6,   6)
FB_01_02_FD         // ( -5,   1,   2,  -3)
03_06_FD_01         // (  3,   6,  -3,   1)
FE_FD_FF_FE         // ( -2,  -3,  -1,  -2)
FD_02_FD_01         // ( -3,   2,  -3,   1)
FC_04_FF_F6         // ( -4,   4,  -1, -10)
01_03_FF_04         // (  1,   3,  -1,   4)
01_05_09_00         // (  1,   5,   9,   0)
FC_FE_06_FE         // ( -4,  -2,   6,  -2)
05_03_04_FD         // (  5,   3,   4,  -3)
04_F6_03_02         // (  4, -10,   3,   2)
03_FD_04_FE         // (  3,  -3,   4,  -2)
02_04_FA_FE         // (  2,   4,  -6,  -2)
01_04_04_FF         // (  1,   4,   4,  -1)
FD_01_07_07         // ( -3,   1,   7,   7)
FE_00_0A_02         // ( -2,   0,  10,   2)
06_FE_FB_00         // (  6,  -2,  -5,   0)
FE_01_06_03         // ( -2,   1,   6,   3)
FE_FD_F7_03         // ( -2,  -3,  -9,   3)
07_FF_F4_06         // (  7,  -1, -12,   6)
F6_04_07_06         // (-10,   4,   7,   6)
04_F8_FD_03         // (  4,  -8,  -3,   3)
01_FB_04_FC         // (  1,  -5,   4,  -4)
FB_06_05_00         // ( -5,   6,   5,   0)
FF_02_FE_01         // ( -1,   2,  -2,   1)
FF_F5_02_FC         // ( -1, -11,   2,  -4)
02_06_FD_00         // (  2,   6,  -3,   0)
00_FB_09_03         // (  0,  -5,   9,   3)
FE_FE_FA_F8         // ( -2,  -2,  -6,  -8)
02_FE_01_01         // (  2,  -2,   1,   1)
FB_FF_FF_03         // ( -5,  -1,  -1,   3)
02_03_FD_03         // (  2,   3,  -3,   3)
01_02_FA_FE         // (  1,   2,  -6,  -2)
FD_00_FF_FD         // ( -3,   0,  -1,  -3)
FC_FF_05_FE         // ( -4,  -1,   5,  -2)
01_01_07_02         // (  1,   1,   7,   2)
03_FA_03_FE         // (  3,  -6,   3,  -2)
FA_01_00_03         // ( -6,   1,   0,   3)
00_FD_04_F9         // (  0,  -3,   4,  -7)
FD_06_06_05         // ( -3,   6,   6,   5)
05_00_FB_FE         // (  5,   0,  -5,  -2)
FF_04_FE_F7         // ( -1,   4,  -2,  -9)
FA_FC_FF_03         // ( -6,  -4,  -1,   3)
02_08_04_FD         // (  2,   8,   4,  -3)
0A_02_FD_FF         // ( 10,   2,  -3,  -1)
02_04_FC_FF         // (  2,   4,  -4,  -1)
FF_07_F7_00         // ( -1,   7,  -9,   0)
FB_00_FE_06         // ( -5,   0,  -2,   6)
FB_FC_01_07         // ( -5,  -4,   1,   7)
06_01_05_00         // (  6,   1,   5,   0)
09_03_06_01         // (  9,   3,   6,   1)
01_FD_05_FD         // (  1,  -3,   5,  -3)
FB_09_04_01         // ( -5,   9,   4,   1)
03_0F_FF_F8         // (  3,  15,  -1,  -8)
00_03_05_F9         // (  0,   3,   5,  -7)
FF_FE_FF_FE         // ( -1,  -2,  -1,  -2)
FE_FC_FF_03         // ( -2,  -4,  -1,   3)
09_00_FC_FC         // (  9,   0,  -4,  -4)
00_F5_FE_02         // (  0, -11,  -2,   2)
FD_F0_F8_04         // ( -3, -16,  -8,   4)
05_F7_F9_02         // (  5,  -9,  -7,   2)
01_02_FF_02         // (  1,   2,  -1,   2)
FC_05_02_05         // ( -4,   5,   2,   5)
04_02_05_FF         // (  4,   2,   5,  -1)
FE_FE_00_05         // ( -2,  -2,   0,   5)
00_00_03_FE         // (  0,   0,   3,  -2)
03_FF_FF_07         // (  3,  -1,  -1,   7)
02_FB_01_FC         // (  2,  -5,   1,  -4)
04_02_FE_F3         // (  4,   2,  -2, -13)
FC_04_01_01         // ( -4,   4,   1,   1)
FA_03_08_00         // ( -6,   3,   8,   0)
FD_01_04_06         // ( -3,   1,   4,   6)
FF_03_05_07         // ( -1,   3,   5,   7)
01_FB_01_FA         // (  1,  -5,   1,  -6)
02_01_F8_01         // (  2,   1,  -8,   1)
04_00_FB_06         // (  4,   0,  -5,   6)
05_FF_F7_00         // (  5,  -1,  -9,   0)
06_06_FB_FA         // (  6,   6,  -5,  -6)
0E_FB_00_07         // ( 14,  -5,   0,   7)
08_F9_F9_02         // (  8,  -7,  -7,   2)
02_01_07_00         // (  2,   1,   7,   0)
00_06_07_FA         // (  0,   6,   7,  -6)
03_00_FE_01         // (  3,   0,  -2,   1)
