13
1D
05
FE
0B
F5
01
EA
E7
07
FB
D2
07
01
FB
08
05
08
F6
FD
06
EB
0E
FD
D7
27
01
FE
FF
1B
FF
14
F8
EA
E7
0E
EE
F5
F1
0B
23
F8
FE
04
F0
14
05
07
EF
FD
03
E9
00
07
0C
05
F2
F0
01
1F
F1
11
F4
0C
F5
01
12
FD
F0
10
F1
01
1F
0D
EA
04
E1
04
FE
00
05
FB
05
E7
06
29
09
F4
EE
02
F5
02
EE
03
F5
1A
07
14
05
0A
06
FD
03
E1
F0
09
FA
19
01
F5
F4
0D
14
F1
06
0C
F4
EE
F3
FB
FB
19
1C
02
0F
FB
DD
DF
EC
0D
02
11
18
10
0D
01
FB
F7
E8
CE
0B
09
13
04
03
03
0C
F2
E4
1B
01
1D
D7
1B
EA
04
0D
04
01
0F
FC
F4
06
1C
FE
F9
FB
FD
00
03
00
23
EE
EF
06
F3
03
F3
FF
11
09
EC
FC
09
F9
EB
0E
21
07
05
EB
F4
11
F8
FE
06
06
06
03
1C
0B
F9
07
FC
15
EC
F0
14
FB
E7
04
10
FC
F5
2C
FA
FD
13
0E
F7
E5
05
14
F8
F0
00
01
00
12
06
F7
F8
B5
08
F7
FB
05
05
1F
FC
00
01
00
18
15
EE
E8
F6
FD
F9
05
0B
07
FC
00
03
FC
13
F8
E5
10
EB
08
E8
F6
0C
F6
0C
FE
1C
0A
02
EE
0F
EC
0A
05
F5
F1
0A
01
0F
EE
FB
0D
06
11
1C
E0
0E
08
1D
E6
01
04
F5
0D
14
FC
00
08
F7
10
FF
F5
0B
E9
FE
15
FC
08
FE
09
01
0B
FD
E9
0E
04
E3
00
07
08
08
FA
DE
D0
F7
FB
C1
07
F6
F8
09
E5
0C
FF
EF
0A
1E
04
ED
01
0C
F0
00
0A
11
FB
FC
FF
07
FC
DE
FF
0C
16
FD
FB
03
FA
04
17
EA
01
19
E3
03
02
F7
1A
07
ED
F6
05
ED
00
01
02
0E
21
FF
D7
E9
FE
FF
FA
03
F5
05
10
F2
FC
07
10
E7
0B
11
06
04
17
01
E3
DA
E4
00
2A
00
03
FF
FB
FA
F3
03
FF
05
05
10
1A
F9
FC
F2
00
F5
06
DE
FE
E8
0C
02
13
23
F8
03
24
F5
F3
01
08
F7
0B
08
F5
FF
06
F6
FE
01
0D
14
F5
ED
F4
F5
F1
12
F5
0D
1A
F7
F5
0A
FC
F9
15
03
F8
06
FC
FE
03
FF
0F
09
FA
00
F2
F1
F7
0C
0B
F6
1C
0D
06
F4
01
0F
F9
E8
E5
FE
17
10
0D
0B
FA
11
FA
FA
FE
F9
0D
F6
11
05
F6
18
FB
09
0C
F4
EE
EF
11
FF
EC
06
0B
0D
00
FC
14
FD
E2
FD
0E
EE
13
0D
D5
F3
F8
0E
E1
FC
1D
F2
FA
09
0B
0A
0A
1A
12
E7
14
F4
E1
06
FB
0C
F6
0C
F1
01
12
0A
FE
FE
F7
0A
14
EC
FF
EA
1E
15
F9
22
04
E3
18
F6
F5
03
