020B04FC         
F31013D6         
FE0B051D         
F70B4A1A         
2E03200F         
DC06FFB7         
0504EC2F         
0EE7CBE1         
00A7DF2C         
112A113C         
132F2F17         
DE160CDD         
FEC8F516         
34E6FF07         
DAE901F5         
0A17A816         
FC08DF09         
09000BF2         
E30CD6AF         
F30CF0EC         
F5FF03FA         
C8150EFA         
FD06E70E         
EC05E11D         
D72056F6         
E80E0F01         
0D20E729         
FDF8F331         
01FFFA13         
FE0EF604         
20F3EC1B         
21FC4E04         
FD4CF405         
3401F602         
20FFF1FE         
FC1BFF03         
1105FD19         
1B0A10F7         
E22DF7EB         
26042905         
F4E62FCB         
D1D2D901         
1CF3FDD5         
09EDEDE8         
FFD6DC2D         
0AF71B2B         
1E02F004         
171DF9FA         
01D510D0         
22FFF0CD         
180CEF0F         
0CACFB16         
02FEDE1A         
1B14D801         
ECDDFD06         
0303EFD9         
3B17BBE2         
EFD004FB         
F633FB12         
2503DD4D         
FC1500FE         
E910FEFA         
F9F3E8D8         
EE29FCF9         
F70A02FD         
1209FD15         
F63FFDDB         
D9FE00F7         
DEE5F32E         
1A03020A         
33041F21         
10F23E08         
EF1EBACF         
F9C22ADA         
061015F3         
E92DDAFD         
F8F514E5         
0DDC09FA         
0CE9ED0F         
35300DFF         
0CF208F9         
FDFBEEF9         
1D212BF1         
30FDDEED         
F92AFF00         
0BB1E8EA         
090723BA         
03D72905         
ED21B006         
D10B35F9         
07EDF6F3         
FE2FDAFE         
0714C300         
02F00131         
FFDCFC34         
0AFCFE1F         
F90D23DF         
B3F31FE8         
0CF214E2         
03F626DA         
061EDBDC         
08CC02FF         
1DD121F3         
0C19C527         
260F1014         
0DFD0C32         
181BED17         
2F0205F3         
FC4000F8         
15120B27         
5405FA28         
00D104F9         
FB5B080D         
04E2D6EF         
FF17FBFB         
FDDCF809         
FDFAC00C         
07FC0206         
FEE70221         
0AF82602         
FD0CF3F2         
10E2EAB5         
F8FD08F6         
1A43C200         
24EBCE0D         
AB08E803         
42FD1CFA         
1AFAEA10         
09F91A30         
04F0DD08         
F8EF2911         
F934D70D         
FED6DEF6         
F4E209F6         
D72EE0E7         
FC06B222         
BFE6E6F9         
07F503F5         
212AF21F         
48DAFF0B         
E3E004FC         
E32706C0         
F60608FD         
20EE060A         
