FBF30AF6         
1101F3F1         
FAF9FAFF         
04FE05FF         
060BF4FE         
F2070200         
0AF402DF         
FC0404FD         
F403FEF5         
F4080310         
01FFFA10         
FB0700FA         
FBFB0A04         
06F905F8         
0009FDFC         
F009FE02         
FB11F7FE         
0314F4F9         
13000A06         
050800FD         
0A03000C         
120606FC         
04FF01F8         
090C09F9         
0E10F1FB         
0805F9F2         
F70E0CF7         
0709F809         
0CFB030A         
08E8F50A         
0D06F0FD         
F8FD0105         
F4F80C06         
16EDEEFF         
08E6FAF5         
F0E80204         
FA09FA04         
FB03090A         
F90807F5         
070B0203         
030D0106         
FE040FFF         
070AF1FD         
11F7F8F0         
F7030BFA         
F902FD11         
FEFCF2FE         
04FF1403         
FEFCF300         
09FFE7FA         
1EFC1009         
0F0403F6         
06FC04F3         
F3EB0EFC         
10FF06FA         
090006FD         
FEF113FA         
110E11F2         
04FE1101         
04F00AF3         
F8FBFD00         
FBFB0AFD         
09FC0FFB         
0E0604F1         
06070EED         
05F3FBEC         
05FB04F9         
07FF0F04         
0C050001         
05FC07F9         
FD02090D         
0603030C         
0302F90D         
FF02EBFB         
1B0805FD         
0DFE0AF2         
FB0004EE         
FEF9FAF6         
060C04E5         
0406F1EE         
FCF805F1         
05F010FF         
FBE8F003         
06FCF606         
05E00E03         
0AE1F50E         
0BF7F0F4         
06000D01         
080104FC         
0809FBF9         
FFEFFA02         
050E0905         
FDF90CFD         
03070208         
0B0601FB         
FD000006         
15F3FD07         
09030404         
0B0401FC         
061A00F3         
FC0B09FE         
F404FE13         
FE0100F9         
F80109F9         
0A05F40C         
F3F8FEF8         
060808FC         
0015020E         
F4FEFEF3         
F805F702         
F5FBE2FC         
E806FE02         
FF00F900         
0103E606         
FCF30404         
07FE0A00         
FEF9F8FA         
F701FBF4         
0EFA0502         
08FEFCFF         
F2FB06FF         
04F20E05         
FB01FA04         
EEFBFE02         
020F0204         
0901FFF9         
FAFFF50E         
FEFE1103         
100A1902         
FFE7FC03         
FFFE0102         
FD0DF80C         
14FCFF00         
08F90AF7         
17FFFF04         
F002ECFB         
FC0AFF0A         
E60DE411         
FCF4F80C         
FAFFFB07         
FC0CF9FC         
F3F303F9         
FC0502E6         
FB03FCF8         
FBFE04FB         
F706FEFE         
FC03FBFB         
000101FA         
0704F806         
0C02FFFF         
F9FEFF00         
F705F6FD         
0407FDFF         
F7F8F9F7         
FBF400FA         
FCF801FD         
FD0309FE         
01010309         
030302FF         
FFFDF8FC         
F7FFF7FC         
FCFAFDFA         
FD00FCF7         
F302FBFD         
FCFF0106         
0BFEFF0B         
F1FEE3F8         
00FC000C         
0300F900         
F5FDFF05         
FEF8FC04         
03FAF401         
01FF00FE         
FCF7F7FF         
060608FE         
EE03FCFE         
FD0AFF01         
FDFDF604         
F604FD05         
03F9FEF9         
FAFD0106         
02000200         
FBEFFE00         
FDF2F9FE         
FD1501F5         
FE0A01F8         
FDFFFA07         
FFFDF001         
FEF20002         
02F70202         
05FB00FC         
06FE01FB         
04000204         
040708F6         
FE020406         
03F3F8EF         
FFFAFFFA         
01F604F4         
02FCFFFD         
09FEFCFA         
04FDFDF7         
0206FFFE         
07F401FE         
0305FD03         
01F80202         
06FB01FC         
07F604F8         
06FEFBF8         
06FE00FB         
FCFAFCFF         
01090004         
010000EE         
04060004         
0200FD00         
050001F8         
01FF00F7         
F80103FF         
F9FC0007         
FEFE0307         
060B0AFF         
0101FFFD         
01060201         
FA030401         
FDF8FE05         
0100010A         
020206FB         
040105FE         
00FC06FE         
0507FDFD         
03FE04FF         
0403FFFD         
0208FE00         
00FB05FE         
03F90403         
F40202FF         
F1050005         
F301FD03         
F9070504         
0901010A         
06040000         
EA050401         
FA030500         
F2FE0001         
FFFAFEF4         
06FA0009         
FFF500FE         
FFFD020A         
00F9F7F4         
01FEFE00         
FCFEFBFA         
F5FBFBFA         
00F5FB01         
FCFCFC03         
01FC04FF         
FBF7FEFE         
090102FE         
03070CFD         
FFFEFCFC         
04F707FF         
00FCFD03         
FF01FB04         
FBFBFE01         
F3FFFEFB         
FA07FCF5         
FCFDF903         
F8FFFA0C         
040102FE         
FA0609F8         
FB0403F8         
F502FBFF         
FC01FB05         
F701FC00         
FF09F9FC         
130005FF         
F7FDFD00         
05040001         
03FEF2FF         
FC04F6FC         
FC0BF8FD         
00FF01FB         
070605F4         
0307FFFB         
FF010405         
0117FFFF         
06050201         
FEFF01FE         
040AFD04         
01020304         
FF05FFFF         
02FDFE03         
03FEFFFD         
FC0200F9         
030702FC         
00F8F9FE         
02F50003         
FEFA0207         
09F10601         
040400FF         
F8FB0002         
00F8FB00         
03FBFAFB         
F9FAFC06         
00F9FFF8         
03FDFDF8         
F9FB0604         
FFFE02FD         
00FD06FD         
03FBFDFC         
02FD00FC         
FDFEFFFF         
FFFA01FA         
FA010000         
02FCFEFC         
01FC05FB         
01FE0101         
09FCFD03         
FB03FFFD         
06F90305         
05FFFEFD         
0103FD02         
09010600         
F50100FE         
FC04FF00         
05030200         
FF000204         
F7FEFC00         
FBFF05FB         
00060200         
FFFC05FE         
FC01FFFF         
01010503         
01FC0203         
0104FF05         
0101FCFD         
00040007         
06FCFEFD         
0107FDFE         
FFFFFF0B         
020402FD         
FB0700FF         
FA04FB07         
00FC05FF         
03FAFB03         
FF05F802         
0102FF00         
05F80308         
0306FB05         
FFFE0401         
FCF80600         
FD0206F9         
FDFBFAFE         
FCFBFFFD         
0102FF06         
01F9FFFF         
02020200         
FE04FA02         
FFFA01FC         
050104FE         
FE010004         
00050203         
F902F7FB         
05FDF5FE         
FFFAF806         
F9FE00FE         
02FBF7FF         
FEF908FC         
FF04FE05         
FEFD0200         
04FF0202         
01FE0505         
03000404         
02FF05FA         
FCFA06FD         
03FF00FE         
FFFE07FD         
FC0200FF         
FE04FD00         
FB02FDFA         
09030501         
FCFE0101         
03FC0707         
FA0302FE         
00060506         
01FEFEFE         
FC050003         
03F9FD09         
04FAFBFC         
01080504         
01060205         
FC09FFFE         
F90203FF         
FD050703         
04FC02FD         
030504F9         
FE07070A         
040703F6         
01010000         
09020302         
FF040403         
FE02FD05         
F8060501         
0600FE05         
06050602         
06FD00F6         
0200FB05         
FE010102         
0000FAFF         
08FD0204         
00FFFFFF         
FC020503         
FFFF050A         
0600FBFC         
02F600FE         
04020404         
0303FBFB         
08FB04F9         
FD01FFFA         
00FDFB00         
04000901         
0103FEFD         
0207FEFD         
FD0301FE         
000404FE         
0407F502         
06FB0200         
FFFFFD01         
020100FD         
01FD0204         
02FEFAFF         
0502FB0A         
05FFFF0A         
0406FDFB         
FF02010A         
FC0C0104         
01FF0303         
FCFBFF02         
F600FD08         
F5040105         
030105FF         
FDFCFE06         
F81001FC         
0FFB05F2         
0904FF00         
0BFE0AFD         
0A030302         
0B01FEFA         
060BFF06         
09010B02         
0103FEFC         
FA10F900         
FA0009FF         
F9010109         
FE050913         
F304FA07         
0206FF0C         
0A050105         
FBFFFCF5         
0A040203         
0D05FEF9         
FDFD0802         
F7FBFC02         
F6FEF8FA         
FAF60AFE         
FC000402         
0503FDFC         
FE010902         
07F7FC01         
0402F4FF         
FB0305FC         
F903FB09         
01FA07FD         
0003FBF9         
010202FE         
03FEFA02         
00F6F6FD         
0002EFFF         
FEFEF0F2         
0004FFFF         
F712FD03         
FA0E0000         
F8F90604         
000102FF         
05FEFF07         
EFFDFF08         
00F60500         
F8000601         
FAFAF707         
F9FA03FF         
FFFB0D00         
FE01FF03         
FD03FD06         
000101FF         
F7FFFFF7         
F0FEFDF9         
FD00FC07         
0905FDFD         
F700FC03         
F1FEFBFC         
0000F706         
0300F9FC         
00FAFBFD         
010006FC         
0606FCFE         
06FB03FD         
0203020E         
FEFDF9FE         
020702FE         
F9FEFA01         
FB031A08         
0BFC1003         
FD00F911         
FC070BFE         
0303FD02         
FDF6F700         
0109FA0E         
FC05FB13         
FCFFFAFF         
FE0805FA         
010317ED         
FCFFFAFA         
0102F601         
FFFF0604         
FA100CFE         
FC01FE00         
F6F90006         
FE0204FF         
06F8030B         
04FCF705         
FF05FF01         
F7FEFF02         
07F80005         
0301F9FF         
F8FD0508         
FDF60DFC         
0A03FA06         
FE02F704         
01F8FFFE         
0DFEF700         
01FDFCF7         
FCFB00F4         
F802F010         
0A01FF04         
FD010002         
00FAFA02         
FF020505         
FE0801F5         
0101F614         
FA05FD07         
F0F70303         
F5F5FF05         
FCFBFEFC         
070A07FE         
FB020000         
F3FBFE01         
00040003         
01FF04FF         
05000303         
F8FC090E         
02F60C0A         
00030101         
000EFF00         
0B010005         
040703FE         
FCFEFF01         
FF090002         
0204FBFF         
FCF7FD08         
FA0E0807         
FA050A09         
FB000308         
00FB05FC         
01FA04F8         
F6FE04F6         
00FD0A05         
07F7FB04         
F4FD08F6         
F8FF04FD         
F5060001         
F6FCFC00         
FE050A05         
0403FB02         
FB080101         
0010FC09         
0AF70606         
02070506         
F403FD12         
FFFBFD05         
07F4FFFE         
00060011         
00FBFD00         
010006FD         
01F6FE04         
0308FFFF         
F60305FA         
03020A0B         
0400FC0A         
0105070A         
07FDFFFE         
FC00FF07         
FF040010         
05FE03F9         
0303FEFD         
FF0905FA         
FEFD04FE         
07000803         
02FE00FE         
FBFEFC04         
FCFFF901         
0504F7FC         
FF02020B         
FEF7FE09         
1103F6FE         
F20605F9         
F40C04FC         
ED060EFB         
F6FE0600         
FE010203         
F6020408         
FDF90102         
FAF9060A         
F5FEFBF8         
FEF7080B         
030A0704         
0D000DFB         
0D00FC04         
0F03FF08         
FF0104FE         
F0070101         
F803FC02         
F9F8FFF7         
02F30E01         
FFFA0BFA         
FD07FDF8         
11FF0006         
0DFFF905         
0108FCFC         
FB0602F8         
000206FF         
0502F9FE         
0CFC0AF8         
F3FF06FF         
FDFEF2F7         
03FA07F6         
FCFC0309         
FDFEF9FE         
06FD0300         
F4FCFC0A         
FF00FB05         
FD06FE00         
05FC0004         
1000F7FC         
FEF703F8         
04010901         
10F50103         
04050507         
F8FB0A02         
05010402         
030A0105         
02F40401         
080406F9         
FAF4FCFB         
FEF8F7FE         
0C020207         
06FA01F9         
FFFDF3FD         
FF06FFFD         
FCF4F7F8         
FFFDFD02         
07FF00FB         
F806F201         
030AFDF6         
F9FDF7FD         
01EF040E         
FBFDF6FD         
FEFE09F7         
FAF40302         
F60EFF04         
030304FF         
FC0401FD         
04F90304         
FA060102         
1CFEFBFE         
FE050209         
0A0100FE         
0A030100         
05F105FF         
06FCFF02         
03FD03FF         
03FFFD02         
00FFFEFC         
0302F606         
04F8FEFB         
F9FB0402         
FDFF0EEC         
03090504         
FE0407FC         
F8FF0AF8         
FFFA0900         
05F9FEF6         
00F2FFF9         
FFEC02F7         
00F30CF9         
02FD0E09         
FD040B01         
FF0005FB         
FCF50402         
00020A05         
02000203         
FB03FA00         
FD0202FA         
03FBFFFE         
F4FF0905         
F5010303         
EEF70D05         
FA020BFE         
F8FD06FF         
03FD0601         
FE0305EE         
05FCFF04         
F8FF0100         
FE080701         
06FCFAFD         
0001FCF6         
FE00FF01         
01FF02FC         
08FDFFFA         
FBFA0008         
04FB06FE         
FF01FCFF         
09FC00FC         
FEFF00FF         
01000A00         
040101FB         
05FE0704         
03010709         
01FD03FE         
FFF404FE         
04FA0900         
FD060300         
FD04FC01         
FF09FBF4         
0201FE06         
07060601         
00FE020D         
FB04FDFF         
00070402         
FFFE04F8         
01FF0101         
04FE03FF         
FF0707FF         
0201FDFA         
06000501         
F9050300         
FD06F800         
000204FB         
0207FFFF         
FDFDFF07         
FCFAF902         
FCFAF7FF         
FEFE0000         
FEF90702         
01F6FC07         
FFFD0103         
FEFD0B03         
030407FD         
FDF8F501         
05FE00FC         
F9FFFFFC         
0307FFFE         
F7040502         
F203FC02         
F0FA0106         
0200F80B         
0701FE01         
02FB01FD         
010BFCFF         
F2020501         
FDFB03FF         
FE030AF7         
0508FB02         
FCFE0004         
F801FE00         
FC020406         
FF07FF08         
0206F903         
00000005         
F60B0002         
FA00FBFC         
FB060402         
FC05FE00         
0302FCF8         
06020001         
030B00F6         
FF0CFF00         
FF000703         
0307FAFA         
020008FE         
06FD0005         
FEFE08FE         
00030AF4         
04FBF9FB         
FF0009FA         
010402FC         
02FD00FF         
FAFB02F7         
F9FC0002         
FB02FC06         
FBFBFA01         
FBF50606         
FE0600F9         
07090AFD         
000BFDFF         
00FD00FD         
FB080301         
02FC01FE         
00FE05FA         
00F5FB01         
0100FDFB         
F804FFFB         
01FD0D06         
0A0103FF         
04FF04FE         
00FD00FC         
03FC0509         
0002FF00         
04FCFA07         
01F804FD         
F6010305         
FBFB0002         
04FA06F8         
FBFF0000         
07FDFD02         
FFFAF6F8         
FDFCF9FC         
05FC01F9         
00FC00FB         
02FE01F9         
FD0102FF         
FF0602FA         
03060006         
0705FCFE         
F800FCF5         
FC0501FD         
060408FA         
080200FA         
FF09FDF1         
FE01FD09         
FEFEFA03         
FE03000A         
000AFDFE         
0001FE00         
00FF080A         
FD090105         
FD080300         
FF040307         
06FFFF01         
030409FE         
0106FD02         
0200FE00         
02F8FD09         
0000F902         
FEFBFB04         
09FD03FE         
FD03FCF8         
05020508         
FBFCF804         
F8F4FFFF         
F9FCFA09         
0102FBFF         
F5F30403         
FAF2FD03         
F9FDFEFC         
F7EF0100         
00FFFA02         
01010301         
FE0BFAF8         
0CFDF309         
0202F901         
0908F3FB         
0603F904         
0000FDFC         
09FFEAFD         
06F6FBFE         
01F7FC0E         
FDFE0002         
01FEFAEF         
FCFBFAFF         
F8050000         
08FEF7F9         
FCFDFE03         
04FA0407         
0A03FBFC         
07050201         
02030202         
00F4FF00         
00FCF9FA         
F90005FA         
FEF40900         
04F2F500         
FAFC0805         
030DFF01         
01FC0505         
F2030501         
FA0DFE07         
FF010003         
02FDFFF7         
E80C0400         
08F50401         
0D000600         
F801FC01         
030506FD         
0000FCFB         
EFFBFB02         
00010200         
FAFD03FE         
FAFE0102         
FFFEFB03         
FB03FB04         
00F80707         
04030202         
04010404         
FE07050B         
0102FC01         
FD00FD03         
FE070408         
FF0901F8         
03060202         
0012FD08         
FB03FC04         
04F1F7FD         
0403F909         
06FEF904         
0AFB01FC         
04F7FC04         
0304FE02         
0D0702FF         
FDFEFCF6         
FB01FC01         
FE0E0EFC         
FE09FEFB         
01020300         
06030005         
F30EF804         
F8FF0504         
F800000A         
FD09FF0C         
05F9FEFC         
FCFCFAFA         
FA04F4F7         
FC03FDFE         
FC05FEF7         
FD01EDF8         
FDFEFB09         
0301FD0F         
FBFAFAF3         
00FFFCFC         
FAFCF8FA         
02FB05F3         
FBFD00FE         
F607F802         
000303FB         
FCFD0104         
F806FCFB         
F709050C         
FCF8FEFE         
FDF8F6FE         
0C050609         
FE06F204         
F9FFFDFC         
0D020807         
FA02FBFD         
F50405FD         
080403FA         
04F80207         
05F900FC         
00FD0B04         
FDF70104         
05F8FE09         
00010605         
010103FE         
F4010403         
F3F502F9         
030102FE         
FB050008         
05FF0BFB         
03F90BFA         
FEFB03FB         
F9010113         
FDF90206         
FCF6FEFD         
01F807E0         
F807FBF7         
FEFD05F3         
FFF50CF0         
F704FF00         
FAF509F9         
FEFC00EA         
0402F6F8         
FBFDF9F9         
1003FAFF         
0902FB02         
020208F7         
01FFF905         
07FD01FE         
0C030AF8         
FEFD0508         
04FFFF03         
0C07FC01         
FCFEFF05         
FF0BF805         
07030006         
FB000507         
0B010306         
08050300         
020A020A         
00F40401         
0007FDFD         
FC0C03F9         
FC08FB05         
FAF7EB03         
06F8E1F4         
0504E7FF         
04F4E202         
0202F4F9         
04FE0209         
F7F7F108         
FFF1FFF2         
FEF70208         
FBEC03FB         
F9FDFEFB         
FEFFFCFD         
F7F80809         
FFFFF8FF         
F803FB0E         
F6FA0509         
F501F9FA         
FAFC0205         
03FB0BFF         
01FCF608         
00FCF9FA         
FFFBFE08         
FEFFFA04         
F8F20304         
FCFB0501         
F0040203         
F2FC03FB         
E90AFAF0         
F70E0DFE         
F00903FF         
FC0504F3         
EF0B0E08         
FAFC0302         
020400F8         
0B09FEFF         
0302FDFB         
F8FCFDFD         
FCFC0008         
0302FF04         
0005FCFE         
02FF060A         
08F6FC05         
FEFE09F2         
060607F9         
040200FC         
F5060402         
02070802         
01FF0005         
070404FF         
060DFF10         
0500FC0A         
FEF404FF         
FA0A07FD         
F00707FA         
FFFEFEFA         
FE0AFFFA         
00090101         
0C05FEFE         
FF0B0013         
02030001         
080404FE         
010BF70B         
080308FB         
06020D05         
01010DF9         
07010302         
0200FD0E         
000209FF         
00010109         
F3FB0000         
FF020203         
F7FE0B05         
020910FC         
01E3FD0F         
F8EC07F2         
FAFA06FA         
FEE4F7F9         
03F904F9         
0403000B         
ED00FDF9         
F80600FF         
FFFF08F8         
FBF70FF9         
0DFDF9FC         
F70003ED         
010710E9         
020506FE         
F7030AF0         
FC0103FC         
FE04FBFE         
02FF0307         
080AFEF6         
0200FBF7         
FE04030B         
010E10FE         
02FF01FC         
F7FF0402         
0EFD0801         
00FE0503         
03F406F2         
030712FF         
0007FD08         
EDF60201         
080115FC         
0806FD01         
FEFD00FF         
F3FDF911         
FF03FAFA         
0101F4FF         
FFF910FE         
0302F4F8         
0405F905         
F6010507         
0302FA06         
FF05FDFE         
0B01FC05         
080809FB         
05FF01FF         
FCE7010E         
F6F5FEF8         
020DF604         
01E9F410         
0405FDFF         
0210F604         
FC04FF08         
0304FCFB         
00F908FC         
F10FFDFF         
05FE01FE         
0DFE02FE         
FF0A02FE         
FA0304F8         
0505F90A         
FBF201FF         
07040000         
0305FBFF         
FEF5FF05         
00010001         
FEFA02FA         
F6F5FE04         
05FA0703         
01000204         
FA02FEF5         
F600F8FA         
EE0CE6F7         
FFF5F903         
FEF8F7FC         
F906E3FF         
01FAFEFE         
FE02FCFE         
F8FBF0FD         
0403FAFB         
FEF8FDFD         
FFF1FAF3         
0AFBF8FF         
0001F804         
FEF9FD04         
0D02F4F6         
07FFF9FF         
0B00F902         
FD000105         
04F70503         
0FFA0D03         
FF0603FE         
04FE03FC         
07030CF7         
F7FBFBFD         
00F5FEFB         
05EDFD01         
FCFCFDF9         
F408FEFD         
EF0307FC         
0407F9F8         
030304FB         
FD0A0202         
FFFBF805         
FB00FF04         
01FC04FE         
0200FE02         
FF07FF00         
0306FE02         
FF05EFFE         
010701FC         
FDF2F8FA         
0201FB0A         
07FAF808         
FFFCF6FC         
08FAFE09         
FFFD0200         
FDFD0E06         
F6FB0902         
00FC09FF         
F50307F8         
F4080402         
F8FFFBFC         
F5FC0AFE         
070803FB         
FE010606         
0307F4FB         
FDFDFEFF         
EEFAF801         
FA02F908         
FC0207FD         
FBFA0107         
0A02FCF6         
FF0004F8         
FC0101FC         
02FAFD03         
FBFFEF01         
02F7F500         
FD00FA06         
FBFA0E06         
FAF6FE07         
FCFE0110         
07FD020A         
0501010E         
0BF31706         
FD0406FB         
FCFB01FD         
FDFD0DF1         
04FD01ED         
06F4FDFA         
02FE12F3         
F909FD00         
000106FF         
000600EE         
FE00FAF8         
FDF9FC01         
FEF8F9F3         
02020305         
0903FFFF         
030AFCFD         
FF060204         
FF0308FC         
F700FFFA         
06080005         
010401FF         
00FEF8FF         
0F0104FA         
04FE05FA         
03FB03FA         
12040606         
FCFFFE03         
FEFC08FD         
0A030E0A         
0001FE0E         
FAFA070A         
0D0B06FF         
01060601         
04000410         
F506FF07         
F3FD010C         
F5020404         
08FA0009         
05FEFDFF         
0206FF07         
08FD020B         
05030609         
09070303         
09F703FD         
080106F8         
040508F8         
F8FEFFFD         
FFFFFFFD         
010508FE         
0703F9FE         
0403F7F1         
FB01F5FE         
08080107         
07FFFFFF         
00020AFB         
01FE05FB         
FDFF06F6         
04FC07FD         
02FC06FF         
00FC0301         
00FB06FF         
F105FCF8         
FD03F2FC         
F80DFDF9         
07020202         
FEFFFEFE         
01FF01FC         
00060702         
040801F4         
070D0502         
F5FFFE0E         
0805FCFD         
FD02FDFF         
0600FF08         
04000005         
FCFC0200         
F8F7F708         
00F5F7FD         
0AFBFEF4         
F9F90410         
0205FAEB         
02090DD7         
01F60205         
FCFAFCEA         
03030401         
0300F8FE         
02FEFFEC         
04FF06FB         
06FBFA08         
FBFB0803         
F7F30600         
05FAF600         
0D0202FC         
00F901FB         
02F601FD         
04FEFCFB         
FF010107         
FF0E04F7         
FF06FAFC         
FD0D07F3         
FA0002FE         
F8FEFBF5         
FDF2FFFD         
FD0A0200         
03010605         
F802F90C         
F6080310         
FEF60509         
1AFB1902         
0005F6FE         
0308FDF5         
F205FDFA         
01010006         
050104F4         
10F60706         
0E0009F5         
000100F8         
FD06FCFA         
F70BFF02         
0503FDFC         
FFFE0100         
05000D01         
0AFF0106         
F8FAFF01         
FAF80BF5         
03F50300         
06FAFF08         
FF0808FD         
02FF0702         
00FBFFFE         
05F903FB         
FD0003FF         
FCF910FF         
FA05F3F6         
FE0210FE         
02070203         
FBFEFAFA         
FDFBFF09         
FDF40201         
F808FCFF         
FCF30704         
FC02FB01         
FF0DF402         
F70703FD         
FB00E10A         
F91101FF         
0607EFFF         
F8FBF808         
05F9F206         
FEFEFA03         
F7F4E606         
FDEFF5FB         
00FD02FF         
FAFAF601         
07F4FBFA         
FEFD050A         
02FBFF01         
0CF4E700         
FBFEF401         
05FBE8F6         
FB05F8F6         
05F8FBFF         
0AF805F8         
F9F4FFFB         
FF00FD02         
FB0FFAF7         
FFF80300         
FCFDFD01         
FBFB07FD         
F0F70201         
EEF5FA04         
FC02F001         
0A07FFFC         
F907FFFA         
FDF8FCF7         
FF0D03F6         
01FEFCFD         
120005F8         
FBFE07F9         
FC05F607         
0707FC06         
0200FB01         
0600FE05         
0607FD00         
F8FCFFFF         
F3F702FC         
0101F6FC         
FEFB01FD         
FDFD0A03         
03F90BF8         
FFFCFCFC         
0A03F2F8         
08FF04F8         
000205F1         
FC04FFFE         
FAFE00FA         
F900ECF6         
00F5FE06         
F9FFF701         
F3EF06F9         
05F506FC         
FAF204FA         
F3FBFF03         
F3F7FE08         
FA09FA03         
FF05FBFC         
0100FDFD         
0203FFFE         
FFFBFFFE         
FDFFFFFB         
FEFC0003         
FDF2FEFF         
FC0704FC         
FC0206FF         
FE0406FB         
FF020603         
FA080102         
FCFDF9FB         
0602FE01         
00FEFB00         
0007F800         
0400FA02         
FEFFF807         
FB000201         
00020501         
0005FC04         
FFFD04FB         
02FF02FA         
FE050200         
FD01FD01         
00FFFF07         
01FE0408         
0707FDFD         
0401FA03         
010501FC         
0205FCFD         
FD00FDFD         
FDFE0202         
01FFFDFF         
0102FBFB         
F9FB0101         
FEF8FEFE         
FDFEFE01         
0204FCFF         
010A01FF         
FFFD0402         
FFFF02FA         
020802FF         
FF030500         
01FEFFFA         
FB00FDFD         
F7FEF6FE         
FBFBFFFC         
FCFB02FE         
FE00FD03         
FC04FCF9         
FC02FDF7         
FFF8F9FB         
FEFFFEFF         
FB050300         
0203FDFE         
FC03FDFF         
F6FE0705         
00FCF506         
0007F707         
FDFA070A         
0206FB03         
0501F907         
FD040000         
02FEFD06         
0503FE00         
030100F7         
FEFFFEFD         
0AFF05FB         
030B03FD         
0001FE02         
060AFF01         
0008FCFE         
FB0309FF         
00020700         
01020101         
FB050100         
0EFC06FA         
FFFBFDFC         
FFFE0302         
F9FF06FD         
0000FD03         
0200FDFF         
F904FBF7         
FBFFFD05         
FB03FFFF         
0207FD06         
00000303         
0700F800         
06FFFF0F         
07F9FC02         
01F9F804         
03020207         
00FDF9F5         
FF0102FC         
FBFF0200         
08FAFBF8         
02FA00FD         
0404FAFD         
FAFF0A04         
000100FE         
02FD01FF         
00040009         
04FFFD00         
01010207         
FB010100         
F90702FD         
F803FD02         
FAFDFFF8         
0302FEF9         
FF03FF02         
FD00FDFD         
FE040000         
0101F706         
01FB05FB         
FD0106FE         
03FBFC01         
00020305         
FF020001         
06030307         
05050301         
0105F802         
0002FE04         
0402FC06         
FF04F805         
0103FFFF         
03FC0107         
00FF00FF         
02FB0002         
06010005         
FBFF01F9         
01F9F6FF         
FF05FB03         
05FDFEFD         
06FCFD03         
0100F905         
020203FF         
FC0207FE         
FEF7FF03         
FFFD0204         
03000303         
FEF7FE00         
FFFB0306         
0302FF06         
FD010002         
04F8FC01         
0B020700         
FE09FF09         
03F60AFC         
FB02FCFE         
06FAF9FF         
0DFBFD0C         
00F4F5F9         
F00BF107         
F403FA07         
F602E8F2         
F6FEEF06         
F905F505         
02F2EFFD         
EB0CF409         
FF00F4FA         
FDE9EDFD         
0AF8F6FF         
FCF2F400         
FEF8F604         
0E05F80B         
0200F80B         
F6F806FD         
0CFEF30A         
FDFEFB0C         
0B0303FE         
F709FEFD         
02FB05FC         
F8FF0CFD         
F50202FE         
FFFEFD04         
04FE07FE         
00FCFA07         
0802F9FF         
FDF8FBF5         
F3FF05FB         
EE04FB00         
FD00FAFF         
041001FC         
020AFF02         
FC05F9FD         
F9FF12F8         
F6020AFF         
FD0EF502         
0BFC09F8         
06FB05F8         
080300FD         
FAEE0F0B         
0502F9F9         
F109FC03         
FFF705F6         
110902FA         
07F90800         
F7050E01         
F1FB11FE         
F0FFFCFF         
EE02FF00         
EBFA07FB         
ED030607         
F3FEF605         
EDFBFF02         
F7F3FEFC         
F50D04FB         
F50900FB         
FE070E02         
0607FDF9         
FD08FCFD         
0109FD0C         
0000F9F1         
F504F5F7         
F208FB01         
F80BFD01         
FC0104F7         
FB01FC0F         
FC020102         
F5FF08F9         
F7FFED08         
F10C0005         
F407FF00         
EC061109         
FCFC0C0B         
03FE1107         
F5FF13FC         
F903FD11         
FE0813FC         
F3FC04FE         
FFF7F21C         
00F60508         
FCFD1500         
FC040700         
F900F8F4         
0507FAF9         
02F70002         
0CF2FF05         
0AFEFEF5         
04FD0BFD         
FE000700         
0202FDF1         
FF0D03F7         
FA0A0304         
F7030502         
FEFDECF5         
04000804         
F6F507FC         
F8FA0BFE         
EE091207         
FA051205         
0D0903F6         
FB0602F8         
FDFB0DF1         
06FCFCFD         
0702FC09         
FFF7100A         
120102F7         
020200FF         
F71109FC         
FEF9FE06         
FC090303         
FB05FB06         
00FA0701         
0307FDFD         
0F02FE09         
FF06FA0B         
0306FB05         
060C0003         
0C06FFFE         
0EFE05F1         
F902FFFC         
06F6FD04         
FAFFF9FC         
0303FD07         
0507F400         
0501F9F0         
FA00F8F6         
05FF0105         
F9FB08FD         
FC0009F5         
FB0A010A         
FD00FCF8         
09040103         
FC030014         
FF0508FD         
FC04010C         
FF1203DC         
F8EA0108         
19FDFB08         
E1FDFF09         
0C2E1504         
FFE4FC0B         
E2EA1309         
DD2B09F5         
DDF7F6ED         
F3E0F715         
EF0309FD         
0219090D         
DFF202F1         
F20FF6F5         
0610120B         
FAD409F4         
06110E0F         
FDFD0D15         
15FCF0F7         
E8FBF5EC         
F71C0708         
0D08F715         
10DA01EE         
0803FADC         
0C120003         
0810E4E7         
F914C4D8         
27040B04         
FFE71BFB         
061502EA         
0B1A26FE         
F0F10F03         
07F6FAF6         
150633F6         
121514F5         
2BEF1DF3         
0A00FAD4         
0D1808F9         
FE0A19EB         
F5FAF4EB         
14E8EE07         
E107FF06         
0F0D01FE         
FCD9FACF         
FD05FCDA         
E207CB01         
F7FEF2FE         
FDEE07F4         
03FCEDFB         
0601D80A         
24FDF0FC         
F907E807         
FEF0C9FA         
1108B7FC         
0AC9F922         
FEDF002F         
21F5EEFB         
0AF7EBF4         
08F8F105         
F0FB10E3         
FC0607EC         
070AE2EF         
0311E5D6         
19D9EC20         
050EF8FB         
0EF613EF         
F7F10B00         
FAF8F51B         
05110AF9         
F7FC0E07         
08F20914         
DDFB08FC         
05ECF10C         
FD13E2EF         
19080604         
0CF70FF6         
0504F3F7         
0B03E2E5         
F9E91006         
FF08FEFA         
0F0BFCF7         
1EE2D1FB         
F8E6EC16         
F921E808         
2EDF06F4         
19E6F1FF         
010CD4FB         
1CFF08F0         
0DECF9F7         
0000FEEA         
15C612E5         
080E07E5         
0D0713EE         
07F70800         
F510FE0D         
FDFBFC00         
09E91218         
02FE061E         
F30F0131         
270CF3F0         
3112F6D5         
1415E8E8         
FA01F20E         
FB1EF20D         
FEFAF311         
24EDF1F9         
FF09EBF6         
EE11D9FF         
D1260733         
0E1F0D12         
22040C34         
D402E41D         
E8F0FF02         
0F08EE15         
D7140F0E         
EE000E15         
F019D217         
13E7DDF1         
01070C07         
00E91DF3         
10F3D90B         
EF140C0D         
FA1F1DFB         
F1EDE4EE         
02F1060D         
06000FE2         
FE0DD800         
F3F7E3F5         
0412F3EC         
0609FB05         
F9F9D908         
01110811         
FA02FEF4         
0D180AEC         
08DCF0D6         
FA09D4F7         
F909E80F         
0B05191F         
0409E7F8         
0101E80D         
05F5FD22         
F1F40C03         
ED04E320         
E2180013         
FC0BF902         
01FC0508         
FE090101         
FD0E0200         
F6FCFF04         
F7FB0603         
FF10FF01         
F7060000         
FA0007F8         
FCFCF8F2         
0F030904         
04FEFA00         
FF0001F3         
E9F902F9         
FBF90700         
00F5FFFE         
04FF00FB         
F5F7FE09         
F7FEF902         
FEFF0301         
01FBFBFD         
F902F608         
05010C11         
FAFD0109         
020EF709         
0301FE14         
010EF7FD         
03FEF702         
F4F3FA00         
FFFC0400         
FDFEFCFD         
0AF9FF01         
FBFE02FE         
FF00FDFA         
FAFBF805         
FE07F5F9         
F804FC08         
0A04FD03         
0300FE03         
FAFDFD04         
08FFF502         
FEF9F801         
01F800FE         
07F90203         
08FAF004         
FEFFF901         
F40AF4F5         
FDF7F901         
FAFEFD04         
F70302F6         
010BF903         
FA02FD01         
F304F4FA         
06FEF004         
F7FD0203         
FEFE01FE         
04FAF7F9         
FFF5FB03         
F9F6FF02         
F70302FB         
0CFBF7FF         
0001F7F6         
F9EEF6F8         
FA0704FB         
F9050110         
FA0406F8         
F4FC0705         
FAFFF911         
FBFD07FB         
F4FF03F5         
FCFCFF00         
0605FFF4         
FFFAFB06         
FFFBFE07         
F9FBFE0B         
00FC0402         
01FF07FF         
FC030A13         
FE07FFFC         
0100FD05         
FFF90A08         
060800FF         
02FB0202         
FAF109FE         
080D0A01         
0808FDF7         
F80801F6         
04F5FD04         
18FE0907         
0208FA01         
FBFCFCFD         
100003FE         
FDFD04FC         
FEF901FE         
FC030604         
FD03FE04         
FDF70500         
F6F5FFFB         
F6070209         
0CF3F9FB         
FDF7FBFB         
FBFBFF04         
04F6FF02         
0DFF00FB         
F305F9F9         
08FAFF07         
02000202         
F901FBFD         
02F7FF0D         
09010DF8         
02F80308         
03FD0AFC         
F7090CFF         
05FF01FA         
F6FAFF01         
01010B03         
F7FA0506         
FBFDFBFC         
F8040A03         
F40AFFF2         
FCFFF6FE         
0AFA05FC         
FC09FFF9         
F8FAFC07         
02F80306         
F400F5F5         
0504FB00         
F10409F7         
060701FB         
00F50705         
070703F8         
03FEFEFC         
03010101         
0000FA05         
FFF8F305         
070200F5         
0E0B0900         
03FFF9F8         
07FDFC02         
09FB0805         
01FA00FA         
03FAF802         
F6FE02FF         
0DFDF7FB         
11F10C04         
FEFF0FFE         
F5F4FD05         
03F705FB         
F8FA0506         
0B080002         
14E605FA         
FAFF0500         
00FCEFF3         
F5FAF204         
F506F6F6         
F813EBEE         
01FCF8FE         
050AFCF8         
01FB09FA         
FDFDE1FC         
0E01EDEB         
0C01E9F4         
FFCDF7FF         
FFE2F800         
FAE7F804         
13F3F3F5         
F4F5F0F4         
01F7FBF6         
0AF7FAF5         
0CFDF907         
F6EF030B         
FEF912FE         
06F50608         
04070CF0         
F3F50AF5         
FCFEF6F7         
02010707         
ECECF8FD         
FBFEF30A         
03FA0DFE         
F707FD06         
0204030E         
0504F901         
000705ED         
06F6FCFC         
00090808         
100415F7         
0701030A         
00FD01F8         
F00400E0         
021203F6         
F314FCFB         
E209F6FB         
FC12090A         
FA13010E         
EEFFF7EA         
030DFE0D         
030EFB0A         
F60D0300         
FDFA02F1         
03F40EFE         
0B03F700         
04FAFF00         
E8F311F9         
F103080C         
FF090101         
F908F904         
F30D0E03         
EA03FE10         
FA080B01         
E6FA02F8         
E600F511         
E506040C         
F1F504F6         
EF08FEF9         
F7FD0B05         
F309F6FF         
030006FB         
F311FA08         
EE04F005         
060204FA         
03120907         
C612F403         
E1FDF108         
E20B0006         
EE0002EE         
00FFFAFA         
FAFBFC07         
F6F5FA05         
0704E905         
FDFDF4FC         
F0FEEEF9         
02FAEF0A         
030600F0         
11F5F4F7         
050109F6         
061203EC         
0FFAF5ED         
050503EC         
FEFD06FA         
FFFCF8EF         
05F6FEFE         
FC11FEFC         
010E0421         
F1FF00F7         
E60A00FF         
04F0F106         
05FEF9F8         
1201000F         
0AFF0905         
FF04F904         
F20AF80D         
08F10CE5         
FDFA0100         
F8F40DFB         
0FF006FA         
FAFC0106         
FFF40905         
0F050105         
03FF0507         
FA020D04         
10FFF501         
09F9FF04         
00011003         
0FEEF0F5         
F9EDF6FC         
F60CF605         
10F0FC00         
FFF4F505         
080BF6FF         
0516FAB9         
FAF3F3EF         
F40806F0         
060910E1         
F9F80202         
F6FE06FB         
052107CE         
FDF5F3EF         
EEFEFCF2         
FFF90C04         
0DFFFAF7         
02F9EEF7         
F302FE0E         
FF040AFA         
FC0707FC         
1BFCF411         
120002FC         
FCFDF6FF         
FBF3FFFB         
07FDFCFA         
F904FFFF         
FDFE0100         
08FE04F9         
0000FFF8         
FE050201         
08F80002         
FC020300         
0001FFFD         
F8030300         
00FE0100         
FD050604         
0404FD03         
000100FD         
FC0000FC         
0BFAFBF7         
03FE05FC         
FBFE0500         
04F8F8F6         
02FA0304         
01050009         
0903F605         
0701FCFB         
FEFE0507         
FC08FD00         
01FF01FF         
FA00FD07         
03090303         
0AFB0606         
FB0102FD         
0306FD01         
FEFDFFFE         
FD02FD01         
FC04FFF6         
0103FF04         
01050900         
FCFE06FE         
050304FD         
04F60302         
03FD04FE         
0204FAFE         
010404FF         
FD010707         
FE000A02         
06FEFB00         
FE010603         
FEFDF703         
07FFF406         
F6040706         
04F8FD03         
01FB04FC         
FB060500         
FF02FE01         
FFF502FC         
0206FD00         
00FB0903         
FEFEFAF8         
02FE0101         
FBFFFF03         
0203FD03         
0102FAFE         
FD00FFFD         
FCFF05FE         
01010702         
03FA03FE         
FA010003         
00FD04F9         
FD060605         
0500FBFE         
FF04FEF7         
FAFCFF03         
020804FD         
0A02FDFF         
0204FCFF         
FF07F700         
FB00FE06         
FBFC0107         
06010500         
09030601         
01FD05FD         
FB090401         
030FFFF8         
000305F9         
FFFEFFFE         
FEFCFF03         
0900FCFC         
00F5FE02         
FDF0F804         
05F7F902         
0102FF02         
FC050205         
040205FF         
FEFE0005         
000003FE         
03FFFF07         
02FB01FC         
0402FEF3         
FC040101         
FA030800         
FD010406         
FF030507         
01FB01FA         
0201F801         
0400FB06         
05FFF700         
0606FBFA         
0EFB0007         
08F9F902         
02010700         
000607FA         
0300FE01         
04000108         
FE0201FE         
FDFC01FD         
0701FF07         
030005FC         
FEFF00FF         
08FEFCFE         
FE010101         
0306FB02         
08010700         
02010107         
03020808         
0701FF00         
030103FB         
FF04FCFC         
060C07F5         
0102FDFC         
0604F603         
08060C00         
FD07FBFD         
FE03FD05         
00FF0601         
03FDFD06         
0304FE01         
0200FEF8         
FA040401         
FFFF02FC         
060805FC         
FC0502FE         
FFFA01FF         
07FB01FF         
06010005         
ED0AF400         
FC060A01         
0816FEFA         
EFFDF6F7         
0B06F1FC         
1500F6FF         
EF18FD0D         
0A000C08         
0314FE19         
17FD05ED         
12F704FF         
131206FC         
050309FE         
07000104         
1008FCFF         
0600040C         
FCFD0008         
000C02FB         
FD0B080F         
F9000A0D         
020B0C06         
03070903         
01FBFB00         
0308FDFE         
F90F02F8         
F702FF02         
FC0AFAFA         
FAF700FC         
FAF6070C         
03FCF100         
F802F6FA         
0A05F8FC         
04FEF804         
FA09F8EF         
FF03FA00         
0514F2FE         
F2EAF7FE         
000006F6         
FEFBF703         
ECEEF809         
F80802FF         
ED0AF106         
05FB02F9         
FB0CFE00         
0103FCFB         
EDF7F708         
F9F8FF0F         
F0EFF006         
03030C07         
FE090E0B         
FFF003FC         
F90CF303         
F809F9FB         
F008F2EF         
F6050800         
FD0BFEFF         
F708FA0B         
00F7050C         
01F80303         
F606FD02         
F8EF0011         
F6FBFE00         
F802FC04         
05FBF203         
F9FEF6FF         
FEF2E5F8         
FE01FDFE         
FF040202         
11FBEDFF         
1400E402         
0501F8FE         
0F01C9FA         
EEDB0501         
FBF9FF04         
FDDF0105         
FAF714FD         
F503FF02         
08F4FDF6         
FE0F050A         
F5FF0805         
FAEFF906         
F3FFF1F1         
F206F4FA         
F1FC0EE5         
F90A0203         
FD05FD0F         
FD08F8FB         
EE03FCEE         
FDF906F8         
FB080CF2         
08F8F00B         
09F80207         
05FA0C06         
0C01F900         
F9FF0108         
F0030D01         
F6EEE60F         
FDFCF001         
0101F906         
18F8F9F8         
0CFEFB01         
0703040B         
FE0001FC         
F8010608         
FA080400         
1A00F8FE         
07F4FD0B         
0AF80703         
F6E7F9FB         
FEFA0305         
FBE9F608         
FCFFFEFD         
F6050AF3         
02FAFA07         
FBECF5F4         
FEFDF8F4         
FDF3F8F1         
FD0107C7         
0901FEED         
F6E905EA         
FA000EED         
01010004         
0EEF00FE         
01F003CD         
0AF7F5F5         
0ED8F2F7         
FC0708FD         
FB02FCFD         
05F5FA0A         
02FF1002         
FC0A0400         
F601F908         
09010511         
FB010500         
F9FFFEFC         
DD070F08         
F6040A0C         
FA05080B         
EF050608         
FC03F300         
F8FB00FC         
FE06FBFC         
0000F9EF         
EBFAF5F0         
FFF3F705         
FBDE08FD         
0BF20205         
F1FF0507         
F401FFF6         
05F201F6         
01080103         
0A2EFF05         
FB16F2FE         
FA05F7FC         
0003FD05         
02FFF9F9         
FFFD08FB         
0602010A         
020CFEFC         
02FA070A         
06090801         
14040E08         
0205FDF3         
03FDFE03         
02F2FCF6         
F8FDFEF6         
0405FCF6         
F0FCFCFF         
F90810FF         
FC0A0705         
010BF803         
02ED050B         
FDF40209         
08FEFBF7         
F4FEF90B         
FE0700F1         
03FD0000         
0AFB020D         
0410ED04         
0505F202         
F501060A         
01FFFFF1         
F4FDFD01         
F701FBF8         
FCFDFE01         
F9FC040C         
F5FAF1F3         
FFFCF6FA         
E1FDF3F5         
F7FD03FA         
070D03FC         
F2050AEE         
06FFFA0E         
FEF5FF04         
E703FC01         
07FBF8F3         
EBFF0BFC         
F8100AF7         
EB06FE02         
FAF9F2FD         
070E0105         
0004F3F8         
FFF70205         
FC050800         
00FCFAF4         
09060002         
F011FA05         
000AF7F6         
0B09F7EB         
0C0000F0         
FA0000FD         
F5FCFC05         
02F8F203         
07F6EC07         
FAFBFB02         
EBF6F804         
FAF8FBFE         
F8F7F404         
FDFFF40C         
FFFEEAFF         
FA04FBFA         
F303FA02         
04F0F6FD         
02F3F1FB         
0E00F7F3         
F8FD0210         
FB03F8F4         
EBEE0A08         
F90EF605         
0D09F8FF         
F4FCFD02         
03F20CFE         
FDFD00FE         
F900FBE2         
05FCF100         
07F50E05         
0D0509F9         
0705F1FD         
03F7FC03         
01000004         
00ECE1FD         
0303FCFD         
F206110D         
150401F9         
FAFCFCFE         
FCFC07FE         
0C04FA04         
02FCF809         
0CF904FC         
F2F7F3FF         
06FFF30E         
0505F310         
0C0204EC         
07F30B05         
F7F60509         
FC040810         
F203FE04         
07FB0304         
EFE9F9F8         
FBECF906         
04ECEA0D         
020009F4         
FF05F7FA         
F8F9F0F6         
16F603FA         
F7F5F8FA         
05F7FA00         
050103F3         
FC0C04F4         
EF13FAED         
02FC09FB         
0107F1F8         
0B08FBF1         
FFFD0E07         
FC12FBFC         
FF010300         
F8F90414         
05FB0002         
06F70904         
FAFA0B09         
0307FC0C         
03FC0EFC         
F5020009         
080404F6         
F9FCFB02         
F2FEF808         
FE02FC01         
FCFAFE02         
FEF7FE07         
03F50304         
FEFE0101         
FAFF0207         
F6F70102         
FDF8FDFF         
02FDFBFE         
07FCFD05         
FBFFFEFE         
FB010000         
05FD0104         
0AFC0303         
0707FD01         
F4FF02F5         
0302FDFF         
01070405         
09030302         
0300FEFE         
04FB0307         
FEFD00FE         
FD030003         
F6010100         
0A000209         
FEFDFAFE         
00040202         
FDFF0006         
02FCFC00         
00FD0103         
FEFEFD05         
06FF04FD         
01FEF403         
02010702         
FF000200         
0CFE0302         
FFFCFD00         
01FCFFF8         
00FE0206         
F8FE0103         
00FE02FA         
000CF700         
FCF60400         
FCFF0003         
00FEFEF9         
FF04F9FB         
04FE03FD         
FE01FFFC         
FA0606FC         
02000201         
F7FEFD00         
FEFDFE00         
02030206         
030105FD         
09FF02FE         
F902FF02         
04FAFE05         
FF06F904         
00FCFAFE         
02FF0704         
F50602FF         
FEFAFEFD         
07FDFB01         
0306FAFE         
FFFE0102         
F90402FF         
FE040203         
010201FD         
FEFCFBFE         
02FD0202         
FF050202         
FCFDFB04         
020300FE         
0100FC08         
FDFC05FA         
02FCFCFF         
0403FD05         
0002FFFC         
FC010205         
0500FDFD         
FEF905F9         
02000AFE         
FF02F9FC         
02FB0300         
04FE0801         
FFFD0101         
07080100         
03FF08FC         
FFFDFBFE         
03060205         
05040AFC         
00FD03FD         
FB0A0AFB         
010102F8         
F90005FF         
FE070001         
F2F8FAFD         
030507FF         
0207FEFE         
FDFB0103         
FF0207FE         
FDFEFC04         
00FF0000         
FE0005FF         
030900FC         
FB000202         
03FF0300         
F401FF08         
00FD00FC         
000100FD         
02030500         
04060604         
FC03FF01         
01FC0204         
04010005         
FBFEFF01         
08FE0101         
FDFD01FC         
F70001FB         
04FDFCF8         
F30003F9         
FEFE0004         
FD0203FD         
0CFDFF05         
FFFA0306         
00FDFDEF         
FEF6F8FC         
03F6FD03         
030008FF         
F8FBFC01         
FD010305         
F704FF00         
08010207         
FB00040C         
07FBFEFA         
00FF09FC         
FDFDFF02         
02FFFBFB         
FDFEFF04         
00FEFA01         
0106FDFC         
04F8FF02         
00FEFC01         
020CFF05         
020203FA         
00030000         
0008FA00         
000AFF00         
FD01FFFD         
F9FAFF03         
06F6FD02         
020106F7         
FD05FC01         
FCF900FD         
FDFE08FB         
020408FA         
000506FD         
F7FB0706         
070301FD         
FEFFF508         
0500FAFC         
07FF03FD         
02000203         
0AFFFC09         
F60401F7         
FF09FCFF         
FC000104         
F802FCF9         
FE0B0AF4         
020404FD         
FB08FA00         
FCFEFFF7         
FFFA0207         
06F90401         
00FE0105         
FEFD0104         
FA01FC02         
0202FE00         
01FB070D         
FD04F500         
F4010002         
F50006F9         
00FEFE02         
FF0804FC         
FCFE0CFE         
06FFF307         
02020603         
01F90903         
0903FF04         
09FF0608         
06F60B00         
FAFD020D         
07F8050B         
09F710FE         
FAF4FF09         
07030305         
F908FB01         
F7FEF306         
04FA0001         
FFFEF9FF         
F701FC07         
01FA0004         
05F704FE         
FBFDF704         
0300FC07         
03000B08         
0005FA07         
F3040205         
F8000903         
FFFBF80B         
05F9F906         
0402F901         
0601F503         
07F701FB         
0BFDFEFD         
00FCFFFC         
01FDFBFF         
07FD0503         
08F80101         
090002F9         
F8FF03F6         
08FDFC02         
FD020D02         
000501FE         
01F80107         
030703FC         
F301FC03         
FE02F805         
04FAF1FE         
0106F9FE         
FE01FA0B         
010DEC06         
0401FB06         
00FFF5FF         
0A03FDFF         
FF03F7FF         
02F2F5FE         
02FCFB0A         
FE01F605         
03EFFB03         
FC0EFE05         
F503F0FB         
FAF6F10A         
03FD0205         
FC02F9FE         
05FE0504         
0AFCF9FE         
0E08F807         
00FBFAFB         
0503F701         
FD0E0102         
0C05FAFE         
FD0707FE         
FB030204         
FAFDF508         
00F7F108         
0803F701         
F9FBF200         
FBF707FA         
01F903FD         
F9FEFB04         
03F9FE03         
00F7F9F8         
FEFB0703         
FDFA0208         
0409F80A         
020603FF         
FC04FF01         
0400050C         
06F9FDFE         
F6FCF2FE         
090005FA         
01F30501         
0AFFFE07         
FD070401         
FF05F4FA         
FA0F0A00         
FE0003FA         
0604FAF9         
0600FAFF         
FF0607FE         
F90509FE         
020107FA         
FDF5FC08         
F815FDFA         
FC1205EB         
06FB04FF         
080CFEFB         
050A01F8         
09FE0403         
FAF90102         
03E8FC05         
F8F9FC07         
FE0D0402         
08010100         
F9FD01FD         
FEFF02F3         
FF0002F5         
F700FC02         
000400FC         
05FD07F9         
FFF8FE04         
F301FD02         
FD08F903         
0203FB0A         
00FDF5FA         
FD03F6F0         
0600EF00         
FC040507         
FB03FD04         
F6040DF8         
FF010011         
FC00F9FE         
010302F4         
0101FF08         
FB00F705         
03FEFFFD         
FE0BFFFE         
F9060200         
F90002F8         
FDFEFD01         
FB0300FE         
F9F9FFFD         
0BFAFD02         
0002FF00         
04010304         
F7050104         
FAFDFB01         
FE0004F6         
FBFEFE04         
03FE0502         
FFFF0400         
F6020405         
00010607         
02050D00         
000C0302         
00060FFB         
030505FD         
020803FE         
F4FC060A         
06FD02FF         
F7FDFDFB         
F5010002         
FD0205FC         
FEFBFC06         
FFFE0304         
0304F6FE         
0BFC0300         
F7FFFE00         
07FCF6F6         
FB00FDFF         
FFF902FC         
08080000         
0805F600         
F709FD05         
FDFEF1FC         
FD04FE04         
F7020A01         
FBF7F9FF         
F8030406         
F5010000         
FE03F003         
0AFF01F7         
FEFF0107         
0DFAFE05         
FB00FAF8         
F70302FF         
F5FD01FC         
FC03F5F1         
FB020700         
F404F701         
04FAF900         
03FCFF03         
03020D0F         
05FCFF02         
03FE0401         
050003FC         
0201010C         
FE090503         
08010DFF         
FD060300         
FEFA0103         
FA0007FE         
F9040802         
F6FA00FB         
030A0201         
F90305F9         
FE0905FB         
F50009FA         
05FC0C02         
0707FCF9         
02FCFDFA         
F50308FF         
FD03F409         
FB01F6F6         
F9050702         
0206FB05         
0304FBFE         
FF0AFA00         
0206FDFF         
0305FA08         
000505F8         
010301F5         
08030602         
FFFD0300         
FF020D00         
FE0509FC         
FEFEFEFF         
0704FCF5         
01FAF800         
FE060303         
F7FEFB02         
01FEFB02         
FD020BF6         
FD04FEFB         
04FBFEFC         
04FCFB01         
030901FF         
FD00FB00         
FFFDF904         
01020503         
0202FE00         
FDF80300         
04080AFF         
FB0408FA         
060602FB         
02FDFF06         
01FD08FD         
0106F6FD         
FB05FC01         
F705FF06         
FC01FF05         
05000000         
0200F601         
01FFFFF8         
050E0CFC         
0BED0309         
00F602FC         
040C04FD         
FC000C0B         
FDF5FBFA         
FF07FFF7         
0CFE04FB         
05020E0A         
070606FF         
FC06090C         
05010605         
F7FC00FD         
FEFE0805         
030002FA         
00FF0301         
04FD000C         
F70CFD01         
FD0005F8         
0802FDFC         
F90A05F9         
09FD05EC         
030003F4         
FA08FA01         
010808F2         
03FDFEFD         
0400FF02         
06F9FCFE         
080700FE         
0103FDFD         
FFFDFF0A         
07070405         
FDFE0803         
FCFC00FE         
FB01FB08         
09FBF9FC         
080101F7         
0306FF06         
02040306         
0AFB07F6         
05F408FF         
02100D04         
0308FBFC         
FCF90102         
0AFBFDFF         
0501F3F6         
000002F5         
00F7FDFC         
0600FAFA         
FF010902         
FFFC0507         
03FC0505         
FF0003FE         
00FCF5F3         
FDF7F300         
EDF9FD00         
0607FD04         
1009FF0B         
FF00FE09         
F60403F7         
0701FCF6         
FE050605         
00EC040E         
FFECF70C         
FB010101         
FFF90907         
0CFB00F8         
00FA0101         
02060203         
00FFF7FD         
FDF7FC04         
15F3F3FB         
0CFE00FE         
F8FA00F6         
0AF508F8         
09020BFD         
FEFA07FD         
09FF0500         
05FFF809         
07F200FE         
01F8ECFA         
0BF8FEF7         
0BF9ED00         
0707F3FC         
FB06FE09         
0D0BFD06         
1204F907         
0107F903         
FBFFE80D         
FEEDFDFD         
09FBFD03         
07F80205         
F002F4FC         
FB08F904         
0DFDF509         
09FCEFFF         
FE04EFF9         
01FFE7FF         
FDFDFCFE         
01FDFEFF         
07F6FEFB         
FDFD0A00         
FB09FC02         
FEFB0AF4         
FEFA00FB         
FFF7F5FB         
F5F0FCF6         
EF00F60C         
F30A00F5         
FC15F0F0         
FFFEF201         
05F91002         
F901FAFA         
0500F503         
01F80308         
FD04F6FE         
FD090405         
0B020201         
FFFC030A         
FB060501         
FEF60202         
F8F8F208         
00040208         
FCF9F9F5         
02E308F4         
FBFC01F8         
FE060202         
F2FAFDFF         
000302F9         
FE0C01FB         
F6F1010D         
FDF804FB         
000200FD         
04F40102         
FEF8F702         
FDF802FC         
04FBF1FB         
02FCFD06         
05FDFE00         
03F3F9FF         
FFFFFFF7         
F604FE07         
05F0F806         
040E0304         
02FFF616         
E40E05FF         
0106F804         
F8F100FC         
0DF603F5         
FD08F911         
F9F804FF         
01FC01F8         
F50304FD         
0A03FB08         
0608FB06         
0007F904         
F705F3FE         
FA03F804         
FCF402F2         
09F5FB03         
07FFE701         
F60D11FE         
F60109FD         
F8FF1201         
F505FC00         
F7FE010A         
F5FEF401         
F00DF5F2         
0001FCF2         
00FDEDFD         
FFFAF904         
FFF0F905         
F6EC0808         
FDFC06FB         
0002F605         
0BF40CF7         
F7FA0306         
07030201         
10F214FE         
010D05EF         
030408EF         
F3030CE1         
F5F105FB         
FA00F704         
FA0703FE         
03ECF6F0         
010BFFF4         
04FB0BEF         
06F20A00         
EE070D09         
0FFE1C09         
F0F903FA         
F900FD04         
14F401FD         
EC03E501         
05FEF6F4         
FF08E4F9         
FFF9F1FF         
0DFBF9FF         
F7FAF9F0         
02F9F0FF         
EEFE04FF         
03F80DF4         
0B10EF00         
FE14F9F8         
FB0609FB         
05FEF105         
02FF05FB         
FDFA09FD         
F410F5FF         
F705F7FC         
FD040CFA         
FFFFE0F4         
0000EE03         
F6F50601         
00F2FBF5         
FCFA0807         
0718FDF0         
F3F80205         
0100FE09         
04FD05FC         
DE05E606         
E9F9F5FD         
EB05ECFB         
FD060408         
0009FC07         
0415EE13         
03EEFAFF         
04FB0200         
FC0BFBF9         
0700F9F6         
05FDF1F3         
0600FCEB         
09F3FDFB         
F9F90800         
ED060103         
05EF07F5         
0AFF11F2         
07FD05F8         
FB15030A         
F70E06FB         
03FA09FC         
0A05FFF2         
F81006FE         
0C06FD07         
040006FE         
F9FF04FB         
0204FC0B         
21EDF5F8         
FA0AF8FF         
F703FE06         
0409040F         
0FF80003         
06F9E508         
01000B00         
03F6FD01         
05000307         
0A0A0411         
FE080708         
0C06080B         
05F501F2         
0303F502         
080DFAF8         
F7040DF4         
F8030704         
070EF0FA         
FCF3FEF5         
00FAFF04         
06EF080D         
FDF41008         
F800F9FE         
000D0606         
07010A06         
0401F9FF         
090C08FA         
F91304F4         
F8FAFEFA         
09010FF4         
F60008FE         
0507F602         
FE14DF10         
F9F50102         
0AE8EFFB         
0B04F400         
FEF50EF5         
F4F40002         
FE03F80F         
0208FD08         
FCE6F9FE         
03030107         
F40CFFF6         
F1080304         
07FB07FF         
08FA0601         
F715FC06         
00F9FA03         
020200F9         
0FF501FC         
FF00FCFD         
FF06FBF8         
0FFB011C         
02060500         
02FB0D0A         
0301080B         
05FF0707         
F50403FE         
0E05FE15         
02FA02FE         
FA04FB0D         
F507050A         
FC0404FC         
F8070B06         
0807150B         
00F20807         
FE0B01FF         
FDFDEE02         
0504F6FF         
FF09F908         
FCFEF203         
FDF70EEF         
0504FC0A         
0CFDFBF2         
FFFE0611         
F7FFFEF6         
FCFF040C         
F801F30F         
FF060810         
00FEFB11         
04050007         
F9FDFD0C         
0802F9EE         
01FA03FB         
0AFF0102         
FF01F0F5         
FA0CF901         
05FFF705         
00F4FA0C         
00EB01FC         
00060C07         
F604FEFE         
F8FE0F07         
000500FB         
F6F80201         
01050101         
0702FE01         
F90201F9         
09F50403         
070DFE04         
060908FF         
0004FA0E         
F9030903         
FE01000A         
08F7EE03         
06EEF600         
06F8F208         
0405F103         
0D03F706         
0702F906         
060AF406         
01F3F503         
FFDE0403         
FCD90CF8         
F6F10807         
FEE7130D         
F6F50F02         
FDFC0908         
FFFBE7FF         
E9FD0102         
F2F9E503         
FB0800F7         
E8FCFFF1         
01F4F808         
FB0102F1         
F3F502FA         
0300FB06         
F711F6F4         
F7FEFF08         
F8F3F409         
0CF1E902         
17F3EC03         
07F9F4FA         
FDFEF704         
F900EA0A         
FBF7F4F8         
FE09F9FE         
0101FA03         
04F4FCFE         
FAFB0603         
ECF900FE         
0501FAFD         
FFF203FC         
FDFF040F         
0D08FEFC         
040BEB0B         
F90CF80C         
FEF300F4         
02F2F5DE         
F4E801F8         
06ED0703         
0BF8FFE8         
05E8FFF6         
0BFBF5F5         
EFF907E7         
04EC02EE         
0805080B         
FBFC05F9         
FA03FBF6         
FA0008FB         
F2FB0AF8         
F8F0F2FB         
070BF6FB         
0001FEFE         
0E06FEF5         
090708FB         
FDFC01FE         
FF0FFCF4         
EE01F6FB         
F306F1F0         
F8010202         
F3F60E0A         
0002F907         
0701FF09         
00F50D02         
F8FCFF00         
02F911F4         
FA0207F7         
FEFFFEFA         
030000FF         
FFFF07EC         
05FAFFFD         
0BF9FFF3         
01F8FF00         
05FD03FF         
03FF0008         
02FFFF02         
0403FB04         
FCFE0406         
FEF8FDFF         
F901FC02         
FCFA0304         
00010303         
FF020103         
03000408         
00FBFCFD         
0101020B         
03020306         
020104FB         
FC0A02FF         
FA030000         
010300FD         
FE00FBFA         
FB0504F9         
01FFFBFA         
FAFB03EF         
F70103FE         
FEFBFF03         
FF01FB05         
FFF9FCF1         
FFFE0500         
010A06FF         
010003FC         
F8FF01F8         
FAFE02FC         
FD01FF00         
FFFF01FF         
01FF0005         
06FF00FE         
04FA03FB         
FC000502         
FFFAFE00         
FFFE0001         
02FFFD05         
01FDFEFF         
FE00FF00         
FD00FBF6         
FA05FE00         
030105FF         
020203F8         
FCFEFDFA         
FD02FEFD         
F7070103         
FE05FF01         
050100FE         
FF010204         
F8FEFF02         
FFFAF202         
05FBF9FE         
0305FAFF         
00FEFA06         
FDFCFD07         
FF05F9F7         
04FEF709         
0B06FAFF         
0A09FB06         
FFFE00FD         
04010503         
03F7FEFC         
02060000         
0303FFFB         
02FD0103         
FB07FAFF         
01FFFE01         
07FD0202         
FFF6F8FE         
02FCFAFA         
00000703         
F6FBFF00         
FDFE07FB         
050008FF         
FE01FD00         
0100FD01         
03000102         
06FDFDFC         
01020001         
0102FB04         
0703F901         
010908FF         
03FE04F8         
FF02FFF9         
0308FD01         
04FD04FB         
05030100         
020202FE         
01FF00F8         
F701FE02         
00FCFE0E         
00FB04F6         
07010201         
FE020205         
00020500         
FF05FC05         
02FF01FE         
07FC06FF         
0200FFFE         
FEFEFD06         
01FC03FE         
02FC0503         
020303FF         
FC06F7FA         
0409FD05         
04000204         
FEFFF903         
0204F805         
00FF03FD         
FEFFFDFF         
0704FE0A         
FFFF0001         
F505FF01         
FB00FC02         
0501F702         
FF000401         
0306F400         
F6020200         
FC00FBFE         
FDFE00FC         
FF041104         
00FC0802         
0500FAFA         
FE01FE01         
01F60105         
0003FD00         
EEFFFDFD         
F8FCF902         
030502F9         
03FE01FF         
04FDFE03         
00FF0402         
040202FC         
02030901         
0204FF00         
0008FFFA         
03030AFD         
03000000         
FC040403         
FF040103         
07000505         
FE0803FB         
0402FF02         
000FFCFC         
09F90215         
0B0304FE         
0B0A0503         
06F905FF         
0102F803         
08ED0404         
FFF802F9         
03F4FB02         
FC0201F8         
03040D09         
FD03FF0F         
02FEFBFE         
00F1FA01         
05F3F509         
0BF5FE0C         
F000FAFC         
F8F60800         
00FEF400         
F3FEF2F7         
FAFF0200         
FB04FC08         
F9FEFD01         
02FB09FE         
080003FC         
F503FBF9         
FFFBFDFD         
0803FBF4         
F1FEEB09         
01F7F6FD         
0BFCF1FB         
FBFDFBFC         
01F900FA         
120B00F4         
13010C03         
F6F008F6         
04070201         
03110904         
F5FB05F7         
01E811FE         
0102FAFA         
F70302E9         
F8FF09FB         
F9000614         
03F80902         
FD0FFEEF         
14F706FF         
02F8FA02         
FF0200F8         
FF000908         
FBFF08FE         
0B0509FA         
0FFB0A03         
05FA0008         
04F708FE         
F603FEFF         
09FC0305         
0BFEF4FC         
FB0003FA         
03F7FCFF         
F60CFBFF         
FE12FEFD         
03FF01F4         
FF06FA08         
F108FE03         
0803FCFF         
FBFDF105         
01FDF403         
FD05FFFA         
0108F403         
FCFFF6F7         
FD060404         
FF000AF4         
FDFD0DF2         
0002F307         
F90301FA         
FBFFF4FD         
ED0CF303         
11F30504         
FDEEF903         
FBFA07FB         
100A0A00         
08EB03FF         
02FCFFE9         
00E803FE         
03F808F9         
0A030602         
F303FAFA         
FCFB0005         
F802FE08         
020103F9         
04EA0508         
FAFD09E8         
FA050CFE         
02FC03F2         
F0090FF5         
010BFCFC         
FF0108FE         
F8F70504         
FFFEF904         
0BFB0B02         
07F0FB0B         
F1FCFD06         
F8F9FE0A         
F800FF08         
110902FC         
00FEFCFD         
FB04F503         
08000700         
01021BFC         
FFFFFE0A         
FFFFFC03         
FD0AFBF0         
040C000A         
08FD00F9         
02040FEC         
FD0509F6         
F00108FF         
EEFB1BFD         
F804FE06         
F9030305         
06001101         
FD0EFD07         
03F5F504         
00FDFAF8         
000AF7FD         
000705F8         
EA05FF04         
F00003FD         
00030106         
F700FB04         
F609F609         
0013F002         
FB0EF70F         
0206F80B         
FE07F802         
031F0102         
11F7FF0A         
010410FF         
08020004         
F40103FF         
FC020405         
FB07000B         
0502FD03         
FBFF00FF         
FC04FF04         
FE020604         
FDF50008         
F4F8FF04         
0203FB06         
07FFFC02         
FEFCFFFF         
06FA0205         
FE0203FF         
010100FF         
FDFBFBFE         
0000FDFD         
000102FA         
01FCFAFF         
000902FA         
06060006         
FC01FE02         
02FCFE01         
F90100FF         
00FA0AFB         
F70005FE         
F8010702         
FDFB0707         
01FF01FF         
00000506         
F7FA0001         
FF000101         
F900FE02         
02FE0702         
FD0101FD         
FB060003         
0401FF05         
05060201         
06FDFC07         
0302FBFC         
FD010604         
FD03FAF9         
01FDFEFB         
F6060601         
FEF8FEFE         
06FDFE00         
03050405         
0001FFFE         
0A02FE03         
FEFA0302         
03F9FD02         
FF03FF08         
05020204         
02FEFF04         
F3050107         
030106FE         
FE030102         
040201FE         
02FDFC04         
00FAFCFC         
FF0103FC         
0002F6FF         
02FDFFFE         
02FB0004         
01FF0004         
FF00FFFC         
FF0203FD         
00FF04FF         
FD0206FE         
02030403         
0003FDFE         
FF00FDFD         
090102FC         
03FF0101         
03FF04FD         
FA03FDF9         
06FD0402         
00FDFC00         
01FDFD00         
0204FF03         
04FEFE01         
FD030507         
0000FC04         
FF0AFCFE         
0001F700         
FEFDF6FD         
FA040603         
0004FD07         
FB05FD02         
FB04FEFE         
FEFF030A         
02020400         
02F603F8         
FE0102FE         
F7FC05FD         
FDF805FF         
FAFFFFFB         
F90404FD         
FAFE0AFC         
030002FD         
07FDFDFB         
FAF4FA09         
FAFD0404         
05F9FAFD         
01FBFA02         
020304FD         
090002FB         
03FD0AFD         
FAFD0101         
0100FF02         
04FF02FE         
030400FC         
0607F9F9         
FE0102FE         
FE0401FD         
FA0407FE         
060503FD         
FC0002F8         
FA020502         
04FFFF00         
0404FFFE         
0305FEFD         
FD0002FB         
FCFE01FB         
010B0206         
0504FD03         
FDFE0103         
00F90405         
FFFE0200         
FFFE0301         
FEFB0103         
F6FF04FE         
FEFAFC05         
FEFC0905         
02010001         
FE000303         
02FD0202         
02000104         
00FF0202         
FF08FBFF         
03020307         
0301F9FD         
FE010005         
07FFFDF9         
FD05FF01         
050BFE05         
060FFE00         
0307FD00         
06070106         
0A0101FE         
0002FBFA         
FC07FE00         
02F6F900         
FB0AFDFC         
FB05FAFD         
FA09FBFB         
0203FFFA         
FD04FAFB         
0206FF05         
07060300         
02050301         
0501FE04         
0500FCFD         
FF0304FE         
04F60203         
FEFD0002         
FDFDFEFD         
01FAF9FE         
08F7F7FC         
0503FE03         
FFFDFDFC         
03FEF7FF         
000400FC         
FDFF0301         
09FA02F9         
03FD06FD         
04020402         
080606FC         
03F9FBFC         
02030401         
FEFB01FD         
FAFD05F4         
F6020502         
0100FE00         
04F8FCFD         
06FCFD03         
02FEF506         
FDFDFA01         
03030501         
0601FFFD         
F8FA0007         
FC04FBF7         
F704FFFD         
FB0901FC         
FB04FDFF         
0300FDFB         
F5FF04FF         
FC0502FC         
0400FCF6         
00FDFCFD         
FAFD0304         
FF020404         
00FEFFF8         
F7F809F2         
F9FC0300         
06FDFDF7         
F903FC05         
FA0402F5         
08F7FEFF         
08F601F9         
FD0404FD         
00F603F9         
FEF40002         
FCF9FDFD         
0204FD02         
07FCFE00         
00FAF3FD         
FEFBFBFF         
FDFE06FD         
03F702FD         
FE06FF06         
FDFF0B00         
05FFFD02         
FE0E01F9         
F605FDFE         
04FA04FD         
FDFF00FA         
08FA07F9         
04030FF8         
FC03FBFE         
06060302         
02FF09F2         
FF01FB00         
0201FE01         
030603F9         
06FBF90A         
FE01FBFA         
0704FF03         
05FDFE01         
FDFDFE01         
FA05F3FF         
020608FE         
03050000         
FA02FE02         
03FDFC05         
04FCF604         
02FAFB0F         
FE01000C         
00FEFCFC         
0502FA00         
0A00F604         
050803F9         
0200F303         
05FA0307         
FF07FF02         
04FCFEFC         
0CFFFA03         
0F02FC03         
07F905FC         
04FF0303         
02050108         
06060500         
FD07FF01         
01FFF9FE         
00060603         
0106F8F6         
FCFBF800         
00040110         
03FCFEF8         
FEFEFE01         
0505F900         
0004F9FF         
0203FC05         
FF07000A         
FE0703FE         
0107FA00         
FA06FFFF         
020C01FC         
FF0AFE00         
FF05FBF5         
F3FC0AFF         
01000BFF         
FF0101FC         
00F90202         
090D05FD         
0607FF01         
FD0102FC         
05070700         
F604FBFF         
F3E30604         
FCFFFD04         
F3F20517         
F7FAFFFD         
FC05FF0C         
0DFC0807         
08F5EB0D         
FB1D0C0C         
090BFFF4         
FE040D02         
06F3FF06         
0BFF0AF5         
010A0EFB         
FAF41002         
FDF517F6         
070B0CE9         
F1EE0DFD         
FE1707F5         
060403E6         
FAFB010A         
F50016E3         
06F105ED         
090913EA         
F8F7FAFB         
06032003         
E5F432FD         
EE0101F9         
F308F60D         
EC18FAFE         
E501FFFF         
F4F8F70F         
100D080C         
F70EFCF7         
FCFC0B07         
020F0909         
EC14FA10         
F3F9090D         
FDF3F8EB         
14F901F3         
08FCF5FC         
040DF8E4         
0207F908         
16FDFBFC         
0107FD00         
DF05010C         
ED080504         
0AF61806         
F30006FE         
0701F306         
100600F6         
07061A06         
FB01110B         
ECFC06FA         
1A061109         
F91218FF         
0D1B0C05         
0C0C05EB         
0CF809FE         
140F01FB         
F1FC0203         
010A02F9         
0CF409FB         
F0F7F008         
0800F1FE         
FAF6010E         
09FDFB09         
05000202         
F7FF1001         
00E80004         
00FBFAF9         
FB060203         
F4FA040E         
F307160F         
FEF702FD         
01FC07FF         
F8FB1EF7         
0802EBF2         
F7EE0DF8         
FBF72400         
05EE0DED         
190E16E6         
FC0DEDFC         
FBF003F0         
00E8020C         
EF03FFF6         
FDFAFBF6         
0CE8FA0D         
08F40AEF         
EAED1109         
00DEECE5         
05000701         
EAFEF811         
EBF8F30B         
EC10FDFD         
F9110009         
0FEF000E         
F60FF9FF         
00FDEAF0         
0604F9F3         
05FAFB14         
10EE0D0E         
1319FA09         
0DF4FA04         
FC091213         
0218FE02         
F601F607         
04EDF012         
0B10F108         
FAF104F2         
F8F7F205         
06FAEF23         
FEFEFDFF         
040DE7FC         
02FEEA0B         
06FBF1FF         
F6FAECD4         
18F11304         
000B0811         
1000F4FD         
0CF01509         
FDF7FAFD         
FE00EA0D         
F4051E09         
070B0306         
0B0814F6         
FD1E0307         
07E80BFD         
0702FC06         
FDEEEF0B         
F5000500         
020A10FF         
FDFE08FB         
E9F3FC0D         
FBFB11FF         
06EC0D00         
12031F09         
00FF0609         
FFF2E4FB         
FF00FEF5         
F0E9FFF6         
E7010CEF         
13F7F9F6         
FF04F5D9         
F50E10E2         
F80FFC03         
FC03FFFE         
FB0900FB         
FD050601         
04FE0704         
FF050200         
00FE03FE         
FDFA02FB         
0601FBFA         
01FFF6F8         
07080002         
0605FA00         
00FC01FB         
EF0204F7         
F80303FC         
07F70408         
03FDFEFF         
F8FF01FD         
01FD000A         
FDFF00F8         
F908FEE7         
00060305         
08020608         
06FDFEFE         
FCFB0303         
FE0603F9         
020703FB         
F4090401         
F3060500         
F7FF01FD         
0003FC04         
0004FCFC         
0204FF07         
0401FF03         
FD0200FD         
08FDFEFC         
08050301         
FF010306         
0002FC09         
FEFD01FA         
FAFFFBEC         
0403F901         
0205FC0C         
010A0303         
0201FC02         
06F90002         
FFFC01FA         
03010B08         
0E010504         
0005FFFC         
010601FF         
10F80200         
00FF0302         
07FF02FF         
F90612FA         
FAFD0702         
FDFB05FD         
030100FC         
010AFE00         
FCFD0900         
F9FB0405         
FF030603         
05FDFE06         
00FFF900         
F8FEFAFD         
FBFBFA01         
F8FE0302         
FF0701FF         
0101FD02         
070701FD         
F9FF0200         
FBFFFBFC         
01000907         
FF040908         
05FC01FB         
02FFFC06         
FEFC0101         
05FBFD03         
07FEFB04         
020201FE         
0905FD05         
F8FCFA05         
FCF707FC         
F6F7FD01         
F90DFE0A         
F60AFD09         
FFFF0D02         
01FD0905         
FF0BF90D         
FC020004         
FBF4F403         
02F30108         
04F003FE         
FDF8FE04         
040200FB         
0AF6FCFB         
FBF3FC01         
F303FA01         
00FFFD03         
00010308         
FFFCFBFF         
FFFB00FD         
FA020A00         
050C02FE         
00040102         
FC02FB05         
03010901         
0202FDFC         
07F3FCF5         
F7F9FC00         
FF02FEFF         
0DFD03FB         
F5F70305         
040504FD         
FD0300FD         
0500FDFC         
0304F8FC         
FA000401         
F902FF04         
00FF0104         
02FB05FB         
03FF07FA         
FE01F901         
00FB0BFE         
FD0404F6         
0001FD03         
010108FF         
FA020703         
F6F4F701         
FEFB03FC         
0E0405FE         
F80304FD         
FBFCFD03         
FD000101         
0400F8FF         
00050602         
FCF60500         
FFFB0409         
FF01FFFB         
F9F60207         
FFF903FA         
FA00F9FD         
0109FCFA         
08FEFCF6         
0BEAE907         
F7F4F902         
06F6FFFA         
00F40BFF         
00F00DFF         
FA01F5F5         
F7F302F0         
F2E704F2         
FCE4FA17         
0DFF0303         
0508F4F5         
020FF1ED         
0B00F400         
02FDFE02         
FE0DF8FD         
070B00FF         
1300FBF9         
FAFFE2EA         
05FAF802         
FBFCFBF6         
FCF0F500         
F8FC0504         
F0FA03F1         
02ECF102         
FDF1FF03         
05F4FBF6         
0BF1E9DC         
FFF8FDF9         
F9F70402         
080808FE         
0DFB0406         
0BF0FC08         
0201F9F9         
02F507FB         
FFF206FF         
FB1D0C07         
0CEEF4F8         
0508F900         
FFFEFD01         
05F80703         
030A0206         
0BFBFFF4         
050008F7         
05FC0808         
16080504         
F302FC02         
FC08F802         
E70EF0EB         
EC0603F7         
FF0C06FD         
F609F8FF         
F808FAF6         
FB11FCFC         
DF20DF1F         
00F8F1FA         
FA06F6F5         
F4FC0400         
07FD0004         
FCF4FDFC         
F70EF103         
0BFBFA01         
FE0109F8         
DD0007F8         
F4F702FF         
F103FB0A         
F2FF0A03         
00FEFFFE         
F6F2FDFF         
FDFA02F8         
03F811FD         
020001F6         
17F200F4         
FF0BFCF9         
FF04F6FD         
0108F400         
FD08FCF9         
FE001207         
FF0B0418         
E804F1F0         
EBFDFE03         
D70DF70F         
10F0F6F8         
0108FA06         
F30305FC         
FD0000F4         
FCFBFBFE         
01E700F5         
00FB04FB         
FF08FCFE         
E2F2E0E5         
FBF313FC         
F9FA0DEB         
120BFEFF         
08FA06F5         
F70001F6         
0AFB03FD         
03080000         
EDFFFAF5         
05FBF708         
F10BEC0C         
0E08FB0D         
F30EF801         
0705FE0F         
0401F602         
0CF4EFFF         
080D0613         
07FFF805         
02FE04EB         
FAFDFA10         
0DFB03FD         
FDEF20F8         
02030002         
10F602FB         
FEF709FC         
04F3F70A         
FF020205         
F1F918FA         
0AF2F702         
F80104FF         
02F80708         
16F5EDF3         
FBF60101         
FFF3FE05         
09F6F605         
0BF60206         
F8E3F915         
FCFDFC01         
09FC05FC         
0A0F08FE         
FC00F6F8         
F4FA0BF1         
FB0D0FEE         
0DF903EF         
FDFB05EE         
F51802ED         
FC08E201         
000BFF03         
01FF09E4         
0E0BF9FA         
030A02FD         
0305FFF1         
05FBFA05         
080401EE         
10FAFCE4         
02FBF908         
07120003         
01FEF7FF         
07040107         
0903FC05         
030306FF         
08120103         
0302020D         
FCF802FD         
FB020104         
F8FFFDF6         
F902F9FE         
FC010001         
FE0101FE         
0003FDF9         
FFFF0203         
03FFFE05         
00050905         
F9FD05FF         
FEFF0502         
03FB00F5         
F80105FD         
FF01FAFD         
0000FEFF         
FEFB0503         
F9FEFEFC         
010301FE         
FDFC0201         
0B02FD00         
0700FCFF         
FBFF0505         
FD07FD02         
FF030604         
FE070301         
FA0701FF         
FF02FF03         
F9FC0006         
FDFEFEF0         
07FEFBFC         
FDFE0404         
F8040E03         
03030406         
FE0508F6         
F804060C         
00FC0806         
02F8FDFD         
08FA02FB         
07FBFBFE         
00FB06FC         
F901FF04         
F4FC0101         
050205FE         
1401040B         
000002F5         
F904FEF6         
0604FFFA         
FB0DFB03         
F8FDFA05         
FB06FF02         
0EFFFF00         
04FEF309         
F300FA05         
00FB03FC         
05010301         
06FBFFF9         
0DFEFB08         
040AFA00         
FBF900F7         
04FC03FD         
FCFF0202         
000104F5         
FEF90601         
FC010100         
01FC08FF         
04010303         
FBFAF903         
FDFCFE03         
F9FD0606         
00010208         
040AFEFB         
FCFCFD01         
FB0202FE         
FB0D06F8         
000708FF         
FBFDFE04         
010306FF         
FCF6FF06         
FEFAFF00         
01FBFFF6         
F8FCFBFD         
FE02FF06         
F502FC04         
03FEF4FD         
010302FD         
EEFC04FB         
F900FF03         
01FDFE01         
05FAFB0A         
01FF0502         
FFFA0205         
0AFBFFFB         
0200FFFA         
01FFFAFF         
00F801FF         
02FD02FF         
FC00FEFF         
FAFE04FA         
03FEFBFF         
0400FCFA         
F3080403         
F5FA04FF         
060403FD         
020602FB         
FEFC00FF         
08F50600         
0BFEFFFC         
0400FCFB         
0AFE05FD         
0105F7FF         
05FDFA08         
080001FF         
07FFF0FB         
FFFCFF04         
04010109         
FDFDF5FC         
01FCF702         
02FC06FE         
0A0205FD         
FB000000         
0204FB00         
06FD0B05         
02FF0300         
02F70202         
FCF90304         
FFFE0104         
090304FC         
02FB0AF6         
020105F8         
FEFB06FF         
FCFB02FE         
00010400         
FDFA00FD         
020AFDFE         
FB050206         
0AD80815         
FDE500FF         
F8FA01F1         
FB010302         
FCF906F3         
01050800         
FDF100FF         
05EF04FD         
00ECF9EC         
0AFA06F2         
0C080202         
FF090DFC         
040502F8         
06FD0301         
04F905FE         
09FC0FF4         
00EE0AFE         
FB021105         
F80DF9E8         
F600FBF8         
0217FDFF         
FD0F0806         
F8FF0AFE         
090D05EF         
0009FCF9         
05FFEFF5         
F10FF5FF         
F2FD00FB         
06F406FA         
13FD030B         
ECFCF5F8         
03F5F7FA         
0AFD04FD         
EEFD06FB         
04FC00FF         
10120005         
02F8FB02         
F5EFF00C         
0104ECF9         
FA02070D         
F9FD0609         
FA0102F5         
0BF7FC02         
0203F4FF         
09FAF6FD         
02E7FDF2         
F60706F5         
0305F1F4         
F8EA0103         
0904070C         
0005F1F5         
FCFDF60F         
F805EEFC         
E512E7FB         
F408E705         
FAF8F9F0         
F601EBFD         
FBF6F2FE         
F903F9FA         
F8FDFBF1         
F1FBF704         
F90AFAF7         
FD08F800         
F7090B08         
FEF7F90B         
02F31504         
FCFAF8FF         
000207FC         
0D040AF5         
110604F4         
070109FC         
F70E08FA         
16F6EF06         
0AFC0001         
1012FD03         
02F80A0A         
01F40903         
0403FEFB         
17FDF50D         
FAFCF301         
1BF80204         
F2FCF00C         
F501FE07         
FBFDF1F2         
FFFDFCFA         
0C0BF5FA         
FE03F305         
FDF7F306         
0813F9F9         
0106EF00         
0FF40EFD         
0FF9FFF1         
07F70BF5         
FEFAFDFF         
09F6FBF3         
0400F308         
F8F80810         
020EF811         
06FF0408         
F7FF09FF         
F306FCF6         
FCFD0201         
0D05010F         
F40D010B         
0008FBFB         
0CF6FA03         
FA0AF905         
07FEF8FA         
04FC01F3         
FE0DFEFC         
EB170AFD         
F3F8FE04         
0BFDFA06         
0008F5FE         
FC0FF806         
FD05FB01         
0913F318         
0EFB0C0C         
ED05FF06         
F6FDF103         
0DF90305         
07FDFFFF         
01F8F905         
06F70909         
FAF70105         
04EF0FF5         
FA160FF6         
030B03F6         
00FC09FA         
0802F9F6         
05FCF7F9         
01010AF9         
F904F107         
F6FEF709         
0EF811FB         
0AFFFE08         
0200FDFE         
080B05F4         
FD03F703         
FDFAFE0A         
01050201         
03FDF013         
FFFEFD0F         
FB00FE11         
FDE804FE         
FEFBFAFE         
08FF00FE         
FDFBFB02         
01000304         
FF000604         
F9F5F7FD         
00F5FBFD         
FDF5FF01         
F20BFAFA         
FA0F04F3         
FE0708FA         
000200FE         
FBF9FE03         
000606F4         
FCFF0304         
F8FB08F6         
F801FBFC         
00020108         
FCF3000E         
09EFF901         
0308FCFE         
03FA0DFD         
03F90201         
F60700F5         
05F900F9         
03FD04FA         
ED040D05         
04060105         
0608FEF4         
F9FD07FB         
030400FB         
FFFC07FE         
FE0006F6         
FB02FA07         
05060308         
F8F802FC         
FAFD0800         
06010109         
0BF9F9FE         
04FCFC06         
020501F8         
0DFA0105         
0E0300FE         
0410F9FB         
F5F5FDF0         
FC00FAF6         
00F7EF00         
F7FEFFFC         
FAFBFDFA         
F703FD04         
FB010107         
FB090BF9         
F5FE0107         
06FDF302         
0100F5FC         
0601FD01         
FC04F7F9         
FB01F9F8         
09F9FCFE         
FBF7FDFD         
F6FB03FE         
010DFFF9         
05030600         
07F80B02         
01FB0808         
00F6FA02         
060301FC         
04FCFBF3         
FC0203FE         
090308FD         
0202FAFA         
FF02FF07         
FC0C00FE         
F80004FF         
02F8FAFD         
05F9FC07         
F7020100         
0702090C         
FA0600FD         
FCF8FF04         
F70300F3         
040300FB         
080518F0         
F90101F2         
F909F2FE         
F909F102         
FA0E0CF1         
000303FF         
F503E410         
08070500         
090007F2         
08040F05         
03FB0609         
FBFFFFFF         
FFFBFE03         
02F8F10B         
FE02F1FC         
02FFF1FB         
FFF8F906         
FE0CFDF8         
0603FCFC         
07FBFB02         
0000FEFD         
F8FAFCFE         
17F6F7FE         
FCFDF803         
F9060FF5         
0B0B00F0         
FA0302FA         
FA0907FE         
0BF707FF         
03FD0501         
FB0204FE         
030A0112         
F504F807         
FDFDFCFF         
FFFE0211         
FE04F5FB         
F9FD02FF         
FFFAF6F6         
FEFE02F7         
FAE9FEF4         
09EFFBF7         
02E6F901         
F8CAF9F3         
01090801         
FFFB00FB         
03010002         
FD0AFBF6         
01FE02FD         
07F8F3FE         
020CFDFA         
0805FDF4         
04FD01FF         
FE000AFE         
FE05FEFE         
FDFE0AFB         
03F90704         
FCF70008         
FEFA0AFE         
0C02FC09         
08FFFE03         
0B0412FB         
FE06FF02         
0300FDFE         
040601FD         
030200FE         
FA00FE07         
010402FE         
07FEFDFC         
09070104         
00FA00FC         
00FA00FA         
04FBFD00         
0506FD01         
06FCFCFA         
F9FCFDF7         
FC00FC01         
0606FDFE         
0706FA09         
04FE04FF         
FF01FBF8         
FF0505FA         
F903FF05         
0104FDF8         
06020403         
0106FD03         
FDFC0507         
F802FDF5         
F7FDFC07         
FA0202FF         
FCF704FC         
0103FDFD         
FBFEFDFE         
05000600         
0205F9F9         
FD0201FE         
FF01FF05         
05080001         
00F8FFFE         
0002FCFF         
FEFAFC09         
0402FEFC         
07040005         
04FFFA0A         
FC0509FE         
01FE0903         
02FD0004         
04F8FFF6         
FFFCFEFA         
FC01FA04         
FBF6FEF9         
FEFDFE00         
020000FF         
06FFFF01         
FD020101         
060900FF         
FAFEFA01         
FB03FE02         
05FF020C         
FE01FD05         
F7010604         
F7F80200         
FDFCFD04         
0105FF00         
FC04F7FD         
04FC0508         
FFFC00FC         
00FC0903         
FEF800FB         
02FA0001         
040305FE         
01FDFF00         
FFFFF9FD         
FAF901FD         
FC020002         
FF0304FC         
FD07FF02         
FE02FEFA         
FFFC0402         
03FD0B02         
FB01F902         
0100FFFD         
0AF90200         
FC07F801         
04FEFBFF         
FEFBFD0E         
FD06FE03         
0502FE01         
FDFA0102         
FCFAFFFE         
00FB01FD         
01FDFDFE         
FB010A01         
030606FA         
FE0DFFFF         
FAFA0101         
F8F902FC         
08F8FEF9         
FF010405         
0304F900         
0000FD05         
010501FE         
FEFEFEFE         
0500FEFF         
0203FEFB         
060BFE00         
FE0403FE         
02040701         
02060900         
04FB04FE         
00050005         
0302FB02         
03060208         
F8FFFC03         
FC0204FF         
00000508         
FE02FC03         
0202FB01         
06010104         
FEFDF804         
FBFD0102         
00030301         
0201F9FE         
0904FEFF         
00030205         
02020205         
00FEFAF9         
F900FBFF         
02020004         
F900FC03         
FFFC0301         
FC000102         
0B020000         
00FA0506         
01FBFBFC         
02010401         
02040302         
0006FF0A         
F8030000         
FF03FD05         
0306FA05         
FEFD0504         
0200FF05         
FF01F901         
040A0103         
0205FE05         
F30C01FE         
060A04FA         
FC06FB0B         
03F5F900         
09120D09         
FC01FD01         
F50708F0         
FA0E00FD         
020FF80B         
0A010008         
0307FBF9         
070F0409         
0E0003FC         
040C0206         
FD04F4FF         
10FC090C         
F3030008         
FCFF0902         
FC07F905         
FD0107FB         
08FDFDFD         
F108FD02         
FF0200F9         
05FEFE00         
F811FB06         
F9FFFC02         
FB01FB0A         
01FB01FD         
03040C0C         
08F901FC         
FB03FDFC         
FD03F7FA         
0A030002         
0407F0FA         
05F70602         
F70EFB07         
0CFCFC0B         
00010500         
0FFDF8FE         
04F9FEFC         
01FFFEFC         
FF04F3F7         
0CF6F9FF         
090103EE         
12FBECF6         
05F0F60A         
EEF9FFFB         
F8FBFBFC         
FFFBFA0E         
F5FEF9FD         
FA00F7F3         
F901FB09         
FB04FCFB         
06F8EEF4         
03FFFEFA         
010AF005         
0808EA0D         
F90502F5         
0609FAFF         
01050004         
090A0BF9         
F4FF0404         
FA0506F2         
02F4EB04         
04E9FA0B         
FFEBF0F3         
FDFBFC01         
FCF1F901         
09FAFCFC         
01FAF905         
0005F80B         
0300FAFF         
0FF20401         
05F40EFA         
0EFC1100         
07010609         
030AFF00         
FD0CF709         
03010701         
F705040B         
0C0AFF05         
F8FEF3EE         
FD0103F2         
080017EE         
F5FB03F9         
F8FFF2FA         
080B0BFA         
0CFF03EF         
FEF908EF         
FFFF0DEA         
FEE2010A         
FCF7F9FE         
00F508FD         
01F90703         
0306FC03         
FEFFFB06         
00F90C0F         
F701FF0B         
FA040EFE         
06F9F7FC         
0A03FA01         
030DFA0C         
F900F8F8         
F5050903         
FCF8F406         
0D08F104         
09F5FAFE         
00F8FD0D         
F9F000FF         
F404FCFA         
02FBF909         
FA02FA04         
05030608         
0C02F9F9         
05060611         
FF0601FF         
FF040100         
FBF90B00         
F3020102         
F3FFF308         
F3FCFDFC         
0305FEF9         
F202FA04         
0200FCFE         
00040101         
0101F806         
FB0C02D7         
FA0507EC         
FFFDFF01         
FE03FB03         
030802F4         
040103FF         
FFF9FDFF         
FF02FEFD         
08FE02FC         
EBFB0702         
FAFE06FE         
F7010D08         
F505FFFC         
F502080A         
F8FD04FB         
0B070300         
F0030308         
FB07F907         
07FA0A0A         
030EFD04         
FAFAF706         
03FB0401         
06FF0203         
F5070201         
F9F90805         
FAF60C04         
05F4FF0F         
F8030304         
0901010E         
00F40208         
FBEE0401         
09F4FF11         
FF0404FE         
FA0003FF         
F40C0BFD         
FDF8FE0D         
F3000304         
F5020614         
F3110F06         
04FE0D09         
FFF8FCED         
F90A0604         
F700FF00         
EEFEFF10         
FC06050C         
FB010405         
F4FA04FC         
EFFCF208         
FE06060A         
FEF8FAFE         
0607F9FF         
03080400         
FD0607FD         
FBFEFFFA         
FDFB07F3         
050400F0         
07FEFFEA         
FC020900         
00010807         
00FAEF04         
EFFE10F4         
FBFE05FC         
FF05FF03         
16F305FE         
08F30DF9         
09FE10F2         
FFFB07FB         
02031001         
08050901         
12FDFFFF         
110A0204         
0BFC09FB         
0703FDFC         
00F7FEFF         
0504F9F3         
05FE0A05         
F7FA0700         
0106FBFB         
0600E701         
FBFBF10A         
09FDF104         
FA0702FE         
00020CFE         
0301020A         
FE02FCF8         
070408FB         
F9FFFE0B         
FEFCF9EF         
000502F5         
0900FEFB         
03FFFF0A         
01FEF309         
0601F702         
05F8F20B         
FE020703         
08FF0505         
13FDFD02         
FF08FBEE         
0D00FA07         
F8FCFD01         
F0EDF613         
EDF40016         
00F10207         
0B020201         
F8020802         
FCEAFE0A         
04F8F705         
02F30008         
F00B0602         
F90903FC         
EDF8F9FA         
0DFA03F4         
06F8FEFF         
F8FEFEFE         
FBFB02EB         
010209F6         
F9FF09FB         
FE0203FC         
0B0F04FE         
00050FEB         
FA08FAFB         
02FCF4FF         
09F4FBFC         
F808FC01         
FD080400         
FF060BFC         
F804FFFD         
01FEF602         
0605020B         
FF05F9FF         
00000107         
0CFE0809         
FB090503         
0C0101FE         
0D070402         
02FA05FD         
0FFD02F9         
FF070000         
FE0001F1         
FAF90108         
F60C0008         
030308FD         
09010703         
06000507         
0503010B         
06FFFC0E         
0007FE05         
07FEFFFD         
0102FEFF         
F806FCFA         
04F70408         
F4F9FCFB         
FDFFFB02         
F9FF03F1         
FFF706F6         
F5FEF7F9         
FAFFF703         
EE04FFF6         
FE09F8FF         
F8FD0203         
0106F8FB         
F302F604         
01FD0006         
02F5FBFE         
05F501FD         
07FE040B         
0FF50307         
01FE0201         
FFFB00FF         
07010002         
FEF600FB         
FF01FE01         
FD03FAFB         
FC02FFFF         
FBF9FD09         
0402FF05         
FCFF0507         
02FA03FA         
020000FB         
03FE0400         
F804FAF7         
FC00FDFB         
FEFDF6F5         
010205FF         
FCFEFE02         
FBFCFB02         
0005FD00         
FB01FD04         
FCFCFDFE         
FE0206FC         
050601FF         
01060704         
FE0104FD         
01FBFE03         
03040603         
01FBFF01         
0006FF04         
04FE06FD         
FEFFFFFB         
FE0104FF         
F7FF03F8         
030400FA         
00020002         
02FB03FE         
FC0301FB         
FF0602FF         
05FE0902         
04FA05FD         
04F804FD         
F700FDFB         
F90105FD         
04000701         
FF05F700         
FEFD00FF         
09FC01FB         
0203FCFD         
00F8F202         
F900FAF7         
FEFDFD01         
07FDFB05         
04000300         
0505FF00         
02FCFE00         
00FAFBFD         
0102F5F9         
FBFF03FB         
FF030400         
0202FFFE         
FF02FE07         
FD00FC03         
01FF06FF         
02FDFC05         
FF05F8FF         
FF0306FE         
02060004         
0903FF01         
FD04FF08         
0200FF04         
FE000902         
FF020004         
04FE0003         
0303FF00         
00FD0700         
01F9FB07         
0500FE00         
FAFD04F7         
FDFEFFFF         
F9090200         
FA0200FE         
FF060103         
05030305         
090203F9         
FBFD0804         
020B05FA         
FB0206F7         
FE030A00         
00FD0501         
FB0202FC         
FB0A09FF         
020B0800         
FBFC0206         
FB00FF04         
01F100F3         
FEFBF302         
FFF70102         
05FFFFFD         
05FC03F9         
05FFFEFA         
06010102         
0506FDFB         
FE00F506         
FAFEFF06         
F8FC05FD         
0401FE08         
040311FF         
08050201         
FC010102         
FBFA0903         
0109FF01         
04FC03FD         
0603FDFC         
FE05FBFB         
0603FCF9         
0100F900         
02FAFBFE         
03FA0200         
05040AFD         
02FE03FE         
01FE0101         
08FDFBFB         
FFF60103         
030405FF         
0205FD01         
FBFFFEFB         
03FBFEFF         
0102FBFD         
FAFF0701         
07050203         
FCFC05FE         
FCFF02FD         
FB05FFFD         
FB110607         
0300FD03         
01090601         
0201FC00         
0005FC00         
F900F7F6         
05EFFA10         
1317FDFE         
F4FAFCF8         
02EC09F8         
06FF08FA         
FB0200F3         
FC02F8FA         
F60AEEEE         
0AF6FBF6         
FDF8FA0C         
F4F7FAFF         
FBFCFCFE         
FAFA0312         
09F80F01         
F3FB040A         
F7FEFAF4         
FA07F9F4         
02F3FD0F         
0701FBEF         
ECF6F810         
FAEEF901         
FEF9FAED         
F8F5F4E5         
15F8F909         
0EFCFEFA         
0AE80CED         
F80AF6F6         
F5FBFA01         
F2FD01FC         
0005FC0B         
F8FFF5FE         
FDF11AF2         
0422F4F4         
03FE0202         
08040E03         
F1FFFB05         
F8EEF501         
F2F7F808         
F9F804F3         
00F7F908         
F00A0403         
F7F00F03         
05ED02F5         
F9040FFC         
081907FA         
FE07F40B         
E816EF0D         
F70206ED         
FD18FEF8         
0611F90B         
0A1010E4         
0EFFFAFF         
EA0DFAF8         
06140609         
0AFC00F4         
00F71FFD         
FCF81920         
DCEF0EFD         
E9F01AEB         
180D0708         
1BFB000B         
00EA1B08         
0A1E08F4         
0505FBFC         
030A0205         
04FF0903         
FB0C11F2         
EA070902         
FCF51203         
040708FD         
14010C1B         
F703F3E8         
050AFC10         
F8FDFE0B         
0306F1EC         
F602FCED         
F408E9EA         
FFF9FFFD         
04F7FE04         
F405F5FB         
05F806F9         
F6F40000         
