F3FB06FE
FDFDFCFB
FBF8FFF0
0002FBFC
FBFE0001
0A0AFFFE
0A04FCFA
F90003FD
02FFFDF7
0601FF02
FD040B07
FE05FD04
05FB0100
0CFC0204
FF04FCFE
F9FCFFF7
03010401
040303FB
FAFD0303
0307FCFE
01030000
0A020703
0AF7010B
0AFD0600
04040202
01FCFDFF
060202FF
010DFB05
02FC03FF
02FBFB00
0A010905
F7010905
06FDFE00
020802EF
FBF808F7
FEFA0402
030D0203
00FE0903
FB06FFFC
08FB0804
000701F9
FD03FE01
F8040701
01FA03FE
0206FA00
010500FA
F8F90AFC
03FE0407
00F501F6
FBF905FF
0201FFFE
05000301
FAFF0902
0002FE04
02FD00FD
FC050004
FCFB0203
FF0B0709
FBF004FA
070206FA
04F812F7
FD05FFFE
FE050204
FCFB0202
01FEFD08
0306FEFC
FA050007
06FE0307
0803FDFE
FF0C0406
FE09FF03
000C0707
FE0C0206
0BF5FD01
0302FD08
04F80903
050602FE
FEF6FD00
00030409
00FE00FC
09040704
F60A0502
FC070202
FD00FD05
FFF500FE
FE06FDFB
090FF402
FAFC08FF
02FA01FE
0004FBFD
F4FB00FF
05030400
FFFDFEF8
08FFF7FD
FE010004
FA04FAFC
FAF8FF02
05000405
FA00FF02
0403F801
0004F6FF
06F9FEF8
03010701
01FCFE00
F4FCF8F6
0007FFFF
00FBFBFD
05FAFBFB
01FEFFFD
F902FF03
08010BFF
FD04F906
0904FE02
00020502
0008FCFC
FCFFFF01
0003FDFE
0AF6FEF3
0CFD0202
0C07F8F6
03030BF7
05F3F6FC
040A050A
010508FF
FBFC0303
09FD00FD
03FD0304
06FCFAFB
FF030C07
0000FDFA
00FC0006
01FF03FC
0AFD0004
030104FE
FAF8FE02
FBFFFF09
00050000
FC020305
04020103
FB01FD01
F6FFFDF9
FB000401
0300F9FF
0103F9FD
F7F60B0E
00060301
19090003
23E20DFA
09F80B0D
12010F13
E6EEF30D
EDF9FC0A
13FF0801
DCE6F701
0006EDF3
140211FE
1411F4F1
100014F3
F9EF01FC
081FECE7
EAF0040A
F51AF208
1C08F907
01FB10F0
09021A06
1D0B0EF3
0ED402F9
E2F8F406
3D171001
100505FE
FF13031E
04FDF8F8
0600EEF7
EE0EFF08
2804E70F
F30DF002
F7FE1BEE
F6F11319
F101EB0D
0EF21CF3
FE0207DF
0B0F1DFC
FC01F7FE
0D06FFF8
06FEFAEB
F8FEF1F4
FA03FDF5
05FEEC01
F907EFF6
01F4E9FA
04F2F404
FE0AE9F7
0AE5F5FF
0206FBEE
F31003F3
00EAFAFD
FA0EFBFF
0BE2F7FA
F1F9FDF4
0AFD14ED
0A020FE8
0801F7FB
0208E804
0DF6CA03
F00FF3F2
0C06E801
04FCF10A
F5DE02EB
F7FCFF14
FCE501FF
F6DAF817
0004EE01
EC0D03E7
0805FF10
120EF8E4
F9ECFA07
F4070E14
FAF9021A
F5FCF011
F50DF306
FA0EF907
FDFBF1F7
EBF4FF0B
F6F30205
000CEAF6
EDFC14F7
F1FE08FD
0BF70700
EEFF09F4
0E1A08F9
05070202
FB0C0006
FAFFF817
07F1F705
F0221B00
F7130CE7
FB1C0D12
F4EE040A
FBEE0B06
F2FE0516
10031412
10F111F7
FD07E607
F30B1000
EE000602
090DF311
F207FA10
FEFF31FB
0B040804
19E90AEB
F90BFC05
0F090018
FEF2E90C
F8F8FB11
FFF6ECFE
F00ADFF6
05F70304
F80607F1
FBF8E7ED
05E7FE02
F6F91108
F6F706F0
0B00F513
FAFD00F7
E90DF3F3
060104FD
08F312EB
0D16F3F8
FC0407F9
EC02060D
FCE1E5F6
F806F603
ED00E1F7
12ECD903
150202F3
0DFD0CE1
0CE1F9FF
0C0EFD02
FEFFE7EF
F5FDF408
01F708FA
19F6F115
0C09F601
F8FFF614
111001FD
F009FC1D
FC15F117
0707E1FA
05090C07
FCFF1004
F8FA03FD
FEFB0504
00FA09FD
F6FD05FE
03F90305
FDFE04FF
02FFFFFA
FF03FEFA
0502F8FD
FD02FA03
FFFDF907
FAFDFD01
030302FF
FF010A0C
F60106FF
FA09FF01
0BFE0103
01F2FB03
FC00F805
00F903F9
060405FB
0401F80A
03F50203
060A0202
0801FB09
00F50808
FB01FC03
00FFFAFD
FD020B01
06020704
01FA0204
F102FC09
FCFF0AFB
FFF507FA
0602F9FA
0BF8FDFF
FDFFFD0A
0503FA05
FE070200
040AFD0D
FD03F909
F90C0109
FF06F924
FB0201FD
FB060CFA
00020A08
0206FF07
FEFB04FD
02FBFF05
FF1005FC
0306FF06
0507F90A
07FA050A
05FD0300
02FEF1FD
060603FB
FF0501FE
FF00F904
0004FCFE
FC0905FF
F8FA0603
040209FE
FB0001FA
FCFC0303
FCFFFD00
EFFDFDFB
F2FE09FD
F2FCFCF1
F3FCF6F5
F814FFFA
FAF800F5
03F8FCF9
FFFA01FF
0B00FF01
04000302
08F80A01
0C030002
09000D04
0FFA12FB
FF050904
F30300F8
FDFCFBFE
FC06FDFC
01FF00FB
FEF4F902
EDFFFAFD
FF0102FD
FEF4FEFE
08FCEFFE
F901F405
FEF901FA
01FDF401
FE00FEFD
0501FB04
04F607FC
FD0206F9
FB0003FB
08FEF7FE
05FBEE04
01F4FA06
FFF2F8FB
0AF1F301
0AF0FB06
F8F4F7FE
03F8FE05
01E80C05
08000CF8
01FF09FD
010102FC
05FF0403
01F405F7
04F801F9
040401F9
03FDFBF4
F60AF9F1
07FBFF00
0101F7FA
0804F7F9
FD02FAF5
FE03FD00
0007F9F9
0D06F803
0106F405
0504EDFE
FF07FFFC
FFFF0401
FA060B00
FFFEFF0A
0801FDFF
04F80E01
0BFFFF03
FEF80B00
0AF30AFF
0508F909
0B05FCF5
070802F8
F9FBFFFC
04FF00FD
FE070302
FF0601FD
040D04EF
F71201FD
0704FBFE
00010DFA
0303FFF3
030E08FF
FAFFE0F3
FFFB0C00
FF09FCF0
FF080702
020501FC
060206FC
F50102FD
10050EFE
0307EFFE
FF090305
060503F8
FD010204
0C06FEFB
01F409FF
FDFFFAFD
0409FCFD
1408F7FD
0408FD0B
FD0404FE
0AF50309
00FDFAFD
0AF3FCFA
03FCFDFC
FD09F7FC
F70509FF
FC00FB01
01FC0CF3
0202080E
FDFD050C
FF0208F5
04FCF5F3
F9FCFDE6
FD03F603
FCF8FB01
FC00020A
090101FF
03080301
03FCFB03
0AF8FDFB
06F90706
050BFFFB
FE010204
0EFB04F9
00F304F9
08FBF3F5
F90104FC
0400FFF9
02F9F701
F1FCFD02
01F4F6F6
030203FC
FBFAF9F4
10FCF805
FA060B00
05FEEEF7
FCFBFB00
F8FB0302
0AFE0004
0104FAFE
07F80317
FBFD0206
01080709
FA010402
F9F70BFA
0C050201
F2FEFD06
03F800FB
FD15F70A
0F02FB03
F6FE0806
0C050004
FBFF0203
06030402
FE01FB01
0B0305FF
0305FD00
06FD06FA
FFFD04FB
04FD0CFF
061003FC
00180000
F8080AFD
00040507
0001FBF4
FE11FEF6
0601FE05
FC04FDFF
F6F6F9FB
FD0A0200
06FF03FE
F3060800
0608FD01
0207F903
FDF4F800
FD0302FE
F7F7F6FC
FF00FA02
06000208
0D000E03
FF02F8FD
FEFD02F6
F70806FD
EF00FB00
F3020207
FD010100
04070605
FE040301
F9FDF801
08010006
03FE1105
00F9F7FA
01FDFAF8
FFFE0706
04FB0003
FD00FD07
041003F8
0FFE0000
FD1C0FFF
FBF91307
F8FF0302
FDFD0301
FDF0F1FB
0406FAFF
06FFF4FA
07FE05F3
0402FEFC
03F6F206
FB0402FF
F0FDF913
06FAFA00
FA03F5FE
FEFC0004
F7FCFEF6
FEFCFEFF
070FFF04
F0FE0C05
FE03F8FF
F401FCFD
F905FF05
FEF9F600
F8FD0702
0007FF06
F904F804
02FF0CFD
0603F001
FC00EFFC
020509FC
00FFF9FC
01FBF8FC
FD0200FE
0007060E
020C0600
0005FD00
F8020C00
0D040B11
F702FEFB
F9FFF40D
FCFA0A01
0D00F206
03FDFE08
0EF4F803
FEFC0506
02FDF605
FBFDFCF9
0CFC1306
060D0506
0500FD06
112904E9
0A0CF907
010BFE0D
0A0D05E7
04F700F8
FBF50301
F90EFF06
F5030308
F90802FD
F8FA0EF8
FB0303F2
F7FF00F1
03F7FFF9
F7FD02FF
020AFAFC
06F7EBFE
0307F7FF
F80DEE00
18F4FB0B
08F4F600
F9F2FA03
00090A02
030203FD
0505F906
F60F0200
FD0001FB
FE03EF02
FDF4FB03
020703F4
FAFFF8FE
FDFDF705
F60901FC
F7000806
0705FA03
1208F7FB
FD0BFD07
FCEDFBFD
0601F9EF
090703F7
FE03F9F4
01FCFAFD
F70E02FE
FDFCFFEC
FB0B03EA
F710FBF1
09FF131A
07FE0706
FF040F0E
FD0800FF
03FD06F7
060BFEF7
F90A0AF7
0FFD04F7
03F808FA
F31A0000
F2FFF906
FEF500FE
FFF2FB09
03040209
0004F802
F413F903
0609FF09
0408F10B
FF00FB11
FA0A010C
F1F90313
02F4F604
F3F8FEFC
F1FC000C
05F8030B
F6FB0402
F701F10A
F5FC0CEE
FE0002F3
FF0C02FB
F9F900F9
FAFEFCF5
01030607
0206FDFC
00FB08F9
0C060604
07F5F1F5
01F4F0FC
00F4EEEC
FEFAF802
0103F401
F40403FF
0AF8F4FF
FF05F9FC
0C08FCF7
09140D00
FEF500F9
00FB0BF8
11040BFF
F9FFF6FA
00FF01F7
110F0018
F7F90408
02E20708
0202FA03
00FF06FE
FE02FFF6
F2F7FF06
F70F03F9
F60411F7
F5F8F5F6
0B0003EF
0E0607F4
FCFDF4F8
FAFDFE08
0207F916
FD0607FD
FA0101FF
00070502
06FCF703
03FA0006
EE09FF02
FCF003FB
FAF806FE
F9F908FA
FBF90B03
FBF506FC
F9F80000
040D02EE
010706F0
F70302FC
0207F409
FAFE0903
08FD0705
FC070406
00FFFCF6
FC0E0706
FEFEFB07
F90AF5FF
FD03FB0C
0204F90E
02040804
FF070205
FA04F306
F6F8FE06
F603FA06
E8F3080F
F4FDFFFD
05010901
0300FD00
FAFF00EE
FFFF0409
0003FCFC
030000F8
FE02F9FF
090A02FC
110106FF
04F7FFF6
0CF9070E
F3F301FF
EEFE0204
00FC060D
F804FCFE
FB060402
FDF8FD12
FE00EEF9
FCFEF902
040A04FF
00FCFCFF
0A05EC06
F80503FD
01FC0504
FCFCF209
0BFA00FE
05FAF507
FDF3FC0C
0602FC00
000404FE
F700F107
080801F7
01FF04FE
0406FEFF
0F100703
FF020DF6
FD07F7FC
03F6FF0F
F0FEF90A
F9FDFE01
F9F6FDFF
EA080600
F701FD0D
04F708F6
F8040B08
F40AFE0B
04FB0BFE
02FF0201
01FC0201
FDF60B03
04EF0106
02F409FB
FDF509FF
06F50AFD
06000DFF
01FF010F
0AFDF20A
11EEFE05
09EBF609
0AF6FEFE
FCF30206
FDEA0000
F7FCF8F6
02FF0007
020AFE0E
0E0307FC
0BFF0900
FA090DFE
0A03FCFB
FCFF000B
F403F21A
F805FC0C
FA04020F
FB06F8EF
00F9FEFF
F402FA0A
050CF5F2
0601FFFC
FC0405FE
0C0F0506
03F910FF
010807FE
FC01F103
EC07EE0C
F5001110
FDF60100
FCFCEFFE
F9FDFBF9
01000DFD
FBFDF406
FCF7F601
0406FAFD
0800FEFF
04FF0105
0203FDFF
FB0BFBF2
FB0AFDFD
F806010F
FBFEF509
FB05F200
0004F802
030BFF03
000307FD
04FAFD01
F9F7FE00
04010506
FB021A01
F5FC0809
FCFB0C0C
02F8FD0F
FBF9FFFC
F8FCFC08
FA050404
00FD08FA
FFFE05FC
030A0405
0303FFFC
0206FDFC
02EDF6F6
0203F601
010BF8FC
0CFFFC03
F804FF03
FCF709FB
F9F7F7FE
0707F2FA
FDFD06F7
07010005
F9FA04F9
00F6F4FD
0907F005
01F0FE05
EE010B05
F8FA0405
F500FD07
FE13ED0D
04FEF203
0DFEFFFF
09010FFA
12F4F8FD
04F9FC04
FEFF04FB
06F308FD
000D0801
041503F8
06F6F2F6
00FB03F9
04EA1D02
08F60911
FA02F803
FE06FDFE
0707FF00
FD0308F6
FDE80814
FFFA090C
FCFA000B
FD02FF09
09FA0A08
F5FFF6FD
F3F8FD05
0CF90705
FB0D00FD
FA0D0104
0916FCFF
1100090A
08F90F0C
050707F7
0603010D
01FAFD0B
030F02F5
FCF7FCFA
01EB0704
04040311
FBF60DFD
0202FF08
FBFDF903
F7FBFB0A
FA00FB09
010B02F9
04020AF9
F0020C08
08F702FE
F908F30A
05FDFFF9
FD03FB04
F507F904
FFF8FDFE
08EFF6F4
FE0CF800
F00000FB
0B0E110F
08110301
0B06FA08
03011107
06F0FA03
0AF2F902
04020314
02FE00FF
09070103
03E616F7
FCF90A02
11EC0A0C
FCEF0103
05F70409
FEF0F807
FFE50803
F6FFFAFA
08EDF4FF
F0F8FD0B
F5FEFC01
F4010001
0202F903
0DF7FAFD
08FE0A05
F9FFFF12
FF0C0403
0008F9F8
FFF4F8F6
09FCFC0D
0009F902
02FE01F5
0AF701FA
FAFB030A
0102000D
0008FE01
F9FFFFFB
FB090502
020D0806
04000600
EF00FF01
EBFAF809
F41507F9
F90B0A02
0300F8F7
070EFBFB
13FCFB05
0AED03FB
F3F50100
1004F9F1
121802FE
F815FC01
02FDF706
111EFB04
F601EC08
0CF70200
FEFE04F9
06FEFFFB
1300FDFC
03F902FC
FAF60008
0DFAFA09
FF040D09
FF04FE09
03EDFB09
00F5FFF7
FF00EAF7
FEFDEFFE
00FCFC00
0903FE09
05040B03
110901F9
0204F4FC
FFF507FE
F7EA0B04
FEEDF605
FDF50E0B
1302E104
FD010108
0BF70BFB
06F5F3FE
0003FE07
0A05FF09
F7090D06
08060B07
FAFE0A03
FD070CFC
140300F7
070702F3
030504FC
FC07090B
FB0C0204
FA030E08
0BFA05F9
FF0AF803
0AFC0203
F7F00206
08F701FA
00FA0BFA
02F10809
FF040106
0AFA0401
0B010C01
13FBF7F7
03FA22F2
02FA03FD
0800FB16
0304F801
05F604F3
04EC0BF4
F1FC1200
FFF9FCFA
11F9F500
F705F9FD
F20700FB
0EFBF7F6
02F4F1FD
0405F9FB
FFFA000A
04FEFA01
11EE02F4
FA0912FE
FFFE09F1
FCFDF9FA
02F30509
F4FAFCE5
FE04FFF9
00090304
0B0504FC
FE020606
09FEFBF3
F7FEFF0A
08FAFEF8
FD0A03FA
08FB03FC
0604F6FD
FCFBFCF8
04FA03F3
0207FF00
F0F904CE
14FE0203
07020503
FDF5FBF6
070201F9
000DFD00
06020706
0CFC0310
FBFDFF10
01FA030B
0F0400F6
FC0CF908
F8FBF50A
00FAF404
FF0100F7
0500F414
F6100600
0AFE07FE
0B0B040E
FEFD0802
01040805
EB07FB08
F80EF7F2
FB07FC1A
F00B0305
F0FA03FD
F213F316
010900F2
E7FC08FE
FFFEFB0B
01FA030B
F8FB0211
0A050B02
FB00F708
01030109
1B050307
0207030E
05FB0A08
110505FC
01FE0904
05FB1106
FF02F106
05F7F319
0DFFE60C
050BED02
F8EDEA08
0B02F2F8
F2FBED01
07FEFA04
1307FDFC
00FEE60B
FFFF04FA
FE04F5FF
FF05FDF9
0A0F0809
FF0A0FF9
03130907
010500FA
FD02020C
000C0306
04060407
0304F1F1
06FC12F9
FEFA01FC
FC04F710
0DFE06F4
FD010A00
FB0500F3
0204000B
F308060A
F4FDFC00
FAFDF8FB
FA05FE04
FF0F0C00
FFFFF200
02060909
FD03F7FE
F8FBF407
FA0401F5
FF01FF00
F1FF03FF
EBF800F3
FAFA02FF
F3FF0500
060207FC
F6020607
EEF30101
02F5F600
FF02FF01
0BFEF607
01F9FF07
FEF6F80B
00F7F702
0607F50E
FFFEFE03
0401F90C
00EEFC0E
0BF8FE02
0201F909
F9F00501
0CF6FF01
00FBF008
F8FB0903
03100103
F603F40E
02090110
FFFC0913
01F2FB0C
F607FDF7
FFFF0605
FAFDFCFC
F4FD030F
FB05F90B
01090208
0C05070E
0003FC09
FDFC040B
0C0DFC00
0901FCFF
F703F602
1008FDFE
FE0A0605
ECFFF505
00090C03
F9F903FE
0DFA0C0A
07090206
03FE0700
04020907
001A0FF7
F60D0402
010DFF0C
F105F20A
FBFB0808
FAF504FF
FB07F1FB
FB04E9F8
FAECFEF0
FEF40703
0302F406
01FB0102
0104F7E9
0203F6F7
0000F8F7
F3FEF5F8
00FAFCFD
F30601FB
F20610FD
FC01FFE8
F50203E2
1DFB0D0E
0B05FEFE
07070908
08070800
0509FFFD
FEFE0303
05FA0605
04000405
00041003
070304F6
FBFB02F9
F0F90AF9
F8DDFFFE
05020603
03EB05FC
00F1FAF6
01010107
02F70005
F0F700F8
00EDF805
08EAFE03
FAFA0700
FDF609FF
F9FA0101
0AF80001
0EF5F805
05FC0303
0809F80A
02FC0103
F9F60102
F5FC0804
FAFFF8FB
06F90600
FB0402F6
08F3F8FA
0B03080A
FDFCFBE6
0204F1F3
020EF4E9
FBFAFAF0
0300FA00
0AFD06FE
F805F8F1
0206E8F5
0AFE0AF3
0507F3F6
09FEF500
0D09FEFF
1DF9F805
02F5FDFC
FF07F5FC
0F10F216
030AF705
0119E210
F60109FA
FC03FBF9
FA0F0F05
F4FD01FD
EF03FB04
FC0210FF
0411FD00
00020402
08001702
03F5060C
08EB0804
FEFFFF04
04FC04FC
0801FCF6
0309F507
03FD00FF
FF01FCFE
FE07010D
09FB0305
01020001
0601F904
FB0008F8
00060602
1008E9FE
000505F5
FD0A0200
0605FC08
0201FFFB
03F80405
050408F8
050D070D
04F504FC
0803FCFD
F8020C07
07FE0502
FCFF05FE
090CFA06
FF0A0609
FCF205FA
0502FBFB
02070BFA
F6FA0106
01070E00
FBFD0105
07020404
050FFDE7
FEFF08F5
000CFAFE
050D05FA
04FFFB0D
08F501F6
FF270CFB
F700FA01
FF02F6E5
FEFA040A
FCF7FD00
FEFBFB06
05FAFF05
00F905FD
FBF9FF00
05F8EF13
04F7FE03
03F9F809
00F9F4F6
0AFF02FD
03F8F8EF
040200F7
FD00FAFF
FFFCFEFD
0708FDF5
07FDFF01
F8FDFB07
F8FCFF04
FD000401
010503FF
FAFA01FB
FEF9F8FF
FD030FF6
FB0103FD
01F90100
FFFEFDF5
FBF50E05
0602FFFB
05FCFCFB
F9F500FC
FFFDF8FC
F90CF904
00F8F6F9
000CFB08
FD0FFF05
08F80508
06F80CFD
FA0800FA
05FFFA05
09F80602
000503F2
05FB12FA
000402FC
FF0003F0
FD01FAFB
0405FB04
000101FA
FC0DF4FA
000104F7
F8F3FE03
FB03F8FF
FB0004FA
0008FEFD
0605090C
FF030AFD
FE00F9FF
0B0C00F5
020905F5
FB0AFC08
010CFA03
020A0409
FEFF070C
FE0405EB
FEFBFFFB
FA020308
0DFEFDF1
FDF7FD02
FDFF04F2
F8FEFEFF
F802FA02
050601FD
FEF8F808
02FCF9FA
0505FF06
F4F8F104
FFFCF302
09FAF8FA
FF02F90B
FCFCEFFC
FEFBFEFF
01050504
FCF80500
08F511FA
08090300
0504F8FA
FAF5FFFB
18FF0816
08FA0410
011AFD03
FE0101FE
FE0700F0
07041108
01FBFF09
FCF9F7F8
FAFE08F8
F7FBEF0B
00F70104
04FC07FB
F70BF801
F6FF0505
FE0204F9
FF09F8FA
02080707
FEFB0803
0006F705
FE05FBFD
FDFD0303
00FA01F6
0BFF03FF
FC02FDF2
F6FFFFF8
ECED0EFB
EF08FBF7
0C1401FB
01FEFFFE
FC05FAF4
FF0DF0F4
01000503
0F00F9F8
0402FE05
01F40007
FCEFF801
D90A020E
07FAFB1A
FCEBE921
01F1E9FC
0500FF08
0BF70405
EC05F7F4
0EF501FD
0FF8F407
F8F9F8F7
09FEF3F8
02F6F808
0107FC05
01000707
06FB0A02
F507FA01
F40307FD
04000C0B
F30CFC0D
03FB090A
F7050317
08070614
F6FEFF13
F8FA0B10
0008F505
0B06EF00
F8F50709
060DFC17
140BF101
F4041115
F4090CF9
F6FE0DFF
F9F110FE
FE0D03F2
02011A0A
06020F0C
FB1F14F1
F70A0404
F903FAF6
F4F3FF05
E401FBF4
E8F807F9
F8F80806
E103F9FA
F1FCF8F3
09F10506
F6E704FC
01E8F6FB
F00CFD02
F9F305EE
070203F5
F9FD0706
FDFFFEFC
01F5FEF9
F7060FF9
FA05FE12
090DF8F9
17F1FEFC
170006FE
100908FD
080801FC
04EF01FF
FC0609F9
0B0C0C04
FDFA0C07
FD052302
FB0EFEFF
F40607FA
FD0413F2
14F3F103
F1060AFC
E90107F2
07FDEBF4
F00205F7
E4EFFA02
FB030DF6
04F700FE
0D0104F5
10010304
140A06FF
010808FD
0FF1F1F7
FE01FBFD
050A07FC
04E1FD0A
06F4FA07
11FE0D04
03F9010A
FDF4FFFE
0700F8F8
FDF20002
02EC02FC
02FBECF0
FBEDF1EB
01F60501
000501FA
12FB08F0
070AFB07
04FC01FF
15F608EE
05FAFBF1
FD0AFFCE
FCFAFDF6
F90606F9
FCE6F907
100BF5F7
0209FDF3
03F6F401
1B11F709
090BF503
0708F70D
F2F51007
EB0503FD
F4FD170A
060108FA
FEFDF70C
FF01110A
0D06FDFA
F801090F
13000EF9
06F10D01
0DFB0203
F2F8060A
FDF7010D
FEFA0DEF
0A0A12FA
00FBF30B
04FD0107
0201F608
F50508FE
F3050507
08050904
060405F1
0805FFF8
00040E00
060AFFF8
FC0607F9
F8FDFE02
F7F30411
010D0101
01020001
0DDA05FF
F4F703F4
F7F9FA01
09F5FF0D
FD090408
FA02F007
FCF5FC00
01F5FF03
05F7F505
F9FB07F8
FB000600
0007F406
FA000AFB
070BFDF9
0300FE14
011FFB02
05FF01FA
FDFD0705
FC160006
03F606FB
FDF60302
FE21020F
01020702
F9FA0100
FBFDFCFB
FDFC0503
F2FA0603
F9FAFA04
F8FD01F8
01030302
08FCF508
FE08F409
FAFFF80A
FEF60D09
07FCFEF5
02000BF9
02FDFE10
03FFFBF3
0502FC05
000F0A0A
000A05F9
FA090901
F6FFFF04
01FDF8FB
FDFBFEF3
EEF8FE04
FB0101FE
00F9FAF9
F4FAFD03
F5FE01F3
FF0400FF
0100F1FF
FFFBFBFB
FF13FD03
FAFF050D
FAFAF7F9
FF050807
FE07FE02
FC03FFFB
0814FD07
0E050EF4
FE000DF8
02010BFB
02F5FF03
F30704FD
0104FCF8
02FF0600
06FE06FA
050108F0
F9000EF5
F810FCF4
F501FEF6
090E02FC
08FC09FA
020501F2
F51406FC
F70B0E01
EEFFF500
FDFDFE01
0CF2F703
08FF0009
FDFA0807
0204F705
06F70202
01F900FE
05F8F4FC
FEFCF803
05F8F504
01FD01FD
FAF000F6
0500090E
0706FDFB
F70402F4
01FA0EFE
F7FE02FA
F700FFF3
0BFEEBEC
F5FAF9FD
14F9FFF5
0307FBF4
FCFBEEF7
01FF02FD
FD05F5FC
FBFFF2FD
0202F1FE
E60016FF
E80006FC
F701FA01
F707FF05
FA03FDFC
F602F300
FF060618
FF05FD13
F009F90C
E800040C
FC08FE11
F30D0900
F0060AFB
02FCFE07
0D080DF1
EB0006FE
01FEFCFD
15050BFB
0FFA0009
0203FF01
FEF70709
0801FBFE
010808FD
F9FC08F8
01F4F4FC
05040002
00F7050C
00FC08E3
1001EF04
F31615F8
F20F06F4
FE0A0101
F80B0601
FC130BED
0119F5FD
FAFFFC0A
FA14F9F0
1701FEEE
FEF504ED
FB16FEFF
0800F212
FCFA0B03
040FFD0A
100B0118
02EDFB02
0FEAEFF1
00F8090E
FFEFFA13
F90605F5
04F8FF05
F803FAF7
01F6F5F6
F914F1EF
F91DF4F4
00201509
0804FD11
ECF621F7
FAFC0005
FCF9FD02
030524F7
F8F70204
F6F31DFD
FBFF19F7
E6FBF93C
00F7F20B
F5E80F09
FAFD0312
0CF60200
02FB06FE
0DF90C0E
160F04FE
FD091701
0BFDF9F2
04F8F906
10FCF103
FC0E01F3
FD081720
1107FFFA
F30EFB00
FCFE0400
F201FA09
14F6FD07
FE02F500
FCEC0D0A
00F6FEF4
F8F2F90D
F603F6F6
FFFA10F5
03FFFA03
F20CFEF7
00E30D11
F301090D
E9030AFB
F4F60401
F2FDFA04
EEF9F8EC
F80211FD
F1040311
FAF50209
1AEDFDFB
0AF4F8F8
06FA03EF
00020904
07FE0B01
06FB10F6
02ED06F6
030401FB
FF0CFB02
FFF90407
F501FEF6
0FFA01F9
02F5F702
01EBF90D
FBF30902
FCFAF9FA
020DF800
FB05F2F4
F504E20B
03FDF2FB
FE0F03F9
04FFF103
0400F603
0301F9F9
FAFEEDFA
020D06F4
0E0401FA
17E818F1
FFED1600
FE00FCF6
07F1F6EC
02EEF010
F6FFF604
0E0CEBF8
F50AE705
ED13CC04
17F5FED5
F9FFF3F4
0E0106FD
0BFE02FF
0AF0F7FD
0B070DFE
060EFEF8
0BEFE8FB
100C0709
1602ECFE
0607F8F2
08FC0809
0EFBEE0D
090407F7
0EEB0405
1011EF16
00EF0609
FDD80603
EC09ED01
E5F70301
FA0417F5
FFF4EDFB
E40809F3
FF0009F1
0007E5F9
FBF80200
13F81302
F1ED00FF
FAF90BD5
04F308C9
020701FF
F0FBF204
F4FC0EF7
F817F800
06F2F4F7
FA00FE06
0F05FEFE
0F03F801
0502F4FB
FA041A0B
FBFFF502
05F11FFF
FBF10EFE
F80A03FF
FFFC08F9
00FC0DF9
06FA0908
ED0D0AFA
F60400F8
FD080BF9
F2FBF300
FBFFF2FB
01F7FAFE
04FEEE08
F9FDFFF8
F8090309
FB03FBF7
1109FB07
F3F0FC03
F709000A
0DF5EC01
0604FB0B
FCFCF9F7
F500FB0E
FCF71A07
F9F40711
FCF2020D
09F912F4
04030202
F8F90D00
08FBF20A
FFFCFCF8
FFFBFFFC
02FA0002
03F30709
FDF00000
F80D0400
FDFF07FD
FEF00800
04FF0101
FDF406FC
FC020400
00FFFE07
FDFD0CFE
FA06FC0C
FC170915
0102FDF6
05FEFFFB
0502FB06
01F70000
00FD05FE
FFFC1203
01F21202
01F403FB
F9F5D3ED
09FBF7F3
05FDFF08
030CEA07
03FFED09
05000804
EF04FF04
0102EFFC
0408FA0A
F3EC20FB
0BEF0102
0505F908
0900F710
07FC0505
FEFF00FC
F700FAFE
0A09FEFB
FF00FE02
F60700FF
02FAF5FF
02FAF90E
FC05FB00
FDF9F211
07F704FC
03E9FF00
0BF80BFE
FE0B00FE
040EF203
FF061105
010A0906
F906FB10
08090001
F8FCF306
0308F407
EC11FCF5
08FFF0FC
F4EAFF06
071509F6
F206FA04
01FCFB08
00090008
F8F30102
FFFF0307
00F4FD02
FE030408
F3FAFF04
0808FB0A
0700F504
01050501
0008F800
FA01FFF7
10FF0FFA
03FE02FA
F600F4F2
F4040A13
04090C04
FE0A0005
F907FE02
F5030F06
0A0CF60B
FAFBF80B
0010FF04
F9EBED00
0427F811
F4E3F6F8
02090303
FD0306F7
FC010BFF
040002F5
09EF00EF
0DF6FEEC
06FF00FB
FBFB00FC
0413F8FD
020501ED
10FA03F9
02FEF9F8
F3FFF7F9
F509F1F6
02FEFFF9
0009FF09
D7FBFC05
16F60C09
F905FC0B
0D0BFC05
0504E903
F2060A0D
FDF90E08
0BFF0301
080903E9
01F216FE
FF000BFB
030406FB
05FE030B
F80800F3
F907FF01
0C05F9FF
FAEDF904
F3FAFFFD
05F905F8
F2D00CFB
03EEF6F7
07FCFFFA
04F5FB03
F9020400
09EB09F0
1BF2040B
F7FA12FD
F3F1FA0C
04F80AFF
00030402
F8F70BF6
04FA0DFD
02FCFF10
10020A03
0C080B08
06FC05FD
0AFC0506
000A03F3
0D001307
EC05FD13
F9050613
FBFDF401
FCFDF804
F5FEF9F8
040D04FD
E4EEF802
FAFD0404
0D04FBF5
FCF9F403
FCFFF00A
F7F503F4
05F9FF01
0BF71CFC
02F003F7
000404FF
06060109
0C040FF8
FD0403F9
FD0F01FA
ED0DF90F
F0FD03FF
F0EC0DF1
FA05DC0D
FBEEF5F8
03FCFDF0
F8F9FC0F
FCF2F003
FF07F3FC
0B01FF02
06FDF909
040BEE07
05F80B01
0BF60901
FC0F0B02
0A0811EF
04FFF9F4
081E03FD
04FB0B02
F8070401
F4FAFF12
16020004
02F900FB
F7F2FF09
F401F8FF
F80001FD
FF010003
020FF7FA
FDFCFEF6
EEF90FF7
08100702
040000F1
141611F4
0C05E6FE
0103FA01
E21A13F6
000200FB
06E9F701
12F900FB
F71707FF
0BF6FA05
08FF0B0D
0DF50EF1
FAF6FCF5
08FFFDF4
FAFFFA01
FDFBF400
05E801F8
09080B00
F6F701F8
0707FB0A
08F40100
0EF7F8F7
1903FBF5
07FDEB09
F304F6FD
FB000003
0C03FAF4
FA04000C
F2F2F7F6
03FF0302
FB06F3FD
F80601FC
F1F401FC
F50700FF
F50814FC
092017F2
02111307
F00C06FE
F7F4F917
FF0BF7FD
F60A0011
F7030004
FA010DFB
F2020608
F603FA07
07FAF5FD
ECFAFEFF
F418F50D
030800F9
EE05F1F5
020E0D12
F008EE06
F506FD0F
2902FFFC
020EFC01
FD0601F4
0DFEFD00
FB0A0203
F5090A17
FB01F90C
0008FFFD
0109F30A
FAF6FB02
0111F1FF
FD04F409
0501FCF6
05F5EE00
0005DD0E
03F2F2FC
0101F2F7
0EF806FC
FAFCFAF1
0501FDF8
06F40B03
ED0DF30F
FFFD10EE
06FC0204
F80A090E
FA120906
0B0D02FB
F6090E0B
01020502
06F302F7
FDFF2501
0701030A
F5FB0FFF
FC1107F8
EA01F602
F5FAFF16
0505FAFE
09FC0BFB
08FE1207
0513FB14
05FAF0FE
070104FD
0901FB04
01E8030B
FEF9FA09
05000DFA
0B02FF04
FEF6FFF2
1604FF1B
03FB060B
020A0A0D
05F41300
0605FC0E
FA0506FC
FDF902FF
FFFF09FD
01FB0400
FA04FDEC
F3FEF90A
FA081009
050003FE
01FCF303
03FE04F7
FFFE00FC
0605FDFB
0BE9FFE7
FA0AFFF8
F2FC03F6
FE0506FB
FAF6FDF9
FDFF1AF9
00FA1B13
FFF9F9FA
0C070E06
06040F0F
FFEBFEF3
F7FE0200
06F9FA07
0CF7F8FF
00F0FE02
0508FC00
0003FEFE
09F60BFB
05FD0902
F7FF21FC
FF0807FE
F4F513FC
F800FB02
EC0615F7
03100EFB
07FC0202
FE0615FC
07060001
F5F6FA08
F109FDFE
FBFBEEF6
0200F509
F8080D03
EEF8FD01
FDFFF209
07010E06
FC010E02
FD03F305
13040EFC
0FEFFF06
0BFA0001
0005F7F4
0D0A0509
0EFAFFFC
00020B03
00FE0DFD
F8F904FA
0204EB0E
FE06F5FA
FCEE0506
12F70C0A
09FCFC08
14EF0B04
1311130D
0608F903
14F6FB12
030205FF
0BFF0CFC
17120CFF
0D18FBFB
F8240EF0
040FFE01
04290BF8
052305F9
F80AFBFD
0D14FE07
F611FAFA
03FA02F7
030D010B
FEFBF902
F80904F6
00FEFEFD
01FA07F1
F7ECFBF4
F1EFF9F4
E7EB0CF1
EFFB0009
0A0208F7
0604F5FF
F50204FB
08F10304
060105FD
F314F703
FE07F904
F9F80505
FE0AFAF5
05FF17FB
04FD0FF8
07FAFBF2
FEFF2E00
F000FFFA
050501FA
0E0403FD
0500FAEF
020706EC
0AF509FC
04F8000D
F8F60807
01EFE9FF
07FAFAFC
F80B1218
09FC0202
01F80703
F207F70A
0A0DF802
F4FFD809
F90C0B06
08021808
0A08FA19
F5010912
F4071109
0203FA04
EF09030C
FD06FC08
FE0F050D
0907FF06
0FFF00FF
01F40211
F6160115
F1F90D0C
F505FB18
02050215
FC01E30D
F207F60E
11F10108
09FAE606
02FF0503
0BF4F50F
FFFBEA0E
04040517
FEF6F9FE
07F70FFA
0CEB13F3
08FFF509
01EAFEFC
08FA10F4
F7170AF8
080DFEF5
0B06F8F8
F90D0DF6
0EF308FF
0FFF09F1
FDF900F6
05100BFD
02070906
EB030008
07F7FDFF
F8FE03F5
FD0009F2
0FFA0505
FF10FBF4
FCF8FA06
0BFF07FE
FC130101
0604F2F0
01F9F1EA
FB1C0409
0C120807
11F904FC
0C010601
01F90AFE
FDF50005
F401F903
15021608
10F80C01
110C0513
07FF04FA
050006FB
F902FDF6
0216F7FC
0E08FDFF
010912F2
02120AF5
F80402FA
0601FFF1
F60902F0
04FAF607
110F0DFA
FF03F0FA
0E00F90D
FA0BF607
06F2FFDE
0309F5EF
FE04EEF8
0D01F80B
FEFBF100
EFFC0703
01FEFC00
F300F8FE
010102F4
E80901FF
F3090004
F10C030A
FAF3FB00
F8FCFBFD
03FEFFF6
FB0701FC
01FBFD00
01EFFEF7
0C11F8F7
081404FC
FD0703FC
0DEC1303
070C06EE
0326FAF6
11000304
020802F5
FC02F7F4
0D11F709
0BFA000C
FEF80008
ECFC0304
FDFC00F1
FF0B1AFF
0301E903
0600FBF2
020311FC
130504F8
0AFF0608
19081901
05F70809
0CFA0810
FD0117FA
0CF303FB
0F040BF1
0501FF03
00FDE2FD
F115F401
ED12F4FD
0B00FFF9
02030501
F9FE0A04
FEF705F6
00F9F3FB
07F8F3FD
100003ED
03FD0103
0307F6FE
09000302
F201FEFD
0F02FAFB
FE12F609
FA09EDF5
1107FD03
FAFEFE18
000808F7
0E05FFFD
F707FF0A
FA010001
100A070D
00070206
09FF11FD
07FE0406
F0060308
FEFD07F4
00F701F6
0103050B
F3060104
0801FE14
03FB0605
F7020AF9
08FBFF0A
010C00FF
FF00F405
0207FB14
FF02FE07
F0FC0207
F1F7F606
14FC0201
040305FD
FC060001
0AF8FA07
02F60007
00FD0A03
FE060D05
13FA0300
05F90BF9
02FF0005
060205F5
F9FB07FE
020DF8F8
F70307F5
F80B0AF1
F8060211
F9FEFE00
FD00F906
0314F9F6
F0060404
F1F10FF7
0A07FF06
F2EF10F9
F5F404FE
F60808F0
07FBFEED
0A08F903
040EF8F1
FEFDF600
01FEFF04
090900F3
0001FF0A
FC0302F7
030104FD
12F408FC
060A050F
0B030A00
F50A05FE
050903FD
06081007
08FE09FE
F6FB000D
F8F802EF
FCFA05F0
FBFC01FA
FD06F4F6
010B0005
05000203
03FF04FC
F1020001
FC0901F9
06FBF8F8
F904F7FB
00F8FDFE
02FCFBFA
F00C0AFD
FFFFFFF1
030006FD
F50308FC
0200F8FF
04FE06F8
FDFDFFFD
00FC05EF
05FC05E8
F9FA01F7
08FBFDF5
EF040500
FE011401
FDF307FE
0501FFFD
FE05FEFF
0203F9FE
07E5F7FC
FF00FC07
00FC0601
0F0401FE
11F102F7
000CFBFA
1804F800
000703FF
00F504F6
09FD0B0C
04570FF8
FD2C0600
09FEFC06
090FF502
0E100801
F2FFF404
F80C00FE
FD020401
FA01FA03
F90AFF04
0108F603
0A0DFB08
02FFFF02
0C000206
0CF508FB
02F80BFB
F9040107
FBF40107
101008FE
FC0AFA0A
FA050704
01F3FCF5
04EE06F8
060302FD
070405F6
FEFA03F8
020309F3
07FC07FD
FAFFF6F9
040604F1
00FE0101
01F108FC
0506030C
FD030707
FF00FD10
03FDF802
06FCFCFD
0303FB04
000300FF
02F6FF06
FDFE0205
F800FC07
00070005
F8FEF701
F6FFFE0B
02020805
02060309
FEFB01FB
05FA0703
FFF808FE
00FEF9FE
FE05FA0C
0601FB07
F30802F0
0102FFFD
0AF3F7FC
020600FF
09000203
0AF900EC
02060CFE
02FAF2FB
FCFD020A
FDFB06F9
03F8F9FC
0001FB07
0400070E
FA000103
FEFBF514
00FE0A01
F901040A
08F20104
06090FF9
FD0302FE
08F50502
080700FB
01FC03FF
00EAFF01
FC04080B
FFFE0605
07FD080A
FE0CFF03
03F9FE02
02FBFD05
09FB15FE
F9FE0900
0200FE05
0903FC05
FDFD0404
0F0002FF
F2FAFAFF
F3FEFF02
FF080104
F503FC0D
F0030603
FB06FC01
0CFF0201
07F90202
FEFE0503
02070500
06F1FB01
04FC03F7
06F60D02
05FCFE02
0C0612F7
0A0206FC
0A01FFFB
1000FE05
05EBFAF7
00F7FC00
08F6FEFF
EE0401FD
F104FBFF
07FCF70B
FD0DFEFE
F505FB01
F8FBFC13
0301FE07
03FEFB05
02F4040C
F508FE0A
F6F9F7FF
F5FD0211
0806F7F8
010006FD
F5010B07
11F806F9
0BFA03FB
0AF90604
0006FC01
010809FF
FD0006FC
F504FF01
F402FF01
F9FFF900
F8F803FD
FDF800F8
FAFE0C01
FA07F900
F902F803
01070106
FF030904
FE00FF00
02050605
030103FE
0200FEF8
FDFAF803
1005050A
040B0C02
FD03070B
FAFFFFF4
00FCF9FE
FA0A1305
F904FFEC
000806FB
FFFB060A
090B020D
0604FF06
01FC0204
03F6FF15
07FFFD0C
FEFEFA0B
00FB0103
01FD0102
010CF500
020910FB
F70D0401
FC10FCFF
F1FAFD00
F901F40C
F1010507
00FC1002
FBF90206
E801E801
0001010E
00FEFE05
0301F9FF
0206F8F8
F8060D01
0F030206
FAFFF904
F8FBF900
080A0507
FF0C0101
FC0307FB
F607FE15
FD0101F9
FFFEF60C
080DE817
04FBF9F6
0E0A0609
04FF020E
090C02FF
04050804
0607FD06
0C0CF80E
0E070609
09050203
06FF02F0
F5F705FC
F0F803F1
F2040007
F10012FE
FDFA0803
F4FA02FE
FB03FF04
F3FC0508
08FAFE03
030A0201
010A03FA
FDF9F300
FA08FC03
FF02FFFE
03F9F9FD
050102FF
01EF05F7
06020502
0203F9FB
02FEF7F9
F4030306
01040401
000FF8FC
00FEF80D
FA0FF802
01FBFDFB
0000FA0C
FA030803
FC00FA0A
FEFEFC08
00FC0406
FCFEFFFE
F8FBF8F9
FCF9FAF3
090DF5F1
FEFA07FC
F30202F1
FC02FBF2
0CFCFBEC
FFFC00F1
F6030300
0D030A01
030A0703
FD010D0B
FBFDFC01
00050500
FB050AF4
0807FEF5
08000006
020410FE
FBFD00FE
F7000103
F6FA06F2
00090107
09FFFD07
07F101F7
FB0BFE00
FB06FAF7
F702FEFF
FEFC05FF
F6FD06F4
F3FF0604
00FE0004
08FF04FF
FA04F902
03FB06F9
FAF8FEFE
F9020400
FB090200
FE0108FD
06060905
EF0500F7
05FD0AF8
0202FFEA
FC0602FF
06070607
0A1105FA
04FDF7F2
FFFAF5FA
0BFEFCED
03F0FD02
03F7EEF6
FEFAFF03
04FE00FA
FFFEFCFF
0F00FBFA
08FC0002
04010EF4
0802FEF4
0F020200
FD03FAFC
00F50102
060E02FA
03EE0209
000BF603
0CFAFF07
05FEFE03
070413F7
01F7F3FC
FE0202F6
0BF714FA
06FA00F5
08F806FB
1EF9F8FD
0100F90A
FCFC01F6
0001F60A
05FAF703
0202FAF7
FC02F8FA
FEFEF1FB
020507FA
04FF02F7
0E00FCF8
F311FA05
F80CFBE7
0BF1FBE7
F70D04F9
0FFB0EEF
1008F9DF
10F5FBF4
0CFFF0F7
0802F7EE
FDFDFEF5
1808F6FB
F6ECF812
03F7F2F6
02F302FF
0BFEFC13
F902FAFF
01FDFF06
F4F5E304
FE07F7FF
03FC0BF4
EEEFF902
14170DFC
F2F9FBFC
F3F4FFFD
F7E7FBF0
010BF7F6
FC0A0E05
05020A0C
ED0C02FF
141702FB
F805F902
0CFFF80A
0306FE03
00FD0CF8
F603FFFF
FFFD090E
090AFE11
FA10F904
16F4FBFC
05F40603
EFF4FC00
0AF9FF03
FAF9F801
05170C07
080301FA
03FC05FF
09F90FF9
08220006
05F40212
04FF090E
041103FD
03040E0B
FA0212FA
FE03FD00
0202F3F6
FC0E0002
0616F405
03FE220D
01F91511
0610FB0B
FA0103F7
FD041DED
FCF3FD05
0BFEF5FE
0504F30C
16FBFAFE
FC02F807
EE16F5FD
1302F0FF
FB00F5FD
0917F7FF
080C0F15
070F0303
0F0AFFFB
01F81717
0FF50A04
FFFDFAF3
01011111
FD1406FA
03130500
0706FA0E
0D0D00FA
1409FB01
06F5FEFD
00FF0F18
F3061302
FDFEF918
EFFDFD05
0605E805
F8FEF901
E5FB13F6
F2F608FF
E5EDFA15
1AF2F8FC
0DEEF611
FD02F7F0
060B0B05
F30CFDFA
090BF8F9
0206F5F5
02FBECF7
1003F801
11F609FE
F409F6F6
FBFA0FEA
02FFF505
F5F4FFFE
04020F09
0004FFFE
07051008
F80F0506
F2FF0306
FC05FFFB
0310050C
060505FB
04FF0AFE
0A0103FA
15050BEC
FA07FA01
14FFF404
13FE06EF
FE071AFD
0809E9FB
0AFA040A
0CF9000B
06FBF7FD
F8F50F15
FDF4FC0F
07F90611
09E5FFFD
FFFE02F3
020B0204
FBF404FA
FF07F200
04F20509
07EE0106
0A010B06
FDF5F7FF
1808FB02
04091D00
FE03EAF0
F2FF06FD
FC020408
000406FE
01001700
FFFD0902
0802F702
FB030805
F506FF02
F308F606
010AFE01
00FE0AFE
F70C0B03
F903F9F9
FF08FCF9
FCFD07F3
FEFEFCFF
09F9FCFB
030000F7
07F904FC
0BF9FD0F
030FFF08
F6FFFD01
F8FC0DF6
FC0DFDFE
FE04F5FB
FB0003F2
FA06FDFB
0506FF01
FE0205F7
E2F806EE
FF01FF04
0109F6F6
0BFEFFF2
02000A0E
00FEF5F7
0AF4FAFD
0200010A
01F803F5
0D040E08
0800F9FE
03FFF903
08FFFC01
FBFA02FC
00F901FD
F801F9F8
01FF0BFE
00030DFB
ECFEFFFA
F500F9FE
0BFDF508
01FEFBF4
FF0801F0
11070208
1700F9FF
0DF4F8F7
FBF2FD02
040E03F6
02000CFE
050504F9
030AFFF6
FD0508F7
0FF6FB0B
0703FEF3
F9FB0CF4
0C08FF02
FFF404FE
0402080D
FEE9070D
F5F70602
FB04FE0D
FBFE0801
F3050303
FCFDFC0B
02F9F6FE
FAF107FD
01FD0505
F8FEF7FE
01F50501
080C0AFE
F9FA06FC
F006FF0B
F0F7FFF6
EE0300F5
040A0301
FE0505FA
17FCFF04
08FBF303
00FC00FC
150AFF0E
00F8FC06
FC0106FE
FD010010
041C0C05
FC0405FD
FC0CFB0B
FB0908FC
07F7FFFF
02FE0003
060B0200
FE0204FF
04FC060A
FA01E8F9
F50001F8
0D0A070B
0106FA05
00FFFB04
F90BFC09
04020D05
05FF0B00
F514DA08
FAFF0B15
F60CF80F
FB0A030F
FF0A0B07
040EFE0B
08000A0E
F1020902
01010507
FBFB070D
F4000FFA
02E60D03
02FA0108
EEFA0909
04E7F4FD
FE16F405
0502F7FE
06E008F5
021E08FA
FCFF0308
F801FA01
F90407FF
FAF503FD
0003F5FC
04FE00F4
F7F60400
09F8FE07
08FC07FA
0308FD07
FEFDFD0E
0308F7EB
F60A0AF6
F9FBF800
FFFDF9FF
090F05EB
0703FFF4
F904F50D
ED060308
03030B03
0907000A
F9FA0100
0201FEFD
00000BFF
020104FE
FEFFF9FD
0AF60402
EFEC0A00
FAFF0205
F8FCF8F9
E5E10AFE
FD0404FD
EBF7FCFF
E6ED07FA
F9FE0003
F3F70211
1100FD09
FBF60208
0FF1FD06
00010BFC
F606FFF8
0BF8FD06
1409140A
07050003
080105FC
090DFAF8
0BFDF400
000201FC
0D1105F1
05FCFBF7
FFFD05F4
F81D09F7
FAF70301
F404FCF9
F8020DF6
FAFE04FD
FAFC07F4
F60003FC
FF020703
F9FF02FD
03FBF107
FA02FEFD
0AFDFBFA
FDFBFE06
03FFF401
0C0CF2F9
FEFC0405
FFFA01F6
FD04FEFF
040BFF10
04020702
F602F911
0302FAF7
FBFA0202
F7FD00FC
0801FE09
FC020602
01FD0DFA
02FE0007
010604FC
0005FF04
01F8FEF3
03FD01F8
FCFE01F4
F5F901EF
F301FBF5
F702FA01
FB06FAF5
FB05F8FF
F707FDFD
0603FE0A
060CFC04
FFFDF9FD
0AFC01FE
020508F9
05FA05FB
FE0004F9
FBFA04FA
05F40BF9
F900F907
F7FF0001
F303FF04
FAFFFCFA
010D0301
FA05FF09
FA02E9F1
0400F707
FBF9F703
04020B04
0900FF03
07020703
F7FA0100
F804020B
0505FFFC
01030119
02020502
F7FC0204
F4020BF5
05FA09F8
020604FE
FA05FCF8
01FEF7F9
FC060302
FC080FFF
01FB01FA
04FCFBFC
F503FDFD
F90BF401
F30508F3
ED03F7FB
0009F7FA
FEF8FD07
0404F3FA
0103F9F6
040600FE
FEFB0BFA
000007FD
0010050C
06FB00FB
FA030305
020DFBF5
00FFF512
0103F209
020504FA
01F5F4FF
FB06F902
FFFE04FC
07F5FB01
05F20400
04FDFBFF
05F0FBF6
0DF80201
15FEFCFF
F702FE0B
FBFDF7FE
FFFFF0FC
000503F9
01030300
00FD0804
0801FDDC
07FF02F7
01FD0106
FAEFFDFA
F50104FD
F2FCF7FB
EC0400FC
F311FAF7
F6060B00
F7FEEFEB
00F6F5F0
FD0CFF05
FFF5F4F5
07F7F3FB
E9FCF5F5
F6FA1101
F80102FD
FE0A0AFE
F8030609
FD0A0603
FE0D0101
FB01F906
FF01F902
0705EE05
FD08FC01
06F8F407
0BF9030D
00FF0A00
FAFB0D01
02000604
F6090BFF
F0FD09F6
FCF7FBF0
06020004
0A0214FE
FB01FEFB
1709FEF6
07FB00EC
00FAF9ED
F7FF0011
FEFA0310
FEFFF50E
0207000C
000A01F1
05FEF90F
05010A14
F40CF114
0403FE25
060DF801
0F06EA19
0FF9EAFF
F7060306
FA0BFFFE
EEF101FD
0206FB03
FBFE07F4
08F1FE08
1800EFFE
08FE03F7
0B0BF205
0A0D01FE
0502F2EE
0500FE05
0B0BFC02
0E00F2FE
020510FD
F7F6070D
FB0804FF
FEFB0F06
05F7FAFF
EE05040C
06F8FE0F
FA010004
FBFDFB04
F107F90A
09EF0701
0D040101
FCF8ECFE
00E904FD
0BFD0002
06F9FD00
F7F6FBF9
FBF907F2
04F70CF3
FD09FE0A
EFF8FA0B
140EFB05
04F108F4
10F101FB
10F6FEF5
EFF7FAF7
FDFE0C01
FAF5FEFA
0102FF0E
07FF0308
07FA0113
FB03FB09
FC070103
02FA0703
F600FF10
F207000E
F6FE0310
FB0CFDFC
0905EBFB
04F705F2
050A0EFA
0503F6FE
020D02F7
F701E900
FFFFF004
05101804
0909F205
04FBF60B
04F60819
FD0306F8
080201FA
0D0904F6
01020A08
FBFDFB06
0506F501
14F801FF
0E02F801
FE03FE0B
0CF8FE0A
FE0DFDF0
FF0AF903
02F9FDF6
F312050C
EEF6FBFD
16FEF801
08060102
07020207
0702FE07
0C010506
EAF4FEF8
00F704FF
FF010CFE
FCFE13FE
F1F6FCF3
FD03F4E7
FCFC01ED
FB05050E
06F9FF07
FEFD0807
F9010112
F60A070F
EC0F020C
140906F6
0401FFF3
0204FFE1
0E01FFF7
F7000400
FC0100F1
030CF8EB
FF04FF03
01000DE8
05FFFEF7
02FF09FB
140003FE
F6F6F603
01FD0405
FFFB03F5
040F08FC
FF0804FB
F406FC11
F706F50C
FF01030B
1016EE06
08F705F6
0903FE08
050F0309
06FEF203
FFFB0605
FE0006F1
E7012004
F0010D04
F8F50809
FC0C06FF
F7FFFF0D
01FC0B0A
01F5FC0D
02090807
02EE09FB
0208FC09
0617FC06
E8FE0913
03FEF5F9
0A040104
EAF50207
11F303FF
FAF2FD05
F1FA0C0A
09010701
F8FF13FA
10E106F9
02FE0D04
F303090A
F8F1FD00
FC0710FD
050D0BFE
F4EFFDF3
F9FE0610
09E7F608
FEFA0A0F
03FD06F6
FCF409EE
FC000B04
03071302
F9090305
F4FE090C
0BFD0804
FC020815
090EFEF8
F8010306
FAFA0304
040AF5FD
0CFAFA0A
09FA03F7
F912F908
FAFE0709
08FD0901
07010218
06050402
F912F9FE
00F40AFF
F501040D
0C0104FD
16060C09
0F0DF904
0F09FFF7
18F80504
F8F90205
FCFA03F8
04E1F70C
EFFBFB02
F706F803
06F3F412
0CFF0A05
00FAF904
04F6080C
ED0A0AFA
F0FC0200
FDEB05FD
0E030704
06FCFB06
0707110E
0702F6FF
FC09F0FA
F40203FD
0AFC0308
02FB0C0E
08FD0EFB
F908FBFB
F61305FB
FFFC0304
F7FE0CFA
F707FA0A
FF0B0901
060DF8F5
FBFCFDFC
FE0308FC
000E07FC
0A0A0CF7
0213FDFD
050FFFF5
FD08EFF3
F9FD00F8
013304F5
F7160F04
EA060104
130EF3FB
FD030407
FF09EE06
03FE0EF1
FFFA06F5
0A0F1E0B
E6FDFE0F
FCF3070A
FC090811
0C05FEF6
010106F7
02060608
FB030200
05F70505
FDFEFB00
08FCFE08
0003FEFA
FA11E704
F4070CFF
FD0D0504
0811E6FE
F6010C09
020F0602
FA03FD0E
FEFC09FE
03F6FE05
FAFBF5F4
F7F3FEFC
FFF301F4
FBFFFF0A
03FB02FE
F1FBFCFE
E816F70E
04F90CFB
EA070301
E508FAF2
FDEE070F
F9FEFF0A
DAF8F9F3
FFFBFFF9
F606FC02
0B00061B
0404F8FC
F90405FE
0005070F
0A0A03F2
09021004
0A0A1110
1015FDF6
080BEF01
070AF3E7
0805FEF0
10FBFB04
F6E9FD07
0613FA04
FF09FCF4
02F707EA
FCFF0FFC
F1050BFE
F9F809FC
04FCFF01
F9010302
FEF8FE00
0CF9F7FD
03F70006
0102E905
01FD0406
01F90103
1104E8F1
F7070C07
FBFA04F9
0604FCEB
0302F108
FEFB0001
000C0006
F8FEF3F6
F30C02FF
FD01FEF2
F102F804
0402FCFC
F501FD10
F90AEBEC
F8FF0109
F2190EFB
FFFA01EA
FCF1FDF5
0C1204F3
EEF903F0
F5FC01FE
FE0F00F3
04FCF1F6
F3FC0003
041C00FE
0F00FE05
0AFFFD00
03FCFC05
FAFD02F9
FB0803FC
02030BF9
08FF0CFF
01FF04FD
0C0600ED
F1F8FF0B
FEFA0C0B
D41002F3
FEEC0AFE
05030701
03060501
FC09F7F2
FF05FB04
11FAFB0C
FA041006
FB070501
FE110710
030102FF
F20900F7
EFF9F300
0D0306FD
F9FC08FD
FA11FFFF
F3F410F6
F80BFFF1
07E1F300
030005F8
FE09F9FC
09E504EB
03FAFDFC
FD0BF8F0
01F20AF9
FB06FA01
060201F7
0014F5F8
F601F90C
02F7F6FF
FB010805
FAF8FF06
FFFEF40E
03FEFB0D
031001F6
04090200
F2070EFE
0406FD00
F6FBFF05
EF0403F5
03F90914
FA04F712
ED030518
030111F0
05F4F9FD
08F498FD
F9E8F0FF
03F5F8F9
06EBE1FB
E0E9E700
07FFF6F7
07EEF1F8
02FEFCF7
FD03F900
04FCF626
FD00FFFD
0BF70C08
FDFE02F7
FD02FCFF
FDFCFD04
03FC09FB
03FE02F9
F70BFF09
FC0A0404
FBFCEBF4
1001DAF5
05F720FB
1B0E01F0
00F4EF04
10F2FDF9
FD010CF6
E90602F3
11FA0DFE
F7E7FE07
F1FD0601
F8EBFC0D
F3051217
000107FF
06F704FC
F911E511
1516FE0C
1A07F50D
F41C0310
EFF41209
FFFAF413
EE0B0813
0A03090D
0DFF0F0A
F6140A1C
F2FCFE0B
0A07FF13
F01F070A
F90110EF
12040E0A
EB130912
10EEF500
0DFAFB12
0EF9FD16
01F80F0C
F404FE0F
F5EFF101
FFFF05FE
F5FDF1FA
13F6EB16
0C0901FF
FE05F90B
0F010C02
1CEF0FEA
02D513EE
FB0AFF02
13F41AF8
EF111208
07080EED
F3070EFE
00120C00
F4FFFD06
040100F1
0EFE06FA
F20606FA
030710F6
02F208E8
FFF40A10
FDEE0801
0904F6F9
F50704F2
FC000BE9
0B09FFF1
FAEA01FC
04000DF9
00090108
EB0403F6
05FFF5F5
020E04FF
F9080014
FB0E0D07
09000F0B
F8FD0219
041C0FF4
01060300
090E090B
0CF60BF9
0E02FC0E
08F8FBFC
FEFE0FF7
06F5FDEE
0D03070C
FB081E0A
FA070AFD
F109F2EC
E80EFCE6
EF08EFF8
05F301EC
EE0A07F1
FAF6F2E8
FE0E0CED
E028120B
23F6FA0B
F810FDF3
FB0201E8
FFF900F5
FFFDEE11
1108E6FE
FF0AFC06
FAFEFDFD
FAF8FFF5
060CFF08
FB000802
FEF2FD06
F50BF807
EA080508
0304F900
F8F8EDF7
06FA04FC
FDFBF7F6
FDFBFBFF
1005F405
0309F9FE
05FA0D00
0C0301FE
0304F0F0
F4EF02E4
13FE1407
094B16F9
F51117FA
06F30010
050B0211
0015FFFB
0CFF1901
EFED00FC
00060104
0608EDFE
03FBFD18
F7FE0CF5
03FB000F
12FC0605
1C001EF6
03F4070B
FBFE0F05
080C1600
09F90507
0A18F5F8
F50002F6
110BE8F4
F8FBF903
EE0600FE
F9050001
FF00130A
0300FA00
FA03F600
F506180A
01050802
0201FBFC
010601FC
F40207F8
FD030111
F60F0603
F40D070F
F1F20404
F50300F4
F2F706FE
0802FDF9
F1090C03
07050D06
14FCF3F8
0BF5F80F
1803F612
FB09010A
ECF1FC02
03ECFF04
F60A0B0C
F1050403
060002FC
051502F5
0403E901
0B0C04FC
070302F2
010C06FC
0106FDEF
00FC09FF
09060A01
F2FC03E8
F6FD14F8
FBFD0EFC
F1FD11ED
F700FCFF
FCF40303
FB05FDFF
0BFEEE02
FDF5F800
0002F307
08F6F50D
13F3F8FF
0CF4EDF0
FBF605FE
FB110A12
FF01FDFF
09F9EFFF
FA03F90A
FBFDF603
0E04FF01
F0F8F905
F1FDF7F7
180FF702
01F80EFB
07F1F6F8
160FF204
000A0304
010CF5F1
FFEF0408
06F6FEFC
0715FDE9
FDFEFAFA
00FE01E3
F90B12F3
06FEFCFB
F006F500
FD121100
01041411
02FF090F
F5040806
05FC05FE
FBFE06F8
F9FDFFF8
F9FBF511
FEFD07F4
02F70DF0
0704F90A
0104F808
F1F1030E
0403FC05
0701FD10
050A080D
F801FDFC
050DFE04
0711F9F7
FE060C0C
0B0A050D
F913F80E
FEF608FD
FFFF0E05
08030D06
FAF7F812
FE05F607
0005FA0F
EDF8FAF3
F5F510F4
0D0210F2
F40AF900
FBFF00F6
040CFB01
07FA0105
FDF907FA
FE0BFAFF
FFFCF007
02F9EE00
0703F70E
FD0AF404
EBF4FCF3
FEF206FD
F705F00B
F6F7F201
F202FDFA
070901FC
F81700FD
FBFC13F9
0FF4FB01
FB1506FD
FC0EF8FE
13E5050F
0302FB0C
F704F610
F400FCFD
03040CF8
06F723FF
FBFD0000
06F90BF7
02FA1BFD
01F311FD
0BFEFC04
0BFC0501
0002F808
F4F4F5F8
0904FCF8
ED030201
01FFFBFA
0BFFFD04
EC120302
010304FC
09FDF502
07F80BF9
FFFF03FC
0EF8F908
F400FF08
00F40905
FD0A01FA
F6010205
000706FE
FA06010A
FE010006
00FB0202
F5FC0602
FCF2F30C
FA0BFEF4
EB0CFF09
FFF9FEF3
0803F7EE
000809FD
0DF6FA01
0801F9FD
FC0103F7
0AFBF9FD
0108FF02
FB00FF04
010B00FF
FD0006FC
FDFDF8FE
02020602
0000F209
05FD03FD
FBF7FE04
02FFFB06
00FD0A0A
00F40306
0104FE06
F9F6F9FE
FDF5F502
F8FB04FA
FFFD01F6
F902FB04
F8070101
03FA04FF
FB0CFDFB
09FDF100
01FAFBF5
05FA0202
02060007
060AF9FE
FA07FE03
00FFFFFE
FD02ED04
FCFFFD08
07F701FA
0FF6F3FF
FCFC0309
070103FE
11060300
FB08F7FC
080BF600
0D090AFB
FF0CFEFE
0705FD01
FE05FC03
02FAF70D
FEFDF900
06FB0302
110700FC
FEFAFF02
08FBFD0C
0BFD07F9
01020710
02F3090E
0102FBFD
F7FAF2FB
F1F9FBFE
00FC0600
00EE000A
FD01F801
F7F7F9FD
0100FDFB
FE02FBF6
02FBF3F9
FB12FD0E
1711F707
FE13000B
07F91000
0AFA0CFD
04F70DFB
0C07FDFA
05FCF504
FF05FE03
FFFFFFFB
FF00FE0D
0800FC00
020A01FB
FB01FA0A
01FEFC04
F502FD00
F906020E
0103F004
F10AFD04
FC05F90A
F904020C
FDFF03FF
FF060209
0603FF08
06FE0106
01060507
0DFCF4FA
07FB0F0A
FCFF0008
FC0904FE
03F80CFF
FE08FB10
FE030602
F1000409
04030407
01F2FDF8
FE1CF80C
FE18FC08
FF1DF508
FDFD0706
01D90401
F9FEFFF8
FCFCFD03
060A0105
08FDFCF8
0E06FFFA
000BEAFD
FDF70EF1
08FD060A
0900F705
0B050BF8
F9FA0AF6
05FCF9FE
0206FAFE
F505F5F0
F605F6F6
F7FC0707
1403FC04
09FDF8FB
F1010EFF
FE01FC09
0801FCFD
EBFF0004
04FD0205
FB010803
F30314F9
F8FD0203
FDFA0109
F70104FE
00F700FA
09F90705
00FF0004
030BFCF8
08F8F704
0BFDF9EF
0EFB06FD
04F7FF0B
FDFBF7F6
FA0C1508
F507EC09
F7ED08F4
18E20CFC
FCEA0E04
10041C13
01F9F507
F2011607
FD021402
FFF8FFFF
F8F6170E
17FBFFFB
07FF1410
FAF10319
06F802F4
0C06EC02
0AFB09FF
12FDEC13
0809F810
09F30308
0507FAED
FEF307F3
03F6FEF9
07050306
FB09FFFA
FA0D040B
1001FF09
0405FD0B
F80EF021
F4050DFF
F3060D0A
09F2FF13
F7FD06F2
FC080CFB
05F2F909
F9F6F7ED
F30706F8
07F006EF
1006F6DA
FEFC01F2
F2F9FBF6
0EFBF8F1
15DDF507
07ECFBF4
FC03FDFA
FFFFF30C
F503FC09
FA031312
FA070F18
F5F8F5FA
FFF9EA0E
06F7F600
FF00F500
09EF0709
09F8FE0C
F918FB05
F8FD000A
00090606
F9FB0812
FA03FE01
FD0404F9
F3091302
EE010102
F7080002
F9021BF9
FFEA0115
FEF907FF
F5E6F800
0CE9F715
02F5FE02
F6DCFB0A
FBF2FE09
FEFBF4FB
EDEEF5FB
F8F013F7
F5FD07FE
F60402FF
06FB0A02
18010A02
0FFC1406
FF08F807
0CFB1203
0B010C18
FA0714FB
0903FCFD
05F60101
08060102
03FBF6FC
0BFE0402
13E3FAFF
06FAF9F7
0F0E150C
0103100C
FA08F501
0200FE06
FEFD0900
0B050408
0DFFFD10
F8EE070A
FDFBF8F4
FC0BF914
FE0DFDFF
0CF204F6
FE0000FD
0AF4FAF8
FC0CF808
F203EF04
FBFE04FB
FDFC0CF9
E4FCFEF6
10100406
0B09F6F9
F1FCFAF8
0008FAF4
EF0403F6
F5FD08F5
F5FBF9E9
F109F3FC
EDF411FB
080009F5
F708FC08
02FFF2FE
F4070B04
EC090BFA
FD070801
ED130BFC
F71307F9
FE0EEF06
0010FFFA
00060502
F6030D09
030405FC
F6F90D01
F1F6FA02
07F60BF0
01FE0DFF
F6FA03FA
09050003
00F70105
F5F7F4FF
0C0CF4FD
FCF705F8
0DFEFCFB
FDF7FE02
08EC0907
0BF10A01
F2F60501
06F30204
F8F2F901
080EFE0A
FD02F60A
FCFDFF01
F51207FF
F7F80D05
FCF305F1
0316F90E
0405F705
FF0FFD0B
F9F90A16
F9F91209
0EF9130B
F011F303
F6F6FDF5
02040F07
F10A00F0
000500FA
FBFAFB03
0D0204F6
FE0804FE
0A05FC01
0D05F3FA
FDFDF7F5
FBFCF2FD
05F9EDF2
0902FAF8
FA0503F1
0202EF03
010FFA09
F80A0FFF
F900FF0C
0AF4F8FE
0D0EFD09
EEF80F0A
01F50900
07FE0910
FAFAEEFB
F103F405
FC07FC12
F3F9FC03
1207F7FA
F515FEE9
FF030A06
00FE00F9
0A0EFB01
060FF6F1
090708E9
14080F02
08050309
04060C04
F9090A08
F8F6F809
00F802F6
FE0808FF
02120501
03F70509
0D06FFFA
0AFD0CFA
FFF9FD01
F802FE0B
00FC07F2
FC02FA00
F10E02F8
0D1506F1
1503F6F8
0A0009F8
F50E0104
FE07FAF9
0B0000F6
08ECECF6
FA01F9FB
00F9F6FC
19F9E0FF
0E04FCFE
FD0600FA
04FA0106
030400FF
01FFF5FA
07E4FBF7
F908F2FF
F2F9F3FB
0FF404D3
F4ECF7F2
FB03EFE3
FEFC04F5
F3F7FD01
F50A0DFA
13FFF5F1
02FB00FE
08F3FC07
05DFFB09
03EFFE0C
F901F8FF
09E8F6F8
0AE600FE
FCFDFB08
FD090A04
02060402
FFFDFE01
0B0606F9
01010509
0C0C1DF1
F405FE10
F2F6F50B
F8FCFF16
E807050A
EE0A0AFA
FA17F607
F206F010
FF0BF801
FAFFFF10
F6F9F7FE
F408FB0C
F907020D
01FDF20B
F806F706
F9040816
0EFEF8FA
16FCFB04
06110A03
FCF7F401
06FE0608
06F808F5
00EEFEF7
00F3F102
05F6FEF8
F9F80CFF
FA0418ED
FBFAFAFB
0C070AF8
FE1102F6
FAFC06EE
04F8FB08
040104F8
1503FF05
F2FFEA0B
F5FBFFF6
FD0A0107
02090C14
01F8FFFC
01080214
FEFAEC0A
0506F604
190B0511
02FFF5FF
F8030B07
FFFE0AFB
06F606FA
FE09FBF6
06F611FC
0D0BDFE8
FD02F611
FDED0B09
FEFA0BFB
FD09E902
FDFAF8F3
080410FC
08050317
FDFA02F8
0705FE03
FD05FF07
FD0304FE
15F3FB03
0FFFF904
F3FAFF0C
01FF0114
02EC0208
FAF8F811
171601FE
0307110B
0EF1F7FB
03F600EB
F8F40702
FFF1FE07
0402F9E8
F4FEFF08
FEEAFDF3
050E07F2
0310EFF7
FBFEF5FD
06030AF7
0FE82305
03F00BFC
FE1002FC
FAF41103
FF030304
FAEFFEFA
FF04FEF8
02070E00
FCFDF804
0303E9FF
FA01FF04
FCF3FFFF
EEF70507
FF12FC07
12050908
0E1401F9
0B0BFE0C
FC011009
08F5F600
06F807FD
0A02FF0A
0E0500FE
1B0306FB
03ED0906
0207FDF9
11EFED10
08E8F30C
FCFB020F
0CEEE8FC
FFF0040A
F3090500
0AF2F610
F2090508
F5F90706
FF05FF10
FF1406F5
181404F5
08F6FF00
0111F61C
FE030506
02FC0715
FB0301F6
F9F8FB09
0AFEFDFB
05FD07F2
0404FE07
0AF20711
FF0204FC
F506FA00
F8140B00
FB0B05F9
0BF7F705
F50FFE0B
EE0DFBFA
F1F5FEF2
F40300FA
F00DFB01
F7080603
F21903FA
1F02F5F9
13030602
0201ECFE
0711F203
FB16FAF7
F20BF908
0AE60610
0B00FBF9
FA08F705
FD0907F4
0AF90EFF
060B0CF5
13F0FEF8
FFF900EC
1205FFFE
16F2050D
09F8FFFA
070A2001
06F9F408
F7F30809
0903F1FD
F701FA02
010AFD00
0D01F4FA
01100900
FC0DFA0A
1012E5FD
F8FAFEFD
0006FEFC
FDFFFC07
FDFD0501
FC05FE05
F2FF0308
FE040409
FD000C01
FBFC0A01
F603F90C
040205FF
00FC0314
02FFF4FD
0005FAFB
06FF03FD
FA08F8FA
08F6FCF6
020004F4
02F6F800
05FCFF06
08FCFF05
020301FF
00F904FD
09FDFDFE
090208FD
FF0209FD
04090FF5
000D01EF
02F8FA0E
FFF9FC06
040102FE
05FDF703
FEFD0609
FCFDF60F
0002FC0A
06070204
0EFB0517
0903FE09
01FC010C
FC01010C
FF08FAF7
08020107
06040612
0105FB00
0705FC04
0B0A0301
EF03FE04
00010409
FC031004
F9FBFE01
F4F90D06
08FD06F6
05F6FE02
05F7FFFC
0307FFFA
0905FFFF
FD08F000
0F0200F8
FF000A05
0802F4FE
0B0AFAFC
FA000702
01FD0A0B
06EE0701
0205FE06
06FE0808
FCFB0600
0403F8FB
02FDFE0A
F9FC0704
FBFDF807
F5F70104
0EFAFE01
09FF02FC
07F7FEF7
0AFEFCF9
F6070002
FE020502
FEFCFFFC
01000303
01FEFDFF
00FE04FD
0002F904
05FCFE0E
F6F105FE
FDF105FE
F9FD0302
F800F8FD
FE030D03
F8F8FEFE
ED030309
02FD0101
FC040E0B
F5FFFC0A
03FF08F7
F9FF04FF
0006FD07
07FE04F6
FD0101F9
030BF3F7
0AF8EA03
06F8EE01
FFFFFFFD
07F9F7FE
01FCFB08
06FF04FD
0406FF02
FB07FA0A
FE040309
FDFCF2FF
FCFE03F8
FC071006
02FAF3FD
01000001
010704FD
FAFEFFF4
F8FF0102
0A011105
02FAF6FD
0302FDFF
0A07FDFA
FEF006FE
00010F00
0209030B
FB040D08
FAF30EFC
02FA08F9
FCF2FCFE
F8000C02
FAF802FC
FCF4F4F9
FEF800F4
FBFD02FA
03FBFEF8
FFF4FDFA
04FE0CFA
07F50008
FDEE0A03
FF05FFFB
07FAFE09
0703FB06
FE1504FB
F80AFBFF
FF0204F7
F5FB05F9
F505000E
F1F9030A
FD0BFB08
00070800
07F91B07
F500FBFE
0B06FA02
FEFC08FB
F80A00F9
FD00F608
FA0EFA07
FAF80004
FCFDFF0A
FAF7F200
000005F3
F4F7FE0E
FE0B0002
0402ED13
08FE00FF
0BFEFB0B
06FCFF0C
FA03FDF7
08FC0709
01120208
FE080406
0BF90A05
02170305
05080007
1106F9FD
050A05FC
00F60701
0BF60202
F2080601
F8080E01
08EFFB03
030211F5
FD0B08ED
EE0B01F8
020303FE
08FFF607
F511FEFB
0400EDFA
0603F2FD
01FA09FE
00F60304
04F1FD00
14FA0808
050107F8
FA0AFB04
0707F6FE
F90101F3
000B0204
F10400FC
00FEFB0A
04FDFC0C
F801FC0C
05FFFD08
0505F80D
0302FCFF
0B04FB01
FBF10005
02FA0408
FCF8F403
0201F804
0502F4F7
FD07FFF8
05FD09FE
01030500
F6FA02F3
F503FEFC
FBFE0CFF
090C1119
11000F12
FE090715
F8130605
070503FB
F505FE01
F8FA0913
05F703F8
F9090A0C
FB05F80A
FC02FCFE
F6F3FF03
0505F810
07FDF905
07F7060A
03FDF60F
F901FAFA
FC1308FB
F40CFD09
FAFBF709
FAFFF707
F5FD09F9
FDF40503
0F0500F8
F9F70111
FCFC040B
110A0AFD
FA02F9FD
F7FA06F4
0EFC0404
F50E080E
FF040103
02FE0403
01FF0804
F30106FF
09FCF8F8
020AF905
FA04F1FD
1000FFF9
F800050F
F8FDF900
0BFD0009
FF050707
0416F0EB
0DF601FA
0104FBF2
FDFFFDFB
0204F9FC
0AFFFF04
FD0A00F6
FF03080C
1001050C
081F10FC
04070903
01000DF8
F3FCFD00
080F0EF8
0101FFF7
F2FF0108
00040A05
13030805
0300F902
FCFD0E00
FAF90115
F902FF0C
04FAFBF4
FEFF07FC
0C010B07
08F8F8F6
0B0304F7
0D02FBF9
12FAF9FC
010011FE
0704F801
FB030BFA
FD0A10F5
010A04FC
F20AE903
0C0B02FC
F9190600
FD0AF9F7
FE031010
0602F900
01010908
FA020708
010302FF
11FF08F7
F8FE0C0B
04FF03FB
FFFA1409
FE01E803
F9FBF309
0BFDFFFF
FE03FBF7
06FD0A04
08020203
07160306
FDF210F3
02F700FF
FE1BF2E3
0805F6FA
EF09FB00
FA0E0E01
05FBED0C
FBF5020B
030B17FF
02FCEF00
06FD06E5
F1020504
F911F610
02FAF604
FDF3FCF5
0215010E
0810FB02
FEF6F901
0EF5FE12
FE0CF405
1504FD0F
FDEB00FD
15FAFEFD
01010200
F5030609
0BFAF60C
07F309F5
F3F10002
08FA0B05
FCF4FEF3
03FBFFF3
FDFFFDFD
0102FDF9
06F50303
F802FB0A
030104FE
12090AFC
F71107F7
FDED0705
11FF1211
FF06060B
F8F90104
09FD0106
FF07110A
0902F706
04050302
F51D0205
07F90C1D
09040304
F3030813
FCF50C19
02080FF8
FC0CFCFE
02020002
F501FAF7
FFFD06F3
0001F803
08FF01F8
040CFEF6
0503F706
050008FD
02F80205
F5060401
F612F906
FC0BFEF8
0810EF0A
F80E030C
0001F30A
09FEF406
030A0402
EFFEEF01
F90DFA07
0D0D000D
FD09F70C
05EFF902
0302E6F2
00FDF6FB
FDF4FCFD
04F5F907
F4F501F5
F5F7E9FE
FE01F4FF
FBFD0206
FF04FA06
0805FCF7
FD02FC08
04EAF002
FF05FB09
FF0100FD
FD00FA09
F7EBECF4
F6F5F7FD
080B05F5
F500F7F9
FF0E0A09
1809FCFF
0211FBED
FCEBFF08
10F2FE0F
0A14FEFC
FA000510
F30D15F7
FDF40102
FA0005FC
00FEFF01
F4FFEEF2
F90808FC
04FFFD08
F8FF0CF7
02030407
F7F70202
FBF80606
06FDF1FD
03FCFC00
01130EF6
FAFFF303
0B0B02FF
070FF903
F0FDF4F8
00000001
01000000
00000000
01000000
00000000
00000000
00000001
00010000
00000000
00000000
01000000
00000000
00000000
00000000
00000000
00000000
00000000
00FF0000
00000100
000000FF
01010000
00000000
000000FF
00000000
00000000
00000000
01010000
00000000
00000000
FF010000
00000000
00000000
00000000
00000000
FF010100
00000000
00000000
000000FF
00000000
00000000
00010000
00000000
00000000
00000000
00000000
00000000
00000000
0000FF00
00000000
FF010000
00000000
00000000
00000000
00000000
00000000
00000100
00000000
00010000
00000001
00000000
00000000
0000FF00
00000000
00000000
00000000
00000000
0000FF00
00000000
00000000
00000000
00000000
00000000
00000000
00000000
00000000
00000000
00000000
00000000
00000001
00000000
00000000
00000000
00000000
00000001
00000000
00000000
00000000
00000000
00000100
00000000
00000000
01FF00FF
FF000000
00010000
00000000
00000000
00000000
00000000
00000000
00FF0000
00FF0100
01000000
00000000
00010000
00000000
00000000
00000000
00000000
00000000
00000000
FF000100
0000FF00
00000000
00000000
00000000
00000100
00000000
00000000
00000000
00000000
00000000
01000000
00000000
00000000
00000000
00000000
0000FF00
00000000
00000000
00000000
00000000
00000000
00000000
01000000
000000FF
00000000
00000000
00000000
00000000
00FF0000
00000000
01000100
00000000
0000FF00
010106FC
00FD0304
10F90208
FFF312FC
04FAFAF8
0105F6FA
FCF811FD
F9F91DF9
00FFF1FB
FEFBFCFA
0FFCFA02
09F5FF10
13F20900
0BF3F0FF
0CF7F4F5
11F0FD0B
0103F807
F5F2F3FD
FA0814F6
02F7FDFE
06F50304
0201F5F3
FEFB0405
08FD0B1A
F9FB0BF7
FA0607FE
0B070AFB
070807EB
1003F2FC
FB18F8EA
14080BFC
F80509FF
F7F1FCFF
FD0EFFFE
F901FBFB
F90FF8E2
FCFAF5F4
F3010EFB
F2050FF1
FFFAFE02
021108FC
080E04EF
04FBFBF5
02F500FB
0E0CF902
06FDE2F4
FBF6F113
040AFB0A
FB06EAFC
FFFBE9EE
01FEF6F6
F2F3E810
01FBEAFA
030EF908
F5E8FA07
0209FCFD
F711FCF7
FBFC1010
04F7110B
FE02FB04
F10A0908
00FCFD00
F50903F4
05FC0D0A
0302F9F5
FF0AFC03
00F7FCEF
02FA0500
0517F6FC
1107F7FF
02F907F8
0316FF05
09F4E8F7
F705F8FE
00F9FFF9
ED01F40E
04FCF808
FC02FDFD
FCFEF5FC
FF04FFFC
F5F10BF2
FCF6F300
F7030108
F90A0203
0B17030F
FE060303
070008F4
F60DF301
130EFEFB
1708FAF2
FF020AEF
04EF03FB
0107FA06
0BF415FA
09F403FC
0301F1F3
02040BF5
F801FEF2
01FCF702
F6060BF5
04020203
04FA05FE
09FEF704
FC00F3FA
05E204B5
EDF0F904
F6040002
FBEAFFEA
FBFA0106
FBFE03F9
F80503F1
03E8010B
0AF70907
06EEF6F9
01F7FDFE
0BF60403
F000FDF3
04FE0401
06010000
030B0DF6
02FE1AF9
FDFE0FFA
FEE624FB
03FDFFF1
F5FF040C
00FEFF0E
0104FFF8
1305F7FF
0403FFFC
04FCFDF8
FFF3FBF9
09F0FBFA
ED0D010A
FBFF0104
09EE0009
FF14F5FF
FC00F808
0604F6FB
070BEFFD
0EFCFF00
040004F8
FC0D04F6
100301F6
F809FBF1
00F8F2FD
0201FCFD
FD03FAF9
02FEF802
FAF60AFA
010BFBFD
0214FAF8
F4FDFCFB
F30A00F1
F40302FB
F90812EF
FB080E0E
F6FB08FC
07030314
FAFF1104
F9FD1308
F8071300
FFFF1912
0106F3FF
00F6020C
0401000E
F6FB0403
00FE0505
09EEFDFB
0505F302
0107FE02
01F7010D
F10AFB01
FBFA0EF7
F2FC0407
050605F9
00010004
08030004
0708FEFE
E4051100
07FD0302
000CF808
FAF5030F
FC05FF05
03FE0003
04FEF807
0307F804
0EF4F604
0B02EF10
02F7F110
02FBFC0F
14F10D05
04EF10FC
FAF9FD09
11050FFA
07F805FF
FB02FF0A
08FBF705
F7F8F90A
0BFBFDF9
04FF0905
00FC01FA
0200FD03
FDF90FFD
030603FC
FA08F6FC
FF0507FF
FA13FFFA
02FB0DFE
0008FF04
090E0803
02FBFCFF
F80001F4
01060C00
03F4FEF5
F2050B0B
0217010B
050B0D0F
F60101FF
F3130307
F9080B0A
FC0108FC
FC00FE03
FDFC0C15
F8090705
F4FE0703
FE09FD01
02F905FD
030B0AFB
FB08FD07
01F7FE04
100607F6
F30104F5
EF00FEFE
F1FF0401
F70CFFF6
0414FBF6
0106F8F9
F40307F8
060BFDF7
010BF5FC
0506F7F6
F809FC01
0305FC05
FCFD0302
FBF7F705
F9F8F1F0
0801F802
FD03FF01
F807FA01
FBF7FF01
05020107
F500F6FC
0B09FEFF
0AF9F3FA
0007F607
0D0601FD
FA02F7FE
080102FF
FD0CF60A
F709F302
0005FF01
050202FA
03090201
050603FC
0A0CFE08
0915FD07
F700100A
00040007
FF13FE0B
FA070601
F9FEF905
09F203F0
16FA0BF9
02FFF9F8
02F7000A
08F801F8
1602FAFA
0FF300FF
120C0BFC
02040A00
040513F5
FD09F8FB
FBFCFC08
110612F6
F8FCFAFC
FE03ECF7
F807F5FA
FE04F8F6
0BFB06FF
FB06F8F9
FF050CE8
0F00EEDF
15152FF5
F211E2E2
0819FAE4
0C09F7DF
0506FCEF
030A07F4
F900F0EB
FFFF0CF6
F7101005
01F6E3F5
18F6F410
1402F513
F2F5EF03
FBF80D0A
0000E30E
1902FAFA
F9F7ED0D
0AF6F604
11FA02FE
0E0C1113
F302FDF4
F9F30100
FBF0FF08
E407030C
FCF10B05
040500F1
0C0B1CF9
08FCF0FC
F5000101
0B13FEFF
FF042201
12FAFC08
F104FA12
F61B000A
F5F9EC01
08FB0501
1CDFFB06
FF0A080C
0BEBFB05
0BFC0407
E9FB020E
0800020C
06ED0DFD
10FD0DFB
06FB0D07
09ED1A05
F9EA14FA
061D0704
FB0908FC
F5010108
01F2070B
06F60800
02F6F306
020A09FF
FB153315
F6F214F8
0F0208F4
05FE16FF
050515FF
09020D04
07F70B05
FCFEF80A
11010603
0C131701
FD06020A
05EF0401
FA030102
0B1C0108
F904011E
FF110A06
0DFC0A04
F6080B0D
23F50508
030C0504
FC041013
05130DFE
FAF7FA14
0C05F212
1307F40B
140606F1
0005FCFA
0FFD0C07
FB080D0E
EC05E203
E703E6F7
F30EFA01
FFFF00EB
000AFBF3
0E030800
F602FFF6
22FFFD06
F803FAE7
FB01F6E3
FC04F100
03F4F9F7
FCFFE90C
EE0200FB
07F6F0F9
03FDFCFF
FF0AFB03
060410F1
F7F203FB
0408FB06
F10208FB
F7040504
13FA06F8
100504FF
070F00F9
0D11F2FA
F5FEFFFF
1001F80A
04FE10FE
07100304
02F3FBFD
FCF6F8EC
010511F7
1FED1203
1A020BF4
FB192706
13F7F6FC
01F8000C
F81600FF
05F3FE07
FBFB0F2B
06F516F9
0702F514
00E500D6
06021108
11F6FA01
17F10E19
0EFE07FF
E8EC0BFD
0304FEFF
F8F50D02
F801F6FE
12130407
FE09EFF9
FD03E5EC
0305F5F3
EFF2F6F4
F3E9F1F7
E901FEEF
0807FBFB
0CF218F9
0C12FA0A
1117DFFB
ED090604
F8100902
080A0BEF
16F10310
F4F9000C
EFF805FA
06FA06FE
00090DF5
F112F809
01F2FF15
03FCE10E
EE04FFF9
FEF900FA
FE08FFF4
DEF406F1
EEF5FA04
FF0DF601
FB05FE01
0DFDE90D
0006FA1A
F820F70F
06F3040B
10FDDD0A
EE12FC03
16EDDA0A
0EFBCF07
EDFDF709
0C03F40E
0200F3FD
F4EDFB0F
00000DEA
02E901F1
02FFE1DA
29FAF307
0CF507FE
0AF103F0
1100F6F7
00FDFEF6
06EDF6E6
E6EDEB04
ECFFF228
E7190210
F4F3FA07
F202F5FF
FE011305
F914030D
1306FDEF
08050002
08F0E10D
F5E5EF1A
E2FA03F4
F8D9FB00
04FEFBE4
F70710E6
F6ECFD06
0AEFEF04
09FAFEEF
0317F201
0304070E
01FC0B02
30FC1223
14FEEEEC
FEFCF80A
160304F9
100B15EB
F8FB1D06
01000007
F30DFA06
050AF806
F9ECEA08
F510FA06
EC15E005
FDEF0C08
FCFFF610
F504E50C
FCEE06EE
FBFF0301
F3F3FC07
05080704
FFFFFA1F
F4F60208
11FDFB24
FFFF0313
F8040BF8
E71B0502
F604FA03
000A0D06
E7F1F205
060CFAF0
0A11EF06
F7EA1008
F8010204
F7FE06FB
030413F6
0DF80E06
F8F708F3
FE111207
030AF900
F8EA0601
08FDFDF3
0A05FBFC
1202030E
11EBF801
0FFFF50B
13F8FC08
02F52006
180BF401
0100FCFC
DB12FD0C
E6FB1202
0A141315
E6E31108
07E51AF9
0B0F0306
F30CF50A
0110FE07
10F30706
1110F8F8
0728E802
00EDFFFF
FE06F508
0302DF0C
EF17E7EC
EF000E05
0909EC04
FD0AF7F9
04FAF801
F40B00F6
10FD00E8
0AFF0013
0E050819
FD08FCEF
0A0702F1
13070615
0DFA1BF3
000D0606
0EF70402
18FC15FB
050C10F2
F3ED0601
F6F200F6
0C19FEED
0EFDF5F7
ED0801EE
FB0A01F1
02F702F7
15FBFFFB
0CE6080B
FD05F318
1BF6F9E9
0B02EA06
FF0405F5
FCE61CEE
04F9FE01
0EF003E8
FFE80BF3
F51F0DEF
ECF1F1F7
25FE13FB
F51A0011
06F30804
F5F71AF6
E732F002
04FE110D
08EB00FD
FE3202C2
EF03ECEE
0A05FFE0
FE000208
FEED1AFC
F32B02F2
FE210DE7
FDFAF70C
FC0D0CF6
E9EDF9FE
FB05FE02
FC0210FB
E5FC05F5
17F70CFE
DAFDFBF6
0C07FFF6
F8F8FD03
FB05FF06
00E3E21B
0009F6F0
F603F8EA
05ECD3ED
060603F5
0403FEE0
18F5E814
FF030315
FF06FAF9
FD120AF6
08FC04E5
20F7EDE2
03F30EFB
EC1CF1FA
0016080D
04EC00FF
00F904F4
101D00EA
FDFD0EF9
04F5F8F9
0C1DFE09
0210FE13
09F6EC0D
0AFFF404
FC07F108
F9EDEE00
EC3BE610
FF1109F0
F2FDF005
EBFE09F0
EA0108FA
00F80BFE
EEF0FEEB
EFFCFAEF
FBFAF7FF
F8FFE9FD
F803F300
020EEDFC
E10CF9E1
1A23F202
FCF4F0FE
FC0912FF
0509EDF8
03FCEEEC
1408F2EE
02FC03EE
FCFDFE02
FFF1F8F8
2301FDED
0B0B0902
00FBFCF3
110614E5
07F600FD
0B07F7E3
0CFAEF16
FB0409F3
F5F2F7D5
F3EF00A7
F6060203
0800F41A
0403E9F3
E312F0F3
E0F0F0EC
11EAFE01
18F2FA0E
08E90EED
13D10A0E
090B06FA
EA1509F9
020AF6FB
F9020611
05E8FD19
EBFE2203
F911010C
05E512EB
F60105F6
0B122403
0FFE21FB
F6EA2004
070B04F9
00F515F7
E7F6F810
07F708FE
E502F9E8
0AFAEFE9
031DFB07
F50103F9
D8E5F301
FBFFFC02
04FD08F6
FEFCF501
0C0CFFF1
F4051DF6
F90AE4F2
0804F602
10EC0701
0D15D800
FC00F3FD
02DA210F
E9010AFF
F0FD00E3
E8FA05EA
EFF9FAFA
EB0416F3
EE0403FF
E90503F5
F8090801
EB0508FE
FCEFFF03
F2FB0AFD
2109F914
FEFF090A
01FA0AF3
F0FAF9FF
0214FB05
F3FD03F7
F9F7040F
EAFFFE09
0BFA050B
FCFA041B
F8F4F604
00110F19
0111FC0F
F708FB07
F40700FE
F812FF08
0B0AE6E8
FF01F1F4
E6F0020B
0302F4FB
F4FFED04
00F4F6EE
FAF6F8FD
0C03F4F7
0CF9F4E2
070E0C14
F909ECFE
F8FF021A
0CFD070B
04FBF8F9
04F60412
0B150D10
FB01FA01
F2FDFD16
0D1AEE04
FDFF0311
15DCEE13
FD0D07FA
EE03FA07
01F0FF12
070BF4E9
FC08F10E
06EF02FF
0C0305F3
17FF06EE
010BF004
1100FEE0
0D0104F4
F6FDFC07
F2110107
001600F8
0AF9FB00
00EB0005
07FD0019
06040613
EDFDF708
0C0A0205
F2030205
02F3E611
F6F9F6FA
F3FB070D
15EE0D09
05FC0D06
0CEF0DFE
0BE809FC
0EF1FE06
FEED0AF0
F9EF07F9
08FEFFFC
0AEF18F1
0EE8FF18
03F3FBF6
1CEAFC0E
0BE2FD10
F9EC04FC
02EA0108
FEE6F40F
FAFEFC0B
FDF8FF03
FA0EFA1A
E8EEFE08
F8EAF51A
E7F9F211
F400F9FD
F9F50604
09180C07
0A0D00FF
09050610
F214EFFA
0705F8FB
0AFD03FA
08F9FCF7
02F6F905
01070C09
0310FBF7
FEFFE903
F414061F
F8FBFE0C
00EEF0FF
0FF70216
090A07FB
F3FEFFFD
09060008
E9E8F7FD
0102FDF7
0FF80010
F9F4FFF8
06F5FCF1
0BFAF4F9
0613F1FF
FB0CF8EB
FC07F2FC
1E13EC17
0B17F209
F61BE201
03F2F80A
03FDEEF9
FC0203FC
F8EC08FB
FEE9F3F8
02FF1805
10F20E02
04F002FB
08F215FF
F2F50A09
06F0FB05
F8F4F009
FB0100ED
F8FA07ED
F4FD02F1
E8170610
02050AFC
F415FCF9
09F80201
0D0901FC
0C04F1EC
FB03FAED
06011AFD
1301EFFB
0201F8F6
080301F0
F7070FFB
0CFC0FF8
0513FAFA
F9000BF3
0AEE0B00
13F6F2ED
0509FA00
0A01FE04
DEFEFAF2
FEFA1410
FCF5F0F9
FD09F8FE
0D021003
06F2FF00
03FD0301
0FEA08F5
F2080B11
07F908FA
F9F90905
0120FFDB
F10101F3
FA0B1105
020C17F4
F8FDF3FE
05F3F7FF
FF0609F9
13FC0FF3
0A17F6F7
F6F21703
EDFCFB0E
F8FC0707
06F104F7
FDE70505
FD04FB04
F8FAF7FB
F31702F4
0DFDF404
07F800FD
1CF503F4
05ECF906
F9FD00F8
01041208
F80004F1
03EFF8FB
090AF105
05010EF5
FCFB04F4
F20001F8
F8090FFC
180EFE01
F6F607F7
050200F5
1B060AEF
010711FD
FC0CF60C
05F10B03
0704FD03
0F1D0104
FBEDFD09
E3FFFBF4
080904FA
1002F710
EA01EEF7
FD0AF505
120E1617
06020109
F9070404
060E080D
0105FCFA
FB0004F6
F511FF06
120EFEF8
020903EF
0B11F703
080D0103
100E030C
F5F60506
F4E3FB16
FDEFFE08
0004F50D
EE02F803
02FBFCFA
F90AFE0C
F9FC0504
F6050112
010E0301
10F8F906
FBFB0504
FD00F112
FB0A0000
03F80A0F
EFECFEF0
02FAFDFA
F303FEF0
F9030616
03F80D02
FB0203FB
FEF207F4
E8FA11FE
E30606F8
FDFEED22
02030002
0602F90C
FB0D04FF
E1F3FCF8
FBF707F7
06150EFC
FC0201FB
E70AFEFF
140B07FE
08020BFB
06F50BFB
06F50AF2
0D0DF604
09020CF5
000CF906
FAFBF114
FC2402F0
070213F1
FCFB08F1
041006FB
EEFA000D
EDF4FB00
F6FD0EEF
FBFC0BF8
060CF903
08FD1306
FEF2010F
06F408E6
12F40B07
FDFFFA05
02FEFCFF
08F8F7F9
F109EB05
FCEF03FD
02FC0104
06FE1EF8
05050FF9
01FD2200
EE10FD09
07000901
F20CFB07
000E02FD
07FEFAF5
0220FDF0
040B00FB
070D0D00
1802FC04
0DFA0204
F7FBF807
0C00FF06
06FDF6FC
01EA0103
FB0C00F7
F9F6F8FA
EC080411
D20509F2
F801F40A
E90503FB
F5FE1008
DFF603FE
F904FCF7
FB041EF4
F5EC030F
0FFE0E01
07F4F302
FEF9FE09
15FF3302
05F1FF0E
23FFF911
F2FD1FE5
1AEDFD13
05F7090D
FF08E4FD
FCEEF30C
F6FC020E
100FF3FE
02F4060A
EA011310
FB12040A
F6F50F10
0F10F3F9
0805F105
0700FA00
160708FE
FDEFEDFE
FEF8F5F9
FF09F9F3
22F6F4F1
0FECF4F0
F8FA0CE6
14FB140B
00FA04FA
0801F7F5
F30217FB
F5FF0F07
150AFC04
F30505EC
E2FD0DF9
FE020E18
FEF8F80B
FCF8F8F7
05FDFD00
D7030F02
EFF6F5FA
09EFFDF2
E3EE040D
FF03FD00
ED09F401
FDFE06FA
0B0C00F5
0A05F2F7
FD1E03F6
0A0204FA
12FF0603
090FFBFF
12050AFE
070812FC
FCDD0AFF
FFF6FDFC
0CF40F01
02EEF8F9
0BF00402
01EF0AF6
FA0213F9
FF060D02
11F107FF
10FFED1F
FB010306
FBF6F401
EB19FE01
0E09FFFA
F2F2EA01
F41AFBFF
0E1003F6
F7FDEEFC
1700FFFC
FC0EFAFC
E606E409
1AE7FB0E
F5FFFD06
EC00FF05
F6032002
F7FF14F9
12F40F03
FB1BFFFA
FE0D08FB
FB010E02
F80BF707
180C0500
F51D1008
07FC05F4
150703FF
F000F404
0EF2F0FA
01FC03F6
F6FBFCE9
04FE07E9
04FE07FB
06F602EC
0CFEF700
03FDFCF9
11FFF9F8
03FE05E2
EE09F8EA
050A08F2
F000FFF3
FA09FBFB
140AF5FC
ED0AFDF0
0EF7F40E
F2F5FCEE
07050A0D
FDFEF501
0DFBF700
0600180B
F601FB04
0511E814
010802D0
0709FBF6
130901F5
0201FFFC
FFFAF9F2
01F4FFF3
EE0AE3F6
F703FDF3
1801FAF0
0601FDF5
010D09F3
0402FAFC
04FDFCF7
04FB05FE
FAF50408
01FA00FB
08F5F80F
12F7FD11
FFF70A02
FFF8FC0A
F90BE409
0405FDFD
1200F401
F3F6F709
FE03FE01
FE09F7FE
E506FA06
03080203
EDF7FE00
F7130405
FB030C0F
FD000C08
FC11030C
F4F8FB05
0314FD0A
131807FF
02FFF10A
08F8FE16
0300FC14
F9FCFC03
FA00030D
FAF7F502
0801F9F6
F8010202
16E6FC0D
FAF3FF06
FEF1F806
020104FF
FDFD0A04
0EEB09F6
070D08FF
F4010B0A
00FBFDFC
0F1006F6
0500FA07
FCFC0CF8
03FDF806
F700FDFC
FA0BFB02
03F10AFC
02FA02EE
F90B0FF8
0BFC0BFA
F6FB06FA
0810FEFC
0102020C
FD03F60A
0306F909
07FD09FD
00F5F7F8
040AF8F5
FE06050F
0E06FC04
031F0611
02FD0F0C
FB020CFE
020E0AFB
FA020902
FB0A06F5
0EF10101
FFFD0E0F
0CFB0CF6
0EF20009
0411F711
03FFFCFE
FC0A0DFB
1009F807
F3060701
F806F9FE
020DF9F4
FE090C01
0106FDF7
0507FE07
F7030C02
F5F20CFE
06F90107
FA0505FC
0B070A03
EEF2FF06
0201F4FF
0701FB05
F907FCF6
06FCECF1
00FF07F7
0B0008FB
0002FCF7
EFF5FEFB
0402FCFE
F2FA04F8
E50A00F4
02FFFC06
F3EDF407
F4F6FE09
EFFE0207
F2F6FEF8
06FEFDFC
0301080C
11FBFCFF
07FC0402
040EFA09
0B0A06FB
04EA0200
0DFCF700
0A08F9F8
FD20F6F8
0EFBF00B
0C0905FE
030C0506
010109F8
FEEC05FB
F3FE1004
F3010A10
F407FE0F
F8FF14FE
05030310
0B0307FD
03060DF7
01F10905
03FBFFFC
FF0100F9
FDFB05FC
00F6FE05
090D19F8
0205F5FA
020EFA05
F40C0508
F704F9FE
E6EB0411
EC0EF616
08FFF103
08E03F04
FE06E00B
F2F4FDF3
08D111F4
1DFEE8EF
EAFBF5F5
E90CF40E
EF0F0E0B
FFEC0AFC
EBF7FAF9
26FB050A
0002180C
F80407F3
EA0DF808
01F9F314
F9FAFB0C
0A01F018
0AFB0714
0F0E1000
17E8051A
02FB0811
06EF0A02
04040D0C
FD0F0816
FC07FF03
0601FB20
F90C0D05
11F7F50F
01F8F30E
F40D0307
F900FEFD
F7FF120F
080C03EA
F81115DE
EC0E1AF5
F80CFA09
05FC04FC
0913050D
11F6F1F7
04FDE600
F315DBEC
E7F11409
32F7110A
F5EA150B
06F5FCF8
0A07F607
F6040004
F5F602F9
C6FB0902
101013F6
0A02FA06
FAF0FB17
FD0D0000
08F6070C
10011616
FDF9100D
FEF20D06
121B0006
E9011F00
0207F5FF
DFF6F1EC
1607F9E7
00F90EFD
030D1AFB
0F02FB0B
F8F905F6
1AF8FAF7
F20BECF3
0A1A0B17
0B0B111C
04100F27
FE0D090B
F8F4140A
F0230701
EA040517
0E060BFC
0E040F06
FDF7F209
FEEC01FC
F2EB0905
0A09F706
0806161F
07070406
F9010D0F
EE15FBF9
F0F7EE15
EE02FFF6
FB0AF3F8
E014FB01
F204F2FE
0115E802
E5E9F5FD
FC0EFE10
0BF21309
F3F0FAFF
EAF31913
0BFF0903
1E12F0FD
F6050B02
FDFD05FE
01FA02F8
16F80A0A
0FF311F6
11FD10FA
FEFAF90A
0605EA04
0200E7F1
02F00CFF
FAFAEDF7
FDFFF801
0112F9FA
04E7F5F3
F30CF9F1
05FBFCFA
F913FA01
EFFBEDF3
0FFA11F6
0B08230B
F83031F1
04EFF50A
041001F3
0126FF18
13FC070B
00F810FC
0BFD03F6
1304080D
F8EEF0F2
00F90D0B
FC0308FF
12FBEBFD
09FD080B
05FD0713
FB1A0503
FDF6F903
0C0017FF
0606F90A
FF0EFDF9
FFF303EB
0AEB0002
0BF8FF03
00FC00FC
FAFCFB08
FDFFF9EE
FFF0F8F4
FCFF0AFB
F8FD21EF
00EFFBF5
FC02F4FD
F40003F4
F8FF07F5
020CFEF7
0604010C
EFFB04FF
FCFBFF02
FDFC0105
FF0001FD
FA010B00
00060008
01FEEE08
0305FCF7
0CF7F703
F6FE01FF
03000A01
08F7FA09
FE00FD01
0605090A
FFF4FDFC
FB07F7FA
FBFDFF07
F304010E
020CF8EF
0A0908FE
01FE00FF
FC0B0408
FB00050F
FDFDFA07
FF0B10FE
0111FEFF
F80B06FB
0F040502
FC09FD00
F0FE0106
04F9F104
0410F4FC
FD02F7FD
00F70D09
09FA0007
19EA040D
0107FC05
02FD03FF
FE040F02
FBFFFBF8
0502F9FF
F40202FB
03040302
FFF5F502
FFFE0101
FB020602
0808EB14
070B0C0A
F7170301
0CFD0701
05FC04FF
07FFF706
06010205
080CF6FC
03F7FF04
01030303
0B0F0505
0B0406F8
FAFFF503
F211FD04
0C060B17
0AFE0804
01080913
FB090801
050606FD
F9020D0A
EE060D08
050007FB
05010902
050B040F
01000A04
0FF9FD0B
F7030B0F
FE0E0008
010F0511
FF02020B
FF06F308
02030609
F80FF605
F1FEFF0C
FA02F906
F9F9FA08
F9F203FA
0AFBF60A
08F7F5FF
FDF8F6FE
FFFD050D
01FEF2FB
FEF9F0FF
0CFFEEFA
07FE0403
F60905FA
FA06F90A
01F90601
10FD0902
0208F8F7
FCFFFB02
0812F100
0906010D
06FEF5F7
0209FE00
01FB0902
0905FD08
F613FB0A
01F8FBFA
FDFF05F8
050E09FC
01080407
10F90BFD
090B08FC
FB0C060A
0309F804
FFF7FE02
F9FDFC09
FAFB0201
00FB01FB
FF0915F5
FAF6F807
F7FAFE19
FF010709
0E0105FE
FF03F205
07FE0A03
04FA0AFE
05F60002
0405F4FF
0100FCF3
06020406
0A0407FC
0B02FEFD
EE030D06
04FEFAFE
F905FE05
FB09FF03
09FBFF0A
0206F4FD
FB0001F8
11F8FEFB
FE00FDFF
FDF7FB00
0FFBFCFC
F10AF5FA
FEFA0008
EDEE03F7
FF00F106
FDF20104
FDE20302
E70DF9F8
EDFC03FB
F702F6FD
FC0E0207
F5F9F80E
0703FE0B
F7030203
FEF80508
FCFB0407
05080D05
08080802
0A0C0B0B
06121EE4
0405FE04
041312F8
02000A03
FAF6FC04
05010BFB
F91E0AF3
F3060400
FE0303EB
F6F509FE
F6FE05F7
F90103FC
F1F40500
FBF807FD
FD03FBFB
0FF3EAFE
05FEF805
FF02E109
0101FBFC
FF02FD01
0FFFEFFF
00FDF9F7
FB00F9F9
FFFBFC06
01100505
0402F906
0009F819
FD080A03
F903FD04
F3FAFBFD
F7FC0306
FDFDF6F6
FB0CF8FD
FB0408FD
F80B03FA
FA0501F6
02F5F7F9
0401F9EE
070B02F9
FDFA03FF
FDF8FB06
FA1A0101
FFF805F5
FAFAFCF8
F3220305
030BFFFF
0C0302F8
0A0106F8
00120100
06FB0103
02F405F9
FB020101
010802FC
000112E9
0BED0402
F300F904
FA0DF903
00FD01F5
ECFD0306
021205FA
0C0D00F3
05FC00FD
0400F807
FB0106FC
FF01FC02
03120D10
05040701
05FE0AFD
F803FD01
02040F00
01FB0600
0308F908
F8FC06ED
F4FD02F9
030B0806
FBFBFAEA
FAFA04FE
06090104
0AEEFEF3
F20008FD
031003F3
0A0DF0F6
0D03F7F3
F800F5F2
0A05F7F9
0905FA03
FCFAF0F2
FD02FD02
0803FA07
F8FBFA09
02F80801
F80606F7
FE11FEFA
08F90308
FB050B01
F6FB03F7
04FD0017
F409F513
E9FE0412
09FEEE00
02F507FC
FCF9FCFA
07FEFCF4
0CFA06F4
0CFAFFFA
F5FFF7F7
02F9F7ED
FBFA07F4
00FD0301
F9F80204
0202FCF7
03F8FD00
03030008
F80AFDFF
FB05FCF7
00050402
F802FF0A
09F40DDE
05FD00F8
00F506E6
170604FC
0409FB05
FE07FEF4
060A03F8
0603FFF5
0103FFFD
04030FFA
0100030B
010D0300
0CFDF900
FAF8EB11
00040303
FD0200F9
04FA0202
FC06FCFF
FB0BF8FC
FF10F4FD
F90AED01
FF12FC00
0004FFFC
FD0306FF
04F8F1F7
0A03FB02
EF040308
0B090504
FC030605
FEF8060F
F7F50D02
FC0001F1
FFF909FD
04F8090D
130A0206
FFFD06FC
07F2F20D
F7F60202
01F90A01
EEFA0203
F5F60400
FFF8FDFD
050204F9
0507FCF7
0000F501
090705FD
0A04FE00
F8EBFEF2
0A03F207
080600FE
05FB04F4
00F808FB
FAFAF7F9
FEF8F7E9
02FA08FD
FAFE08F8
100209FF
FD04FA07
0301F9FE
0AFA10FF
FBFD0DF2
F3FC05F2
060808FE
FB020406
FDF9FCF7
0F09FC0B
EFF50601
EF03F6FA
000805FB
02F9FE02
02F8FAFC
1203FF00
020D0906
F40500FA
03050F06
F2F9FFFC
FCFEFDF8
07FAFD04
04040007
02F3F003
02FEE40C
06EA14FE
00F30210
10FFF7F6
01FFFD05
FBFFFB03
FAF505FE
FB110DFF
03FF0101
03000B05
F4FEF801
F709FEF0
FC01FDF3
08FEFF0D
020001F7
040508FF
000701F8
0101FEF5
0A050305
FE180BFB
01FEF901
F80CFF04
F2F3FB05
02030105
0302FD03
FD01FB00
FEF4F400
0008F705
0305FDFE
05F50B06
FCFD080E
FC0000FC
06F907FC
F907F90A
F90203FE
F9020708
FA0C0807
04E90708
FEFEF90E
0201F9F9
0408F7FC
FDFCF408
FDF6ECF6
05E500F4
06D3FE00
0214F901
EDFF0B01
FF0E0DFE
FB080700
02FD04F8
FC0607FA
FA02FDFD
FCF70202
08FEFE09
000D00F9
07FA0C04
000206F7
07FC0119
FAF9FDF9
FAED00FC
0CFC0408
FD0400FA
FDFEF80F
F703EE0B
07FE0C00
FA110700
E1F911F4
05FA1509
11FEF3FF
FB020600
12F310FF
04F1FAF4
FF0307F1
0AFC01F4
FD010903
0706F902
09FAF204
FC0EF500
1100F40D
F9F9F60E
F103F80F
FD00F7FC
ECDC02F4
0B0209F8
03F3EB02
FEFA08EF
FC010100
02FAF304
FCF602F7
0410FB00
03EDF30A
03F91B08
F10503FE
FF060712
12FE11FF
14F70B07
0CEFFE05
0AFC050F
FD02FBF7
FE04FB1C
ECFA07F1
F5F8FC02
F00103FC
0208F607
020E03FF
FB040702
0BFDF607
FF02F305
FF0CFE01
0200F305
F40BFF00
F8020902
0501F514
02F905F8
F9FC1010
FA1300F3
FA060BFF
F017F4FF
00FFFB08
EEFBF90D
F0F2FAF7
10F3EF07
EA11FD01
F0E408FB
FCFBFC10
FDFA06FC
E4F4080B
010F02F9
040102FC
0103FFF8
FB06F9E1
01F804F2
F30505EE
F8F503EA
F9FA02EF
F41A03DE
0303F0FF
0A14FDFF
0908070C
F811F5F6
0C0605FA
080307FE
070BF20B
120A06F6
03EE0A09
F90007FC
F802FE06
FC0618F4
FD16FDFE
06F70001
FE0FF70A
E2F710F7
100111EC
F80A01F7
FEF2E103
0CFCFE0F
F9F6FEFD
FCF6D6FA
FC09FD04
09F9F904
F4F5F8FA
00031706
0B0D0DFB
EC010B0D
FD09F702
06EB08FB
FAF30309
09F8F403
0ED30BF9
FF02130C
FDF50A07
04D315FC
0EF7FDF6
0EF0F6F5
02F4F3E9
FFDE00F8
07F50705
05FDF7FD
0D08FEF7
19F7FA00
FC08F5E6
0001FE05
0FFDFEFB
050BFCF5
01090BF2
03EBFFF3
01FDFDF5
FE0E0604
10F7F512
0E17EC0F
010301F8
F2070804
FB081AFB
F91204FD
F9FFF907
FE030B05
F4060B00
FCE90300
0AF11B09
05F80F08
01FB0A0C
000B0306
0CFB0608
09E00A07
F4FF08FC
07FFF6E5
04010602
F70901F3
FEFE0205
1206FFFC
09FFF909
FF0205F0
0200DE09
03FE09F9
FF050202
0812F9F5
0600FCF9
06070506
0000FF01
00F40004
FDFE02FD
020D08F8
F7F90902
04FE050D
F903FA04
FA010D06
000509FC
0EFD03F8
0101F910
0301FE00
06F9F903
04001800
FB0203FF
FEF7FFF9
0C06FFFF
0412FD00
04FF01F4
FCFC0A00
0D050100
0BFA08F9
010501F2
0104F804
0F040005
090403F9
FE03FC01
FFF5FDFE
020BF9FC
04F909FE
EE0D02FF
F6F8FB05
FBFAFCFF
F9F9FEFD
F80A010A
07FA01FD
0BFCFFFE
08F7F9F9
FFF6FFFF
000F0B04
09F60BFF
FEFDFDFE
00F9FCFE
00030009
0601FBFD
FA040AFB
FCFB03FE
00F9F301
F8FA00FC
00070B03
FFF7FE01
F40B00FA
FEFC0B01
01FC0A00
FAF8FDFF
08FEFFFC
FEFEFE0D
F8FB0BFA
F80DFB05
0403F607
F900FC06
FC040604
050E0508
FFFEFFFC
0300FD01
FE0706FC
04FD0604
0CFB03FB
010902F5
FFFBFF04
040305FA
FC04FAFE
FDFD0107
0408FE05
FDFB0907
04FEF30A
02050508
04010005
F508FB07
05080604
F7FCF8FC
08FAF807
FBF9FAFF
0600F706
EAFEFE07
0D0D05F5
0006FC00
040AFC00
F90902FA
F7000FF3
FEF911FF
FB0002F9
FAFA04F1
03F60201
F5FFFAFE
00F3F7FE
F6FCFE03
F9FD0203
0703F9FB
F300FC04
0805FDFF
00090101
08160100
F8FBFD01
02F5F806
03FF00FC
FD06FD02
0C05FDF6
FE0509F8
FDFBF6FB
1504FC01
0D240403
0509FDFD
10FD08FF
0705FBFE
0816FEFF
02FFFD0A
04FC0BF5
08F50205
0301FCFC
FCFC040A
0AFE0AFF
06F5FF06
080002F6
0503FC08
010105FC
030100F2
04FB00FE
0A050202
05FAFCFC
0CFC0203
02FCFDF8
060404F6
01FFE6FA
0500FEF4
04F5FBF5
0200FCF2
FE00FA10
0100ED09
F605F200
06020B03
04170600
F70CFC06
FFFBF1EF
01FFEEF8
FAF2F302
FDFFED04
FD0002F7
F3F70B01
FCFB030E
FC0A110F
000907FE
F5030911
F306040C
02FF0318
F009FEF9
05000106
02FC0C05
F30E07F4
08FBF9F5
FCF90805
F40512FE
F0031804
02050401
F8FF08FE
08020A01
F5FCFB04
0CFF07F1
FBFF0603
F2FB03FA
07F8F915
F9FE0811
F3FA0316
F6FBFB0D
EFFE0602
020BFB0D
0502FFFB
02FD03FB
04FFFB0B
0803FDFF
05FCFC0D
18E8F108
000506FD
FA09FD07
FFF5060C
02EF0603
FDF6050C
FCF50104
FD0CFF07
FB0F0009
0A04FF0A
020CF603
0907F807
01FCF700
0B02E901
0C01FB01
07FFFA00
F6F80006
FFF6F50B
0709FB07
EFFFFC0C
F4FB0206
F8FBFD05
F7040812
FA000C05
00FB0000
01FB02F9
FCFC05FA
00E40501
FBF001FF
F8F3FDFC
01DF05FF
03FBFA04
00FE0401
FBF604FB
EEFCFDFF
EEFCF80C
F6F7050F
0806F70B
FDF70910
F9F804FA
04E90BF3
0000060B
00FDF408
0201F80B
02020105
08020F19
00FD0503
06FDF9FE
FD02FD04
F30308FD
F501F9FB
FBFC0202
0B02F8F7
03FEF5F8
1C0F06FE
00FDF202
00F90001
0902FBFF
0309FC06
09FF0202
0517F9FB
0B05FFFA
01FBFCFC
15FDF308
F4FB03FC
F4F0FF01
0500F807
F20F0607
FE04F506
06040202
FB0204F0
EF0AFFF2
DF07FDF9
FC0101F2
FB0802F9
FA0803FA
F90806F4
06050605
FC010508
FF02E809
FFFF06FF
E5EC1B19
05F303FD
F9FF0A03
F3FA0708
04000D0E
05FFF901
FD030201
FE0304EE
FFF500E5
FEEFF7F1
FE0C0AFA
F708FDEF
FEFEFBFE
0C040DFD
F4FE07FD
FC030CFB
F9FB00FB
FDF3FC05
FA0106FE
F8F8F804
F60B1301
F302FAFD
FA080001
FF00FF07
EFF71206
0605FA04
03F7FE05
0406F805
0503FFFE
060E090F
F80DFFFA
00050804
05F9FEFD
0206FE07
FC05F30A
FF02FDFC
F4FFFBFA
F0EFF703
EB0B0DFE
F5F3FBF5
07E9FB02
FFF80104
05000A18
FEFFFF14
FCFF150C
E8F2F103
F5E809FB
04FDFCFF
03090F07
06FCF809
0D0502EA
01F2FF07
0207FFFC
130E0004
070604FB
FF04FDF5
FCFAFFF6
02F3FDEF
F1FCFCF6
05FE0AF1
01FF03F3
0A040504
E8FFF4FD
00030202
F4FD04F3
04F5EBF6
0402F103
F7FE03FD
0C030211
0200FCFA
00FAFFF9
0B14EEE8
010DFD05
FDF9FA00
08FD1214
06FF0F05
0CF305FF
FCF2FDF3
FEF908FD
0506FC00
0505FFFC
08000304
FFFD13F2
F107FC09
F7F1F9FF
FC040406
F20215F9
FEFFFB01
01FE0104
0408030C
06010012
F4F608F9
F9FDFDF9
FF07F506
0604FCF7
F4FE0108
F4F90304
FD0DF804
031A0206
030406FD
07EEFD00
01EB0002
FAF5FAF7
0308F9F1
0901EC05
FFF5F510
EF0C0705
FBF807FB
FA01030A
F908F2F2
0508F8F8
F50DF7F9
F8FDFE11
FC00FBFE
00FD01FF
F310FB05
F9010CFC
FDF8F908
04F30803
07FC04FE
FD030101
06090B03
09FFFF08
FAFDFDF7
F500FB0B
EFF1F90A
FCFF0003
FAF81000
08FCFFF2
FE090800
F901FFF9
050103FF
0902FAFF
F500F80B
FE090400
0300F606
ED09130B
EDB4FDF3
05E90E0A
FCFC01FF
FE1C0905
0D10F4FD
FEFB08FC
0509EFFD
0404FDF6
0207F9F8
FD03F0FB
0507FE01
FF010C04
FA0209F5
FE08EEFB
0F030306
FFF80003
00FFF102
01FAFEF8
0EFCFBFB
F6FCFDFF
120BF803
F10601F7
0500FB03
FF0007F9
FDFF11FB
020E0AFC
F8FE0305
FD010B00
F50202FE
FB000502
FE1100FA
F701FAF9
FF0CFB0D
FD00F801
02F70010
04FFF509
FFF6FF03
FA00FB00
E1ED0EFA
F9F902F1
FA0205FF
01F70601
07FFFEFE
FBF6000A
0204F405
FE03FF05
FA04F503
040607FC
040B0304
0109FDFC
F40004F6
FEFBFCF2
030303F6
01FE0608
0108010C
FAFF0501
080CFEFB
FC0006F8
F9FAF800
06F80506
F2F9FF06
FB00000B
FF00FF07
05050204
04F9FC02
FF0C0619
01100307
FD05FE12
0705F411
FF04F80E
07FEE512
FB0208FF
EBF801FD
FDFFF602
08160603
0901FC05
0FFBFF0A
0101F403
FDF70202
03EFFC02
0BFD03F2
0403FA05
F8FCFA08
0A0CF802
FD090900
01070205
F8F9020A
FD030105
F9F6080D
F9FFF802
F702F902
FC080908
FDF6FCFF
F0FEF70D
F9F80705
01FE03FF
FFFFFF05
02F6FFF1
03FAFAF5
05FCFF04
02F80800
09FAFDF0
0F020907
FEF80FF1
F6FBF900
FCFCFD09
04FBFC03
08F60E0A
F9050100
020404FB
FCEAFB04
F500FF02
02FAF803
07FDFE0A
0A030502
05050A06
04050204
050401FD
F8FD0307
F507F108
04070107
F9070207
FE05F8F0
FEFC05FC
07020003
01FBEFFB
0DFEFEFE
060401FD
0209FCFB
0103FDFA
F70108FD
0206FA03
04030500
FF02020E
FF01FD07
0202FEFB
08FF0704
FB02FE09
F804F5F3
01FFFD04
020800FE
FD090400
030EF8FC
1008F7F9
FF03FEF6
FD01F6FB
07FEF708
03FDFA05
F901FCFA
02F6FA05
FFF509FC
F4F40BFE
0BFC0906
0503FD05
0AF50203
02FF02F8
04F8FC05
03F20405
FEFC00F2
00FE07EA
01F900F0
F70502F8
01FB01F6
07FD0101
F90D0BF4
FB0809DE
000707F9
00F301FC
07FB0404
FEFBF80E
F4FD1003
F5EC2402
EDFAF5FB
03FB0100
FEFB0500
F9FBFCF7
05FBEFFD
FE050A0A
1202F801
F5050002
FF000400
00040B02
FB160715
F7070E04
FB090610
08F6EF04
00FA00FD
0001F405
0202FA0A
F7000603
08FAFF02
0BF9F5FF
0604020B
0704FFF9
1208FE18
0400F209
0EFD0106
04060E01
FB060102
FBFF0E16
01090711
0000060B
FEF806FE
FBFFFFF8
FEFE07FA
020AFEF9
0EF3FFFF
FFF90302
010C03FF
05FBF40A
06F1EA03
F705EDFC
05FD060A
0BFADF03
F601FD11
05050F01
04F6EF0F
03FB0304
FD0A07EC
EC03F4FB
FEFDE5F6
0607FE05
FE0210F8
FB0AF704
FC010200
FBFB02FF
0AFDFD0D
FC0D070A
FC01FE0E
0C09FF0F
06F7F8FE
FB04F7FE
07030716
F4FFF70E
05FDEC0D
05FD02FC
07FDF706
0DFBF8F2
0208F808
06000715
FA080313
0013FB0A
04071104
F7090A04
FEF60504
FBF3070F
05F70506
0DF60609
FCEDFE0B
0AF6FA04
09F9F4FF
F7EB070A
0AFBFC13
0BFBFC0B
FCF9060B
FCFFF810
0200FC1D
FAFCFC08
04F40007
FAEAFE0E
F9FF000D
0400FEF0
00FCFC04
F514001B
FCFA010C
F905020B
E6020505
01000803
02030604
FAF90CFD
07000AFF
09FF06FE
0604FD03
12010803
0800000B
00F5E912
FEF3F10D
F801F2FC
F807F5FB
FDF4F2F4
F106F2FE
FDFFED00
05F1F7F7
090CEF0A
100004FF
001DFFFE
00F601FD
05F9F6FF
0808FE01
F90505FF
0DFEFC14
010C06FE
F2F90011
FF02FF08
0501FDFB
0F010201
09F1FE08
03F2FCFE
15FFFCFE
00F5FFFD
07FAFE0A
0307FE06
01FB0001
F804F902
0309FBFE
FFF20104
F5060705
FA0704FF
0101FF02
00FEF6FE
08FDFB08
FBF10802
FB00FDF8
0103EBED
0004FA02
0903ECF8
0401FF03
000501EF
020A0302
030D01F3
FEFB0500
02F9FC00
05FB0B01
0104FD00
FF0310F9
F209050A
FF031007
F80B0F09
F70C1104
0807F9FF
05060103
03F70005
010802FA
FF070505
0303FB08
05F9FE09
02FEFE08
12F7FB0A
0306FD06
F5FA0104
FA090510
03FF0806
05020BF3
03F80508
F50F0213
FC0306F9
000102FA
02F40200
0708FB02
0206FEFD
FAFB0604
000201FA
FF0006FF
0CF1E402
03F2ED08
04F9E806
05FB0B05
03F30601
00F400FF
0AFB0A00
FD03FD04
07FA03EF
FF0A0C00
F10201FA
FCFEF4F5
01060701
FCFE00FD
FC080DFB
05070409
04000AFB
F8F903F7
02FFFE01
FEFC00FF
FC0A0400
FAFE08FF
0AFA0502
00090501
07F8F5FE
05FD0603
FB050103
FB00FEE9
F90F0100
FB1EFF0B
F9F8FF09
05FF0507
0008FD08
FC050101
FB060F02
F9FD060B
03060D08
FBFE09FF
FE001602
06040105
FD0207F5
0A030206
FB03FC00
F80702F7
F905F807
F40CF9F8
FD070300
F602FF07
0DF6FCFF
F6020DFF
FA08FA02
0102FAF9
FDFE03FF
000AFF02
02FDFE03
F9FB0609
FE070005
0B00FE0C
FA0303FE
090601F7
FBFAFD04
060A0AFF
010407FE
0506F8FC
0502FF00
FEFF01FF
FEF9FA05
FFFEF8FC
F9060600
FDEC01FA
00FCFB03
FC030001
1407FE02
00FCFF00
FB0BFDFF
090B0804
FD1008F7
03070DF7
0606FD04
F905F906
0103FF0A
0803FC11
FE04F50D
FEFB0009
0001F3FE
FBFBF7FA
03FA0EFB
FFFA000B
F7F6FB08
05FE0DF6
07FE0702
04F80DFE
0B050B00
0E020502
060408FE
F70DFE01
02050B00
04030BFF
FE020309
0E04F3F9
FEFFF7FB
04FDEFFC
040B0AF6
04110CF2
E9F810F6
040E02F4
02FFFAFB
E60003F2
F8FEF3F7
FFFAFE00
01FD08F3
030309F1
03F505FE
180C000C
F700F907
FBF90501
01F3FB05
0C08FB10
F7FF090D
FF08F717
F8FD000F
FEF7FA03
070BE213
0002000D
0AF21405
FCF3FA0C
03F1F0FE
01F60201
EFFDFD0E
F7081D14
F20FFE08
FD01F011
F0071204
FBFD0E0B
FFF50007
0303FB11
110003FE
12FA0118
09FEFC06
F8F50409
F4F80615
F80001FB
03FAFDFB
05F5F804
07030803
06FEFCFB
FFF20003
080104F4
FBF80902
08E31700
0C11FF08
00F5F7F7
F8FE0210
FB18FDFD
FDFCFBF5
0501FAED
000F0307
F901FC09
07F4FB0D
F002FD08
FFFCFAFD
FFF60604
F00A08F2
05E7FDFC
02FF1403
F4FEFEEB
03FA010B
0616FC02
EDFBFF0C
F2FEF104
FA0FFB01
00FBFB08
05010D04
0A07050D
180F14FE
150A05F7
1AF41D07
01F502FB
F5F5FBFA
FEF60F02
05010509
07F1FFF7
03010002
FAF207FD
F1040BFB
EA04FEE9
0AF6F800
0D03F3FD
FD02FA00
0404F5FB
FD040103
FFFFFA09
03F4E605
08FCEE05
FFEEFB02
F70CF7F9
EB0401FE
FFF2FEFA
FE18160E
FB0A0BFF
000A0509
03FC0AF7
F401F100
FAFC09FB
07FBFAFC
FFFEFC00
FE011005
040EF9F6
060BFC01
EE090F02
03000609
EEF8F504
FD0301ED
F209040D
FFF80206
F4F8FF03
0112FF01
01FA0406
0B06FA02
0C07FC00
0800F4EF
FD0FFBFE
070F0008
F207FAF6
F9FEFD07
04EEF60B
020CF803
FF13F50C
F80C12E6
030304FB
FD0B1E0F
EDF6FCF4
0AF9EC00
0406FE19
FBF50000
04F9F903
18040F0B
FBF20A08
00F40108
01FF0411
0802FBF7
FBF805FA
F709050C
13FEFAF9
0208F8FF
F40BF403
0BF9F7FA
070B04FC
0BFBFBF3
FF0106FE
06FEF1F2
00FD15F6
0EF8FFFE
0C1103F6
04FFFDFA
F8070DF9
03000101
000101FE
FE0000F7
FBFF0CFE
FD021001
F9F90D07
FD050B0B
F9070504
0700F702
060AFFFB
01F9FD09
1005F503
FFF2050A
0803060C
06FBFD0E
FBFCFFF8
00F91307
FCFEF7FE
F108FD03
FFFD140D
F804FF09
060503F9
F9FFF801
EE04FF06
15FDFA0C
F101EE07
05F903FB
010CFE00
FD08FD02
00EEFBFD
0813F905
06EBFD00
0003F109
09F2F507
09000702
00F90500
04FB0603
FFF207FE
F8F70A00
01FD0403
FAFD05F9
FF0103FC
FA030911
F9F6FD04
FCFDFAFF
07EEFDFB
F5FD0203
FD07090A
F8F7080B
FBFD0402
07040EFB
040409FF
F5FA09FE
00080808
05F513FC
020500FE
04F30100
07030F00
08020B03
FCF8FE02
00050301
0609000B
09050104
FC03080A
FD020F0B
0206020B
F5090205
EE090B0D
FA040011
030800FA
EC020205
00050BF9
04040AFC
FF020EFB
00030203
FFFAFD09
FC0305FC
F805FF0A
EA03F6FF
01050FFF
12090505
FE05F6FB
0C0103FF
0C0203F6
F8000308
0D01F7FC
FA03FAFD
FC08FD00
FCFDFEFD
FDF60202
06F50305
0301FFF7
FF030603
00F90908
010410FF
F8FF0004
03FBFF03
FBF607FD
06FEF201
01010300
1103F909
0EFBFDF2
0A13FC00
01F8FDFD
FF03F1FF
06FCF605
F607FB03
FD05FFF9
FEF6FFFB
FAF70E00
00FF0B01
11010BF8
FF08FB02
0309F702
0902F307
0102FAFD
FF0107FC
FD090104
0806FFF7
0506F3FA
FEFB0000
FF0AFB00
0A07090A
03FC00F4
0B090D11
FFFDFC01
F0F802FE
F7FFFFFF
FF051103
F400000F
FFFF0604
F50100FE
020A08FC
01F9FEF4
F800F805
01F605FC
0600FF05
0A05F408
08F406FE
FAF107FC
FD08FBFF
03020909
FEFD010A
0B01FB0A
FB0301FC
FD0FFFF4
040308FF
FEFC0301
FF0509FE
04060301
010F0304
F30C0809
FF04FA03
FBEEFDFD
12FF0213
FEFB08FF
F7FE02F7
0AFD0906
0C05090C
0B010B09
03FF0A05
FF03FF00
020300FF
02FC040C
02040006
01000100
03FAFFFF
FD060207
F8090C03
F8FBFBEF
FEF3FCF8
F6FA0405
FF03FC01
01F501FE
F1FC02FE
F6FF02FF
0CF7EAF9
05F3F408
FFFEED06
05F5F508
02FF0107
0BFA01F9
FDF9FCF9
FDF60301
04FBFAF9
07FA0200
FC0800FC
FFFE01FC
FD06070B
F1FD01FD
040203F1
FCFA0409
01EF03FA
01F7F503
04F205FF
02FB0705
06090406
08F60DEC
F901F7F9
F803FE06
06F60BFA
FF0103F7
FA0DFE04
01FFFCF5
FB00F501
011BFA02
07050611
FFFA0806
01FD000C
09050402
FD000206
05FC000A
FFFD0509
030305FA
090417EF
FDFDFD04
F5F1FB06
F9FFF704
FEFDFEFC
FF09FBFA
F6040003
FC0DF0F8
F100F702
01F5F405
F60A0B04
09060803
0413FC04
F9030D03
0707FCF9
FBF9F9FF
060A0405
FCFB0203
0601FD0B
05FB0303
04FC04FC
0B060703
FD060304
050509FC
0A0A0205
03FE08F9
060601F6
000EFBFC
FB00F305
E903FCFB
FE00FC08
010BEDF2
0106F8FD
F7FA0203
FB03F802
FE06F1FB
F608FA06
09FD0900
F9020903
FDFF0702
0E1F08F5
F8010D00
06FAFFF9
0904FD14
0506010B
02FA020A
FF070101
F700F604
FC040D03
0103FEFB
FF02FDEF
04010BFB
F9FF06F9
F9F80601
09FC1702
020306FE
FF020504
FCFBF203
0B0D0802
FE0807FF
06FE0200
04FBF6F8
070002FD
01FAF60D
0602FBF9
F4FFFAF6
F7FE0507
FAF2F5FE
FCEAF001
00FD0008
FC0106FD
06030500
0105FDFD
FB1E00F5
01F60105
1004FBFA
F601FFFD
04F5FAF7
02010303
09F6FC13
03FC0B06
FD06F5F6
F6E9F50C
02EFFC0A
FEE2FA13
FFF400FF
03FEFA00
FEF7FE05
F5F803FE
090306F9
0EFD0B13
F907050E
03020D0B
06F9060D
F705F305
07FDFD07
FFFDFC14
FB06FA0C
FC00FCF6
EF000006
04080325
F7030408
FFF40113
0F070003
FAFC02FD
05030006
140A0103
FE09FBF7
0D0CFB0C
FA0C00FF
01FEFE0B
03F61300
FD09FEFF
F9FFFF03
F7F90808
F9080B06
03040B00
09FE0900
F4FEF809
F804F300
FFFCF404
0305F305
EAFCF612
FBFCFE0B
08050200
FEF302FC
E9F40B00
F80902E4
FEFD03EC
05F8FCF6
05FBFEF3
F8FD03F2
FA020407
FEFA05ED
08FC0AEA
F700F507
190000FB
0D0001FC
04F80202
0B060500
07E7070C
04FAFEFD
01F610FF
0306020B
FFFD1108
E8D8FCF6
EBF50401
F90807FE
02F9FB04
01000301
F8EFFFF8
F4ECFA04
F9FF07FF
FAE20CF8
01F4F505
0AF1F501
F9FC0508
0003ECFD
F804F009
00FE0AFE
F808FDF8
03FE09FF
FE000DF6
0FC60304
05F1FD0E
08060208
FDDD020D
09E1FB09
03E700F2
FF00FF12
F9F80A05
0EEA0FF7
FD00FFE6
0301FAEC
09F9F0EA
0301FE07
01FA01FD
FB06FFFC
010B07EE
0EFDEEFF
02F8EEF3
1F08F303
FE04F5FC
F915F6F8
1112FC0A
02030802
08FCFEF4
08FA030B
F2F60807
0CF40410
EE0B0EF8
F70711FE
E9052007
FEF602F6
F50101F8
FCFF0604
FE080E03
F300F3F9
05F80801
F3F815FC
01F713EF
03FB0BF1
03FDFD02
01FE01FB
0500FDFF
07FB0AFD
100308F0
050109FC
00E9F7F2
04F81005
040517FA
00090300
0C11F4F8
FF00F7F8
091500E8
030AFAFA
08F6FEF5
0E020408
F9FC05F0
08FD0301
0401FBFE
01F5F6FE
05FAFFFA
02FA0212
FBFEED06
F0F803FC
00FAF007
0409F804
FF06F9FE
F00AF00D
F309F5FF
080902FE
00EFFA0F
FE020B04
0EFE06F7
041C02F4
070300FE
0301F8F9
15100FFC
060111FB
F8FC0FF7
0517040A
0801FDFD
FAFE0BEA
FCF50111
FB030100
FEFC00FA
04EFFF0C
0202FDFA
00010400
10E4FB19
10F1F704
FEFF0102
0BF908F5
FEFC0A00
03F80FF9
090808F8
F9F80005
FCF9FEF9
080DFFE1
FDFCFEFA
FBF7F7F4
0C0C09FA
02FEFCFC
0100EE03
0A0C05F5
FD02FC02
FA05060A
05120503
090BFF01
F70707EE
07EEF600
F9F9FC04
0A090B06
E9FE0410
F008FD02
F9080808
07F4FA02
05FFFCFC
F8100707
11131612
02060403
FCF601FE
0A020805
01F709F6
060A05FC
FF01120F
03FB0900
0C0BFD02
01000403
0904FDFC
050002FC
05EC0602
07FAFC00
FBFA00FE
0AF607FC
ED0CFF06
F80A0200
F80CF8FD
0D0101FF
0101F808
FA08EE05
F6FEFEFC
F30502FA
F110010E
FC010202
040E0400
E50304F3
03F70602
01FEFE00
F3020BEF
F5F1FDFC
FFF702FD
FE0F0304
F8FDFEFC
FB020302
FDFBF90D
F20DF416
EDFAFD00
FE0105FA
0EFDFE00
03FEFCFA
FF02FF08
FF0B0C02
0D0405F7
10FDFE02
06FFFFF3
081C09F7
1108F500
08FDFDF2
FB14FFF1
11000412
130AF511
FF1DFF0C
04FF0B08
F3F80600
FE030BEC
F4030503
F4F8F7F8
FEF30B01
10F80A03
14F802FE
01FD070C
F9F00506
0AF5FC00
08F9FFFD
F8F2F70A
F9F4F804
0403020A
0015F3F8
F409F0F7
0106E604
0506FA03
FB0801FF
FC09FBF8
F0140905
FC1915FC
05032003
F1FE0300
080C150C
09FC1310
EEFF0D08
07030314
FFFF0519
F1FB0606
01FCFEFC
FDFA02FB
DEFC0307
00FCFC01
0CF60DFE
09F704F9
0EF506F3
0FF70407
0C0211FC
090B0FFA
0700080A
0AF706FA
08F3FCEF
09FBF5F7
021B05F6
0BFDFE05
FFFE0501
080D0807
02F4FDFF
08F90308
03FE0300
FCF7FE18
FA02F70A
E606091E
F9170A09
F60C0B08
F7FE0006
F4F8FE01
06FB04FF
FC03FE07
11F50203
05F715F8
0305EEFA
08FFF700
0CFAF908
FB0DF705
00FFFF0C
0701FF0F
F70BF8FD
F503FD0F
050C0CF8
04F7ED08
F6FBE80A
FFFBE802
06F8EDFF
06FCE0FE
F5F3F4F8
0902F7FD
F606FD01
03011706
03F40201
0602FDFE
FE0702FA
FBF50203
F9070606
16F50005
F502F204
FB06ED06
0BF40BFA
1A04FC05
12010204
0302FFFE
070403F6
0415FDFD
F802FCFF
0E0902F6
030BFFFE
F3F7F207
F7FE0DFF
04000A03
FFFC12F6
00FFF9FF
FD000B04
FDF70401
0305F1F7
040F0D08
0112100F
08FFF5F7
FD010DFA
FF06F2F8
0CFB10FF
14F41BFF
02FEFBF3
0403FAF8
0BFB0F04
0AFCFCFB
F30C0CE4
FE01FBFB
09F704F8
FA0103E9
05FCFFF9
FB0407F9
F0FEECF4
0FF4F900
F0FB05ED
F20EFFD0
04FAFBE0
FAFD00E4
F405FFEF
07FBFEFA
0DF50805
FE00F6DE
0411FFEF
05F80A0A
1600FDF2
FE0302FA
05E8EFF1
12F9F5F7
0EF6F9FD
FF06F904
11F5F5ED
1005F5F6
040EE803
13E7040D
05F608FC
04EF01F5
0BFC07FC
00EF0401
0EFC0EF2
0E05FBFE
1405FA08
08FAFBF0
FAEFFEF6
FAEAFEEA
08EFFFF9
FAF8FDFD
08F5F5F0
11EFFDF7
01F80FF2
0F0313FA
13FDF7FA
FAFF05FF
0C0D14E7
170A00F7
FAFDEBF1
FB0E130C
EE140706
022501FA
0617F802
06F707FD
FDF6FC02
0EF9E5E5
F7FDFBEC
0DECED03
F1FBF80D
D40BE215
0605EFF1
0DF2F009
1607EAFE
F7F0FB0D
02090AE2
FF11EFF1
E9EEF312
CAE5F8E5
E80DEADD
EA1EFF05
F006F605
F9F6FAF7
DFF70806
E1070917
FCEB01EB
FF0211F6
F7040E19
EE0BEA0E
FE07FCF1
06071504
0DEF0E1F
1501F921
0AE7EC18
F8E8260A
F3F4F302
1CFEF1FC
0DDFF8F2
0BF81A0F
FCFD2101
04FC2109
E5F80818
D3FFF7F9
24FB08E6
0805FCEB
06F4FA03
F6ECEA0E
08130A02
1E00FAF1
04F3FBFC
FF1E0EEA
00E512FB
FDDF09FE
0C0D0BF9
0EFBFAF5
0E08F6E7
01F105FE
F2EBDFF0
F802F808
180406FF
0003FE0E
ED19EFE7
04E904F3
01021C06
02F0FFE8
EFF80EF2
E6F1100F
12F10206
0511FF01
FA1103F3
1004EAFE
080014F1
0301FEF6
ED05ED0B
15040D13
0003FFF9
FE0EE60D
0507FA10
091BF8FF
E8F9EF0E
05DFF7DB
00EB0DE9
FE0D100A
FA0402E1
07F81BF2
02FC0E01
F5050803
05110BFF
05FF08C7
E60008FB
F0F80404
01050DFC
FDE0EE07
EDFFF0F1
011712F9
0D21DE05
EE03EA02
02FB0614
F512F107
F6F9050A
F813F5FB
F5FF0BFE
F80110FE
DE00F6F5
F211FDFA
E720F5FF
F8FE0910
FE1BFC01
020AF906
03110108
0A1314F3
0808FD13
01FFFF03
FCF70806
110906F7
0412E311
F3E30909
FEDEF5E9
0916CF03
08F7070F
FFF11BF4
F9FD13EF
18FD05F1
09FE05FD
FA12F9FB
091F0802
FC0AFD17
0A03FFFE
050E14F8
FD0500FD
0F10E700
13FD1AF4
080B09FF
070306E6
031011F9
F5F503FA
19FEF901
10FFF2F9
FBECFAEA
0E0D0308
0EFBF2F7
10FC00FA
040E04F7
0AFC0DFA
09F4E601
0DF9F1FC
1605FAF7
FB030BF5
0C0501EC
05F605F9
FB0002E8
FE07FD03
FEFBE90E
FA05F5F0
0C01FFF4
070709F7
FF05FD06
ED00F705
0603EFFC
0CF301FD
08FCFFFF
06100804
01F7FCFD
04FA0B05
FB0EFAF4
08FC05FB
0CFC08E9
EE0FF9ED
FAFDFF09
FD09F4F6
F50C08F2
FBFA0B11
ECFC00F5
00000101
0110FBF8
07FD0AE6
FDF7050E
F7000309
F1000408
12ED06FB
001DFE06
04030806
02F4F804
EFEE0412
FC03070F
10000D02
05020305
0CFA0905
00021201
ECFD0EEA
FCF01007
FBF60204
F80307FE
F9F211FF
0E0B0305
16FB09F2
030D00F5
06F6F7EA
FFFB0DEE
F80B0A03
F80EFAF6
F40BF4FD
FE0D13EF
01E806E9
FF0008F3
06FDFD07
06FA03FC
070E0EFE
FB0E0407
0905EFF0
10F5FB02
F917E708
141B0A12
05FB000E
04020006
03080F09
F21509F9
FB1404F6
FEFFFF0A
13090CF2
0906FF08
06F1080A
08FD020A
1406F90A
F8FA0105
FE0E0008
F80BF20C
F8060910
FA0C070A
0403EF01
F7050CFC
06100802
090B0C0E
180D0501
F1010812
FDF0FA10
060B080B
0F160E00
0B0A0004
0203F5F3
F8FAF300
F5F4F203
02F30DE6
F9F5F6F9
F70114FA
00F4FFF9
FC02EF02
ED06FC08
0310060E
F204F604
00110908
EDFD07FB
0503FCFA
EE1204FB
FA0B020C
F70602FB
FCFF02FE
09F109F8
0A120403
FE070701
0EF50206
18600BFE
FB3E06E7
07FCFC05
03030EF8
F1180410
FCEF0A0B
F0ED09FF
090504F2
05FBF5FC
06F00109
04F2040D
0E05F511
06050EF6
10FA00FD
09EB06FB
00E6F106
FDF5FA01
F602F2F6
01FE0A0D
FB09F702
F60AFAF3
0C0DFF07
0400FA0D
