FD04F8FF         
FA02F6FE         
FA08FD00         
01000300         
FEFEF8F9         
FB04FAFB         
F4F609F9         
FC04FDFA         
F900F9F7         
FBFCF906         
00FE06FB         
09FFFB06         
06FEEDFE         
02FBFFF2         
02FCF804         
0601EAFE         
0602FCFC         
0BFEFE04         
070400FF         
FBFCFBFE         
FFFF0306         
03000404         
05050004         
04FE0104         
0401F202         
FEFEFE05         
FD02FE0E         
FEFC05FD         
FCFD0300         
FCFB000C         
00FA01FC         
00FDFCFA         
FEF6FE04         
0CFC00F9         
0A0000FC         
06FA0900         
FB060301         
FFFCFB01         
0304FF05         
02FF0001         
05F80105         
03FA0103         
0805FC02         
05FEFF01         
0A0102FF         
FFFFFBFF         
03FB0200         
0400FA03         
0001FB02         
FC02FFFE         
00FDF302         
FF02FCFB         
01FFFFFF         
0102F6FC         
F2FD00FD         
F8FDFC05         
FB020007         
FBFE01FF         
04000103         
FFFF03FC         
F50102F8         
FFFD11FF         
FE0707F7         
05020403         
FD100402         
04050205         
FC080001         
FB130A04         
0005FE03         
FF07F7F6         
040801FA         
FD00FBEF         
FDF901FB         
F8F8FC01         
FCFEFFFE         
0502FE01         
07030004         
FCFE0402         
020103FB         
FDFF0409         
08FD0A08         
01FDF4F7         
F703FD05         
FB02FF03         
0400F3F5         
FDFE00F9         
F9040102         
0AFCEF03         
0CFDFBFF         
F002FB06         
F404F701         
04030802         
05010302         
08FDF8F9         
0700F5FC         
0302FE02         
0D0EF1FB         
0706F7FC         
FE01F6F5         
05050109         
03FEFC01         
FFFE0100         
00FFFFFA         
00F5FEEE         
FB00FBF6         
F9FB03E6         
F5FD01EB         
F40402E5         
0709FE04         
02F7FE01         
08060004         
030701FF         
FC000005         
030BFFFE         
100B0303         
05090206         
04110800         
FDF9FC02         
FFFFFFFC         
01FD05F7         
00FA0100         
FE0200F6         
FCFE00FB         
03F503EA         
06FCF8EC         
08FEFED5         
F7FCFF00         
04FB00FD         
06070103         
FEFE02FE         
0800FFFC         
0EFF0102         
FD000200         
03030001         
06FDFF08         
FF00FF02         
FF05F8FE         
FA0501FF         
FE0802FE         
02FFFDFB         
FE0501F7         
FF020A02         
FF030102         
0309FF02         
00000000         
00000000         
00000000         
00000000         
00000000         
00000000         
00000000         
00000000         
00000000         
00000000         
00000000         
00000000         
00000000         
00000000         
00000000         
00000000         
00000000         
00000000         
00000000         
00000000         
00000000         
00000000         
00000000         
00000000         
00000000         
00000000         
00000000         
00000000         
00000000         
00000000         
00000000         
00000000         
00000000         
00000000         
00000000         
00000000         
00000000         
00000000         
00000000         
00000000         
00000000         
00000000         
00000000         
00000000         
00000000         
00000000         
00000000         
00000000         
00000000         
00000000         
00000000         
00000000         
00000000         
00000000         
00000000         
00000000         
00000000         
00000000         
00000000         
00000000         
00000000         
00000000         
00000000         
00000000         
00000000         
00000000         
00000000         
00000000         
00000000         
00000000         
00000000         
00000000         
00000000         
00000000         
00000000         
00000000         
00000000         
00000000         
00000000         
00000000         
00000000         
00000000         
00000000         
00000000         
00000000         
00000000         
00000000         
00000000         
00000000         
00000000         
00000000         
00000000         
00000000         
00000000         
00000000         
00000000         
00000000         
00000000         
00000000         
00000000         
00000000         
00000000         
00000000         
00000000         
00000000         
00000000         
00000000         
00000000         
00000000         
00000000         
00000000         
00000000         
00000000         
00000000         
00000000         
00000000         
00000000         
00000000         
00000000         
00000000         
00000000         
00000000         
00000000         
00000000         
00000000         
00000000         
00000000         
00000000         
00000000         
00000000         
00000000         
00000000         
00000000         
00000000         
00000000         
00000000         
00000000         
00000000         
00000000         
00000000         
00000000         
00000000         
00000000         
00000000         
0208FDFD         
0210ECFE         
0F0004F5         
FBF5F8F9         
FC08E3F6         
08F7FFF6         
FFFAEDF2         
021EE8F5         
031E02FF         
25FDFA08         
2D070301         
14FAF0F0         
1BFFFE11         
0FFE0EF5         
13F413FA         
0501FE1C         
13FF0A0D         
05FA0009         
F6FE08F1         
E70516F6         
FE080CF0         
0303F6F8         
0A0601FC         
04F9F509         
020800E6         
11FEF2F2         
0CFAEBF4         
ECF5F709         
2605F706         
F5FF010D         
02F70009         
ECFBFF11         
FCF9FC0C         
0FFBFF02         
ECFCFF0B         
F1FDFD05         
FA05FBF6         
0408FE00         
0C04FEF7         
EC06F5FE         
05F904FD         
FFF60303         
E9FCF6FB         
E60302F1         
EB0902F6         
0704F402         
0A0319FE         
F9010F02         
03FB0204         
0B06F101         
F9FA05FE         
03F805FB         
05F2F004         
000006FD         
1501E9F0         
1C0720F9         
03FBF5F9         
FDFDF80A         
F8FC0BFE         
00FFF9F7         
09F4E902         
0603F10D         
0EFC0709         
02E10A05         
FFFAFF1B         
020110F5         
F8FA0601         
0603080A         
FB0EFB01         
FFE7FB1A         
FEF41539         
F50E1421         
28FE020F         
09F60516         
0E07F90F         
FCF90509         
FE00FE04         
FD01FD08         
EE070405         
01F6010F         
F7060618         
02FF1ADA         
F00625DB         
F2FA28F6         
EFFE00E9         
F60204D2         
F30107F2         
D00502E1         
F2F816F4         
FAF314ED         
F8E6F60A         
111DFB0A         
060EE106         
F6F511FB         
F7F70400         
1A060EFC         
0E0AFDF9         
F9EE05F6         
1EF3E0FA         
EEFA0500         
F8FC05F2         
F702FC05         
01050113         
FB110204         
FB05FC05         
F8F70315         
FE010209         
FD0204FD         
220A05FC         
03F3FB01         
130E04FA         
2DF1FEF9         
09F80CF8         
16030506         
24FDF9FA         
48E70102         
3CFAFE00         
11080AF9         
0BFF0208         
040C02F8         
04FEFF01         
04FF0401         
030602EE         
0801FD02         
00FD07F1         
03FB01F9         
F10A08F9         
C2060E0A         
D0FF030B         
06EC0301         
06FB03FF         
10F80303         
F7F708FB         
EEF90300         
E0F4FAF3         
FF0002FE         
09FF0308         
02FCF704         
02F50202         
F904FEFA         
040000F9         
05F903FE         
06030403         
FA050003         
FDFEFFFE         
FEFAFD00         
FCFC02FC         
02FE0102         
0203FD01         
0008FF04         
0302FBFF         
00FC0600         
01FE0001         
01FF06FD         
FFFF0600         
02FF07FE         
FF0104F8         
05FDFFFD         
02FE02FF         
01000108         
02FC0102         
0003FDFD         
FF01FFFE         
FEFFFFFC         
FCFE00F9         
00FFF904         
05FDFFFF         
0BFDFFFD         
0000FE00         
FC00FBFE         
FA010603         
FB040004         
F90102FE         
07020108         
F9040001         
04FDFBFD         
0105FBFE         
FD01FE01         
080200FE         
03030201         
FBFE0409         
F10102F2         
F70100F8         
040203FE         
FF0A0101         
FE03FFFF         
00060200         
FE050204         
FB00FE00         
01FFF9FD         
FE06FD00         
02000400         
040102FD         
01000002         
FF0002FF         
FFFFF602         
FF0606FC         
FF0204FE         
FC01FFFD         
F9040CFD         
FD020801         
0308FDFD         
00F60400         
F9FA01FD         
01FD00F9         
02FC0BF7         
FE02FD01         
01FC00FE         
F90CFB03         
FE0AFE03         
FFFBFFFE         
FB0802FB         
03FD0400         
FEF602FC         
0300FDFC         
01FCFD01         
F4FFFE03         
0004FE00         
FF0100FF         
FF00FFFF         
0CFD0304         
FDFF0201         
F90302FF         
04FFFF05         
05FE0101         
FBFFFD10         
FB02000D         
FC04FF0F         
FE010008         
F9FD02FD         
FAFEFDFF         
FDFCFF03         
060001F8         
0201FF01         
02FFFC00         
03FE0600         
FF030D05         
FEFBFF00         
FF050505         
FEF7F803         
FA030202         
FDFD0003         
FD020502         
01FC0206         
FE050002         
FB08FE07         
02050202         
01FF06FD         
02FEFC00         
FEFCFE05         
FFFDFE00         
FBFB0000         
01FBFDFD         
05FCFFFF         
FDFD0000         
FFFB0102         
000202FE         
F90205FF         
FEF90105         
0604FF04         
000204FF         
FEFC0304         
FAFFFD01         
000402FD         
01FEFDFC         
FFFFFEFC         
FE0201FB         
02FFFFF8         
010102FA         
03FEFB01         
06FFFC01         
01030302         
01FD0202         
0103FEFE         
FC010202         
00FDFFFF         
FCFC02FE         
FC0203FD         
FF01FE04         
02F50305         
0106FB02         
020500FF         
FD030103         
01F9FB03         
FDFAFD02         
03030201         
FA0000FE         
01FC05FD         
0303FE00         
FDFE0100         
FB08F5FF         
0305FEFD         
01FE0001         
0106F803         
020104FE         
FF0403FE         
0301FA03         
02010001         
00FFFEFA         
0203FAFD         
04FF0300         
0000F7FC         
02FE0103         
06000500         
FC00FC00         
01FFFE08         
FDFE0408         
F7000004         
F8000000         
03040701         
0202FEFE         
FDFD0503         
0002FD05         
0001FF01         
FBFE06FE         
02FF00FD         
F9FE03FD         
FCFE0001         
F9FC01FC         
0FFE0204         
08000004         
FEFDFF02         
0401FF07         
02FD0109         
14FE000B         
080000FF         
0E01FFFA         
04FF00FA         
FD07FB11         
03030107         
06FF04FD         
FEF700F9         
00F80201         
FEFAFEFC         
0103FA04         
0101F7FE         
FFFFFE02         
FCFDFF00         
FDFD02FF         
03FF0502         
02FE0200         
FE01FC03         
0AFD0502         
03020B04         
06FF0305         
FE020102         
02F9F60A         
0700FB02         
03010003         
FD06F805         
0803F90C         
FCFE03FA         
030C04FD         
0402FD03         
02FDFFFF         
FD050101         
02F7FE07         
FF000205         
FC010001         
00FA030B         
FEFEFE0A         
0001FF05         
F601FEFF         
FF02010A         
FD02FE04         
F7FD02FF         
FEFE0107         
FD03FF00         
FB0505FE         
04FC03FD         
0403FE09         
04020601         
FFFA0206         
FD0301FF         
07020206         
00000502         
02000607         
050204FD         
FBFCFEFD         
FE03FDFD         
01FC0607         
0305FAFB         
050507FE         
01FBF903         
03FA0001         
07FDFB01         
03FA0808         
FEFD0005         
030201F4         
020500FA         
FC050001         
06FA06FD         
01F8FFFD         
0002FFFE         
00FFFE05         
0000FAFF         
FE0402FE         
0104FFFE         
03FEFF05         
FC010003         
FC02FDFF         
0101FF01         
FE010205         
010505FC         
09F800FE         
FE01FFFE         
03000003         
0200FDFF         
FE00FFFB         
0303FEFF         
01FD0105         
FE0000FC         
FF03FE02         
FE000206         
04FF05FF         
03010806         
FCFF00FE         
08FE0004         
02FF0503         
03FC0004         
05FE0102         
0305FF00         
0300FFFF         
00F0FFFF         
FF03FC00         
FF0E0001         
030A0202         
FCF4FF07         
02FAFF00         
020701FD         
01070204         
00FFF9FE         
FF0A0B0C         
F809FEEE         
F800F4F6         
0104FFFD         
0207F804         
F9F403FF         
F405FDFB         
0000F1FD         
F6ED0310         
F704FF0B         
F5060003         
04FD00FA         
FEFCF610         
00FAFE09         
0DFA0102         
F606F5F5         
FA03EE05         
0FFF02F3         
FAFD0401         
01FB0001         
0807F9FE         
FAF90500         
020302FB         
FF05F602         
0405FB03         
02FB01FF         
0DFFFB0A         
FAFE0708         
130200F8         
1106F913         
F6FCFF08         
08F7FA03         
06FAF80C         
F5F90207         
04FF0601         
F7000407         
FB020506         
FC040401         
F9FF0708         
01FC0AFA         
FBF90903         
05FC0403         
F3F904FB         
00FCFC02         
08050503         
FCFBFAFE         
0404FD02         
030B1004         
FE02000E         
01000401         
FE031806         
0006FA03         
FCFBF701         
FF000B03         
01000DFF         
010E0804         
0309F309         
FE0511FE         
FB020DFF         
F6F80A03         
EFFDFEF7         
F70506FC         
FB00050B         
FC0404F4         
FCF3FEFC         
040FFFFB         
FBFD01E8         
FF0C00FE         
FC1609F7         
FB07FBEA         
04F8FEFA         
020209FF         
F3FFFDFB         
0107FB03         
10F205FB         
F5FE0207         
0400FD07         
0102060B         
F8F703FA         
09010C07         
07FB00FB         
FBFCFCFE         
F7FFF9F8         
0FF6FE1D         
0AF7FB1C         
F5FC02F9         
FCFD05F8         
0DFF051E         
0DFBFBE5         
12FD08F3         
FAFA0DF7         
F2000404         
FC0DF004         
050000E9         
FE0308F7         
0310FCEE         
00F407F3         
0400FC06         
FEFFE1FB         
01FDFC09         
06030106         
08FC080B         
FE02020D         
FC07FE06         
040501F7         
0203FD13         
0301F809         
FFFA0204         
DF07F403         
E901FD01         
FAD802F5         
EC05FFFC         
F002FEFD         
E9FB00F2         
E0F003FE         
020FF800         
000AFDFA         
FB00FF07         
FE03FBFC         
000600FC         
06000000         
FEFD0401         
01FF0602         
F703FFF3         
FE05FF02         
04FD02F8         
0EFD030C         
F8F6FC07         
F5E50304         
09030304         
FE0506F9         
EAEBF40A         
04FEFEFF         
F3FA0605         
EFE60005         
FDF3F805         
FEF6FC02         
F801000D         
F50A0205         
FC040801         
FB05F70D         
F809FF02         
FAFF00FE         
F8FDFD05         
000101FC         
010000FE         
01F40BF7         
00FF0200         
FE05FFFE         
FFFDFEFB         
0201FD04         
FF0406FB         
010408F7         
FF0301FD         
FE0203FE         
FE010503         
020002FA         
02FF0604         
FE0105FD         
05FB01FC         
04FE05F9         
05FFFDFA         
FE01FC01         
FFFDFE01         
F80001FF         
03FE0002         
06FDF802         
FE02FBFF         
0C020104         
0001FB04         
00010000         
F30203FA         
00020100         
FFFFFD04         
FC000500         
07040002         
10000104         
FDFF0400         
0CFEFE03         
06FB0402         
FF02FBFA         
0001FCFF         
FEFF00FD         
04FF00FF         
FD02FF04         
FB00FEFB         
04FF0604         
FE0103FA         
FAFC0400         
FDFDF8FF         
01FC0300         
00FEFB05         
FC02F201         
0404FC01         
0302FC01         
0201F000         
0203F700         
FF00F2FF         
050007F8         
FE0107FA         
0AFD0102         
060002FA         
0300F6FB         
0CFF0AF8         
06FD04FA         
060302FF         
01FF06FA         
FE1204F6         
FE0203FF         
0005FE01         
FFFA05F9         
02000401         
FC0201FE         
FE050405         
FE08FBFF         
FF05FDFE         
F9FE0304         
0902FF00         
05F90304         
F401FDFE         
FDFF0000         
02FDFFFE         
EFFD0105         
FF020000         
F6050500         
FC0103FB         
FB0100FA         
FC000101         
01FE0312         
FFFD0505         
0604FF17         
F6000324         
FB04001E         
FC000726         
030400FA         
FDFF03F8         
030404FD         
FFFC05FC         
0501FFFC         
FE02FFFE         
FE040601         
020E0405         
05FFF3FF         
0101FB01         
03F9FD08         
FEFFFFF5         
03FF02F2         
FA0102F7         
020104F5         
03FF03FB         
00060401         
000402FD         
0405FE00         
FC0802F9         
EFFC02F9         
01FB05FE         
02020502         
F9FD0203         
03FEFFFE         
04FF0002         
00F6FE05         
FAFBFF05         
FCFE0001         
FDFAFDFC         
03FE03FD         
00FE03FA         
020402FE         
03020100         
0205FEFD         
06000102         
FAFF08FF         
F10204FB         
FA02FFFD         
FE00FFFA         
FB0004FF         
F7FB0101         
04040702         
03040101         
FBFF0001         
FC05FEFD         
00010003         
0000FDFF         
FF0403FE         
FBFA05FC         
0005FC03         
FCFEFD04         
0408FE01         
FD040203         
02FA00FD         
00FE0604         
01000301         
02FCFC01         
01FE0202         
030B02FF         
01FAFF02         
0601FDFF         
0005FDFB         
050100F9         
0502FD00         
03010000         
040104FF         
0401FCF8         
05010103         
01FB0504         
06FE0505         
FDFD0702         
0102FBFE         
01FD0001         
010100FD         
02FFFBFF         
0201FD04         
0100FEFF         
FF010701         
01FDFF01         
01FF0401         
0200FF05         
F6FF01FF         
0103FE01         
0004FA04         
0002FE00         
06000405         
FF0D0005         
0202FE03         
FE020002         
FB03FE06         
02FB03F9         
02FFFE00         
FDFE00FC         
00000210         
0105FCFF         
F9FFFEFD         
F9F8FFFD         
0003FEFC         
00FF0205         
FFFC0500         
000207FD         
FEFE0003         
0302FDFC         
04FE02FA         
FFFF0801         
00FCFA01         
02FD0000         
F7FF0001         
FD000CFB         
02060101         
F804FFFE         
05F3F705         
04010003         
FE010003         
0304FE05         
080502FE         
FFF8FBFE         
FFFC0007         
02020101         
03FC0604         
06010003         
FE050100         
01FF0707         
FEFBFE07         
00050301         
05FE01FB         
FDFC0102         
04040101         
050200FA         
F90102FD         
0404FCFF         
00020301         
FFFF00FD         
FC00FE01         
FD0001F3         
FBFF02EF         
FF0002FB         
03FF03EF         
010103F4         
010101F8         
020003EA         
01FB02EC         
030403FA         
0202FE0B         
02FEFF07         
00F80310         
0200FE0B         
00FCFF05         
FF030508         
05F8F907         
FE00FD06         
0101FF05         
FE0601FF         
0004FEFD         
FFFF03FE         
04FEFD04         
01F80501         
03FE0301         
0502FFFB         
0101FCFE         
01FF03FB         
0700FF02         
0A04FEFF         
06020306         
03FE0500         
0B04FDFE         
06FDFDFF         
02FCFF00         
09FE0002         
04F90003         
05FE0104         
FD000403         
FEFFFD04         
0000FC01         
010301FE         
00010002         
FB03FF04         
FFFFFD02         
FF000001         
01FFFEFB         
0401FFFC         
010202F9         
FAFCFF00         
02FC02FF         
04FE06FB         
FDFBFD02         
04FC0101         
02FE02FD         
01FBFF01         
FE0DFF02         
0100FDFD         
010602FE         
00EDFCFD         
FF0204FB         
FBFF0201         
00060400         
0004FC00         
F90D06FF         
FD030EF4         
03010AFD         
02FEFDF7         
060903FE         
FDFEFFFF         
F6FC03F9         
FE030D02         
02030500         
F201FC02         
FA06F9FF         
0303F502         
FAFAF60B         
FAFBFD1F         
FC00F208         
F3FDFCFE         
EF05FB04         
0701F903         
F402FAFF         
03FFF707         
F9070004         
F9F8FDFF         
F1FB0A01         
FEFE05FA         
F803FEF9         
F9040002         
00FF01FF         
04FF0BFC         
150200FC         
07FDFD02         
09F2FAF3         
FAFB080E         
09FF0303         
0FFC01F8         
0704FFFA         
0EFF0400         
FFFB0301         
FEFFFC0C         
04FF00FF         
FC03FA03         
FCF800F7         
05FEFFFA         
F2F909FC         
FB0302FE         
040401F8         
FC02F6F9         
02FF0AFD         
FEF9F700         
00FDF103         
050203F7         
02FCFEFB         
03FA0601         
00FEFA01         
FEFAFFFA         
F9FF0607         
FCF9FA04         
FB0107FB         
FC000F03         
FB13FCF6         
FDFA0DFB         
FAF708FC         
02020CFA         
FFFA0B01         
0106FB0C         
0206FF05         
FFF80000         
FD13FBF5         
FF01FF07         
FD16FD00         
F00901FD         
000BF901         
FB0801FD         
FA0000F9         
18FF000C         
07030001         
FF06FB07         
F60201FC         
F7FE0302         
03F1FFED         
FC030004         
020100FE         
030504E6         
FBFE01FF         
FAFEFEFA         
F5F9F3D7         
FD02FCE8         
02FE01F7         
0706FCF4         
0002F8F4         
FFFE02FF         
0B00FAFD         
0A0A0103         
02030603         
0C0610FB         
FDFFF101         
01FD0004         
F9FD02FA         
04FB0FFC         
FF02F403         
FEFCFB04         
FAFAFB03         
FBFBFE01         
FF02FF09         
FD00F806         
FAFD0101         
F7FAF9FE         
FB0305FF         
FEFBFF01         
FF0AF5F9         
10080203         
F9010400         
F502070C         
FE0D00FD         
0206FE01         
FA08F7FB         
F705FEFD         
FF00FFFF         
04000F0C         
0602FCEC         
FFFC0602         
02F4F8FB         
02FBFF0F         
00F8FB02         
F2F7FF00         
FFFC00FC         
FA0203FA         
FA01FF07         
0CFEFFFC         
00060201         
F8FEFDFF         
040002FF         
08FFFFFD         
0C01FD03         
FB0404FF         
060B00F6         
0000FB01         
FFF1FFFC         
01FF01FF         
F7FB0D02         
00120502         
050301FB         
F3FFF2F3         
010007F9         
FFFDFEFD         
FFFCFFFF         
0504FA00         
0002FC00         
01FBF8FF         
0104F902         
F6FEFE05         
F903F302         
FC06F909         
F6FDFE0F         
0A05FA00         
0902FC01         
FF0203FE         
130003F4         
0107050C         
03010C03         
0D020202         
08000106         
0400FF01         
F80102F7         
0305FFFD         
FFFEF7FF         
080CFAFA         
07030AFD         
05F80000         
06090001         
07FCFBFE         
0E00F6FB         
0400FE03         
04FE03FC         
FEFAFA02         
0E000200         
F4FC050A         
FCFEFE00         
F4FFFB08         
FF01FD03         
01FFFC02         
0902FAFE         
02030309         
02010408         
0400F80B         
0107FDF8         
01FBFB03         
0100FE03         
07030401         
0EFC0002         
02040503         
03FE0EFF         
020307FB         
01030301         
0405F802         
05040102         
FF02F8FF         
03FFFF03         
FAFFF4FA         
02FFF500         
FEFF0003         
00FEF8FB         
03000303         
030CFA02         
FF02FCFB         
01FF0000         
FF0101FD         
FEFB05F3         
04F70704         
02FF040A         
FCFF0209         
FF0FFB0D         
01FE0400         
FE03FA09         
FEF9FD0A         
FDFEFD0D         
FC06FFF9         
FD010503         
01FCFB04         
01FC0101         
02FF0505         
1004F705         
06FCFCF5         
F500FAFF         
F305FBFC         
F8050100         
0303020D         
09FF0809         
040203FC         
FB05FFF3         
FDFE0004         
F9010106         
0003FA16         
F7FD02F8         
F9FEFDF6         
05F7F80B         
FDFAFE04         
FB050006         
02090107         
F6FEFC02         
0108FDFE         
07FDF607         
00070305         
FEF5F7FB         
FB000006         
FE02FFF8         
02FB06FD         
FBFAF8FB         
FF07FD08         
040000FC         
010001FD         
01060000         
010001FC         
0B040402         
05020001         
0FFDFAFD         
180804FB         
040701FD         
070205FD         
04030201         
0A0704FE         
0B0DFBFC         
0601FE00         
030103F9         
09FCF601         
010104F6         
0502F912         
0205FEFE         
000402FB         
04FFFEFC         
01FE03FD         
F8FA07FC         
F6FD01FD         
FBF9FD00         
FBFC02FC         
F8020706         
12FF0005         
FC0302FD         
ED050101         
FAFC0601         
FE0508FB         
00F6FEFE         
FE0001FD         
02F901FD         
030B09FD         
F9FCFD08         
F8FD06FB         
05FDFFFF         
F9FAFC01         
00FCF8F6         
000A0600         
0A060C04         
04FCEEFB         
00F902FA         
0302FB06         
03F9FCFB         
030005FC         
070301FF         
02FBF803         
FCFEF400         
FDFCF407         
FEFFFBF8         
FFF9F708         
FBFE0602         
FE03FEFD         
FD02FF04         
FBFEF907         
FE08FCF6         
01FFFB00         
FB06F902         
04FBFCFD         
FD00FF00         
F3F7FEFE         
FF0100FE         
FFFE0001         
FBFFFCFF         
060301FB         
080308FF         
0EF902F9         
090303FE         
F4FFFB09         
FCFD04F8         
10000204         
FF02FF01         
FCFCFE00         
FCF8FB00         
FA00F901         
F402FAFF         
FBFCF8FC         
FE000000         
F300FBFF         
01FE0001         
FC00FF01         
FB05FEFF         
FE05FBFA         
01FEFBFD         
F704EBF7         
FF0003FC         
0008F6FD         
02FFEC00         
FCFE12F8         
03FE0102         
01FEFCFE         
FF020903         
FC040407         
070703FF         
01FEFF03         
FFFF09FE         
FFFF01FD         
03FD0404         
01FCFE02         
00FF0100         
FFFCFEFF         
02070101         
02FEFAFA         
FDF603FE         
0203FFFE         
01F4FAF7         
FAFDFF01         
00FB0105         
01FBFBFB         
0602FE0C         
03000209         
F601F806         
F4020102         
05FFFB02         
F700FE05         
02010104         
07000103         
FD01F907         
00FBFFFC         
FEFF001B         
FAFBFE18         
FE050003         
FE010302         
F201FA04         
FE05040C         
05F9060C         
FB07FDEF         
FC03ED07         
01FFF5FE         
0203F806         
FF02EBFF         
F904FEFD         
FF080C05         
0C00F703         
FF0102FB         
030600FC         
02FCF902         
00FDFDF9         
FB010502         
FCFC0200         
01060002         
000703FC         
FC0001FF         
F8010101         
FFFEFC00         
1304000A         
0D06FF00         
11090011         
FF060003         
08060100         
FF080305         
0C0C0302         
06FF04FB         
0D0501FE         
010305FD         
FE03050B         
03040509         
FCFD0804         
FB020204         
FEFBFF01         
00040300         
FC0003FF         
FE0102FA         
02F906F9         
020A01FD         
F20506FE         
FFF6FEF9         
05020201         
FA0B02F9         
01FD0002         
FEFF0001         
FD0B00FE         
02FD08FE         
FFFE03FF         
05FF0000         
02FF0102         
01FC01FC         
040007FD         
0400FFFE         
0001FD04         
0302FF06         
02030800         
07020002         
0300FF00         
07FF03FC         
09020702         
010003FF         
06F90301         
04FE0801         
03FA04FB         
FDFDFA00         
FF01FD05         
030104FD         
F90202FE         
FFF8FC06         
060306FE         
F5FE050A         
FA04FC07         
FD02FC01         
05FEFF00         
FD01FEFE         
080200FD         
FE020205         
FA0004FD         
01FCFF04         
FBFD0A05         
FF0204FD         
0201FF03         
08FFFEFE         
0401FFFF         
080403FF         
010101FF         
F3FCFE06         
F7FE02FE         
00070103         
01FEFE01         
02FE03FC         
0902FEF6         
0000020C         
FE010201         
FCFC0105         
00FCFCF2         
01FC04FC         
F5FE0000         
F60BFF00         
FDFF03FC         
FEFB0203         
0203FF06         
04010104         
FA00FFFD         
02FFFB03         
FDFE0401         
03FF02FA         
FFFE03FF         
00000101         
0501FEFE         
04FFF301         
06FC0102         
05FEFAFC         
0408FC04         
050409FD         
09FDFAFC         
01F8F6FF         
05FEFE01         
070403FC         
03030206         
0106FE02         
FD04FFFB         
FCF502FB         
FD01FCFC         
00F601FE         
07FAFCFE         
01FEFEFD         
F8FFFD02         
03FFFD01         
06000702         
FEFDFD04         
FDFCFEFF         
0B01010A         
01FF0101         
03FDFCFC         
07FF0602         
FEFE00F8         
FDFF02F4         
FEFE05F9         
FC0502F5         
0AFD01FB         
00FC04F9         
FE040106         
0AFB03EE         
030200EB         
FDFB00FE         
01030101         
02FEFCFA         
010200F8         
020502FE         
060100F9         
FEF502FE         
FD000100         
02FC08FC         
FE00FF07         
03F6FEFF         
FEFEFC06         
FF04FFFD         
FF09FE02         
FE0100FE         
FEFBFF00         
02F90602         
FDFAFFFF         
FD0302FF         
FF050402         
FCFE0202         
FB0700F7         
0306FEF7         
FFFA0101         
FCFD02FF         
03FFFDFE         
02FA0100         
FF0701FC         
FF02FF00         
04FF01FA         
FF030000         
FEFAFC06         
FEFFFEFA         
FF03FE02         
0305FF02         
FE03FD00         
05090101         
030203FF         
F8FFFF00         
0304FC06         
FF0301FC         
FFFD0209         
0204FE04         
FE05FE02         
FFFE0101         
0009FC04         
FFF7FF01         
00FF0104         
FBFCFF00         
FD1700FC         
0001FF01         
000103FF         
040102FF         
02FC02FF         
00000000         
00000000         
00000000         
00000000         
00000000         
00000000         
00000000         
00000000         
00000000         
00000000         
00000000         
00000000         
00000000         
00000000         
00000000         
00000000         
00000000         
00000000         
00000000         
00000000         
00000000         
00000000         
00000000         
00000000         
00000000         
00000000         
00000000         
00000000         
00000000         
00000000         
00000000         
00000000         
00000000         
00000000         
00000000         
00000000         
00000000         
00000000         
00000000         
00000000         
00000000         
00000000         
00000000         
00000000         
00000000         
00000000         
00000000         
00000000         
00000000         
00000000         
00000000         
00000000         
00000000         
00000000         
00000000         
00000000         
00000000         
00000000         
00000000         
00000000         
00000000         
00000000         
00000000         
00000000         
00000000         
00000000         
00000000         
00000000         
00000000         
00000000         
00000000         
00000000         
00000000         
00000000         
00000000         
00000000         
00000000         
00000000         
00000000         
00000000         
00000000         
00000000         
00000000         
00000000         
00000000         
00000000         
00000000         
00000000         
00000000         
00000000         
00000000         
00000000         
00000000         
00000000         
00000000         
00000000         
00000000         
00000000         
00000000         
00000000         
00000000         
00000000         
00000000         
00000000         
00000000         
00000000         
00000000         
00000000         
00000000         
00000000         
00000000         
00000000         
00000000         
00000000         
00000000         
00000000         
00000000         
00000000         
00000000         
00000000         
00000000         
00000000         
00000000         
00000000         
00000000         
00000000         
00000000         
00000000         
00000000         
00000000         
00000000         
00000000         
00000000         
00000000         
00000000         
00000000         
00000000         
00000000         
00000000         
00000000         
00000000         
00000000         
00000000         
00000000         
FE010903         
FF010101         
FA02FD02         
FF020300         
02000001         
FF020205         
FC00FF01         
FFFCFFFC         
FCF8FF01         
FB00FE00         
F9FF0701         
02030003         
0104FCF7         
FFFE0105         
07FA0501         
0301FDED         
FA00FFF9         
FCFFFDFF         
03FF00FD         
04FF02FC         
010000FC         
FA04FDFF         
05FA03FC         
05FF0202         
FF01FFFE         
01FE03FF         
FD0407FC         
00FEFCFB         
04030301         
FB07FDFE         
05FEFD00         
EEFEFE04         
FCFF0000         
110700FF         
01000401         
000002FE         
F7FEFDFC         
F9050208         
FB07FEFC         
FEFF0004         
FE0101F6         
01FC0304         
0300FDFE         
FF0502FD         
0100FC04         
FE0102FF         
FE050400         
03FD01FF         
06FF0E00         
0004FEFE         
03000801         
03010704         
0201FCFE         
00FCFF01         
FCFEFD06         
FEFF0706         
05010507         
FAFEFA06         
FC031504         
FCFE0A0E         
FC040A07         
FD000E01         
FCFF0007         
0101FFFF         
FE010000         
04F90002         
FFFEFEFC         
FEFC07FC         
FFFE0100         
0302FDFE         
02FD0301         
FFFCFF01         
FAFCFEFA         
06FE0100         
02FCFEFF         
090101FE         
0002FB05         
FDF8FAFC         
10FEFFFE         
0BFEFE00         
0400FBFB         
0603F9F9         
0402FD0C         
0500FAF4         
0DFDFEF3         
02FCFE17         
0CFCFBEE         
0703FDF5         
04FEFB0A         
0A00F7F1         
03FD03FB         
FF02FCFA         
FD090DFD         
0601FE03         
FEFC02FE         
0301F906         
00060002         
FF0104FE         
FE030600         
FE0003EF         
0101000E         
01030106         
02FD05FF         
FE080006         
00FFFD05         
04030201         
02FDFF00         
02FE0002         
FB06FFFF         
01FE0200         
F705FC04         
010A02FF         
FCF8FFFF         
F9F9FE02         
020DFEFF         
FDFC00FC         
FAF200FF         
00FAFD01         
02030004         
04030305         
FFFE00FD         
01FE00FF         
00FB01FE         
FEFE01FF         
FEFF0200         
0102FEFF         
FBFAFFFF         
F9FE02FF         
07FDFC00         
FDF60104         
03FEFF01         
0504FF01         
05F5FB00         
03FD0300         
FE0704FE         
FD0801FE         
03F4FB00         
0204FDFE         
01FAFF00         
010E0607         
FFFB00FF         
01FF0600         
FD050202         
00FF04FF         
FE020706         
030407FF         
FBFE0BFC         
FDFF0904         
00FF0501         
FA0805FC         
FB0103FE         
FDFE0401         
F7F708F9         
04FD03F7         
FFFFFDFF         
03FE0802         
07F7020E         
FDFD0105         
FF030503         
0BFD05F5         
04FC0104         
05FDFEF9         
0101FC01         
07FEFFFC         
FC0300FE         
FEFD0200         
FEFE04FF         
F7FEFFF8         
FF02F902         
F8FEFEFD         
EA010202         
0208FD00         
F60002FF         
FF03FC06         
0302FF0A         
0700FD02         
FF02FD09         
10FF0707         
FCF7FF04         
06030302         
03FCFA01         
FFFBFE03         
FE020200         
FC00FF09         
FB0201F6         
FAFEFEFB         
F80401F1         
F60402F7         
FB0307F3         
00050700         
FCFF0CFA         
07030809         
01FD05FD         
FC060AFE         
02FE0005         
FE040501         
FE01F8FA         
00FD0D04         
00030809         
F80102FD         
F9F90CFF         
FB01FF03         
FAFE0C05         
FDFC0404         
00FF0502         
FBF209FE         
F9FB0801         
FD070105         
FFFCFD0D         
0001FB04         
FCFC0103         
FA03FE0A         
01FFFD04         
001BFB05         
FEFAFE05         
06FC03F8         
110302FB         
FEFEFC01         
00FC04FF         
FDFFFEFA         
FDFC00FC         
0BFE0701         
FF0001F5         
FEFC02F7         
06030900         
FD00FE13         
08FFFA11         
FAFDFD0C         
0300FC10         
0603FCFC         
F701FA08         
0002FFF3         
0302FA08         
EB00FF04         
02FCFA04         
FDFAFD08         
FEFFFC09         
02FAFE05         
FF05FDFE         
FE00FE04         
0CF9020A         
FDFDF808         
FE01FD07         
FD0200FF         
FB0902F5         
FB010303         
FCFD01FC         
020A04F9         
FB00FE01         
00FE0001         
FAFD01FE         
FCFF030C         
FA00FD04         
05F9FB04         
00FE02FE         
02F7F802         
02F7FF03         
FFFD0003         
0EFD00FF         
0504FF03         
FBF60400         
FC0B0601         
FC010203         
FF0101FB         
FF00FEFC         
F7FEFCFF         
01FB03F9         
FEFF03F3         
F8FBFCF5         
FD0101F2         
08FE0103         
FBFEFE03         
FB01FE02         
0704FA00         
03F8FB02         
06FD0002         
0205FFFF         
FDFE0205         
08FBFE04         
00010400         
FEFCFDFD         
0103FEFF         
00F1FEFF         
020DFB06         
FE03FBFC         
FEFD0203         
05FC0403         
05F30500         
02FDF6FA         
000600FA         
05FEFEFA         
02FDFB00         
01FB0205         
FC03FF01         
0201F4FB         
07FE0303         
0104FEFF         
00020CF8         
FF0307F5         
FE0005F6         
03050AFE         
FD00FF03         
FC0002F8         
06020C0B         
FFFC0207         
FEFE0DFD         
F8FE00FC         
F40300FA         
F70504FF         
FE020003         
F9020DFF         
F40202FF         
FF030201         
FDFD00FD         
F0FB03FF         
01030401         
F7FF0004         
FCFE0306         
00000303         
FFFE00FF         
F3FFFD02         
FF0CFC00         
00FE0001         
09030206         
04FAFBFE         
F9000007         
FDFC01FC         
0303FC06         
FDFC01F3         
FF03FEFD         
0A00FE05         
04080002         
0000FD03         
05FFFDFF         
0601F809         
FC02FE04         
0302F306         
FE01FAF8         
03FE00FC         
FF04FD00         
0003F803         
FDFA03FE         
0703F30E         
0400FA08         
04FE0007         
0BFDF90A         
05050405         
04FEFD06         
0B050B09         
01F90707         
0300070B         
FFFB0103         
03FBFD04         
05F600FE         
FE0A0101         
00FE00FD         
FFF8FF04         
FF080004         
02040207         
00F70104         
03FDF910         
02020005         
02FEF709         
04000103         
FDFD02FF         
FEFFFDFE         
F8010513         
FEFE05FF         
FC08FE03         
FFFB0709         
00FD050B         
FC010304         
050300FC         
0B000506         
05FE04FE         
06FE09F7         
01FE0003         
020100FE         
03FCFDFC         
0005FC03         
02030903         
FD0C0003         
FCFC0500         
FFFEFB00         
06F5F6FB         
FEFB02FE         
03FAFA05         
0200FFFD         
00FFFCFD         
FC01FD01         
FE01FEFD         
FE0A03FE         
FF03FFF5         
030200FC         
F70305F5         
FEFD03F8         
F4FC0102         
F9F5FEFB         
F0F70501         
0001FE01         
FAFEFA01         
F50602FF         
0000FBFD         
00FD01FE         
F209FE01         
FF03FFFF         
00FFFC04         
F803FE00         
0406FF02         
FD02FD02         
03FF0000         
010506FE         
FEFDFDFC         
FDF904FD         
F20405FC         
F703FE05         
0005FD00         
F70401FB         
04FFFE07         
05000202         
F9040402         
010202FD         
0201FE02         
000C0401         
FDF70303         
FA03FE04         
FEF6FF02         
0116FE04         
010405FD         
FD03FBFC         
0003FF03         
FBFDFDFD         
02FA0406         
06F50C06         
01000C07         
F7FCF709         
FDFD0B07         
F7000606         
FBF9FF0A         
04010407         
FCFE0702         
0CFF0DF7         
0A02FDF2         
050102EE         
02050CFD         
08F9FAF5         
0700FCF2         
07FD04FA         
03FF0400         
0EFC0AFD         
FE02FF07         
FFFB0506         
04F803FC         
00FF020C         
FDFFFC02         
07010500         
01040607         
0C050B0A         
11FC06FD         
F807FD06         
F409FD06         
EE0EFC0B         
0508000A         
FC00FA02         
FC05FD06         
04040707         
F6050006         
EE090107         
07000201         
01FE02FB         
FFFF03FC         
0401FC00         
0602F906         
04050006         
0001FD00         
04000501         
0202FFFF         
04060402         
FA0402FE         
FB0213FD         
FC030402         
010203FF         
01FE09FA         
07FE00FF         
FD030EFD         
03FD0D02         
06FEF207         
00FBE809         
0BFEFD13         
09031613         
05F4F509         
FCFAF40C         
03050A17         
0003FD1A         
0B00F70F         
FDE8F70F         
04EAF606         
01F9F3F9         
000DF706         
0100F70A         
050E0000         
04F20101         
02FCFCFF         
FD04F9FF         
13020001         
0CFF04FF         
000301F8         
0405FE06         
F90607FE         
010005FB         
FE02FA05         
FDFE03F9         
FDFDFFF9         
00FB07FF         
0DFE0BED         
070303F5         
08FC08EA         
0FF701EC         
07FE09E4         
07FC02E9         
0EF9FFE9         
12FD07E2         
FFFE020E         
FBF0FD0E         
0602FF06         
05FB0108         
FFF5050A         
FE03FA0B         
FCFDFA02         
04FAFB0A         
FA00110A         
FE030301         
FF000203         
00030404         
070200FF         
0CF70405         
0604000D         
0307FC01         
0601FA02         
04FD06F5         
05F4FF00         
0DFB0209         
01F90402         
04F70300         
09040002         
0CFB00FE         
060301FF         
06FD02FD         
0E00FDFD         
0006FD01         
FA04FB03         
00060201         
F7040004         
FF0304FE         
FD030110         
F6050305         
FC06FC02         
FD0F0100         
0503FE00         
11FFFD01         
08FBFCFF         
F8FB00FA         
0503FFFF         
15F8FFFF         
FDFFFE01         
0F02F901         
1504F701         
FDFF03FE         
FB000204         
00000600         
FFFD01FD         
03FA01F6         
FCF90301         
FF040104         
FE000100         
FFFFFDFA         
0100FDFD         
040400FF         
0005F8FE         
FFFE02FC         
0200FE03         
0001FCFD         
FDFEFF03         
04FBFF01         
02FE0206         
030001FF         
02000302         
FB06FD02         
FCFFFC00         
01FF00FC         
01FD00FD         
F802FCFD         
FC02FEFD         
FF03FC00         
00000004         
03040105         
070200FE         
FEFE0204         
04FEFE02         
FEFD05FE         
00000201         
04FE02FF         
08020501         
F904FD02         
F7020403         
FEFEFFFC         
FEFEFB01         
1101FE00         
FFFE0302         
0704FFF6         
FCFFFEFD         
FCFEFFFC         
04000000         
02040106         
01010103         
FE010104         
0307FDFB         
FF020206         
02FB0300         
0202FEFF         
00FCFD04         
FC0000FF         
FEFF0500         
FF02FCFC         
FB01F9FC         
FF0204FB         
05FEF2FE         
FDFF01FE         
FE0001FF         
FD0002FD         
030108FE         
0206FE04         
0507FD04         
FFF70105         
04FBFF01         
FBFBF801         
FF000CFB         
FFFF0104         
FE050008         
03FFFF01         
000701FC         
FE05FF02         
FCFD0003         
FDF2F7FC         
010002FA         
FE07FDFF         
FF0103F9         
030600FF         
05020101         
FEFF0104         
03010300         
01FD02FB         
FF04FD00         
F80000FE         
FF0504F9         
050100FC         
FA02FBFF         
03FE0001         
07070508         
0601040B         
00FEFE06         
03FA030B         
12FBFE04         
FFFFFA01         
01FBFF07         
0D02FD02         
01FDFF01         
05000700         
FF020200         
01F60503         
02FFFEFF         
0203F1FB         
FF0402FD         
FCFCFEFD         
FE0C0AF8         
010206FA         
030E0100         
0404010D         
FEFD02F9         
FDFF0902         
FFFB02FE         
01FDFFFA         
FD0405FA         
01FC02FC         
03FEFD00         
FEF7FF03         
02FEFE05         
FAFB0102         
08030103         
02FA0602         
0006FF03         
020100FF         
0104FF00         
FDFEFC01         
04000612         
05060408         
04FEFCFE         
0202FAFA         
0001FDFC         
00000402         
02FE02FF         
0207FF04         
08FE0102         
FFFFFF01         
FCFF0001         
0100FCFE         
0400FEFE         
FF020000         
FF08FE05         
000201FD         
0502FF05         
01FB00FE         
00FFFC08         
0208FC02         
03FC0200         
FFFE02FE         
FFFB0202         
FFF803FF         
03030200         
FE0203FD         
02000005         
03FFFCFA         
03FDFAF9         
FFFA0700         
FD05FEFD         
00FF05FD         
04FEFC02         
FC01FE03         
000301FE         
F9011006         
02030102         
0202FA03         
F9010307         
FCFF0201         
FD0200FE         
FB04FEFC         
FD0102FE         
FD03FDFF         
00010403         
02FA0001         
03FF00FF         
00000005         
0000FDFD         
01000000         
02FC0103         
FE02FFFF         
FDFEFB02         
FF06FDFE         
0103FDFD         
08F9FFFF         
03040000         
0A0400FB         
02F701FE         
0F0000F8         
F901FF00         
07F800FD         
08FD0004         
0101FFF5         
0100FF07         
00010200         
04FA050E         
FF01FF01         
09FD02FE         
00FB0402         
0001FCFC         
FEFEF500         
FCFEFB02         
04FDF302         
03FDFBFF         
FD0006FC         
0401FF00         
FBFFF202         
0107FF01         
03FEFA02         
0C00FDFE         
04FEFD01         
070001FC         
09FEFA01         
02F4F800         
0002FD00         
080000FC         
0005FBFA         
F80303FB         
FCF80608         
00FB0209         
0500FC03         
00FF0500         
FBF9FF08         
FD00FDFF         
FDFBFEFA         
03FBFFFD         
FB05FDF9         
02FEFE09         
03030405         
FE02FF04         
02FEFF06         
0B010303         
FD03FF05         
00020103         
03FF03FD         
FE01FEFF         
01FDFEFF         
020101F7         
0A020310         
F80301FF         
FA0104FC         
FDFD02FB         
0000FFFA         
FD07FFED         
FE0102FA         
0003FFFA         
020400F8         
020200F5         
FA0106FB         
01FD0C05         
03FF0C02         
FAFF00F6         
00FE01F8         
FFFFFDF9         
04FDFE0A         
00050204         
00FF0307         
0001FE04         
FFFC00F5         
FB01020A         
FE01010A         
FC00FF01         
FD070002         
01000102         
020004FF         
FCFE0403         
0903FCFD         
07050203         
FF050003         
05050303         
FE030200         
040701FD         
02FFFAFA         
FE02FEF1         
0001FE07         
04FF0401         
FEFE07FB         
0505FB01         
030302FE         
02030202         
01FCFFFB         
FE0402FF         
05040004         
0402FFFE         
01070002         
0AFBFFFD         
04040400         
0300FF02         
FFFC00FD         
0600FD00         
FEFCFFFF         
0215FA00         
FDFD0202         
FF0602FE         
07F0F6FF         
020506FF         
FF020301         
02FC0504         
0001FDFE         
FB0502F5         
FC0702F2         
01FEFFF6         
000500FE         
0203FA00         
02FF0104         
F2120CF7         
F807F8EF         
FFF906F7         
0BFEFAEA         
FC05F9F6         
0C06F7FF         
FF03F701         
FA020104         
FE020305         
0600F2FF         
F503F108         
FDFFF3FE         
0401FDFE         
0F03FC06         
0304FE06         
FBFE00FD         
070203FD         
0001FF02         
000AFD02         
FC05FCFE         
FB05FE01         
13FDFDFB         
0AFDFE07         
0E00FF06         
FEFD01FD         
04FAFEFA         
0AFDFE00         
010503FD         
F9060402         
FD0501FF         
0401FDFA         
10F40805         
0EF6FAFD         
FE000100         
03FFFC01         
0201FB00         
FDFF07FD         
06F80502         
04FBFE01         
FFFB03FF         
07FC050A         
0302FE09         
01010800         
04FA0103         
FE040100         
00020800         
05FC030A         
03FF0103         
FE050004         
FC0401FE         
FBFC08FB         
FBFFFFF8         
03FE09F9         
01FD00FB         
FC020107         
F7050FF5         
FC0509F3         
0005FEFF         
FD13FFFC         
FF0C0309         
06FDF7F7         
0100FCFC         
02F30208         
0007FCE9         
0AEB06FA         
01F600FC         
15050103         
16FFFB06         
14FBFE03         
0302F9FE         
01FB0104         
F8FFFD04         
05FDFD01         
0804FD09         
04030200         
F9FD01F8         
F5FB05FE         
F7FC060B         
0006FBFD         
FAFE0005         
FC020003         
07FE041E         
FEFEFC1D         
FAFEF50A         
0506FA03         
0704FD04         
06040806         
03FEFEFD         
FAF3F7F8         
FFF7FB02         
FAF103F1         
FEF9FCEF         
FAFEFEFE         
FF00F9FC         
FFF6F8FB         
01FAFBFE         
FBFD0505         
F7FEFD05         
FC0200FC         
F800FDEF         
FEFEF9E9         
0404FFE8         
06F90305         
03FFFDFE         
01EE02F8         
F8020002         
01FC01FF         
05FC04FE         
F9020200         
FFFD04FE         
030002FF         
F707FFF1         
070200F4         
0007FCF3         
01FCFAFD         
0C03FE09         
FFFAFE00         
FEFE03F7         
01000106         
FBFEFFF9         
040903FF         
090806FC         
14FE05FE         
02FF05FF         
080300FE         
FF00F8FC         
0DF9FF03         
0C0101FD         
FC00FFFD         
FC0404FC         
000107FC         
FD020504         
00010005         
FC04FE01         
FE01FFFF         
F907FD03         
02020600         
FB0802FD         
02F8FCF3         
01FEFDFE         
08FDF902         
03FAF6FB         
0301FA00         
0001FBFD         
FEFB0802         
FFFAFF01         
FEFE0301         
0BFEF9F4         
07FAFC00         
0405FEFC         
0402FAF5         
07FCFAFC         
FA02FB01         
FEFEFBF2         
FF0100FA         
FBFEF902         
F90702FF         
01020404         
02FE0603         
FBFC00FE         
02FDFDFE         
0200FFFF         
FCFD00FD         
01000102         
00FF03FD         
FEFC03FC         
F6FEFEFC         
0300FFFD         
030001FD         
FDFFFFFF         
0102FCFB         
080201FD         
0003FC00         
0407FFFF         
0EFEFCFE         
0804FDF9         
010301FA         
06FEFA09         
0008FCFD         
02FD07FE         
02FFFF02         
020200FE         
FB0302FE         
0501FF04         
0000FE03         
03F90202         
FC0108FC         
FF020202         
FE010900         
00020C03         
FEFEFF01         
FD050B00         
0AFEFD05         
03070502         
FFFFF7F7         
0502F804         
FDFA01FE         
FEF9FEF8         
0500FCFB         
04030201         
FDFC03FF         
000C00FB         
070306FE         
FC0C0701         
FFFE0005         
FD010BFB         
FB0206FD         
030202F2         
00FBFFF3         
02FE02F1         
00020010         
0204F90B         
05FC02FE         
04010404         
F90300FF         
04FB0701         
100106FE         
0000F902         
09FD01FA         
010307FB         
03040707         
04FEFCFB         
080203F7         
000500FD         
01010006         
030200F9         
02FD0107         
04FCF805         
0400FAF8         
FEF809FB         
050A09FC         
0A00F906         
08FD01FB         
02FDFAF9         
0509FB03         
FD0D06FD         
FA01FEF6         
F803FC0A         
01010AF7         
01FE0006         
04FD00FB         
FF040401         
0901FF06         
0105FE03         
FD0306FD         
000304FF         
18FCFD00         
05FDF9FF         
FF0207FB         
0B0000FF         
F5FD0503         
F6020102         
0200FD04         
F9F4FBFF         
F404FD03         
03FB00F9         
FFFF00FF         
07FBFBFF         
01FA07FF         
FA03FF02         
04070209         
FEFA0304         
FF050105         
0400FF03         
05FD03F4         
FCFC0301         
0B00FE04         
08FD02F8         
01FB0302         
0AFDFC00         
02FFFAFB         
07FC01FC         
03FB01FF         
03FCFDFD         
050AFD00         
0705FA01         
06F303FC         
FD02F9FA         
02FF0301         
05FAFFFC         
01000204         
03FAFFFD         
FD01FE00         
FFFEF805         
0004F208         
0005FD02         
FCFDFE02         
0008FE05         
FDFFFF07         
0300FC07         
040DFC05         
FFFF0108         
01FFF605         
FF07FAFD         
0202020B         
01FFFF02         
FD07F704         
08FEFFFC         
07000103         
0309FC0C         
F8FE0002         
FFFE0308         
0403F904         
FA0005FD         
0A04FC00         
0901FD07         
04FFFD02         
0A00FE00         
0901FE06         
F9050102         
FAFEFEFD         
FCFD02FA         
FA04FE05         
05FD0100         
00FCFFFC         
0904FF04         
FEFC02FC         
03FE0105         
0300FE00         
0601FEFE         
0D0103FF         
FD0401FE         
070104F9         
06FC0205         
050002FE         
03FDFDFC         
03FF040A         
03FDFCFD         
0104FBFF         
0001EF01         
0101FF00         
00FF0103         
03FBF4FE         
FD01FA01         
FBFDF400         
01FFF200         
0403FCFB         
00FDFF02         
0403F9FA         
FE0304F8         
FE010005         
00F9FEFC         
0101FFFA         
FBFEFAFA         
030203F5         
FC0506FE         
FB0409FC         
0608FFFD         
FD0700FD         
FE070100         
FB01FF02         
00020402         
FDFF0504         
FF02FB04         
FC03FD02         
FBFDFAFD         
FAFC02FD         
F7FFFEFF         
03030204         
FD0402FB         
FE00FF01         
FDFC04FF         
0003FC04         
FCFDFEF9         
03000007         
1002040F         
F7FE000A         
F8FE0213         
0401020E         
FA0006F3         
FAFC05FE         
FDFF0405         
FF00FB06         
F9010902         
0204FA00         
0401FA00         
FE0005FD         
01FAFFFB         
00FFFDFF         
01FB05FF         
0102FD00         
0002FF00         
04020408         
07FD0108         
FC030202         
020302F8         
0701FF04         
010101F1         
010405F5         
08FD00FE         
0001FE01         
FFFBFBFF         
1F0503FC         
FCFD01F6         
FEFFFEFF         
0B0501FA         
07FDFEFE         
03030101         
120800FE         
02FCFF02         
FEFEFCFA         
04FE0004         
00040304         
F90300F6         
FF000206         
FFFE03FE         
00FE04F7         
01000209         
FBFB03FB         
FEFD0005         
F3FAFBFE         
010603FD         
03FC0303         
FD0401FC         
F90207FF         
02030102         
020402FF         
FEFD0201         
010601FE         
0400FE00         
00010201         
0007FE03         
01FA0301         
01FEFE08         
0107FCFF         
FF000301         
00FCFD01         
0000FE00         
FD03FD01         
FEFF0207         
FDFF01FB         
01FA0000         
FFFFFEFD         
0007FEFB         
01FAFFFF         
00020602         
01020204         
010100FF         
01020003         
08FCFFF9         
02FB03FD         
04FBF807         
03FCFE02         
FC00FDFC         
00030200         
00FD0005         
0102FDFE         
000304FD         
05FEF800         
FEFBFFFE         
050003FD         
FB0003FF         
FA050102         
030102FE         
FF0100FF         
03020101         
05000003         
0804FF01         
07FDFE01         
01FD0001         
07050300         
080101FF         
09FF0006         
04FFFE03         
00040100         
FF02FD03         
0502FDFF         
0001FCFD         
00FB03FD         
FFF9FEF8         
00FD00F6         
FFFEFC04         
0102FDFF         
00010102         
FE000201         
FF020602         
04FF0305         
01000304         
06020A02         
02FE0201         
08FEFC06         
FE0502FF         
02FE06FB         
FCFCFC03         
00F7FC01         
00FD05FB         
F704FA01         
FD07FFFD         
0103FE00         
00FF0007         
FAFBFF05         
FD02FDFF         
040002FE         
030501FD         
03FD02FE         
FE070002         
01FBFF01         
FEFFFF01         
05FF0105         
06040105         
0202FE00         
0200FF05         
0600FE01         
FE01FEFF         
FB00FF04         
F701FD02         
FA0101FB         
FE010004         
01010607         
02FE02FC         
01FD0305         
FBFC020E         
FEFEFC0A         
0001FDF9         
09020102         
0402FCFB         
03FE0002         
FF01FBFC         
FFFBFB01         
FA00FE05         
00030404         
FE000304         
FEFDFA05         
FF00FD04         
FDFE0D03         
00020100         
01020100         
02030203         
02FEFC00         
01FE0302         
03FDFDFE         
FD020000         
FE04FE03         
FFFB0103         
FBFF0000         
0201FFFD         
FB00FFFF         
00050200         
FE07FFFF         
FDFFFFFF         
FE0502FE         
FBFD04FF         
F2F00600         
0401FD00         
010202FF         
03FFFF02         
FF050200         
0405FEF9         
FEFCFEFA         
00FE0101         
00FFFEFE         
FEFC01FC         
FAFFFE01         
FCFD0302         
FFFBFEFF         
FCFC04FF         
FEFF03FC         
0102FDFC         
0801FBFF         
06000101         
FD02FC02         
0102FFFF         
00FEFF02         
05FFFE00         
FFFA0000         
FE010600         
01FD0200         
0101FE01         
FE08FBFE         
0304FDFF         
EEFF0DF4         
0EFDF9F3         
19FEEF04         
05F102FA         
030C0CFB         
0DC11708         
E6FFF21B         
E6090903         
03041AF7         
E40BF008         
F918D8E1         
E414EDF4         
102A02AE         
0A162C03         
FF130601         
1B0D580E         
0B093912         
FC05FD0A         
F1FF03FD         
2105E611         
38FDD21D         
F710D6F8         
030EE611         
1A03F025         
0B0B0D1C         
1DFE0414         
11F6F106         
FD0207E2         
F317F2D9         
FEFA01D2         
0CFEF8F4         
03090EE2         
06F20DDF         
F8FA090C         
E70908F0         
FCE212FB         
09F60618         
FF04030E         
360CFBF9         
13040320         
FBF70B0F         
02FA08ED         
48EFFE1F         
13F2010C         
14F5FE01         
FC01E901         
1308F7FD         
F6F8F1F7         
0303C607         
0AF50E07         
02050CF3         
F20ABD05         
F9F5C3FC         
FAF9E6FE         
0102EDF2         
08EEF308         
1419F8EE         
FAFB16F2         
00FCECFC         
0512F7DB         
080D05C0         
1104DEF7         
F608F8DB         
FFF7FA1B         
F61EE901         
04B7F2DC         
13F9FE0F         
0AD9F2FA         
F5ECFCEF         
00C5FCE7         
F8EF0805         
FFF7FAD4         
0303FBF7         
07FC0205         
ECF60510         
02FC1605         
FA0CF9FB         
05FFF409         
D605FE29         
0F00E70A         
FBFEF5F5         
F903FBFD         
1BF716D1         
26FC1FC9         
130120B5         
3702F3B4         
2108F6BC         
FDF308DA         
E801F8DD         
EEFFF9DD         
36061A04         
15FEE700         
13040204         
0028FB28         
FEE1E60D         
F8D3DBEE         
F114C7F3         
D21B06E9         
F9F70EED         
1110F7FC         
0FF2EBE5         
1AF315D3         
0CF200DD         
04FCE817         
F90B080C         
12FFF2F5         
0604F42D         
02FB0708         
1BFEF8EF         
09100A01         
101BF9FC         
2519FDFD         
2B06FA07         
32F0FD0A         
E8140AEF         
FCF8F3F7         
112304FF         
02FDFA38         
130CFF18         
09EEF82F         
0CF80F23         
25011B0F         
0E1E00E2         
FE1309D8         
FEFDF9FC         
0DE8F4E2         
D51BE907         
0E0EDD04         
FC10F304         
F2E8FEF6         
1D050BF9         
E70506F9         
F4210CFD         
ED0D0004         
EC0D0CF7         
010600FE         
03FD14FC         
06010C0D         
07D6F800         
FAF214FC         
F40EFEF9         
F51DFDFB         
03040715         
F808F20A         
06FB07F6         
FBF807FF         
02F508FF         
06FEFBFC         
05FD0202         
0400FFFE         
05FC0303         
02FB0202         
03FFFC00         
FA0106F7         
F9FB0604         
FBFD0308         
F30308F4         
F80105FE         
F501FD09         
F4FBFDFA         
FCFCF606         
F6FF0304         
F8FE01FD         
F303FEF7         
F30404F6         
FE0404FD         
FD0001FA         
FE0003FB         
05FFFEFC         
010105FD         
0103F900         
06000004         
FDFFFE04         
FDFF0208         
FC0402FC         
FE01FF04         
FB030600         
0308FC01         
FFFD060B         
0401FE01         
F8FDFFFF         
F40501FC         
EE05FB08         
FC02020E         
F3FE0107         
FA04FAFF         
FCFA0506         
FEF8FD08         
F801FAFC         
FE010D01         
0008FC06         
04FB0502         
F8FC0AFA         
FD00F6F8         
0401F901         
FA0205FC         
F7FDFB02         
03FEFBFA         
04FA0809         
00000A08         
FF010902         
04F2FA04         
00F602FC         
0206F4FA         
020102FE         
01FF03FB         
FC03FEF0         
00FDFD04         
00FBFDFC         
03EFFE06         
05030003         
05FD03F6         
01EA0004         
FE0100FB         
09F801FA         
FEF7FF00         
0100FDFE         
F50301FC         
FA000402         
020103FD         
FD0502FF         
F803FB03         
0DFD01FD         
05FDFB05         
0700F903         
02010007         
FD04FD05         
F804F8EC         
000503FE         
FF03F6F6         
FC05FFFA         
0502FC05         
03FAFC03         
F7FEFEF9         
08FE02FE         
07FA00F9         
01F703FE         
FEFCFBFC         
03F400FB         
FE040203         
F80B0800         
F802FE00         
FEFF09FE         
0203040E         
01FF0608         
FEFC02F1         
01FCFBF5         
00FCFEFF         
03FD030C         
FBFDFFF9         
03FDFCFE         
0605050C         
F9FFFA05         
F209FE03         
F8040302         
FCF90000         
FB060605         
04FE01FF         
F9FC0105         
F8F1FE03         
090002FF         
010A0503         
02080102         
0100FF01         
FD0404FC         
FDFC0103         
FE02010A         
FEFD0704         
03FF0307         
FE020007         
F903FFFD         
FB05FDFD         
F706FF01         
FDFF02FD         
F8040200         
0404FDF9         
0802FC02         
0F03FEF9         
0C02FEF9         
0304FCFF         
FF0A00FA         
FDFBFEFF         
02ED03FE         
03F500FB         
FC0100FF         
030006FE         
FDF9FF00         
FFFE0302         
0701EFFE         
06FE0109         
04FFFD03         
0D06F506         
07FF0305         
0B07FB02         
0404F802         
08FEFAFF         
070FEAFC         
FEF9F3FD         
F3FEFE0F         
FB0BF7FF         
04FA070A         
02FCFEF5         
0507FFFB         
F5FA0303         
F7FA0403         
00040CFD         
07FC0A04         
FCFB0D02         
FDFD07FB         
04040008         
F300FC09         
0C050306         
08040F02         
05FC080D         
07FD0AFE         
0301FFFA         
EF030304         
F30008FD         
F8FB04FD         
0C04FDFF         
0003FB01         
FA040505         
F2FDFF01         
FA03FF08         
FBF6FEF7         
FCFB00FE         
FAFC0100         
F40203FE         
F104FA08         
FBFFFB05         
F703FC02         
FDFE0301         
FD0004F8         
FD03F9FE         
FCFBF2FA         
FA0006F6         
FF04F406         
FA01FC02         
FE01F6FF         
0105FE05         
0301F900         
00000C02         
0BFEF6F3         
0202F2F0         
F500F2EE         
10FBF6F3         
04FE0FFE         
FA03FD00         
1C07FF02         
06FF0000         
0308FAF8         
FDFA0400         
FDEE04FF         
FE09FC02         
F9010700         
043003FF         
051B04F8         
FC0202F3         
FF090103         
FEFDFDFE         
F104FE01         
00FE0501         
0402040A         
050503FC         
09000200         
03FEFE07         
FB000709         
F9010608         
F704030E         
FB050210         
05FF0F0F         
04020511         
EEFF0715         
FFFE0708         
13FD040D         
F90204FA         
0DFD0803         
1BFF0A02         
F00700F7         
EC08FAFC         
F60505FF         
F40005FF         
FF030904         
F514F908         
EFF8FDFF         
F9F4FB00         
03070E01         
FA03FD06         
F604FD06         
F801FCFA         
0100FC0F         
08010407         
06F90002         
F9050000         
00FCFEFA         
FF0300FA         
FBFD06F6         
FBFC00FC         
F6E9FDFD         
FFF8FA02         
070902FE         
04FDFF03         
08FEFE03         
02FC0202         
FFFC02FB         
0008FF01         
03000704         
FA0B0013         
FF10FF0B         
0502FFFB         
FD02F80E         
0A0C0004         
040DFBFA         
0410FC0A         
0502FF07         
090800FE         
0806FFFE         
F8030400         
0B0205FF         
120B00FE         
F6FF03FA         
06FA0002         
10060100         
FA04FAFD         
01050000         
FDF501FC         
07F90405         
03FBFE04         
F8FC0B01         
0701FFFF         
01030105         
FD020201         
03FF0001         
FC0003FF         
0204FEFB         
04FD0001         
FFFAFEFD         
FD0301FB         
02FE04FD         
FFF9FEFE         
010200FE         
FFFD0000         
FEFFFFFC         
01FF03FF         
FFFFF9FC         
FE010000         
01FD00FC         
FB0201FA         
FD02F9FD         
01000303         
0B01FC02         
0A030303         
00010104         
05FF02FE         
FFFF06FF         
F900FF04         
00000002         
FCFFFEFE         
FC010202         
FB0302FF         
F70003FB         
04FE0002         
0406FFFF         
FE000201         
0200FD02         
0302FBF9         
0E01FC00         
0900FE04         
FB01FEFB         
FB0300FD         
02FD0102         
02FE0107         
0109FEF8         
06FD08FF         
FFFB0307         
0407FE01         
06FEFF03         
FC00FBFF         
010206FC         
01020200         
02FA04FE         
FF02F9FF         
020001FC         
FE000505         
FE010803         
0400FE01         
FBFF0AFC         
FF07FA06         
FBFE01FC         
F9F705F8         
0005F7FF         
FD010700         
FFFF0100         
02FFFD02         
FFF70404         
030101FE         
FB01010A         
FE020001         
03030501         
FEFF0802         
0102FB03         
FF030205         
FFFE0003         
01FB0007         
FC0001F9         
05FD01F9         
FFFF01FB         
08050600         
02FF00FD         
FD000601         
0500FE00         
0300FC02         
FEFF03FC         
F9FEFEFE         
F902FD06         
F70200F9         
F8FDFFEF         
0005FFFB         
F8030104         
00FF00F2         
030206F1         
FD0304F4         
FE0902FC         
F903FAFC         
FFFFFD05         
01000102         
03FDFA00         
FDFFFD04         
FDFF0000         
0100FEFE         
05F7F403         
0001FD09         
FB06FEF8         
FFFDFE0C         
01FB00FA         
FE030803         
FA03FEFC         
FDFE01FA         
01040201         
FB000202         
07FF02FF         
09FCFF00         
02FF06FE         
0C010604         
05030000         
FFFB03FD         
0202FD05         
040600FD         
FBFF0404         
04FE02FD         
01FEFEFE         
02FE04FB         
00FF03FE         
00FBFB05         
FC0004FB         
FD010301         
FCFDFE00         
FFFCFF00         
01FFFF01         
03FDFDFF         
FBFEFDFB         
00FC0103         
03FC03FF         
FBFF0202         
00FC0102         
010101FC         
FD0100FF         
FD07FEFC         
FF0605FF         
FDFEFE01         
04F30001         
FA0900FD         
0002FCFE         
01FAFE01         
FE0201FF         
FEFF00FF         
0308FE0F         
F7160810         
050EF504         
ED02F4FC         
020C0005         
FCF60C09         
F1030201         
FBF00A06         
01F411FC         
F50EFDFF         
0C0606F8         
FD07E6E5         
0CFCFAF3         
1701F50D         
0B07FE03         
070A02F6         
1103FA01         
02000AFE         
FF02F0F5         
0306F9FA         
05FF0909         
0F05E805         
05000D0A         
0606040A         
00FFFFF8         
03020404         
0F0008F5         
00FBFD03         
061302F5         
E507F507         
14FAF80A         
1A0108FF         
FE070807         
10EBF902         
EDFBF90B         
F1F7FA05         
08F4FE10         
0EF80111         
17FFFF0B         
04030216         
15F900FE         
1601FD02         
09FEF90A         
2608041B         
0EFCFA14         
0105F601         
F708FD01         
F80A0CFC         
01FBE409         
030AF902         
F9FF21F9         
FDFAE803         
FF03F3FD         
04FB11F5         
030AF7F9         
00113101         
FF07F5FB         
FCFAE701         
EE0503F8         
FAFB0E06         
E2FE1F0E         
F6091017         
FCF1EF10         
070F0BF8         
FE18050C         
FA0A082F         
0603FE06         
031A0813         
001B1206         
012C0D20         
0724080E         
FE0319FA         
F902071A         
0B05FE1E         
1900020C         
1AFD021F         
D402050E         
00FAFE07         
01F90221         
FBFEFD06         
11FE08F5         
1B0B00E6         
FFF3FBD7         
03030409         
1EFDF1FA         
1AFFFDBD         
03F903F0         
D8F2F9E1         
0102F108         
13030026         
03FDF402         
FF01EB01         
0AF9FE0E         
1B09020C         
FBF5E212         
21EDE905         
0D050606         
EF191A07         
FDF90F05         
EAFDF9FD         
080DF3E6         
05FDFFF9         
0903FDF7         
020BFF09         
010A0401         
11FEFCE9         
0BFC0B08         
07FAFCFA         
DDFAFAF5         
DAF70A09         
03D701F3         
EB110502         
06F401F5         
1DDD0102         
F2FF08F6         
15F20603         
12E6FDFD         
1A090B08         
0A08040A         
0F0104FD         
0D0100F6         
0C06F10E         
10F4FAEC         
F7060600         
09F502F8         
0901FE09         
F302FB03         
FA03FBFB         
FBF609FA         
13F6FAFC         
16000703         
EFF5F804         
FEFE01FC         
DE011404         
E4F6090A         
05FEF8FF         
08050000         
FF140404         
020201FD         
FC1F0701         
FC15FA08         
F80700FB         
0408F702         
FE0901FC         
03FE00FD         
FE080401         
F911FE00         
FCF8FFFD         
FD0101FD         
FE010305         
04FEFEFD         
0204FF00         
03030600         
0005FEF7         
0104FBFE         
0205F7FC         
03020201         
FC00FEFF         
01FDF9FD         
000104FD         
FF02FAF6         
00FFFB02         
FD04FBFE         
0004FF00         
0104F8FF         
FF02FFFB         
FC030000         
0C000702         
060A01FC         
FE0300FD         
FFFF03F8         
FF010100         
FC0002FD         
0009FEFB         
05FDFF02         
F6FA00FF         
05030202         
02FB03FE         
0300FFF9         
FFFDFF00         
FBFEFDFD         
03FB000F         
03FEFEFB         
0001FDFF         
FFFC07FE         
FFFEFD02         
FDFFFF03         
01FCFFFB         
FCFA0103         
FF050403         
00FF06FF         
0000FFFE         
0002FFFF         
05FEFAFF         
FDFF0403         
FF010307         
00FD06FC         
FD0203FC         
F8030304         
FCFCF900         
FC050801         
FAFEFD01         
010AF5FA         
FAF8060A         
FBFEFA06         
0007F002         
06FEFE06         
01FCFD07         
FDFEFA00         
010CF9FD         
00F7FC00         
FEFCFAF8         
0003FE01         
00FC0205         
FA08FE02         
00FFFF06         
07FF03FB         
FCFDFFFA         
FC0003FB         
05FE03FC         
F900F9FD         
010302FF         
0A000204         
02FEFFFD         
000102FE         
FD02FFFB         
FCFC0102         
FBFCFE0D         
0302FDFD         
FCF8FB0D         
06FC030A         
04FE0205         
050001FF         
FFFF0209         
03070008         
00000001         
020100FF         
FD030006         
0207FF01         
FA03F8FA         
FD01FB06         
FDF9FE01         
FEFB0DFD         
01FFFF06         
FFFDFB06         
FF00FFFD         
00000206         
FC00FFFF         
FDFBFF02         
FD020102         
FF020204         
000001F5         
02000000         
FDFCFF02         
FD05FF02         
07FF0302         
00FBFFFE         
0104FF01         
01F80204         
FE050100         
01010207         
FEFE0000         
FAFE0005         
FF000102         
FEFD03FE         
00FD01FF         
00FEFF00         
000000FF         
03FF0103         
000400FE         
F806FFFF         
0501FC01         
0100FE00         
020001FD         
06FDFB00         
08000201         
01FFFDFE         
0300FFFF         
00040201         
01080303         
FBE90204         
0106FE02         
03030503         
FF0302FF         
00FDFFFE         
01FF0101         
FC04FF02         
0303FE02         
00FFF308         
0603070D         
05FC0612         
0AFFFDFE         
07FCFE0A         
FA060000         
08FAFA0B         
03F5010C         
0500F915         
FCFFFB0B         
FD060006         
F8020208         
FDFD04FE         
04FD0304         
FDFFFA06         
FBFF1701         
01F70BF9         
03FE08F8         
00060602         
FB0408FF         
F6F902FD         
FCFDFAFF         
03FDFC03         
FEFEFAFE         
03FDFF02         
01F8F904         
FE000504         
E503FF02         
0004FBFC         
ECFE01EF         
FE00FCFF         
0504FE03         
0F08FCF6         
0DFB00FF         
04FAF5F8         
10F7F4FB         
FE01FFFD         
F2020902         
F7050002         
02F901FA         
00000801         
FD03FD0A         
FF030104         
F7080303         
FE0BFD0E         
000705FA         
FB00F8F4         
F6050CF8         
FBFDFC00         
0900FDFE         
FEFA0BFF         
000406FB         
040102F2         
000EFCF6         
FFFA06F2         
0302FC03         
FD080006         
06FD04FF         
0002F503         
FAFCFB06         
00F70604         
FFF90310         
04F81715         
01090205         
07F50000         
FD05FFF6         
FB050304         
06F708FC         
0003FEEE         
0110FB0B         
FE18FCFC         
0101FB01         
EDF5F9FF         
F104FF02         
F102FEFA         
09F60700         
15FB0A07         
0307F9FF         
03FB04FF         
F2FD07F5         
01FD0300         
0308FFDD         
000AFFCA         
0202FDB3         
F7030101         
0104F9FA         
F80003FA         
FE00FAD3         
FC08FBE2         
FDFC0CFB         
08FC0EFD         
F5FEFB02         
06FEFE07         
FFFA0D03         
050601FD         
080BF1FF         
080B0207         
01060701         
F71407FC         
FBFCFB0B         
FD081006         
FC00FD02         
0404FD00         
FFFF0200         
00FC0305         
0204FDD7         
FFFD03EE         
F5FF05DE         
FB08F8FF         
FB0707FF         
0807FB07         
F9000306         
FFFCF801         
FF03FD04         
090001FE         
FC11FF0A         
090CFF08         
06FF0305         
02FAFA0B         
FDF9FF0F         
0305FEF5         
03000005         
FBFA080B         
04FAFE02         
08FB0201         
14FDFD0A         
06F8FC05         
03FCFEFF         
F013FFFE         
00080101         
FBFA0405         
F5FE06FD         
E313FDFF         
F6FCFE08         
0FF00505         
09FFFC04         
FFFAFDFD         
08FEF2FE         
F90100F8         
FCFCFE00         
FDF7FD05         
FEFC0103         
08FD01FF         
0BEA0607         
0207F9F0         
02020305         
FF0CF6FD         
05FDF8FB         
01020105         
05FF0204         
00FE0503         
FD0007FF         
FDF7FF03         
EBFEF8F5         
03FDF8FE         
FD040001         
0000FAF3         
FAFCFD04         
FCFD0802         
0802FF04         
00010401         
F606FD0B         
090703F9         
0F050203         
00FE0602         
0505FAFF         
FBFDFE08         
F101FFFC         
FC010001         
FE020204         
F70100FF         
12EE07FA         
0CFBFE07         
0602FB02         
0BFC01F6         
F2F50801         
08FA0000         
04F30100         
FEFE0803         
00FE0B03         
F9FB0001         
F5FCFC01         
0303FD04         
FDF70301         
FFFDFBFB         
01FF01FD         
0CFA02FC         
04FBFFFC         
00FF01FE         
01F9ECFC         
FDFCEE01         
00FFFA08         
05FEFFFF         
04FBF001         
02000905         
FFFD0000         
FCFE0809         
FB03FF02         
F8FE0A04         
F8FE0A09         
FE01FDFF         
F1FE0C01         
FD040707         
0304FE03         
00FE0303         
05090204         
0505FB11         
011403FD         
0209FD07         
03F901FE         
05FDFCFC         
03FCFC02         
0503FE01         
0307FF09         
FF070403         
05FFFE01         
F70405FB         
0C010202         
0204FC03         
020A07F9         
F4060101         
FCFAF8FD         
05060106         
020700FF         
000307F9         
FDF8F917         
FAFAFD09         
FC000201         
FEFF0305         
FFFCFD08         
020601F8         
0101080D         
06030004         
0D0001F8         
FB13F6F4         
F90608F6         
02070B04         
05FBF601         
0300F8F9         
0708FF04         
020BF503         
00020203         
0BFD0208         
05FDF3F4         
02FBF9F8         
02FFFDF8         
03F8FCF1         
00FBF8F1         
FDF7FFF4         
00FDFE02         
04FEFA07         
03FEFF08         
08130C01         
0609FFFA         
FEFDFD01         
0B050705         
FDFB04FD         
F4FDF8FC         
03FC0404         
02FB0101         
0900FF00         
02F806FA         
00FE04EC         
FA0102F6         
FEF801FD         
0902FDF2         
F90003F9         
FAFF04FD         
F3000207         
F802FA00         
EEFF02F2         
08000404         
090302FD         
F9F302FA         
FA07FFFE         
050205F9         
0EFD0700         
03030404         
00030502         
FC0506F5         
00FD02FB         
FAFC01FC         
0301FAFA         
0106FFFD         
FCF805F8         
FCFFFCFB         
FF09FF00         
020707FC         
FDFBFCFA         
FCFF0404         
0205F701         
FFF2FA06         
FD02FBFE         
0605EBF9         
07F7F605         
FAFE0602         
FD02FDF3         
FDFFFE06         
FDFCFB06         
FC03FFF8         
FF0505F8         
F80002F8         
F309FFF5         
FA040301         
01000001         
F604FBF1         
01FE00FF         
0606FD00         
FE04FA00         
0300FD02         
02FEFFFD         
02020902         
FF000001         
00000503         
FE010102         
0CFFFFFB         
0401FEFD         
F803FDF0         
0302FDF8         
08FE03F7         
FF0109F0         
0405FFFC         
0401FDFC         
100205EB         
02FDFC01         
02FEFF00         
FD01FEFB         
0202F604         
0500F908         
FB030404         
0301FEFF         
FCFC0601         
FD02F9FE         
0001F5FE         
FCFDF502         
FC03F9F9         
01FBFAFB         
FFF900FF         
FE03FC01         
FC0703F9         
02FE0801         
FCFEFDFD         
FF0303FC         
00FB04FF         
FD090603         
00FE0203         
FDFAF602         
FE06F1F9         
06030505         
05010205         
FE06F4F3         
0002000B         
030202FC         
0807FFEF         
FF05FF04         
050004FC         
07F8FC09         
02040201         
FFFA00FC         
030800F4         
01FF0302         
04030106         
F5FFFCFF         
0801FD00         
00FFFE01         
FD040802         
06FD0301         
FCFD0100         
05060200         
06FFFA00         
0606030A         
0C030019         
02000204         
0A08FB0B         
0C0A0529         
0201FD03         
FEFEFE0F         
FB03FD2C         
0306F9FB         
FC02FCF5         
030A02F8         
FE03FB03         
F70405F8         
FAFE0305         
0106F902         
FC01FDFC         
F6F908FC         
04FB020F         
FFFD0105         
F904FEF7         
00FAFDF8         
FEFD01FB         
0002000D         
FF00FDF9         
00040401         
05FE0110         
0313FC02         
FB070202         
F40F0201         
1408FD03         
0107FA00         
090B0106         
FBFCFF02         
F1FC00FB         
F1020208         
01F9FE02         
FBFFFF02         
FFFC0201         
020203FD         
0400FE06         
06020806         
06FA0006         
FD0001FD         
FA0403FE         
FF01FCF9         
05F400FF         
FCEFFFFF         
040501FD         
FA01FCF7         
F1EE0701         
FFFEFBFA         
0301FCFD         
00F600FB         
FFFE03F7         
00FEFD00         
050101FD         
06F900FD         
03F9FCFA         
08F902F9         
0601FCFB         
00FCFDFD         
020201F9         
FF090A02         
03FE0601         
FFFC08FD         
0206FA01         
000304FE         
FD060DFF         
FE04FFFE         
00FAFF00         
FEF80704         
04FDF905         
01FEFE04         
FF010504         
02FFF0FC         
FE02FB00         
0605FCFB         
FFFFF4E7         
FBFEF8FD         
05FEFAFB         
F8050204         
FF0501FF         
FD020000         
FEFE0001         
FCFD02FE         
0102FFFC         
FA00FCFC         
F7FFFF00         
FBFDFF00         
ECFEFFF8         
F9010002         
F5FF0001         
FEFB01FC         
FDFE0100         
F5010201         
F8FAFEF9         
F90700FF         
F8040500         
F60101FA         
F50000FE         
FC0501FC         
F9FF01FB         
FF030200         
FCFCFE03         
F601FEF9         
010300FE         
000000FD         
02FC0201         
00FFFE05         
02FF02FF         
00FFFDFE         
0105FC03         
FD030301         
04000802         
02FFF8FD         
02FE02FE         
FE03F8FA         
0201F4FF         
FF00F6FB         
F8FEF5FA         
FEFF00FC         
F80006FD         
FAFF00F5         
FDFC0BF6         
FEFE03F6         
05FC03FA         
04EB0302         
000100FD         
010901FE         
00F20104         
0003FE04         
000406FA         
00F301F9         
00FEFCF7         
E8FEFCFE         
F8FDFF02         
FCFF0100         
F5FEFB01         
02010002         
07020005         
FB0001F6         
03000004         
FF020003         
FEFE00F8         
FD0001F0         
FB0300FB         
F60300F6         
F8FF05F6         
F50301F2         
00FFFFF4         
03FDFBF4         
F903FDEF         
00F50601         
FBFB0201         
00FE04FD         
FFF201FE         
FCF2FBFF         
03FAF400         
00FB0600         
FEFA0000         
0002FFFE         
FFFF02F4         
FE01FFF6         
FEFC0100         
FE02FFFF         
00020402         
FE010007         
04050205         
FE02FF03         
FD00030A         
04FEFF02         
00FF01FE         
02FC0001         
FDFC02FE         
FC000002         
01F800FD         
FC0104FE         
030003FE         
FCF70000         
FCFF04FD         
0100FDFE         
FDFF01FE         
FF000002         
00030202         
00050300         
FFF90001         
00FDFF01         
FFFDFEFC         
02020305         
0204FE03         
F50304FF         
F8FCFF04         
FE020205         
F905FCFF         
02F80103         
FC0100FD         
FD0A02FF         
FE010200         
FF00FCFF         
010501FF         
00FE0201         
FFFEFC00         
0002FFFD         
01FB01FE         
02FDFF02         
01FFFC00         
FF03F504         
010DFAFE         
0310F7FF         
050207FD         
060D0C00         
FE03F704         
FFFF05FE         
000C0701         
04FDFEFE         
08080308         
05050405         
FCFD0601         
06080C10         
0007060D         
FBFF0804         
06FE0D05         
FDFE0505         
FB03F7F9         
FAFDFD02         
02FEFB01         
FEFCFCFC         
06FF0509         
0202FF04         
01FBFE06         
FD020105         
F6000104         
FCFFFF03         
F10804FF         
0B0003FF         
0305FE04         
FA060405         
02040106         
FC050304         
000D0202         
FEFC02FD         
FEFFFF04         
01030005         
FAFBFC03         
05030007         
0800FEFC         
0C030406         
0A070703         
0D03F803         
0D040302         
FE03F904         
FFFFFDFD         
0502FF01         
FF00F304         
05FEFDFF         
07030503         
FE01F907         
0202FD00         
0000F701         
0104F6FE         
FE04FB0A         
0103130D         
0E00070C         
16091108         
10090704         
0D030D08         
0FFF0F0B         
0705F8FF         
FD0003FD         
FFF90002         
04F902FF         
05F3FD09         
01FB00F3         
FE0201F2         
FC040000         
01FE0406         
FFF70201         
FEF4030A         
FFFEFE03         
00010106         
FE020602         
0400FC07         
1203FFFB         
040302FB         
F9FE0410         
120201FF         
0C02FCFC         
FD040807         
040608FD         
0DF704FD         
02050809         
0604FD03         
0FFA0007         
05040320         
0302080A         
0C03FF19         
0D0CF2FD         
F90900FF         
FEFC0B04         
F812FF04         
09230D02         
03090DFA         
00F9FA02         
FD05F7FB         
FF08FEFF         
01030001         
08050409         
08FF09FB         
01040307         
00030907         
050004FC         
F705FFFE         
00FF02FC         
04FD00FD         
FF01FCFB         
F5FE0103         
02FCFE02         
07020103         
FD010601         
09ECFF03         
05FBFCFF         
F4F40000         
0CF100FD         
02050202         
03060107         
00FE0101         
050602FE         
03010100         
FF01FAFF         
00030204         
02050403         
FE04FD03         
E90001FA         
FFFCFE02         
EFFCFFFE         
FDFD00FA         
08020A01         
0301FE00         
EE0502FD         
F4020503         
F8FB00FE         
02010602         
0401FC06         
FF030002         
FFFE04FF         
02020405         
03010102         
FF0301FB         
0503FEFC         
FE060003         
0700F20D         
0A07F908         
07FF1007         
FE01FD03         
FD010001         
00040900         
FFFE04FF         
FFF9FF02         
FA020201         
0B030D06         
0B02FF0A         
FFF9F8FF         
FD000002         
0304FEFB         
0100FDFB         
F903EDF6         
01FFF8F8         
F8FFFC07         
02FB020A         
06020201         
03FEFC01         
01FC0301         
FB0005FD         
FA0100FC         
0AFEFF04         
FF00FFFE         
FAF8FF02         
FF0AFCFD         
F90CFE02         
010800F8         
FBFBFEFD         
FEFBFD01         
04FDFEFD         
01F600F9         
0AFDFEFF         
04FBFFF7         
020004FE         
F802FF06         
FD070203         
F90003FD         
FE0BFF02         
FCFDFDFF         
FB00FDFF         
FCFEFD03         
FDFE0103         
FD00F902         
0207FAFC         
020509FC         
03FFFEFD         
0006FC01         
0108FEFE         
FF0000FE         
FDFE07FF         
0001FFF6         
08FF04FC         
0104FCFB         
04FD020E         
01F808FD         
0204FFFE         
05030602         
000308FC         
FCFF08FC         
FF0109F3         
FC000600         
05FC00FA         
FEF902FE         
FC010405         
FF07FC02         
FEFFFDFD         
020200FB         
FFF8F9F7         
FDF6FFF3         
02FAFE03         
0A0004FE         
FA0504FF         
FE00FDFF         
06FEFF06         
FDFC0302         
FB0103FE         
0DFEFD03         
03000306         
FB04FCFE         
00FD010A         
070002F4         
FAFEFD02         
F6FE00FF         
FC02FA02         
FAFFFB09         
0205F900         
F302F9FE         
FE000B00         
FCFD0505         
FEFE030E         
0101F7FB         
010307FE         
0602F7FD         
FFFF05FC         
FD0AFCF4         
00F4EDF8         
000603FF         
FD030B00         
000006FC         
FDFEFEF9         
FB050203         
FDFE01F5         
FF0102F9         
F8FCFD02         
F8FD02FD         
09FDFF08         
0E030508         
1002020F         
04FEFF00         
03F50001         
0401FD04         
07010000         
0DFFF603         
FD04FDFC         
09040400         
0701020B         
0EFEFF0B         
FCFCF904         
05020008         
0301FE03         
04F70001         
03FF0003         
00F7FB03         
09F80000         
01FE0402         
020707FF         
FFFE01FC         
F8FD01FE         
F800FDFE         
0208FC03         
FCFCF7F9         
F4F6FAFA         
0302FF00         
02FB0507         
0AFB0606         
00FF00FD         
FEFC0303         
FF04FF03         
0501FEFE         
01FCFFF9         
FEFCFDFC         
02ED0903         
FEF3FDF4         
040208FC         
01EFEEF9         
0900FBF8         
06FA06FE         
0BEFEE07         
FEFA0AF7         
FD0105EC         
000306F7         
FE0205FF         
F4040903         
09FF03FA         
FC000603         
EE040600         
06031B03         
FF030FF3         
EAFE09F2         
F800FCFF         
0503FDF9         
03FF0100         
0DFCFC01         
03FD06FF         
04FB0604         
FA000701         
F0FB0605         
EB030106         
0BFC0504         
0705FBFD         
00F902FF         
0A02FAF8         
00020501         
10FD09FD         
08EEFEF4         
FE00F6FB         
0E0002F6         
FD03FC02         
F800FF05         
040000FB         
F906FE01         
0208FDFD         
06FBFDF6         
0B01F9FB         
FB05FFFE         
05FFFBFC         
04090105         
03010201         
FEF8F904         
0DFE0007         
0500F303         
FFFF0500         
02FBFAFB         
0403F909         
05FCF509         
04FEFFF7         
04020107         
0B00FAFC         
05FEF002         
030404FF         
06FC08F9         
0CF7FE00         
09F80FFD         
06000DEF         
FBFE0401         
00010801         
FFFA02F8         
04000208         
04FF0307         
09F7FE04         
FF08FF1F         
FDFC040D         
04DFF906         
03FA00FD         
04FB05FC         
F6FE02FF         
120001FE         
02050005         
FE0201FD         
06F802FD         
F9010105         
FB0203FA         
F902FD1F         
FD010108         
F6FDF8F3         
0003060F         
0708020E         
F902FBFB         
FA02FBED         
FA0A01FE         
FB01FA02         
F50109FD         
0003FBF7         
06000703         
01040B06         
F6010205         
0B070F08         
00FA020F         
FAFF0201         
FAFA0501         
FE020100         
07030102         
00FDFFFD         
FBFF0201         
FA040002         
FC04FE00         
07FD06EF         
FD000902         
01FCFD03         
F8F30002         
F7FDFAFE         
000AFEFE         
0DF90002         
01FE0102         
FEFC05F9         
12170003         
F7F601FE         
F4F00501         
05F80102         
02F7FE06         
00F9FAF9         
03010502         
03FE000B         
04FEFDF9         
05F5FEFE         
FDFFFEFA         
F701F9F5         
F4F9F602         
F8F9FBFB         
0B06FCFF         
0B0206F8         
03FEFF01         
FE15FDFD         
05FDFEFB         
110000F7         
0315FAF9         
07FFF902         
03030007         
FC04FFFA         
FB0500F9         
020B08FB         
030502FD         
0C07F8F4         
0202F7F9         
FF0BFFF4         
EE0D18FE         
04F91814         
01F9FA12         
FFFEFDF8         
F9FB0C16         
FAFB0A0B         
04F5E60F         
FEE8000A         
08FE0403         
F7F7E915         
F20AED09         
EB04E607         
08F8FE03         
10001C03         
0DFCF206         
1D0633ED         
040519E7         
04031EFB         
EFFAF2FD         
10FFFE0C         
2502DD0A         
0303F405         
0CF5F510         
08FCEF1A         
0100FB06         
FFFEFE04         
01FDFE14         
040205F6         
0E130CF8         
ED0402E5         
FC050416         
F608FAFA         
EFFCFFF2         
EA0D0114         
080D04ED         
F4FAF400         
07FB0406         
01FD0806         
27010607         
FB0E04F3         
1108FEFB         
1008F7FA         
2200FE08         
0403FF01         
0310FEF4         
FBFFF9FB         
031400F7         
000104F8         
FD00D9FD         
F9001CF4         
FD031310         
FC0ECBF8         
03F3EFF8         
08FBEC01         
FD070FDF         
110E1201         
14100500         
02FC0CEF         
1108F004         
1501111F         
0E0714E7         
1A03FD16         
1DF61D08         
03D1F7D2         
FF0DFAED         
FC0FF0E5         
00E51005         
F905FBF9         
01F8F4F0         
F80AF7F4         
01100603         
F7FAFCF3         
FD0A04F5         
060204FD         
F905FD00         
E8FBF5F6         
0C0305FB         
F40A05FE         
03020300         
EAFCFA06         
F9000015         
0C0A05FB         
FA0705F3         
04FCFD12         
09FF1CE8         
09FD0D04         
0CF8FE14         
10FA0ACB         
FCFC04E7         
F104010B         
02F20BF0         
F6EAEC00         
F5FFEAF5         
F3FC1BEC         
EFFC0416         
0312F8F7         
F6F5FCFE         
FDFB0405         
0C0F12FB         
000009EB         
FFFD0909         
1F06FC0F         
09FFFDFC         
FE071200         
17F2040A         
190608EA         
FDFE03F5         
01FFFDEF         
E5F5F9F8         
05E503FE         
19D2F706         
FFF30301         
30E9FEFB         
26DFFA08         
0606FEFA         
15F9090C         
12F103FB         
FDEC0D02         
0B02FD1D         
0CFB030D         
0507080D         
0002FDF9         
FCE701EF         
0EFA0CF9         
03FEFEF3         
FF04F4FB         
17F20D08         
E0F40906         
0FEAFC00         
0AF707FA         
05F80D04         
16F603FE         
F50EFDFF         
0CFB07FA         
150600FB         
FBFF0500         
04FEF903         
01F3FDFD         
F408F7FF         
0002F906         
F90508FE         
FA09FEFC         
FDF601F6         
03070202         
FBFFE2EF         
07F5DB04         
0815DB17         
FEF2F3EA         
07FAEBFC         
0802E802         
09F6EFF6         
0601F3F8         
0702CBF9         
020B06F2         
09FBF6F2         
10030812         
F60102EC         
F6FCF4FD         
0B0A040A         
EC00F1EF         
F6F609FB         
FC020203         
FAFB0802         
02F7FA06         
0EF6F707         
FFFBFCFB         
0703F606         
FEFBF903         
02FDF7F4         
06FC00F9         
080406F8         
EDF9FE0D         
F506FBFD         
F40F05F5         
F6F204FF         
06FDF000         
150AFAF7         
FFF2F603         
0FFFFD06         
03FFF710         
06F7F4FB         
1BFD0B0C         
300A01FC         
F9FFFAF9         
0D06FF0D         
0EF7FBFF         
00FAFBFE         
00FCFF05         
0404FF0A         
03F40D03         
FA02ED03         
0913FA01         
0200F403         
F904FCF9         
0108F20F         
FA040A00         
F300FC00         
FC04070C         
04FE0A07         
18FE0A0A         
2105F71C         
FCFFFB07         
FFFCFA0A         
0EF9EF0F         
F103F204         
F800FF09         
0802F713         
FB25F90D         
04110E0A         
042F0F01         
0406F801         
05F2FCFC         
FD100DF9         
01EEF803         
FBF2FC00         
04F90806         
F4040004         
FE0AF8FA         
040A0502         
FEFF0403         
F4FA1301         
EB01F9FB         
16000004         
F4000701         
EE000401         
DE050313         
1F070820         
32090EFF         
EB0208FD         
0305FF0D         
220C082B         
D8F2FD06         
F0000213         
FA02101C         
01FAF80A         
04F90F10         
0918FA11         
F9F4F805         
030AFB0A         
EF030608         
130C0E03         
FD01FBF9         
FB0B0104         
0107F4F5         
0600FF0E         
06080412         
F707FBEA         
07FFFAEE         
03F80400         
F301F9F5         
F9FEFFFA         
070601F8         
0DFFFEFB         
23FAFF05         
3310060E         
F2ECF802         
FEFF0801         
080303FA         
F8F6000F         
F205FCF1         
03FB01F9         
FA0BFDF9         
FB030104         
1BFF0617         
F6020403         
03FFFFFB         
02FF03FE         
0A03FC0B         
FDFEF701         
0108FF0E         
FE0C0DFE         
0503FEFD         
0B1A1200         
01FCFEFB         
FF00F8F4         
03FFFEF3         
04F2F5FE         
F8FAF5FC         
FFF6F2FF         
0503F1FF         
0B03F500         
11FE0203         
00FB0002         
03F1FDF9         
03FAFCFC         
0AFC07FE         
FFFB0404         
FEFAFD09         
FCFFFB00         
010701FE         
00060100         
FFF9FC04         
FE070401         
000A0401         
FDFCFD00         
0307FEFE         
010C0004         
0703FDF6         
01FDFB00         
F902F804         
0CFDFE0D         
0703FE12         
F1FFEC0C         
0A00FCF8         
08FF0406         
FF03FDF8         
0AFF02F8         
0003FB05         
FAFF0001         
F70401FD         
FAF90100         
F50300FC         
07010102         
EEFDFDF9         
1000FBFE         
0D01FE00         
FA0007FE         
FDFE0203         
10FD0404         
EDFC07FC         
F7FE0500         
EFFE01FC         
F9F80205         
03F302FD         
0704FDFD         
02FAFDEE         
02FFFEFF         
0500FD02         
FC02FFFC         
F8030403         
0901FE01         
040006FE         
FDFE02FD         
0307FE03         
06FFFAFC         
01FD04FD         
02FE0701         
FE010003         
07010007         
03060000         
0702F9FF         
FFFD0600         
0103FA03         
FB05F7FB         
0502F5F4         
0004F001         
FF0AF0F3         
F5051AF6         
09FDFA09         
0103FB04         
FE0611F4         
03F3FFF6         
05FE02FA         
01F20109         
04F0FEFC         
FD040303         
000FFC04         
FDF2FC04         
03FBFF08         
FE0A0305         
17020202         
0D02FF01         
0A0300FC         
11FFFE03         
070705FF         
F900FFF8         
1202F905         
09000103         
000003F6         
02FF07FC         
0100F9FA         
