02_0B_04_FC         // (  2,  11,   4,  -4)
F3_10_13_D6         // (-13,  16,  19, -42)
FE_0B_05_1D         // ( -2,  11,   5,  29)
F7_0B_4A_1A         // ( -9,  11,  74,  26)
2E_03_20_0F         // ( 46,   3,  32,  15)
DC_06_FF_B7         // (-36,   6,  -1, -73)
05_04_EC_2F         // (  5,   4, -20,  47)
0E_E7_CB_E1         // ( 14, -25, -53, -31)
00_A7_DF_2C         // (  0, -89, -33,  44)
11_2A_11_3C         // ( 17,  42,  17,  60)
13_2F_2F_17         // ( 19,  47,  47,  23)
DE_16_0C_DD         // (-34,  22,  12, -35)
FE_C8_F5_16         // ( -2, -56, -11,  22)
34_E6_FF_07         // ( 52, -26,  -1,   7)
DA_E9_01_F5         // (-38, -23,   1, -11)
0A_17_A8_16         // ( 10,  23, -88,  22)
FC_08_DF_09         // ( -4,   8, -33,   9)
09_00_0B_F2         // (  9,   0,  11, -14)
E3_0C_D6_AF         // (-29,  12, -42, -81)
F3_0C_F0_EC         // (-13,  12, -16, -20)
F5_FF_03_FA         // (-11,  -1,   3,  -6)
C8_15_0E_FA         // (-56,  21,  14,  -6)
FD_06_E7_0E         // ( -3,   6, -25,  14)
EC_05_E1_1D         // (-20,   5, -31,  29)
D7_20_56_F6         // (-41,  32,  86, -10)
E8_0E_0F_01         // (-24,  14,  15,   1)
0D_20_E7_29         // ( 13,  32, -25,  41)
FD_F8_F3_31         // ( -3,  -8, -13,  49)
01_FF_FA_13         // (  1,  -1,  -6,  19)
FE_0E_F6_04         // ( -2,  14, -10,   4)
20_F3_EC_1B         // ( 32, -13, -20,  27)
21_FC_4E_04         // ( 33,  -4,  78,   4)
FD_4C_F4_05         // ( -3,  76, -12,   5)
34_01_F6_02         // ( 52,   1, -10,   2)
20_FF_F1_FE         // ( 32,  -1, -15,  -2)
FC_1B_FF_03         // ( -4,  27,  -1,   3)
11_05_FD_19         // ( 17,   5,  -3,  25)
1B_0A_10_F7         // ( 27,  10,  16,  -9)
E2_2D_F7_EB         // (-30,  45,  -9, -21)
26_04_29_05         // ( 38,   4,  41,   5)
F4_E6_2F_CB         // (-12, -26,  47, -53)
D1_D2_D9_01         // (-47, -46, -39,   1)
1C_F3_FD_D5         // ( 28, -13,  -3, -43)
09_ED_ED_E8         // (  9, -19, -19, -24)
FF_D6_DC_2D         // ( -1, -42, -36,  45)
0A_F7_1B_2B         // ( 10,  -9,  27,  43)
1E_02_F0_04         // ( 30,   2, -16,   4)
17_1D_F9_FA         // ( 23,  29,  -7,  -6)
01_D5_10_D0         // (  1, -43,  16, -48)
22_FF_F0_CD         // ( 34,  -1, -16, -51)
18_0C_EF_0F         // ( 24,  12, -17,  15)
0C_AC_FB_16         // ( 12, -84,  -5,  22)
02_FE_DE_1A         // (  2,  -2, -34,  26)
1B_14_D8_01         // ( 27,  20, -40,   1)
EC_DD_FD_06         // (-20, -35,  -3,   6)
03_03_EF_D9         // (  3,   3, -17, -39)
3B_17_BB_E2         // ( 59,  23, -69, -30)
EF_D0_04_FB         // (-17, -48,   4,  -5)
F6_33_FB_12         // (-10,  51,  -5,  18)
25_03_DD_4D         // ( 37,   3, -35,  77)
FC_15_00_FE         // ( -4,  21,   0,  -2)
E9_10_FE_FA         // (-23,  16,  -2,  -6)
F9_F3_E8_D8         // ( -7, -13, -24, -40)
EE_29_FC_F9         // (-18,  41,  -4,  -7)
F7_0A_02_FD         // ( -9,  10,   2,  -3)
12_09_FD_15         // ( 18,   9,  -3,  21)
F6_3F_FD_DB         // (-10,  63,  -3, -37)
D9_FE_00_F7         // (-39,  -2,   0,  -9)
DE_E5_F3_2E         // (-34, -27, -13,  46)
1A_03_02_0A         // ( 26,   3,   2,  10)
33_04_1F_21         // ( 51,   4,  31,  33)
10_F2_3E_08         // ( 16, -14,  62,   8)
EF_1E_BA_CF         // (-17,  30, -70, -49)
F9_C2_2A_DA         // ( -7, -62,  42, -38)
06_10_15_F3         // (  6,  16,  21, -13)
E9_2D_DA_FD         // (-23,  45, -38,  -3)
F8_F5_14_E5         // ( -8, -11,  20, -27)
0D_DC_09_FA         // ( 13, -36,   9,  -6)
0C_E9_ED_0F         // ( 12, -23, -19,  15)
35_30_0D_FF         // ( 53,  48,  13,  -1)
0C_F2_08_F9         // ( 12, -14,   8,  -7)
FD_FB_EE_F9         // ( -3,  -5, -18,  -7)
1D_21_2B_F1         // ( 29,  33,  43, -15)
30_FD_DE_ED         // ( 48,  -3, -34, -19)
F9_2A_FF_00         // ( -7,  42,  -1,   0)
0B_B1_E8_EA         // ( 11, -79, -24, -22)
09_07_23_BA         // (  9,   7,  35, -70)
03_D7_29_05         // (  3, -41,  41,   5)
ED_21_B0_06         // (-19,  33, -80,   6)
D1_0B_35_F9         // (-47,  11,  53,  -7)
07_ED_F6_F3         // (  7, -19, -10, -13)
FE_2F_DA_FE         // ( -2,  47, -38,  -2)
07_14_C3_00         // (  7,  20, -61,   0)
02_F0_01_31         // (  2, -16,   1,  49)
FF_DC_FC_34         // ( -1, -36,  -4,  52)
0A_FC_FE_1F         // ( 10,  -4,  -2,  31)
F9_0D_23_DF         // ( -7,  13,  35, -33)
B3_F3_1F_E8         // (-77, -13,  31, -24)
0C_F2_14_E2         // ( 12, -14,  20, -30)
03_F6_26_DA         // (  3, -10,  38, -38)
06_1E_DB_DC         // (  6,  30, -37, -36)
08_CC_02_FF         // (  8, -52,   2,  -1)
1D_D1_21_F3         // ( 29, -47,  33, -13)
0C_19_C5_27         // ( 12,  25, -59,  39)
26_0F_10_14         // ( 38,  15,  16,  20)
0D_FD_0C_32         // ( 13,  -3,  12,  50)
18_1B_ED_17         // ( 24,  27, -19,  23)
2F_02_05_F3         // ( 47,   2,   5, -13)
FC_40_00_F8         // ( -4,  64,   0,  -8)
15_12_0B_27         // ( 21,  18,  11,  39)
54_05_FA_28         // ( 84,   5,  -6,  40)
00_D1_04_F9         // (  0, -47,   4,  -7)
FB_5B_08_0D         // ( -5,  91,   8,  13)
04_E2_D6_EF         // (  4, -30, -42, -17)
FF_17_FB_FB         // ( -1,  23,  -5,  -5)
FD_DC_F8_09         // ( -3, -36,  -8,   9)
FD_FA_C0_0C         // ( -3,  -6, -64,  12)
07_FC_02_06         // (  7,  -4,   2,   6)
FE_E7_02_21         // ( -2, -25,   2,  33)
0A_F8_26_02         // ( 10,  -8,  38,   2)
FD_0C_F3_F2         // ( -3,  12, -13, -14)
10_E2_EA_B5         // ( 16, -30, -22, -75)
F8_FD_08_F6         // ( -8,  -3,   8, -10)
1A_43_C2_00         // ( 26,  67, -62,   0)
24_EB_CE_0D         // ( 36, -21, -50,  13)
AB_08_E8_03         // (-85,   8, -24,   3)
42_FD_1C_FA         // ( 66,  -3,  28,  -6)
1A_FA_EA_10         // ( 26,  -6, -22,  16)
09_F9_1A_30         // (  9,  -7,  26,  48)
04_F0_DD_08         // (  4, -16, -35,   8)
F8_EF_29_11         // ( -8, -17,  41,  17)
F9_34_D7_0D         // ( -7,  52, -41,  13)
FE_D6_DE_F6         // ( -2, -42, -34, -10)
F4_E2_09_F6         // (-12, -30,   9, -10)
D7_2E_E0_E7         // (-41,  46, -32, -25)
FC_06_B2_22         // ( -4,   6, -78,  34)
BF_E6_E6_F9         // (-65, -26, -26,  -7)
07_F5_03_F5         // (  7, -11,   3, -11)
21_2A_F2_1F         // ( 33,  42, -14,  31)
48_DA_FF_0B         // ( 72, -38,  -1,  11)
E3_E0_04_FC         // (-29, -32,   4,  -4)
E3_27_06_C0         // (-29,  39,   6, -64)
F6_06_08_FD         // (-10,   6,   8,  -3)
20_EE_06_0A         // ( 32, -18,   6,  10)
