02_0B_04_FC         // (  2,  11,   4, 252)
F3_10_13_D6         // (243,  16,  19, 214)
FE_0B_05_1D         // (254,  11,   5,  29)
F7_0B_4A_1A         // (247,  11,  74,  26)
2E_03_20_0F         // ( 46,   3,  32,  15)
DC_06_FF_B7         // (220,   6, 255, 183)
05_04_EC_2F         // (  5,   4, 236,  47)
0E_E7_CB_E1         // ( 14, 231, 203, 225)
00_A7_DF_2C         // (  0, 167, 223,  44)
11_2A_11_3C         // ( 17,  42,  17,  60)
13_2F_2F_17         // ( 19,  47,  47,  23)
DE_16_0C_DD         // (222,  22,  12, 221)
FE_C8_F5_16         // (254, 200, 245,  22)
34_E6_FF_07         // ( 52, 230, 255,   7)
DA_E9_01_F5         // (218, 233,   1, 245)
0A_17_A8_16         // ( 10,  23, 168,  22)
FC_08_DF_09         // (252,   8, 223,   9)
09_00_0B_F2         // (  9,   0,  11, 242)
E3_0C_D6_AF         // (227,  12, 214, 175)
F3_0C_F0_EC         // (243,  12, 240, 236)
F5_FF_03_FA         // (245, 255,   3, 250)
C8_15_0E_FA         // (200,  21,  14, 250)
FD_06_E7_0E         // (253,   6, 231,  14)
EC_05_E1_1D         // (236,   5, 225,  29)
D7_20_56_F6         // (215,  32,  86, 246)
E8_0E_0F_01         // (232,  14,  15,   1)
0D_20_E7_29         // ( 13,  32, 231,  41)
FD_F8_F3_31         // (253, 248, 243,  49)
01_FF_FA_13         // (  1, 255, 250,  19)
FE_0E_F6_04         // (254,  14, 246,   4)
20_F3_EC_1B         // ( 32, 243, 236,  27)
21_FC_4E_04         // ( 33, 252,  78,   4)
FD_4C_F4_05         // (253,  76, 244,   5)
34_01_F6_02         // ( 52,   1, 246,   2)
20_FF_F1_FE         // ( 32, 255, 241, 254)
FC_1B_FF_03         // (252,  27, 255,   3)
11_05_FD_19         // ( 17,   5, 253,  25)
1B_0A_10_F7         // ( 27,  10,  16, 247)
E2_2D_F7_EB         // (226,  45, 247, 235)
26_04_29_05         // ( 38,   4,  41,   5)
F4_E6_2F_CB         // (244, 230,  47, 203)
D1_D2_D9_01         // (209, 210, 217,   1)
1C_F3_FD_D5         // ( 28, 243, 253, 213)
09_ED_ED_E8         // (  9, 237, 237, 232)
FF_D6_DC_2D         // (255, 214, 220,  45)
0A_F7_1B_2B         // ( 10, 247,  27,  43)
1E_02_F0_04         // ( 30,   2, 240,   4)
17_1D_F9_FA         // ( 23,  29, 249, 250)
01_D5_10_D0         // (  1, 213,  16, 208)
22_FF_F0_CD         // ( 34, 255, 240, 205)
18_0C_EF_0F         // ( 24,  12, 239,  15)
0C_AC_FB_16         // ( 12, 172, 251,  22)
02_FE_DE_1A         // (  2, 254, 222,  26)
1B_14_D8_01         // ( 27,  20, 216,   1)
EC_DD_FD_06         // (236, 221, 253,   6)
03_03_EF_D9         // (  3,   3, 239, 217)
3B_17_BB_E2         // ( 59,  23, 187, 226)
EF_D0_04_FB         // (239, 208,   4, 251)
F6_33_FB_12         // (246,  51, 251,  18)
25_03_DD_4D         // ( 37,   3, 221,  77)
FC_15_00_FE         // (252,  21,   0, 254)
E9_10_FE_FA         // (233,  16, 254, 250)
F9_F3_E8_D8         // (249, 243, 232, 216)
EE_29_FC_F9         // (238,  41, 252, 249)
F7_0A_02_FD         // (247,  10,   2, 253)
12_09_FD_15         // ( 18,   9, 253,  21)
F6_3F_FD_DB         // (246,  63, 253, 219)
D9_FE_00_F7         // (217, 254,   0, 247)
DE_E5_F3_2E         // (222, 229, 243,  46)
1A_03_02_0A         // ( 26,   3,   2,  10)
33_04_1F_21         // ( 51,   4,  31,  33)
10_F2_3E_08         // ( 16, 242,  62,   8)
EF_1E_BA_CF         // (239,  30, 186, 207)
F9_C2_2A_DA         // (249, 194,  42, 218)
06_10_15_F3         // (  6,  16,  21, 243)
E9_2D_DA_FD         // (233,  45, 218, 253)
F8_F5_14_E5         // (248, 245,  20, 229)
0D_DC_09_FA         // ( 13, 220,   9, 250)
0C_E9_ED_0F         // ( 12, 233, 237,  15)
35_30_0D_FF         // ( 53,  48,  13, 255)
0C_F2_08_F9         // ( 12, 242,   8, 249)
FD_FB_EE_F9         // (253, 251, 238, 249)
1D_21_2B_F1         // ( 29,  33,  43, 241)
30_FD_DE_ED         // ( 48, 253, 222, 237)
F9_2A_FF_00         // (249,  42, 255,   0)
0B_B1_E8_EA         // ( 11, 177, 232, 234)
09_07_23_BA         // (  9,   7,  35, 186)
03_D7_29_05         // (  3, 215,  41,   5)
ED_21_B0_06         // (237,  33, 176,   6)
D1_0B_35_F9         // (209,  11,  53, 249)
07_ED_F6_F3         // (  7, 237, 246, 243)
FE_2F_DA_FE         // (254,  47, 218, 254)
07_14_C3_00         // (  7,  20, 195,   0)
02_F0_01_31         // (  2, 240,   1,  49)
FF_DC_FC_34         // (255, 220, 252,  52)
0A_FC_FE_1F         // ( 10, 252, 254,  31)
F9_0D_23_DF         // (249,  13,  35, 223)
B3_F3_1F_E8         // (179, 243,  31, 232)
0C_F2_14_E2         // ( 12, 242,  20, 226)
03_F6_26_DA         // (  3, 246,  38, 218)
06_1E_DB_DC         // (  6,  30, 219, 220)
08_CC_02_FF         // (  8, 204,   2, 255)
1D_D1_21_F3         // ( 29, 209,  33, 243)
0C_19_C5_27         // ( 12,  25, 197,  39)
26_0F_10_14         // ( 38,  15,  16,  20)
0D_FD_0C_32         // ( 13, 253,  12,  50)
18_1B_ED_17         // ( 24,  27, 237,  23)
2F_02_05_F3         // ( 47,   2,   5, 243)
FC_40_00_F8         // (252,  64,   0, 248)
15_12_0B_27         // ( 21,  18,  11,  39)
54_05_FA_28         // ( 84,   5, 250,  40)
00_D1_04_F9         // (  0, 209,   4, 249)
FB_5B_08_0D         // (251,  91,   8,  13)
04_E2_D6_EF         // (  4, 226, 214, 239)
FF_17_FB_FB         // (255,  23, 251, 251)
FD_DC_F8_09         // (253, 220, 248,   9)
FD_FA_C0_0C         // (253, 250, 192,  12)
07_FC_02_06         // (  7, 252,   2,   6)
FE_E7_02_21         // (254, 231,   2,  33)
0A_F8_26_02         // ( 10, 248,  38,   2)
FD_0C_F3_F2         // (253,  12, 243, 242)
10_E2_EA_B5         // ( 16, 226, 234, 181)
F8_FD_08_F6         // (248, 253,   8, 246)
1A_43_C2_00         // ( 26,  67, 194,   0)
24_EB_CE_0D         // ( 36, 235, 206,  13)
AB_08_E8_03         // (171,   8, 232,   3)
42_FD_1C_FA         // ( 66, 253,  28, 250)
1A_FA_EA_10         // ( 26, 250, 234,  16)
09_F9_1A_30         // (  9, 249,  26,  48)
04_F0_DD_08         // (  4, 240, 221,   8)
F8_EF_29_11         // (248, 239,  41,  17)
F9_34_D7_0D         // (249,  52, 215,  13)
FE_D6_DE_F6         // (254, 214, 222, 246)
F4_E2_09_F6         // (244, 226,   9, 246)
D7_2E_E0_E7         // (215,  46, 224, 231)
FC_06_B2_22         // (252,   6, 178,  34)
BF_E6_E6_F9         // (191, 230, 230, 249)
07_F5_03_F5         // (  7, 245,   3, 245)
21_2A_F2_1F         // ( 33,  42, 242,  31)
48_DA_FF_0B         // ( 72, 218, 255,  11)
E3_E0_04_FC         // (227, 224,   4, 252)
E3_27_06_C0         // (227,  39,   6, 192)
F6_06_08_FD         // (246,   6,   8, 253)
20_EE_06_0A         // ( 32, 238,   6,  10)
