FFFF_FFA1 // BIAS[ 0] (-95)
0000_23A6 // BIAS[ 1] (+9126)
0000_04B9 // BIAS[ 2] (+1209)
0000_02BC // BIAS[ 3] (+700)
FFFF_FB8F // BIAS[ 4] (-1137)
0000_022C // BIAS[ 5] (+556)
0000_042A // BIAS[ 6] (+1066)
0000_0937 // BIAS[ 7] (+2359)
0000_09E5 // BIAS[ 8] (+2533)
0000_0FEC // BIAS[ 9] (+4076)
0000_06EF // BIAS[10] (+1775)
0000_0818 // BIAS[11] (+2072)
0000_0147 // BIAS[12] (+327)
0000_1C61 // BIAS[13] (+7265)
0000_0EB6 // BIAS[14] (+3766)
0000_003A // BIAS[15] (+58)
0000_0452 // BIAS[16] (+1106)
0000_0B03 // BIAS[17] (+2819)
0000_15EC // BIAS[18] (+5612)
0000_097F // BIAS[19] (+2431)
0000_13C7 // BIAS[20] (+5063)
0000_008A // BIAS[21] (+138)
0000_15D2 // BIAS[22] (+5586)
0000_0982 // BIAS[23] (+2434)
0000_082D // BIAS[24] (+2093)
0000_0690 // BIAS[25] (+1680)
0000_0FB3 // BIAS[26] (+4019)
0000_03FF // BIAS[27] (+1023)
FFFF_FE3B // BIAS[28] (-453)
0000_07E9 // BIAS[29] (+2025)
0000_10C9 // BIAS[30] (+4297)
0000_08AA // BIAS[31] (+2218)
0000_0B71 // BIAS[32] (+2929)
0000_0DC7 // BIAS[33] (+3527)
0000_0DFC // BIAS[34] (+3580)
0000_0880 // BIAS[35] (+2176)
0000_0946 // BIAS[36] (+2374)
0000_00B2 // BIAS[37] (+178)
FFFF_FE0D // BIAS[38] (-499)
FFFF_FD55 // BIAS[39] (-683)
0000_05C6 // BIAS[40] (+1478)
0000_0851 // BIAS[41] (+2129)
0000_0322 // BIAS[42] (+802)
0000_1977 // BIAS[43] (+6519)
0000_09FC // BIAS[44] (+2556)
0000_0BFB // BIAS[45] (+3067)
0000_0243 // BIAS[46] (+579)
0000_0AE8 // BIAS[47] (+2792)
0000_0500 // BIAS[48] (+1280)
FFFF_FDF0 // BIAS[49] (-528)
0000_01B3 // BIAS[50] (+435)
0000_0D59 // BIAS[51] (+3417)
FFFF_FD75 // BIAS[52] (-651)
0000_1504 // BIAS[53] (+5380)
FFFF_F413 // BIAS[54] (-3053)
FFFF_FE71 // BIAS[55] (-399)
0000_1207 // BIAS[56] (+4615)
FFFF_FF08 // BIAS[57] (-248)
0000_0608 // BIAS[58] (+1544)
FFFF_F785 // BIAS[59] (-2171)
0000_043C // BIAS[60] (+1084)
0000_1202 // BIAS[61] (+4610)
0000_0D06 // BIAS[62] (+3334)
0000_0492 // BIAS[63] (+1170)
