FB_F3_0A_F6         // (251, 243,  10, 246)
11_01_F3_F1         // ( 17,   1, 243, 241)
FA_F9_FA_FF         // (250, 249, 250, 255)
04_FE_05_FF         // (  4, 254,   5, 255)
06_0B_F4_FE         // (  6,  11, 244, 254)
F2_07_02_00         // (242,   7,   2,   0)
0A_F4_02_DF         // ( 10, 244,   2, 223)
FC_04_04_FD         // (252,   4,   4, 253)
F4_03_FE_F5         // (244,   3, 254, 245)
F4_08_03_10         // (244,   8,   3,  16)
01_FF_FA_10         // (  1, 255, 250,  16)
FB_07_00_FA         // (251,   7,   0, 250)
FB_FB_0A_04         // (251, 251,  10,   4)
06_F9_05_F8         // (  6, 249,   5, 248)
00_09_FD_FC         // (  0,   9, 253, 252)
F0_09_FE_02         // (240,   9, 254,   2)
FB_11_F7_FE         // (251,  17, 247, 254)
03_14_F4_F9         // (  3,  20, 244, 249)
13_00_0A_06         // ( 19,   0,  10,   6)
05_08_00_FD         // (  5,   8,   0, 253)
0A_03_00_0C         // ( 10,   3,   0,  12)
12_06_06_FC         // ( 18,   6,   6, 252)
04_FF_01_F8         // (  4, 255,   1, 248)
09_0C_09_F9         // (  9,  12,   9, 249)
0E_10_F1_FB         // ( 14,  16, 241, 251)
08_05_F9_F2         // (  8,   5, 249, 242)
F7_0E_0C_F7         // (247,  14,  12, 247)
07_09_F8_09         // (  7,   9, 248,   9)
0C_FB_03_0A         // ( 12, 251,   3,  10)
08_E8_F5_0A         // (  8, 232, 245,  10)
0D_06_F0_FD         // ( 13,   6, 240, 253)
F8_FD_01_05         // (248, 253,   1,   5)
F4_F8_0C_06         // (244, 248,  12,   6)
16_ED_EE_FF         // ( 22, 237, 238, 255)
08_E6_FA_F5         // (  8, 230, 250, 245)
F0_E8_02_04         // (240, 232,   2,   4)
FA_09_FA_04         // (250,   9, 250,   4)
FB_03_09_0A         // (251,   3,   9,  10)
F9_08_07_F5         // (249,   8,   7, 245)
07_0B_02_03         // (  7,  11,   2,   3)
03_0D_01_06         // (  3,  13,   1,   6)
FE_04_0F_FF         // (254,   4,  15, 255)
07_0A_F1_FD         // (  7,  10, 241, 253)
11_F7_F8_F0         // ( 17, 247, 248, 240)
F7_03_0B_FA         // (247,   3,  11, 250)
F9_02_FD_11         // (249,   2, 253,  17)
FE_FC_F2_FE         // (254, 252, 242, 254)
04_FF_14_03         // (  4, 255,  20,   3)
FE_FC_F3_00         // (254, 252, 243,   0)
09_FF_E7_FA         // (  9, 255, 231, 250)
1E_FC_10_09         // ( 30, 252,  16,   9)
0F_04_03_F6         // ( 15,   4,   3, 246)
06_FC_04_F3         // (  6, 252,   4, 243)
F3_EB_0E_FC         // (243, 235,  14, 252)
10_FF_06_FA         // ( 16, 255,   6, 250)
09_00_06_FD         // (  9,   0,   6, 253)
FE_F1_13_FA         // (254, 241,  19, 250)
11_0E_11_F2         // ( 17,  14,  17, 242)
04_FE_11_01         // (  4, 254,  17,   1)
04_F0_0A_F3         // (  4, 240,  10, 243)
F8_FB_FD_00         // (248, 251, 253,   0)
FB_FB_0A_FD         // (251, 251,  10, 253)
09_FC_0F_FB         // (  9, 252,  15, 251)
0E_06_04_F1         // ( 14,   6,   4, 241)
06_07_0E_ED         // (  6,   7,  14, 237)
05_F3_FB_EC         // (  5, 243, 251, 236)
05_FB_04_F9         // (  5, 251,   4, 249)
07_FF_0F_04         // (  7, 255,  15,   4)
0C_05_00_01         // ( 12,   5,   0,   1)
05_FC_07_F9         // (  5, 252,   7, 249)
FD_02_09_0D         // (253,   2,   9,  13)
06_03_03_0C         // (  6,   3,   3,  12)
03_02_F9_0D         // (  3,   2, 249,  13)
FF_02_EB_FB         // (255,   2, 235, 251)
1B_08_05_FD         // ( 27,   8,   5, 253)
0D_FE_0A_F2         // ( 13, 254,  10, 242)
FB_00_04_EE         // (251,   0,   4, 238)
FE_F9_FA_F6         // (254, 249, 250, 246)
06_0C_04_E5         // (  6,  12,   4, 229)
04_06_F1_EE         // (  4,   6, 241, 238)
FC_F8_05_F1         // (252, 248,   5, 241)
05_F0_10_FF         // (  5, 240,  16, 255)
FB_E8_F0_03         // (251, 232, 240,   3)
06_FC_F6_06         // (  6, 252, 246,   6)
05_E0_0E_03         // (  5, 224,  14,   3)
0A_E1_F5_0E         // ( 10, 225, 245,  14)
0B_F7_F0_F4         // ( 11, 247, 240, 244)
06_00_0D_01         // (  6,   0,  13,   1)
08_01_04_FC         // (  8,   1,   4, 252)
08_09_FB_F9         // (  8,   9, 251, 249)
FF_EF_FA_02         // (255, 239, 250,   2)
05_0E_09_05         // (  5,  14,   9,   5)
FD_F9_0C_FD         // (253, 249,  12, 253)
03_07_02_08         // (  3,   7,   2,   8)
0B_06_01_FB         // ( 11,   6,   1, 251)
FD_00_00_06         // (253,   0,   0,   6)
15_F3_FD_07         // ( 21, 243, 253,   7)
09_03_04_04         // (  9,   3,   4,   4)
0B_04_01_FC         // ( 11,   4,   1, 252)
06_1A_00_F3         // (  6,  26,   0, 243)
FC_0B_09_FE         // (252,  11,   9, 254)
F4_04_FE_13         // (244,   4, 254,  19)
FE_01_00_F9         // (254,   1,   0, 249)
F8_01_09_F9         // (248,   1,   9, 249)
0A_05_F4_0C         // ( 10,   5, 244,  12)
F3_F8_FE_F8         // (243, 248, 254, 248)
06_08_08_FC         // (  6,   8,   8, 252)
00_15_02_0E         // (  0,  21,   2,  14)
F4_FE_FE_F3         // (244, 254, 254, 243)
F8_05_F7_02         // (248,   5, 247,   2)
F5_FB_E2_FC         // (245, 251, 226, 252)
E8_06_FE_02         // (232,   6, 254,   2)
FF_00_F9_00         // (255,   0, 249,   0)
01_03_E6_06         // (  1,   3, 230,   6)
FC_F3_04_04         // (252, 243,   4,   4)
07_FE_0A_00         // (  7, 254,  10,   0)
FE_F9_F8_FA         // (254, 249, 248, 250)
F7_01_FB_F4         // (247,   1, 251, 244)
0E_FA_05_02         // ( 14, 250,   5,   2)
08_FE_FC_FF         // (  8, 254, 252, 255)
F2_FB_06_FF         // (242, 251,   6, 255)
04_F2_0E_05         // (  4, 242,  14,   5)
FB_01_FA_04         // (251,   1, 250,   4)
EE_FB_FE_02         // (238, 251, 254,   2)
02_0F_02_04         // (  2,  15,   2,   4)
09_01_FF_F9         // (  9,   1, 255, 249)
FA_FF_F5_0E         // (250, 255, 245,  14)
FE_FE_11_03         // (254, 254,  17,   3)
10_0A_19_02         // ( 16,  10,  25,   2)
FF_E7_FC_03         // (255, 231, 252,   3)
FF_FE_01_02         // (255, 254,   1,   2)
FD_0D_F8_0C         // (253,  13, 248,  12)
14_FC_FF_00         // ( 20, 252, 255,   0)
08_F9_0A_F7         // (  8, 249,  10, 247)
17_FF_FF_04         // ( 23, 255, 255,   4)
F0_02_EC_FB         // (240,   2, 236, 251)
FC_0A_FF_0A         // (252,  10, 255,  10)
E6_0D_E4_11         // (230,  13, 228,  17)
FC_F4_F8_0C         // (252, 244, 248,  12)
FA_FF_FB_07         // (250, 255, 251,   7)
FC_0C_F9_FC         // (252,  12, 249, 252)
F3_F3_03_F9         // (243, 243,   3, 249)
FC_05_02_E6         // (252,   5,   2, 230)
FB_03_FC_F8         // (251,   3, 252, 248)
FB_FE_04_FB         // (251, 254,   4, 251)
F7_06_FE_FE         // (247,   6, 254, 254)
FC_03_FB_FB         // (252,   3, 251, 251)
00_01_01_FA         // (  0,   1,   1, 250)
07_04_F8_06         // (  7,   4, 248,   6)
0C_02_FF_FF         // ( 12,   2, 255, 255)
F9_FE_FF_00         // (249, 254, 255,   0)
F7_05_F6_FD         // (247,   5, 246, 253)
04_07_FD_FF         // (  4,   7, 253, 255)
F7_F8_F9_F7         // (247, 248, 249, 247)
FB_F4_00_FA         // (251, 244,   0, 250)
FC_F8_01_FD         // (252, 248,   1, 253)
FD_03_09_FE         // (253,   3,   9, 254)
01_01_03_09         // (  1,   1,   3,   9)
03_03_02_FF         // (  3,   3,   2, 255)
FF_FD_F8_FC         // (255, 253, 248, 252)
F7_FF_F7_FC         // (247, 255, 247, 252)
FC_FA_FD_FA         // (252, 250, 253, 250)
FD_00_FC_F7         // (253,   0, 252, 247)
F3_02_FB_FD         // (243,   2, 251, 253)
FC_FF_01_06         // (252, 255,   1,   6)
0B_FE_FF_0B         // ( 11, 254, 255,  11)
F1_FE_E3_F8         // (241, 254, 227, 248)
00_FC_00_0C         // (  0, 252,   0,  12)
03_00_F9_00         // (  3,   0, 249,   0)
F5_FD_FF_05         // (245, 253, 255,   5)
FE_F8_FC_04         // (254, 248, 252,   4)
03_FA_F4_01         // (  3, 250, 244,   1)
01_FF_00_FE         // (  1, 255,   0, 254)
FC_F7_F7_FF         // (252, 247, 247, 255)
06_06_08_FE         // (  6,   6,   8, 254)
EE_03_FC_FE         // (238,   3, 252, 254)
FD_0A_FF_01         // (253,  10, 255,   1)
FD_FD_F6_04         // (253, 253, 246,   4)
F6_04_FD_05         // (246,   4, 253,   5)
03_F9_FE_F9         // (  3, 249, 254, 249)
FA_FD_01_06         // (250, 253,   1,   6)
02_00_02_00         // (  2,   0,   2,   0)
FB_EF_FE_00         // (251, 239, 254,   0)
FD_F2_F9_FE         // (253, 242, 249, 254)
FD_15_01_F5         // (253,  21,   1, 245)
FE_0A_01_F8         // (254,  10,   1, 248)
FD_FF_FA_07         // (253, 255, 250,   7)
FF_FD_F0_01         // (255, 253, 240,   1)
FE_F2_00_02         // (254, 242,   0,   2)
02_F7_02_02         // (  2, 247,   2,   2)
05_FB_00_FC         // (  5, 251,   0, 252)
06_FE_01_FB         // (  6, 254,   1, 251)
04_00_02_04         // (  4,   0,   2,   4)
04_07_08_F6         // (  4,   7,   8, 246)
FE_02_04_06         // (254,   2,   4,   6)
03_F3_F8_EF         // (  3, 243, 248, 239)
FF_FA_FF_FA         // (255, 250, 255, 250)
01_F6_04_F4         // (  1, 246,   4, 244)
02_FC_FF_FD         // (  2, 252, 255, 253)
09_FE_FC_FA         // (  9, 254, 252, 250)
04_FD_FD_F7         // (  4, 253, 253, 247)
02_06_FF_FE         // (  2,   6, 255, 254)
07_F4_01_FE         // (  7, 244,   1, 254)
03_05_FD_03         // (  3,   5, 253,   3)
01_F8_02_02         // (  1, 248,   2,   2)
06_FB_01_FC         // (  6, 251,   1, 252)
07_F6_04_F8         // (  7, 246,   4, 248)
06_FE_FB_F8         // (  6, 254, 251, 248)
06_FE_00_FB         // (  6, 254,   0, 251)
FC_FA_FC_FF         // (252, 250, 252, 255)
01_09_00_04         // (  1,   9,   0,   4)
01_00_00_EE         // (  1,   0,   0, 238)
04_06_00_04         // (  4,   6,   0,   4)
02_00_FD_00         // (  2,   0, 253,   0)
05_00_01_F8         // (  5,   0,   1, 248)
01_FF_00_F7         // (  1, 255,   0, 247)
F8_01_03_FF         // (248,   1,   3, 255)
F9_FC_00_07         // (249, 252,   0,   7)
FE_FE_03_07         // (254, 254,   3,   7)
06_0B_0A_FF         // (  6,  11,  10, 255)
01_01_FF_FD         // (  1,   1, 255, 253)
01_06_02_01         // (  1,   6,   2,   1)
FA_03_04_01         // (250,   3,   4,   1)
FD_F8_FE_05         // (253, 248, 254,   5)
01_00_01_0A         // (  1,   0,   1,  10)
02_02_06_FB         // (  2,   2,   6, 251)
04_01_05_FE         // (  4,   1,   5, 254)
00_FC_06_FE         // (  0, 252,   6, 254)
05_07_FD_FD         // (  5,   7, 253, 253)
03_FE_04_FF         // (  3, 254,   4, 255)
04_03_FF_FD         // (  4,   3, 255, 253)
02_08_FE_00         // (  2,   8, 254,   0)
00_FB_05_FE         // (  0, 251,   5, 254)
03_F9_04_03         // (  3, 249,   4,   3)
F4_02_02_FF         // (244,   2,   2, 255)
F1_05_00_05         // (241,   5,   0,   5)
F3_01_FD_03         // (243,   1, 253,   3)
F9_07_05_04         // (249,   7,   5,   4)
09_01_01_0A         // (  9,   1,   1,  10)
06_04_00_00         // (  6,   4,   0,   0)
EA_05_04_01         // (234,   5,   4,   1)
FA_03_05_00         // (250,   3,   5,   0)
F2_FE_00_01         // (242, 254,   0,   1)
FF_FA_FE_F4         // (255, 250, 254, 244)
06_FA_00_09         // (  6, 250,   0,   9)
FF_F5_00_FE         // (255, 245,   0, 254)
FF_FD_02_0A         // (255, 253,   2,  10)
00_F9_F7_F4         // (  0, 249, 247, 244)
01_FE_FE_00         // (  1, 254, 254,   0)
FC_FE_FB_FA         // (252, 254, 251, 250)
F5_FB_FB_FA         // (245, 251, 251, 250)
00_F5_FB_01         // (  0, 245, 251,   1)
FC_FC_FC_03         // (252, 252, 252,   3)
01_FC_04_FF         // (  1, 252,   4, 255)
FB_F7_FE_FE         // (251, 247, 254, 254)
09_01_02_FE         // (  9,   1,   2, 254)
03_07_0C_FD         // (  3,   7,  12, 253)
FF_FE_FC_FC         // (255, 254, 252, 252)
04_F7_07_FF         // (  4, 247,   7, 255)
00_FC_FD_03         // (  0, 252, 253,   3)
FF_01_FB_04         // (255,   1, 251,   4)
FB_FB_FE_01         // (251, 251, 254,   1)
F3_FF_FE_FB         // (243, 255, 254, 251)
FA_07_FC_F5         // (250,   7, 252, 245)
FC_FD_F9_03         // (252, 253, 249,   3)
F8_FF_FA_0C         // (248, 255, 250,  12)
04_01_02_FE         // (  4,   1,   2, 254)
FA_06_09_F8         // (250,   6,   9, 248)
FB_04_03_F8         // (251,   4,   3, 248)
F5_02_FB_FF         // (245,   2, 251, 255)
FC_01_FB_05         // (252,   1, 251,   5)
F7_01_FC_00         // (247,   1, 252,   0)
FF_09_F9_FC         // (255,   9, 249, 252)
13_00_05_FF         // ( 19,   0,   5, 255)
F7_FD_FD_00         // (247, 253, 253,   0)
05_04_00_01         // (  5,   4,   0,   1)
03_FE_F2_FF         // (  3, 254, 242, 255)
FC_04_F6_FC         // (252,   4, 246, 252)
FC_0B_F8_FD         // (252,  11, 248, 253)
00_FF_01_FB         // (  0, 255,   1, 251)
07_06_05_F4         // (  7,   6,   5, 244)
03_07_FF_FB         // (  3,   7, 255, 251)
FF_01_04_05         // (255,   1,   4,   5)
01_17_FF_FF         // (  1,  23, 255, 255)
06_05_02_01         // (  6,   5,   2,   1)
FE_FF_01_FE         // (254, 255,   1, 254)
04_0A_FD_04         // (  4,  10, 253,   4)
01_02_03_04         // (  1,   2,   3,   4)
FF_05_FF_FF         // (255,   5, 255, 255)
02_FD_FE_03         // (  2, 253, 254,   3)
03_FE_FF_FD         // (  3, 254, 255, 253)
FC_02_00_F9         // (252,   2,   0, 249)
03_07_02_FC         // (  3,   7,   2, 252)
00_F8_F9_FE         // (  0, 248, 249, 254)
02_F5_00_03         // (  2, 245,   0,   3)
FE_FA_02_07         // (254, 250,   2,   7)
09_F1_06_01         // (  9, 241,   6,   1)
04_04_00_FF         // (  4,   4,   0, 255)
F8_FB_00_02         // (248, 251,   0,   2)
00_F8_FB_00         // (  0, 248, 251,   0)
03_FB_FA_FB         // (  3, 251, 250, 251)
F9_FA_FC_06         // (249, 250, 252,   6)
00_F9_FF_F8         // (  0, 249, 255, 248)
03_FD_FD_F8         // (  3, 253, 253, 248)
F9_FB_06_04         // (249, 251,   6,   4)
FF_FE_02_FD         // (255, 254,   2, 253)
00_FD_06_FD         // (  0, 253,   6, 253)
03_FB_FD_FC         // (  3, 251, 253, 252)
02_FD_00_FC         // (  2, 253,   0, 252)
FD_FE_FF_FF         // (253, 254, 255, 255)
FF_FA_01_FA         // (255, 250,   1, 250)
FA_01_00_00         // (250,   1,   0,   0)
02_FC_FE_FC         // (  2, 252, 254, 252)
01_FC_05_FB         // (  1, 252,   5, 251)
01_FE_01_01         // (  1, 254,   1,   1)
09_FC_FD_03         // (  9, 252, 253,   3)
FB_03_FF_FD         // (251,   3, 255, 253)
06_F9_03_05         // (  6, 249,   3,   5)
05_FF_FE_FD         // (  5, 255, 254, 253)
01_03_FD_02         // (  1,   3, 253,   2)
09_01_06_00         // (  9,   1,   6,   0)
F5_01_00_FE         // (245,   1,   0, 254)
FC_04_FF_00         // (252,   4, 255,   0)
05_03_02_00         // (  5,   3,   2,   0)
FF_00_02_04         // (255,   0,   2,   4)
F7_FE_FC_00         // (247, 254, 252,   0)
FB_FF_05_FB         // (251, 255,   5, 251)
00_06_02_00         // (  0,   6,   2,   0)
FF_FC_05_FE         // (255, 252,   5, 254)
FC_01_FF_FF         // (252,   1, 255, 255)
01_01_05_03         // (  1,   1,   5,   3)
01_FC_02_03         // (  1, 252,   2,   3)
01_04_FF_05         // (  1,   4, 255,   5)
01_01_FC_FD         // (  1,   1, 252, 253)
00_04_00_07         // (  0,   4,   0,   7)
06_FC_FE_FD         // (  6, 252, 254, 253)
01_07_FD_FE         // (  1,   7, 253, 254)
FF_FF_FF_0B         // (255, 255, 255,  11)
02_04_02_FD         // (  2,   4,   2, 253)
FB_07_00_FF         // (251,   7,   0, 255)
FA_04_FB_07         // (250,   4, 251,   7)
00_FC_05_FF         // (  0, 252,   5, 255)
03_FA_FB_03         // (  3, 250, 251,   3)
FF_05_F8_02         // (255,   5, 248,   2)
01_02_FF_00         // (  1,   2, 255,   0)
05_F8_03_08         // (  5, 248,   3,   8)
03_06_FB_05         // (  3,   6, 251,   5)
FF_FE_04_01         // (255, 254,   4,   1)
FC_F8_06_00         // (252, 248,   6,   0)
FD_02_06_F9         // (253,   2,   6, 249)
FD_FB_FA_FE         // (253, 251, 250, 254)
FC_FB_FF_FD         // (252, 251, 255, 253)
01_02_FF_06         // (  1,   2, 255,   6)
01_F9_FF_FF         // (  1, 249, 255, 255)
02_02_02_00         // (  2,   2,   2,   0)
FE_04_FA_02         // (254,   4, 250,   2)
FF_FA_01_FC         // (255, 250,   1, 252)
05_01_04_FE         // (  5,   1,   4, 254)
FE_01_00_04         // (254,   1,   0,   4)
00_05_02_03         // (  0,   5,   2,   3)
F9_02_F7_FB         // (249,   2, 247, 251)
05_FD_F5_FE         // (  5, 253, 245, 254)
FF_FA_F8_06         // (255, 250, 248,   6)
F9_FE_00_FE         // (249, 254,   0, 254)
02_FB_F7_FF         // (  2, 251, 247, 255)
FE_F9_08_FC         // (254, 249,   8, 252)
FF_04_FE_05         // (255,   4, 254,   5)
FE_FD_02_00         // (254, 253,   2,   0)
04_FF_02_02         // (  4, 255,   2,   2)
01_FE_05_05         // (  1, 254,   5,   5)
03_00_04_04         // (  3,   0,   4,   4)
02_FF_05_FA         // (  2, 255,   5, 250)
FC_FA_06_FD         // (252, 250,   6, 253)
03_FF_00_FE         // (  3, 255,   0, 254)
FF_FE_07_FD         // (255, 254,   7, 253)
FC_02_00_FF         // (252,   2,   0, 255)
FE_04_FD_00         // (254,   4, 253,   0)
FB_02_FD_FA         // (251,   2, 253, 250)
09_03_05_01         // (  9,   3,   5,   1)
FC_FE_01_01         // (252, 254,   1,   1)
03_FC_07_07         // (  3, 252,   7,   7)
FA_03_02_FE         // (250,   3,   2, 254)
00_06_05_06         // (  0,   6,   5,   6)
01_FE_FE_FE         // (  1, 254, 254, 254)
FC_05_00_03         // (252,   5,   0,   3)
03_F9_FD_09         // (  3, 249, 253,   9)
04_FA_FB_FC         // (  4, 250, 251, 252)
01_08_05_04         // (  1,   8,   5,   4)
01_06_02_05         // (  1,   6,   2,   5)
FC_09_FF_FE         // (252,   9, 255, 254)
F9_02_03_FF         // (249,   2,   3, 255)
FD_05_07_03         // (253,   5,   7,   3)
04_FC_02_FD         // (  4, 252,   2, 253)
03_05_04_F9         // (  3,   5,   4, 249)
FE_07_07_0A         // (254,   7,   7,  10)
04_07_03_F6         // (  4,   7,   3, 246)
01_01_00_00         // (  1,   1,   0,   0)
09_02_03_02         // (  9,   2,   3,   2)
FF_04_04_03         // (255,   4,   4,   3)
FE_02_FD_05         // (254,   2, 253,   5)
F8_06_05_01         // (248,   6,   5,   1)
06_00_FE_05         // (  6,   0, 254,   5)
06_05_06_02         // (  6,   5,   6,   2)
06_FD_00_F6         // (  6, 253,   0, 246)
02_00_FB_05         // (  2,   0, 251,   5)
FE_01_01_02         // (254,   1,   1,   2)
00_00_FA_FF         // (  0,   0, 250, 255)
08_FD_02_04         // (  8, 253,   2,   4)
00_FF_FF_FF         // (  0, 255, 255, 255)
FC_02_05_03         // (252,   2,   5,   3)
FF_FF_05_0A         // (255, 255,   5,  10)
06_00_FB_FC         // (  6,   0, 251, 252)
02_F6_00_FE         // (  2, 246,   0, 254)
04_02_04_04         // (  4,   2,   4,   4)
03_03_FB_FB         // (  3,   3, 251, 251)
08_FB_04_F9         // (  8, 251,   4, 249)
FD_01_FF_FA         // (253,   1, 255, 250)
00_FD_FB_00         // (  0, 253, 251,   0)
04_00_09_01         // (  4,   0,   9,   1)
01_03_FE_FD         // (  1,   3, 254, 253)
02_07_FE_FD         // (  2,   7, 254, 253)
FD_03_01_FE         // (253,   3,   1, 254)
00_04_04_FE         // (  0,   4,   4, 254)
04_07_F5_02         // (  4,   7, 245,   2)
06_FB_02_00         // (  6, 251,   2,   0)
FF_FF_FD_01         // (255, 255, 253,   1)
02_01_00_FD         // (  2,   1,   0, 253)
01_FD_02_04         // (  1, 253,   2,   4)
02_FE_FA_FF         // (  2, 254, 250, 255)
05_02_FB_0A         // (  5,   2, 251,  10)
05_FF_FF_0A         // (  5, 255, 255,  10)
04_06_FD_FB         // (  4,   6, 253, 251)
FF_02_01_0A         // (255,   2,   1,  10)
FC_0C_01_04         // (252,  12,   1,   4)
01_FF_03_03         // (  1, 255,   3,   3)
FC_FB_FF_02         // (252, 251, 255,   2)
F6_00_FD_08         // (246,   0, 253,   8)
F5_04_01_05         // (245,   4,   1,   5)
03_01_05_FF         // (  3,   1,   5, 255)
FD_FC_FE_06         // (253, 252, 254,   6)
F8_10_01_FC         // (248,  16,   1, 252)
0F_FB_05_F2         // ( 15, 251,   5, 242)
09_04_FF_00         // (  9,   4, 255,   0)
0B_FE_0A_FD         // ( 11, 254,  10, 253)
0A_03_03_02         // ( 10,   3,   3,   2)
0B_01_FE_FA         // ( 11,   1, 254, 250)
06_0B_FF_06         // (  6,  11, 255,   6)
09_01_0B_02         // (  9,   1,  11,   2)
01_03_FE_FC         // (  1,   3, 254, 252)
FA_10_F9_00         // (250,  16, 249,   0)
FA_00_09_FF         // (250,   0,   9, 255)
F9_01_01_09         // (249,   1,   1,   9)
FE_05_09_13         // (254,   5,   9,  19)
F3_04_FA_07         // (243,   4, 250,   7)
02_06_FF_0C         // (  2,   6, 255,  12)
0A_05_01_05         // ( 10,   5,   1,   5)
FB_FF_FC_F5         // (251, 255, 252, 245)
0A_04_02_03         // ( 10,   4,   2,   3)
0D_05_FE_F9         // ( 13,   5, 254, 249)
FD_FD_08_02         // (253, 253,   8,   2)
F7_FB_FC_02         // (247, 251, 252,   2)
F6_FE_F8_FA         // (246, 254, 248, 250)
FA_F6_0A_FE         // (250, 246,  10, 254)
FC_00_04_02         // (252,   0,   4,   2)
05_03_FD_FC         // (  5,   3, 253, 252)
FE_01_09_02         // (254,   1,   9,   2)
07_F7_FC_01         // (  7, 247, 252,   1)
04_02_F4_FF         // (  4,   2, 244, 255)
FB_03_05_FC         // (251,   3,   5, 252)
F9_03_FB_09         // (249,   3, 251,   9)
01_FA_07_FD         // (  1, 250,   7, 253)
00_03_FB_F9         // (  0,   3, 251, 249)
01_02_02_FE         // (  1,   2,   2, 254)
03_FE_FA_02         // (  3, 254, 250,   2)
00_F6_F6_FD         // (  0, 246, 246, 253)
00_02_EF_FF         // (  0,   2, 239, 255)
FE_FE_F0_F2         // (254, 254, 240, 242)
00_04_FF_FF         // (  0,   4, 255, 255)
F7_12_FD_03         // (247,  18, 253,   3)
FA_0E_00_00         // (250,  14,   0,   0)
F8_F9_06_04         // (248, 249,   6,   4)
00_01_02_FF         // (  0,   1,   2, 255)
05_FE_FF_07         // (  5, 254, 255,   7)
EF_FD_FF_08         // (239, 253, 255,   8)
00_F6_05_00         // (  0, 246,   5,   0)
F8_00_06_01         // (248,   0,   6,   1)
FA_FA_F7_07         // (250, 250, 247,   7)
F9_FA_03_FF         // (249, 250,   3, 255)
FF_FB_0D_00         // (255, 251,  13,   0)
FE_01_FF_03         // (254,   1, 255,   3)
FD_03_FD_06         // (253,   3, 253,   6)
00_01_01_FF         // (  0,   1,   1, 255)
F7_FF_FF_F7         // (247, 255, 255, 247)
F0_FE_FD_F9         // (240, 254, 253, 249)
FD_00_FC_07         // (253,   0, 252,   7)
09_05_FD_FD         // (  9,   5, 253, 253)
F7_00_FC_03         // (247,   0, 252,   3)
F1_FE_FB_FC         // (241, 254, 251, 252)
00_00_F7_06         // (  0,   0, 247,   6)
03_00_F9_FC         // (  3,   0, 249, 252)
00_FA_FB_FD         // (  0, 250, 251, 253)
01_00_06_FC         // (  1,   0,   6, 252)
06_06_FC_FE         // (  6,   6, 252, 254)
06_FB_03_FD         // (  6, 251,   3, 253)
02_03_02_0E         // (  2,   3,   2,  14)
FE_FD_F9_FE         // (254, 253, 249, 254)
02_07_02_FE         // (  2,   7,   2, 254)
F9_FE_FA_01         // (249, 254, 250,   1)
FB_03_1A_08         // (251,   3,  26,   8)
0B_FC_10_03         // ( 11, 252,  16,   3)
FD_00_F9_11         // (253,   0, 249,  17)
FC_07_0B_FE         // (252,   7,  11, 254)
03_03_FD_02         // (  3,   3, 253,   2)
FD_F6_F7_00         // (253, 246, 247,   0)
01_09_FA_0E         // (  1,   9, 250,  14)
FC_05_FB_13         // (252,   5, 251,  19)
FC_FF_FA_FF         // (252, 255, 250, 255)
FE_08_05_FA         // (254,   8,   5, 250)
01_03_17_ED         // (  1,   3,  23, 237)
FC_FF_FA_FA         // (252, 255, 250, 250)
01_02_F6_01         // (  1,   2, 246,   1)
FF_FF_06_04         // (255, 255,   6,   4)
FA_10_0C_FE         // (250,  16,  12, 254)
FC_01_FE_00         // (252,   1, 254,   0)
F6_F9_00_06         // (246, 249,   0,   6)
FE_02_04_FF         // (254,   2,   4, 255)
06_F8_03_0B         // (  6, 248,   3,  11)
04_FC_F7_05         // (  4, 252, 247,   5)
FF_05_FF_01         // (255,   5, 255,   1)
F7_FE_FF_02         // (247, 254, 255,   2)
07_F8_00_05         // (  7, 248,   0,   5)
03_01_F9_FF         // (  3,   1, 249, 255)
F8_FD_05_08         // (248, 253,   5,   8)
FD_F6_0D_FC         // (253, 246,  13, 252)
0A_03_FA_06         // ( 10,   3, 250,   6)
FE_02_F7_04         // (254,   2, 247,   4)
01_F8_FF_FE         // (  1, 248, 255, 254)
0D_FE_F7_00         // ( 13, 254, 247,   0)
01_FD_FC_F7         // (  1, 253, 252, 247)
FC_FB_00_F4         // (252, 251,   0, 244)
F8_02_F0_10         // (248,   2, 240,  16)
0A_01_FF_04         // ( 10,   1, 255,   4)
FD_01_00_02         // (253,   1,   0,   2)
00_FA_FA_02         // (  0, 250, 250,   2)
FF_02_05_05         // (255,   2,   5,   5)
FE_08_01_F5         // (254,   8,   1, 245)
01_01_F6_14         // (  1,   1, 246,  20)
FA_05_FD_07         // (250,   5, 253,   7)
F0_F7_03_03         // (240, 247,   3,   3)
F5_F5_FF_05         // (245, 245, 255,   5)
FC_FB_FE_FC         // (252, 251, 254, 252)
07_0A_07_FE         // (  7,  10,   7, 254)
FB_02_00_00         // (251,   2,   0,   0)
F3_FB_FE_01         // (243, 251, 254,   1)
00_04_00_03         // (  0,   4,   0,   3)
01_FF_04_FF         // (  1, 255,   4, 255)
05_00_03_03         // (  5,   0,   3,   3)
F8_FC_09_0E         // (248, 252,   9,  14)
02_F6_0C_0A         // (  2, 246,  12,  10)
00_03_01_01         // (  0,   3,   1,   1)
00_0E_FF_00         // (  0,  14, 255,   0)
0B_01_00_05         // ( 11,   1,   0,   5)
04_07_03_FE         // (  4,   7,   3, 254)
FC_FE_FF_01         // (252, 254, 255,   1)
FF_09_00_02         // (255,   9,   0,   2)
02_04_FB_FF         // (  2,   4, 251, 255)
FC_F7_FD_08         // (252, 247, 253,   8)
FA_0E_08_07         // (250,  14,   8,   7)
FA_05_0A_09         // (250,   5,  10,   9)
FB_00_03_08         // (251,   0,   3,   8)
00_FB_05_FC         // (  0, 251,   5, 252)
01_FA_04_F8         // (  1, 250,   4, 248)
F6_FE_04_F6         // (246, 254,   4, 246)
00_FD_0A_05         // (  0, 253,  10,   5)
07_F7_FB_04         // (  7, 247, 251,   4)
F4_FD_08_F6         // (244, 253,   8, 246)
F8_FF_04_FD         // (248, 255,   4, 253)
F5_06_00_01         // (245,   6,   0,   1)
F6_FC_FC_00         // (246, 252, 252,   0)
FE_05_0A_05         // (254,   5,  10,   5)
04_03_FB_02         // (  4,   3, 251,   2)
FB_08_01_01         // (251,   8,   1,   1)
00_10_FC_09         // (  0,  16, 252,   9)
0A_F7_06_06         // ( 10, 247,   6,   6)
02_07_05_06         // (  2,   7,   5,   6)
F4_03_FD_12         // (244,   3, 253,  18)
FF_FB_FD_05         // (255, 251, 253,   5)
07_F4_FF_FE         // (  7, 244, 255, 254)
00_06_00_11         // (  0,   6,   0,  17)
00_FB_FD_00         // (  0, 251, 253,   0)
01_00_06_FD         // (  1,   0,   6, 253)
01_F6_FE_04         // (  1, 246, 254,   4)
03_08_FF_FF         // (  3,   8, 255, 255)
F6_03_05_FA         // (246,   3,   5, 250)
03_02_0A_0B         // (  3,   2,  10,  11)
04_00_FC_0A         // (  4,   0, 252,  10)
01_05_07_0A         // (  1,   5,   7,  10)
07_FD_FF_FE         // (  7, 253, 255, 254)
FC_00_FF_07         // (252,   0, 255,   7)
FF_04_00_10         // (255,   4,   0,  16)
05_FE_03_F9         // (  5, 254,   3, 249)
03_03_FE_FD         // (  3,   3, 254, 253)
FF_09_05_FA         // (255,   9,   5, 250)
FE_FD_04_FE         // (254, 253,   4, 254)
07_00_08_03         // (  7,   0,   8,   3)
02_FE_00_FE         // (  2, 254,   0, 254)
FB_FE_FC_04         // (251, 254, 252,   4)
FC_FF_F9_01         // (252, 255, 249,   1)
05_04_F7_FC         // (  5,   4, 247, 252)
FF_02_02_0B         // (255,   2,   2,  11)
FE_F7_FE_09         // (254, 247, 254,   9)
11_03_F6_FE         // ( 17,   3, 246, 254)
F2_06_05_F9         // (242,   6,   5, 249)
F4_0C_04_FC         // (244,  12,   4, 252)
ED_06_0E_FB         // (237,   6,  14, 251)
F6_FE_06_00         // (246, 254,   6,   0)
FE_01_02_03         // (254,   1,   2,   3)
F6_02_04_08         // (246,   2,   4,   8)
FD_F9_01_02         // (253, 249,   1,   2)
FA_F9_06_0A         // (250, 249,   6,  10)
F5_FE_FB_F8         // (245, 254, 251, 248)
FE_F7_08_0B         // (254, 247,   8,  11)
03_0A_07_04         // (  3,  10,   7,   4)
0D_00_0D_FB         // ( 13,   0,  13, 251)
0D_00_FC_04         // ( 13,   0, 252,   4)
0F_03_FF_08         // ( 15,   3, 255,   8)
FF_01_04_FE         // (255,   1,   4, 254)
F0_07_01_01         // (240,   7,   1,   1)
F8_03_FC_02         // (248,   3, 252,   2)
F9_F8_FF_F7         // (249, 248, 255, 247)
02_F3_0E_01         // (  2, 243,  14,   1)
FF_FA_0B_FA         // (255, 250,  11, 250)
FD_07_FD_F8         // (253,   7, 253, 248)
11_FF_00_06         // ( 17, 255,   0,   6)
0D_FF_F9_05         // ( 13, 255, 249,   5)
01_08_FC_FC         // (  1,   8, 252, 252)
FB_06_02_F8         // (251,   6,   2, 248)
00_02_06_FF         // (  0,   2,   6, 255)
05_02_F9_FE         // (  5,   2, 249, 254)
0C_FC_0A_F8         // ( 12, 252,  10, 248)
F3_FF_06_FF         // (243, 255,   6, 255)
FD_FE_F2_F7         // (253, 254, 242, 247)
03_FA_07_F6         // (  3, 250,   7, 246)
FC_FC_03_09         // (252, 252,   3,   9)
FD_FE_F9_FE         // (253, 254, 249, 254)
06_FD_03_00         // (  6, 253,   3,   0)
F4_FC_FC_0A         // (244, 252, 252,  10)
FF_00_FB_05         // (255,   0, 251,   5)
FD_06_FE_00         // (253,   6, 254,   0)
05_FC_00_04         // (  5, 252,   0,   4)
10_00_F7_FC         // ( 16,   0, 247, 252)
FE_F7_03_F8         // (254, 247,   3, 248)
04_01_09_01         // (  4,   1,   9,   1)
10_F5_01_03         // ( 16, 245,   1,   3)
04_05_05_07         // (  4,   5,   5,   7)
F8_FB_0A_02         // (248, 251,  10,   2)
05_01_04_02         // (  5,   1,   4,   2)
03_0A_01_05         // (  3,  10,   1,   5)
02_F4_04_01         // (  2, 244,   4,   1)
08_04_06_F9         // (  8,   4,   6, 249)
FA_F4_FC_FB         // (250, 244, 252, 251)
FE_F8_F7_FE         // (254, 248, 247, 254)
0C_02_02_07         // ( 12,   2,   2,   7)
06_FA_01_F9         // (  6, 250,   1, 249)
FF_FD_F3_FD         // (255, 253, 243, 253)
FF_06_FF_FD         // (255,   6, 255, 253)
FC_F4_F7_F8         // (252, 244, 247, 248)
FF_FD_FD_02         // (255, 253, 253,   2)
07_FF_00_FB         // (  7, 255,   0, 251)
F8_06_F2_01         // (248,   6, 242,   1)
03_0A_FD_F6         // (  3,  10, 253, 246)
F9_FD_F7_FD         // (249, 253, 247, 253)
01_EF_04_0E         // (  1, 239,   4,  14)
FB_FD_F6_FD         // (251, 253, 246, 253)
FE_FE_09_F7         // (254, 254,   9, 247)
FA_F4_03_02         // (250, 244,   3,   2)
F6_0E_FF_04         // (246,  14, 255,   4)
03_03_04_FF         // (  3,   3,   4, 255)
FC_04_01_FD         // (252,   4,   1, 253)
04_F9_03_04         // (  4, 249,   3,   4)
FA_06_01_02         // (250,   6,   1,   2)
1C_FE_FB_FE         // ( 28, 254, 251, 254)
FE_05_02_09         // (254,   5,   2,   9)
0A_01_00_FE         // ( 10,   1,   0, 254)
0A_03_01_00         // ( 10,   3,   1,   0)
05_F1_05_FF         // (  5, 241,   5, 255)
06_FC_FF_02         // (  6, 252, 255,   2)
03_FD_03_FF         // (  3, 253,   3, 255)
03_FF_FD_02         // (  3, 255, 253,   2)
00_FF_FE_FC         // (  0, 255, 254, 252)
03_02_F6_06         // (  3,   2, 246,   6)
04_F8_FE_FB         // (  4, 248, 254, 251)
F9_FB_04_02         // (249, 251,   4,   2)
FD_FF_0E_EC         // (253, 255,  14, 236)
03_09_05_04         // (  3,   9,   5,   4)
FE_04_07_FC         // (254,   4,   7, 252)
F8_FF_0A_F8         // (248, 255,  10, 248)
FF_FA_09_00         // (255, 250,   9,   0)
05_F9_FE_F6         // (  5, 249, 254, 246)
00_F2_FF_F9         // (  0, 242, 255, 249)
FF_EC_02_F7         // (255, 236,   2, 247)
00_F3_0C_F9         // (  0, 243,  12, 249)
02_FD_0E_09         // (  2, 253,  14,   9)
FD_04_0B_01         // (253,   4,  11,   1)
FF_00_05_FB         // (255,   0,   5, 251)
FC_F5_04_02         // (252, 245,   4,   2)
00_02_0A_05         // (  0,   2,  10,   5)
02_00_02_03         // (  2,   0,   2,   3)
FB_03_FA_00         // (251,   3, 250,   0)
FD_02_02_FA         // (253,   2,   2, 250)
03_FB_FF_FE         // (  3, 251, 255, 254)
F4_FF_09_05         // (244, 255,   9,   5)
F5_01_03_03         // (245,   1,   3,   3)
EE_F7_0D_05         // (238, 247,  13,   5)
FA_02_0B_FE         // (250,   2,  11, 254)
F8_FD_06_FF         // (248, 253,   6, 255)
03_FD_06_01         // (  3, 253,   6,   1)
FE_03_05_EE         // (254,   3,   5, 238)
05_FC_FF_04         // (  5, 252, 255,   4)
F8_FF_01_00         // (248, 255,   1,   0)
FE_08_07_01         // (254,   8,   7,   1)
06_FC_FA_FD         // (  6, 252, 250, 253)
00_01_FC_F6         // (  0,   1, 252, 246)
FE_00_FF_01         // (254,   0, 255,   1)
01_FF_02_FC         // (  1, 255,   2, 252)
08_FD_FF_FA         // (  8, 253, 255, 250)
FB_FA_00_08         // (251, 250,   0,   8)
04_FB_06_FE         // (  4, 251,   6, 254)
FF_01_FC_FF         // (255,   1, 252, 255)
09_FC_00_FC         // (  9, 252,   0, 252)
FE_FF_00_FF         // (254, 255,   0, 255)
01_00_0A_00         // (  1,   0,  10,   0)
04_01_01_FB         // (  4,   1,   1, 251)
05_FE_07_04         // (  5, 254,   7,   4)
03_01_07_09         // (  3,   1,   7,   9)
01_FD_03_FE         // (  1, 253,   3, 254)
FF_F4_04_FE         // (255, 244,   4, 254)
04_FA_09_00         // (  4, 250,   9,   0)
FD_06_03_00         // (253,   6,   3,   0)
FD_04_FC_01         // (253,   4, 252,   1)
FF_09_FB_F4         // (255,   9, 251, 244)
02_01_FE_06         // (  2,   1, 254,   6)
07_06_06_01         // (  7,   6,   6,   1)
00_FE_02_0D         // (  0, 254,   2,  13)
FB_04_FD_FF         // (251,   4, 253, 255)
00_07_04_02         // (  0,   7,   4,   2)
FF_FE_04_F8         // (255, 254,   4, 248)
01_FF_01_01         // (  1, 255,   1,   1)
04_FE_03_FF         // (  4, 254,   3, 255)
FF_07_07_FF         // (255,   7,   7, 255)
02_01_FD_FA         // (  2,   1, 253, 250)
06_00_05_01         // (  6,   0,   5,   1)
F9_05_03_00         // (249,   5,   3,   0)
FD_06_F8_00         // (253,   6, 248,   0)
00_02_04_FB         // (  0,   2,   4, 251)
02_07_FF_FF         // (  2,   7, 255, 255)
FD_FD_FF_07         // (253, 253, 255,   7)
FC_FA_F9_02         // (252, 250, 249,   2)
FC_FA_F7_FF         // (252, 250, 247, 255)
FE_FE_00_00         // (254, 254,   0,   0)
FE_F9_07_02         // (254, 249,   7,   2)
01_F6_FC_07         // (  1, 246, 252,   7)
FF_FD_01_03         // (255, 253,   1,   3)
FE_FD_0B_03         // (254, 253,  11,   3)
03_04_07_FD         // (  3,   4,   7, 253)
FD_F8_F5_01         // (253, 248, 245,   1)
05_FE_00_FC         // (  5, 254,   0, 252)
F9_FF_FF_FC         // (249, 255, 255, 252)
03_07_FF_FE         // (  3,   7, 255, 254)
F7_04_05_02         // (247,   4,   5,   2)
F2_03_FC_02         // (242,   3, 252,   2)
F0_FA_01_06         // (240, 250,   1,   6)
02_00_F8_0B         // (  2,   0, 248,  11)
07_01_FE_01         // (  7,   1, 254,   1)
02_FB_01_FD         // (  2, 251,   1, 253)
01_0B_FC_FF         // (  1,  11, 252, 255)
F2_02_05_01         // (242,   2,   5,   1)
FD_FB_03_FF         // (253, 251,   3, 255)
FE_03_0A_F7         // (254,   3,  10, 247)
05_08_FB_02         // (  5,   8, 251,   2)
FC_FE_00_04         // (252, 254,   0,   4)
F8_01_FE_00         // (248,   1, 254,   0)
FC_02_04_06         // (252,   2,   4,   6)
FF_07_FF_08         // (255,   7, 255,   8)
02_06_F9_03         // (  2,   6, 249,   3)
00_00_00_05         // (  0,   0,   0,   5)
F6_0B_00_02         // (246,  11,   0,   2)
FA_00_FB_FC         // (250,   0, 251, 252)
FB_06_04_02         // (251,   6,   4,   2)
FC_05_FE_00         // (252,   5, 254,   0)
03_02_FC_F8         // (  3,   2, 252, 248)
06_02_00_01         // (  6,   2,   0,   1)
03_0B_00_F6         // (  3,  11,   0, 246)
FF_0C_FF_00         // (255,  12, 255,   0)
FF_00_07_03         // (255,   0,   7,   3)
03_07_FA_FA         // (  3,   7, 250, 250)
02_00_08_FE         // (  2,   0,   8, 254)
06_FD_00_05         // (  6, 253,   0,   5)
FE_FE_08_FE         // (254, 254,   8, 254)
00_03_0A_F4         // (  0,   3,  10, 244)
04_FB_F9_FB         // (  4, 251, 249, 251)
FF_00_09_FA         // (255,   0,   9, 250)
01_04_02_FC         // (  1,   4,   2, 252)
02_FD_00_FF         // (  2, 253,   0, 255)
FA_FB_02_F7         // (250, 251,   2, 247)
F9_FC_00_02         // (249, 252,   0,   2)
FB_02_FC_06         // (251,   2, 252,   6)
FB_FB_FA_01         // (251, 251, 250,   1)
FB_F5_06_06         // (251, 245,   6,   6)
FE_06_00_F9         // (254,   6,   0, 249)
07_09_0A_FD         // (  7,   9,  10, 253)
00_0B_FD_FF         // (  0,  11, 253, 255)
00_FD_00_FD         // (  0, 253,   0, 253)
FB_08_03_01         // (251,   8,   3,   1)
02_FC_01_FE         // (  2, 252,   1, 254)
00_FE_05_FA         // (  0, 254,   5, 250)
00_F5_FB_01         // (  0, 245, 251,   1)
01_00_FD_FB         // (  1,   0, 253, 251)
F8_04_FF_FB         // (248,   4, 255, 251)
01_FD_0D_06         // (  1, 253,  13,   6)
0A_01_03_FF         // ( 10,   1,   3, 255)
04_FF_04_FE         // (  4, 255,   4, 254)
00_FD_00_FC         // (  0, 253,   0, 252)
03_FC_05_09         // (  3, 252,   5,   9)
00_02_FF_00         // (  0,   2, 255,   0)
04_FC_FA_07         // (  4, 252, 250,   7)
01_F8_04_FD         // (  1, 248,   4, 253)
F6_01_03_05         // (246,   1,   3,   5)
FB_FB_00_02         // (251, 251,   0,   2)
04_FA_06_F8         // (  4, 250,   6, 248)
FB_FF_00_00         // (251, 255,   0,   0)
07_FD_FD_02         // (  7, 253, 253,   2)
FF_FA_F6_F8         // (255, 250, 246, 248)
FD_FC_F9_FC         // (253, 252, 249, 252)
05_FC_01_F9         // (  5, 252,   1, 249)
00_FC_00_FB         // (  0, 252,   0, 251)
02_FE_01_F9         // (  2, 254,   1, 249)
FD_01_02_FF         // (253,   1,   2, 255)
FF_06_02_FA         // (255,   6,   2, 250)
03_06_00_06         // (  3,   6,   0,   6)
07_05_FC_FE         // (  7,   5, 252, 254)
F8_00_FC_F5         // (248,   0, 252, 245)
FC_05_01_FD         // (252,   5,   1, 253)
06_04_08_FA         // (  6,   4,   8, 250)
08_02_00_FA         // (  8,   2,   0, 250)
FF_09_FD_F1         // (255,   9, 253, 241)
FE_01_FD_09         // (254,   1, 253,   9)
FE_FE_FA_03         // (254, 254, 250,   3)
FE_03_00_0A         // (254,   3,   0,  10)
00_0A_FD_FE         // (  0,  10, 253, 254)
00_01_FE_00         // (  0,   1, 254,   0)
00_FF_08_0A         // (  0, 255,   8,  10)
FD_09_01_05         // (253,   9,   1,   5)
FD_08_03_00         // (253,   8,   3,   0)
FF_04_03_07         // (255,   4,   3,   7)
06_FF_FF_01         // (  6, 255, 255,   1)
03_04_09_FE         // (  3,   4,   9, 254)
01_06_FD_02         // (  1,   6, 253,   2)
02_00_FE_00         // (  2,   0, 254,   0)
02_F8_FD_09         // (  2, 248, 253,   9)
00_00_F9_02         // (  0,   0, 249,   2)
FE_FB_FB_04         // (254, 251, 251,   4)
09_FD_03_FE         // (  9, 253,   3, 254)
FD_03_FC_F8         // (253,   3, 252, 248)
05_02_05_08         // (  5,   2,   5,   8)
FB_FC_F8_04         // (251, 252, 248,   4)
F8_F4_FF_FF         // (248, 244, 255, 255)
F9_FC_FA_09         // (249, 252, 250,   9)
01_02_FB_FF         // (  1,   2, 251, 255)
F5_F3_04_03         // (245, 243,   4,   3)
FA_F2_FD_03         // (250, 242, 253,   3)
F9_FD_FE_FC         // (249, 253, 254, 252)
F7_EF_01_00         // (247, 239,   1,   0)
00_FF_FA_02         // (  0, 255, 250,   2)
01_01_03_01         // (  1,   1,   3,   1)
FE_0B_FA_F8         // (254,  11, 250, 248)
0C_FD_F3_09         // ( 12, 253, 243,   9)
02_02_F9_01         // (  2,   2, 249,   1)
09_08_F3_FB         // (  9,   8, 243, 251)
06_03_F9_04         // (  6,   3, 249,   4)
00_00_FD_FC         // (  0,   0, 253, 252)
09_FF_EA_FD         // (  9, 255, 234, 253)
06_F6_FB_FE         // (  6, 246, 251, 254)
01_F7_FC_0E         // (  1, 247, 252,  14)
FD_FE_00_02         // (253, 254,   0,   2)
01_FE_FA_EF         // (  1, 254, 250, 239)
FC_FB_FA_FF         // (252, 251, 250, 255)
F8_05_00_00         // (248,   5,   0,   0)
08_FE_F7_F9         // (  8, 254, 247, 249)
FC_FD_FE_03         // (252, 253, 254,   3)
04_FA_04_07         // (  4, 250,   4,   7)
0A_03_FB_FC         // ( 10,   3, 251, 252)
07_05_02_01         // (  7,   5,   2,   1)
02_03_02_02         // (  2,   3,   2,   2)
00_F4_FF_00         // (  0, 244, 255,   0)
00_FC_F9_FA         // (  0, 252, 249, 250)
F9_00_05_FA         // (249,   0,   5, 250)
FE_F4_09_00         // (254, 244,   9,   0)
04_F2_F5_00         // (  4, 242, 245,   0)
FA_FC_08_05         // (250, 252,   8,   5)
03_0D_FF_01         // (  3,  13, 255,   1)
01_FC_05_05         // (  1, 252,   5,   5)
F2_03_05_01         // (242,   3,   5,   1)
FA_0D_FE_07         // (250,  13, 254,   7)
FF_01_00_03         // (255,   1,   0,   3)
02_FD_FF_F7         // (  2, 253, 255, 247)
E8_0C_04_00         // (232,  12,   4,   0)
08_F5_04_01         // (  8, 245,   4,   1)
0D_00_06_00         // ( 13,   0,   6,   0)
F8_01_FC_01         // (248,   1, 252,   1)
03_05_06_FD         // (  3,   5,   6, 253)
00_00_FC_FB         // (  0,   0, 252, 251)
EF_FB_FB_02         // (239, 251, 251,   2)
00_01_02_00         // (  0,   1,   2,   0)
FA_FD_03_FE         // (250, 253,   3, 254)
FA_FE_01_02         // (250, 254,   1,   2)
FF_FE_FB_03         // (255, 254, 251,   3)
FB_03_FB_04         // (251,   3, 251,   4)
00_F8_07_07         // (  0, 248,   7,   7)
04_03_02_02         // (  4,   3,   2,   2)
04_01_04_04         // (  4,   1,   4,   4)
FE_07_05_0B         // (254,   7,   5,  11)
01_02_FC_01         // (  1,   2, 252,   1)
FD_00_FD_03         // (253,   0, 253,   3)
FE_07_04_08         // (254,   7,   4,   8)
FF_09_01_F8         // (255,   9,   1, 248)
03_06_02_02         // (  3,   6,   2,   2)
00_12_FD_08         // (  0,  18, 253,   8)
FB_03_FC_04         // (251,   3, 252,   4)
04_F1_F7_FD         // (  4, 241, 247, 253)
04_03_F9_09         // (  4,   3, 249,   9)
06_FE_F9_04         // (  6, 254, 249,   4)
0A_FB_01_FC         // ( 10, 251,   1, 252)
04_F7_FC_04         // (  4, 247, 252,   4)
03_04_FE_02         // (  3,   4, 254,   2)
0D_07_02_FF         // ( 13,   7,   2, 255)
FD_FE_FC_F6         // (253, 254, 252, 246)
FB_01_FC_01         // (251,   1, 252,   1)
FE_0E_0E_FC         // (254,  14,  14, 252)
FE_09_FE_FB         // (254,   9, 254, 251)
01_02_03_00         // (  1,   2,   3,   0)
06_03_00_05         // (  6,   3,   0,   5)
F3_0E_F8_04         // (243,  14, 248,   4)
F8_FF_05_04         // (248, 255,   5,   4)
F8_00_00_0A         // (248,   0,   0,  10)
FD_09_FF_0C         // (253,   9, 255,  12)
05_F9_FE_FC         // (  5, 249, 254, 252)
FC_FC_FA_FA         // (252, 252, 250, 250)
FA_04_F4_F7         // (250,   4, 244, 247)
FC_03_FD_FE         // (252,   3, 253, 254)
FC_05_FE_F7         // (252,   5, 254, 247)
FD_01_ED_F8         // (253,   1, 237, 248)
FD_FE_FB_09         // (253, 254, 251,   9)
03_01_FD_0F         // (  3,   1, 253,  15)
FB_FA_FA_F3         // (251, 250, 250, 243)
00_FF_FC_FC         // (  0, 255, 252, 252)
FA_FC_F8_FA         // (250, 252, 248, 250)
02_FB_05_F3         // (  2, 251,   5, 243)
FB_FD_00_FE         // (251, 253,   0, 254)
F6_07_F8_02         // (246,   7, 248,   2)
00_03_03_FB         // (  0,   3,   3, 251)
FC_FD_01_04         // (252, 253,   1,   4)
F8_06_FC_FB         // (248,   6, 252, 251)
F7_09_05_0C         // (247,   9,   5,  12)
FC_F8_FE_FE         // (252, 248, 254, 254)
FD_F8_F6_FE         // (253, 248, 246, 254)
0C_05_06_09         // ( 12,   5,   6,   9)
FE_06_F2_04         // (254,   6, 242,   4)
F9_FF_FD_FC         // (249, 255, 253, 252)
0D_02_08_07         // ( 13,   2,   8,   7)
FA_02_FB_FD         // (250,   2, 251, 253)
F5_04_05_FD         // (245,   4,   5, 253)
08_04_03_FA         // (  8,   4,   3, 250)
04_F8_02_07         // (  4, 248,   2,   7)
05_F9_00_FC         // (  5, 249,   0, 252)
00_FD_0B_04         // (  0, 253,  11,   4)
FD_F7_01_04         // (253, 247,   1,   4)
05_F8_FE_09         // (  5, 248, 254,   9)
00_01_06_05         // (  0,   1,   6,   5)
01_01_03_FE         // (  1,   1,   3, 254)
F4_01_04_03         // (244,   1,   4,   3)
F3_F5_02_F9         // (243, 245,   2, 249)
03_01_02_FE         // (  3,   1,   2, 254)
FB_05_00_08         // (251,   5,   0,   8)
05_FF_0B_FB         // (  5, 255,  11, 251)
03_F9_0B_FA         // (  3, 249,  11, 250)
FE_FB_03_FB         // (254, 251,   3, 251)
F9_01_01_13         // (249,   1,   1,  19)
FD_F9_02_06         // (253, 249,   2,   6)
FC_F6_FE_FD         // (252, 246, 254, 253)
01_F8_07_E0         // (  1, 248,   7, 224)
F8_07_FB_F7         // (248,   7, 251, 247)
FE_FD_05_F3         // (254, 253,   5, 243)
FF_F5_0C_F0         // (255, 245,  12, 240)
F7_04_FF_00         // (247,   4, 255,   0)
FA_F5_09_F9         // (250, 245,   9, 249)
FE_FC_00_EA         // (254, 252,   0, 234)
04_02_F6_F8         // (  4,   2, 246, 248)
FB_FD_F9_F9         // (251, 253, 249, 249)
10_03_FA_FF         // ( 16,   3, 250, 255)
09_02_FB_02         // (  9,   2, 251,   2)
02_02_08_F7         // (  2,   2,   8, 247)
01_FF_F9_05         // (  1, 255, 249,   5)
07_FD_01_FE         // (  7, 253,   1, 254)
0C_03_0A_F8         // ( 12,   3,  10, 248)
FE_FD_05_08         // (254, 253,   5,   8)
04_FF_FF_03         // (  4, 255, 255,   3)
0C_07_FC_01         // ( 12,   7, 252,   1)
FC_FE_FF_05         // (252, 254, 255,   5)
FF_0B_F8_05         // (255,  11, 248,   5)
07_03_00_06         // (  7,   3,   0,   6)
FB_00_05_07         // (251,   0,   5,   7)
0B_01_03_06         // ( 11,   1,   3,   6)
08_05_03_00         // (  8,   5,   3,   0)
02_0A_02_0A         // (  2,  10,   2,  10)
00_F4_04_01         // (  0, 244,   4,   1)
00_07_FD_FD         // (  0,   7, 253, 253)
FC_0C_03_F9         // (252,  12,   3, 249)
FC_08_FB_05         // (252,   8, 251,   5)
FA_F7_EB_03         // (250, 247, 235,   3)
06_F8_E1_F4         // (  6, 248, 225, 244)
05_04_E7_FF         // (  5,   4, 231, 255)
04_F4_E2_02         // (  4, 244, 226,   2)
02_02_F4_F9         // (  2,   2, 244, 249)
04_FE_02_09         // (  4, 254,   2,   9)
F7_F7_F1_08         // (247, 247, 241,   8)
FF_F1_FF_F2         // (255, 241, 255, 242)
FE_F7_02_08         // (254, 247,   2,   8)
FB_EC_03_FB         // (251, 236,   3, 251)
F9_FD_FE_FB         // (249, 253, 254, 251)
FE_FF_FC_FD         // (254, 255, 252, 253)
F7_F8_08_09         // (247, 248,   8,   9)
FF_FF_F8_FF         // (255, 255, 248, 255)
F8_03_FB_0E         // (248,   3, 251,  14)
F6_FA_05_09         // (246, 250,   5,   9)
F5_01_F9_FA         // (245,   1, 249, 250)
FA_FC_02_05         // (250, 252,   2,   5)
03_FB_0B_FF         // (  3, 251,  11, 255)
01_FC_F6_08         // (  1, 252, 246,   8)
00_FC_F9_FA         // (  0, 252, 249, 250)
FF_FB_FE_08         // (255, 251, 254,   8)
FE_FF_FA_04         // (254, 255, 250,   4)
F8_F2_03_04         // (248, 242,   3,   4)
FC_FB_05_01         // (252, 251,   5,   1)
F0_04_02_03         // (240,   4,   2,   3)
F2_FC_03_FB         // (242, 252,   3, 251)
E9_0A_FA_F0         // (233,  10, 250, 240)
F7_0E_0D_FE         // (247,  14,  13, 254)
F0_09_03_FF         // (240,   9,   3, 255)
FC_05_04_F3         // (252,   5,   4, 243)
EF_0B_0E_08         // (239,  11,  14,   8)
FA_FC_03_02         // (250, 252,   3,   2)
02_04_00_F8         // (  2,   4,   0, 248)
0B_09_FE_FF         // ( 11,   9, 254, 255)
03_02_FD_FB         // (  3,   2, 253, 251)
F8_FC_FD_FD         // (248, 252, 253, 253)
FC_FC_00_08         // (252, 252,   0,   8)
03_02_FF_04         // (  3,   2, 255,   4)
00_05_FC_FE         // (  0,   5, 252, 254)
02_FF_06_0A         // (  2, 255,   6,  10)
08_F6_FC_05         // (  8, 246, 252,   5)
FE_FE_09_F2         // (254, 254,   9, 242)
06_06_07_F9         // (  6,   6,   7, 249)
04_02_00_FC         // (  4,   2,   0, 252)
F5_06_04_02         // (245,   6,   4,   2)
02_07_08_02         // (  2,   7,   8,   2)
01_FF_00_05         // (  1, 255,   0,   5)
07_04_04_FF         // (  7,   4,   4, 255)
06_0D_FF_10         // (  6,  13, 255,  16)
05_00_FC_0A         // (  5,   0, 252,  10)
FE_F4_04_FF         // (254, 244,   4, 255)
FA_0A_07_FD         // (250,  10,   7, 253)
F0_07_07_FA         // (240,   7,   7, 250)
FF_FE_FE_FA         // (255, 254, 254, 250)
FE_0A_FF_FA         // (254,  10, 255, 250)
00_09_01_01         // (  0,   9,   1,   1)
0C_05_FE_FE         // ( 12,   5, 254, 254)
FF_0B_00_13         // (255,  11,   0,  19)
02_03_00_01         // (  2,   3,   0,   1)
08_04_04_FE         // (  8,   4,   4, 254)
01_0B_F7_0B         // (  1,  11, 247,  11)
08_03_08_FB         // (  8,   3,   8, 251)
06_02_0D_05         // (  6,   2,  13,   5)
01_01_0D_F9         // (  1,   1,  13, 249)
07_01_03_02         // (  7,   1,   3,   2)
02_00_FD_0E         // (  2,   0, 253,  14)
00_02_09_FF         // (  0,   2,   9, 255)
00_01_01_09         // (  0,   1,   1,   9)
F3_FB_00_00         // (243, 251,   0,   0)
FF_02_02_03         // (255,   2,   2,   3)
F7_FE_0B_05         // (247, 254,  11,   5)
02_09_10_FC         // (  2,   9,  16, 252)
01_E3_FD_0F         // (  1, 227, 253,  15)
F8_EC_07_F2         // (248, 236,   7, 242)
FA_FA_06_FA         // (250, 250,   6, 250)
FE_E4_F7_F9         // (254, 228, 247, 249)
03_F9_04_F9         // (  3, 249,   4, 249)
04_03_00_0B         // (  4,   3,   0,  11)
ED_00_FD_F9         // (237,   0, 253, 249)
F8_06_00_FF         // (248,   6,   0, 255)
FF_FF_08_F8         // (255, 255,   8, 248)
FB_F7_0F_F9         // (251, 247,  15, 249)
0D_FD_F9_FC         // ( 13, 253, 249, 252)
F7_00_03_ED         // (247,   0,   3, 237)
01_07_10_E9         // (  1,   7,  16, 233)
02_05_06_FE         // (  2,   5,   6, 254)
F7_03_0A_F0         // (247,   3,  10, 240)
FC_01_03_FC         // (252,   1,   3, 252)
FE_04_FB_FE         // (254,   4, 251, 254)
02_FF_03_07         // (  2, 255,   3,   7)
08_0A_FE_F6         // (  8,  10, 254, 246)
02_00_FB_F7         // (  2,   0, 251, 247)
FE_04_03_0B         // (254,   4,   3,  11)
01_0E_10_FE         // (  1,  14,  16, 254)
02_FF_01_FC         // (  2, 255,   1, 252)
F7_FF_04_02         // (247, 255,   4,   2)
0E_FD_08_01         // ( 14, 253,   8,   1)
00_FE_05_03         // (  0, 254,   5,   3)
03_F4_06_F2         // (  3, 244,   6, 242)
03_07_12_FF         // (  3,   7,  18, 255)
00_07_FD_08         // (  0,   7, 253,   8)
ED_F6_02_01         // (237, 246,   2,   1)
08_01_15_FC         // (  8,   1,  21, 252)
08_06_FD_01         // (  8,   6, 253,   1)
FE_FD_00_FF         // (254, 253,   0, 255)
F3_FD_F9_11         // (243, 253, 249,  17)
FF_03_FA_FA         // (255,   3, 250, 250)
01_01_F4_FF         // (  1,   1, 244, 255)
FF_F9_10_FE         // (255, 249,  16, 254)
03_02_F4_F8         // (  3,   2, 244, 248)
04_05_F9_05         // (  4,   5, 249,   5)
F6_01_05_07         // (246,   1,   5,   7)
03_02_FA_06         // (  3,   2, 250,   6)
FF_05_FD_FE         // (255,   5, 253, 254)
0B_01_FC_05         // ( 11,   1, 252,   5)
08_08_09_FB         // (  8,   8,   9, 251)
05_FF_01_FF         // (  5, 255,   1, 255)
FC_E7_01_0E         // (252, 231,   1,  14)
F6_F5_FE_F8         // (246, 245, 254, 248)
02_0D_F6_04         // (  2,  13, 246,   4)
01_E9_F4_10         // (  1, 233, 244,  16)
04_05_FD_FF         // (  4,   5, 253, 255)
02_10_F6_04         // (  2,  16, 246,   4)
FC_04_FF_08         // (252,   4, 255,   8)
03_04_FC_FB         // (  3,   4, 252, 251)
00_F9_08_FC         // (  0, 249,   8, 252)
F1_0F_FD_FF         // (241,  15, 253, 255)
05_FE_01_FE         // (  5, 254,   1, 254)
0D_FE_02_FE         // ( 13, 254,   2, 254)
FF_0A_02_FE         // (255,  10,   2, 254)
FA_03_04_F8         // (250,   3,   4, 248)
05_05_F9_0A         // (  5,   5, 249,  10)
FB_F2_01_FF         // (251, 242,   1, 255)
07_04_00_00         // (  7,   4,   0,   0)
03_05_FB_FF         // (  3,   5, 251, 255)
FE_F5_FF_05         // (254, 245, 255,   5)
00_01_00_01         // (  0,   1,   0,   1)
FE_FA_02_FA         // (254, 250,   2, 250)
F6_F5_FE_04         // (246, 245, 254,   4)
05_FA_07_03         // (  5, 250,   7,   3)
01_00_02_04         // (  1,   0,   2,   4)
FA_02_FE_F5         // (250,   2, 254, 245)
F6_00_F8_FA         // (246,   0, 248, 250)
EE_0C_E6_F7         // (238,  12, 230, 247)
FF_F5_F9_03         // (255, 245, 249,   3)
FE_F8_F7_FC         // (254, 248, 247, 252)
F9_06_E3_FF         // (249,   6, 227, 255)
01_FA_FE_FE         // (  1, 250, 254, 254)
FE_02_FC_FE         // (254,   2, 252, 254)
F8_FB_F0_FD         // (248, 251, 240, 253)
04_03_FA_FB         // (  4,   3, 250, 251)
FE_F8_FD_FD         // (254, 248, 253, 253)
FF_F1_FA_F3         // (255, 241, 250, 243)
0A_FB_F8_FF         // ( 10, 251, 248, 255)
00_01_F8_04         // (  0,   1, 248,   4)
FE_F9_FD_04         // (254, 249, 253,   4)
0D_02_F4_F6         // ( 13,   2, 244, 246)
07_FF_F9_FF         // (  7, 255, 249, 255)
0B_00_F9_02         // ( 11,   0, 249,   2)
FD_00_01_05         // (253,   0,   1,   5)
04_F7_05_03         // (  4, 247,   5,   3)
0F_FA_0D_03         // ( 15, 250,  13,   3)
FF_06_03_FE         // (255,   6,   3, 254)
04_FE_03_FC         // (  4, 254,   3, 252)
07_03_0C_F7         // (  7,   3,  12, 247)
F7_FB_FB_FD         // (247, 251, 251, 253)
00_F5_FE_FB         // (  0, 245, 254, 251)
05_ED_FD_01         // (  5, 237, 253,   1)
FC_FC_FD_F9         // (252, 252, 253, 249)
F4_08_FE_FD         // (244,   8, 254, 253)
EF_03_07_FC         // (239,   3,   7, 252)
04_07_F9_F8         // (  4,   7, 249, 248)
03_03_04_FB         // (  3,   3,   4, 251)
FD_0A_02_02         // (253,  10,   2,   2)
FF_FB_F8_05         // (255, 251, 248,   5)
FB_00_FF_04         // (251,   0, 255,   4)
01_FC_04_FE         // (  1, 252,   4, 254)
02_00_FE_02         // (  2,   0, 254,   2)
FF_07_FF_00         // (255,   7, 255,   0)
03_06_FE_02         // (  3,   6, 254,   2)
FF_05_EF_FE         // (255,   5, 239, 254)
01_07_01_FC         // (  1,   7,   1, 252)
FD_F2_F8_FA         // (253, 242, 248, 250)
02_01_FB_0A         // (  2,   1, 251,  10)
07_FA_F8_08         // (  7, 250, 248,   8)
FF_FC_F6_FC         // (255, 252, 246, 252)
08_FA_FE_09         // (  8, 250, 254,   9)
FF_FD_02_00         // (255, 253,   2,   0)
FD_FD_0E_06         // (253, 253,  14,   6)
F6_FB_09_02         // (246, 251,   9,   2)
00_FC_09_FF         // (  0, 252,   9, 255)
F5_03_07_F8         // (245,   3,   7, 248)
F4_08_04_02         // (244,   8,   4,   2)
F8_FF_FB_FC         // (248, 255, 251, 252)
F5_FC_0A_FE         // (245, 252,  10, 254)
07_08_03_FB         // (  7,   8,   3, 251)
FE_01_06_06         // (254,   1,   6,   6)
03_07_F4_FB         // (  3,   7, 244, 251)
FD_FD_FE_FF         // (253, 253, 254, 255)
EE_FA_F8_01         // (238, 250, 248,   1)
FA_02_F9_08         // (250,   2, 249,   8)
FC_02_07_FD         // (252,   2,   7, 253)
FB_FA_01_07         // (251, 250,   1,   7)
0A_02_FC_F6         // ( 10,   2, 252, 246)
FF_00_04_F8         // (255,   0,   4, 248)
FC_01_01_FC         // (252,   1,   1, 252)
02_FA_FD_03         // (  2, 250, 253,   3)
FB_FF_EF_01         // (251, 255, 239,   1)
02_F7_F5_00         // (  2, 247, 245,   0)
FD_00_FA_06         // (253,   0, 250,   6)
FB_FA_0E_06         // (251, 250,  14,   6)
FA_F6_FE_07         // (250, 246, 254,   7)
FC_FE_01_10         // (252, 254,   1,  16)
07_FD_02_0A         // (  7, 253,   2,  10)
05_01_01_0E         // (  5,   1,   1,  14)
0B_F3_17_06         // ( 11, 243,  23,   6)
FD_04_06_FB         // (253,   4,   6, 251)
FC_FB_01_FD         // (252, 251,   1, 253)
FD_FD_0D_F1         // (253, 253,  13, 241)
04_FD_01_ED         // (  4, 253,   1, 237)
06_F4_FD_FA         // (  6, 244, 253, 250)
02_FE_12_F3         // (  2, 254,  18, 243)
F9_09_FD_00         // (249,   9, 253,   0)
00_01_06_FF         // (  0,   1,   6, 255)
00_06_00_EE         // (  0,   6,   0, 238)
FE_00_FA_F8         // (254,   0, 250, 248)
FD_F9_FC_01         // (253, 249, 252,   1)
FE_F8_F9_F3         // (254, 248, 249, 243)
02_02_03_05         // (  2,   2,   3,   5)
09_03_FF_FF         // (  9,   3, 255, 255)
03_0A_FC_FD         // (  3,  10, 252, 253)
FF_06_02_04         // (255,   6,   2,   4)
FF_03_08_FC         // (255,   3,   8, 252)
F7_00_FF_FA         // (247,   0, 255, 250)
06_08_00_05         // (  6,   8,   0,   5)
01_04_01_FF         // (  1,   4,   1, 255)
00_FE_F8_FF         // (  0, 254, 248, 255)
0F_01_04_FA         // ( 15,   1,   4, 250)
04_FE_05_FA         // (  4, 254,   5, 250)
03_FB_03_FA         // (  3, 251,   3, 250)
12_04_06_06         // ( 18,   4,   6,   6)
FC_FF_FE_03         // (252, 255, 254,   3)
FE_FC_08_FD         // (254, 252,   8, 253)
0A_03_0E_0A         // ( 10,   3,  14,  10)
00_01_FE_0E         // (  0,   1, 254,  14)
FA_FA_07_0A         // (250, 250,   7,  10)
0D_0B_06_FF         // ( 13,  11,   6, 255)
01_06_06_01         // (  1,   6,   6,   1)
04_00_04_10         // (  4,   0,   4,  16)
F5_06_FF_07         // (245,   6, 255,   7)
F3_FD_01_0C         // (243, 253,   1,  12)
F5_02_04_04         // (245,   2,   4,   4)
08_FA_00_09         // (  8, 250,   0,   9)
05_FE_FD_FF         // (  5, 254, 253, 255)
02_06_FF_07         // (  2,   6, 255,   7)
08_FD_02_0B         // (  8, 253,   2,  11)
05_03_06_09         // (  5,   3,   6,   9)
09_07_03_03         // (  9,   7,   3,   3)
09_F7_03_FD         // (  9, 247,   3, 253)
08_01_06_F8         // (  8,   1,   6, 248)
04_05_08_F8         // (  4,   5,   8, 248)
F8_FE_FF_FD         // (248, 254, 255, 253)
FF_FF_FF_FD         // (255, 255, 255, 253)
01_05_08_FE         // (  1,   5,   8, 254)
07_03_F9_FE         // (  7,   3, 249, 254)
04_03_F7_F1         // (  4,   3, 247, 241)
FB_01_F5_FE         // (251,   1, 245, 254)
08_08_01_07         // (  8,   8,   1,   7)
07_FF_FF_FF         // (  7, 255, 255, 255)
00_02_0A_FB         // (  0,   2,  10, 251)
01_FE_05_FB         // (  1, 254,   5, 251)
FD_FF_06_F6         // (253, 255,   6, 246)
04_FC_07_FD         // (  4, 252,   7, 253)
02_FC_06_FF         // (  2, 252,   6, 255)
00_FC_03_01         // (  0, 252,   3,   1)
00_FB_06_FF         // (  0, 251,   6, 255)
F1_05_FC_F8         // (241,   5, 252, 248)
FD_03_F2_FC         // (253,   3, 242, 252)
F8_0D_FD_F9         // (248,  13, 253, 249)
07_02_02_02         // (  7,   2,   2,   2)
FE_FF_FE_FE         // (254, 255, 254, 254)
01_FF_01_FC         // (  1, 255,   1, 252)
00_06_07_02         // (  0,   6,   7,   2)
04_08_01_F4         // (  4,   8,   1, 244)
07_0D_05_02         // (  7,  13,   5,   2)
F5_FF_FE_0E         // (245, 255, 254,  14)
08_05_FC_FD         // (  8,   5, 252, 253)
FD_02_FD_FF         // (253,   2, 253, 255)
06_00_FF_08         // (  6,   0, 255,   8)
04_00_00_05         // (  4,   0,   0,   5)
FC_FC_02_00         // (252, 252,   2,   0)
F8_F7_F7_08         // (248, 247, 247,   8)
00_F5_F7_FD         // (  0, 245, 247, 253)
0A_FB_FE_F4         // ( 10, 251, 254, 244)
F9_F9_04_10         // (249, 249,   4,  16)
02_05_FA_EB         // (  2,   5, 250, 235)
02_09_0D_D7         // (  2,   9,  13, 215)
01_F6_02_05         // (  1, 246,   2,   5)
FC_FA_FC_EA         // (252, 250, 252, 234)
03_03_04_01         // (  3,   3,   4,   1)
03_00_F8_FE         // (  3,   0, 248, 254)
02_FE_FF_EC         // (  2, 254, 255, 236)
04_FF_06_FB         // (  4, 255,   6, 251)
06_FB_FA_08         // (  6, 251, 250,   8)
FB_FB_08_03         // (251, 251,   8,   3)
F7_F3_06_00         // (247, 243,   6,   0)
05_FA_F6_00         // (  5, 250, 246,   0)
0D_02_02_FC         // ( 13,   2,   2, 252)
00_F9_01_FB         // (  0, 249,   1, 251)
02_F6_01_FD         // (  2, 246,   1, 253)
04_FE_FC_FB         // (  4, 254, 252, 251)
FF_01_01_07         // (255,   1,   1,   7)
FF_0E_04_F7         // (255,  14,   4, 247)
FF_06_FA_FC         // (255,   6, 250, 252)
FD_0D_07_F3         // (253,  13,   7, 243)
FA_00_02_FE         // (250,   0,   2, 254)
F8_FE_FB_F5         // (248, 254, 251, 245)
FD_F2_FF_FD         // (253, 242, 255, 253)
FD_0A_02_00         // (253,  10,   2,   0)
03_01_06_05         // (  3,   1,   6,   5)
F8_02_F9_0C         // (248,   2, 249,  12)
F6_08_03_10         // (246,   8,   3,  16)
FE_F6_05_09         // (254, 246,   5,   9)
1A_FB_19_02         // ( 26, 251,  25,   2)
00_05_F6_FE         // (  0,   5, 246, 254)
03_08_FD_F5         // (  3,   8, 253, 245)
F2_05_FD_FA         // (242,   5, 253, 250)
01_01_00_06         // (  1,   1,   0,   6)
05_01_04_F4         // (  5,   1,   4, 244)
10_F6_07_06         // ( 16, 246,   7,   6)
0E_00_09_F5         // ( 14,   0,   9, 245)
00_01_00_F8         // (  0,   1,   0, 248)
FD_06_FC_FA         // (253,   6, 252, 250)
F7_0B_FF_02         // (247,  11, 255,   2)
05_03_FD_FC         // (  5,   3, 253, 252)
FF_FE_01_00         // (255, 254,   1,   0)
05_00_0D_01         // (  5,   0,  13,   1)
0A_FF_01_06         // ( 10, 255,   1,   6)
F8_FA_FF_01         // (248, 250, 255,   1)
FA_F8_0B_F5         // (250, 248,  11, 245)
03_F5_03_00         // (  3, 245,   3,   0)
06_FA_FF_08         // (  6, 250, 255,   8)
FF_08_08_FD         // (255,   8,   8, 253)
02_FF_07_02         // (  2, 255,   7,   2)
00_FB_FF_FE         // (  0, 251, 255, 254)
05_F9_03_FB         // (  5, 249,   3, 251)
FD_00_03_FF         // (253,   0,   3, 255)
FC_F9_10_FF         // (252, 249,  16, 255)
FA_05_F3_F6         // (250,   5, 243, 246)
FE_02_10_FE         // (254,   2,  16, 254)
02_07_02_03         // (  2,   7,   2,   3)
FB_FE_FA_FA         // (251, 254, 250, 250)
FD_FB_FF_09         // (253, 251, 255,   9)
FD_F4_02_01         // (253, 244,   2,   1)
F8_08_FC_FF         // (248,   8, 252, 255)
FC_F3_07_04         // (252, 243,   7,   4)
FC_02_FB_01         // (252,   2, 251,   1)
FF_0D_F4_02         // (255,  13, 244,   2)
F7_07_03_FD         // (247,   7,   3, 253)
FB_00_E1_0A         // (251,   0, 225,  10)
F9_11_01_FF         // (249,  17,   1, 255)
06_07_EF_FF         // (  6,   7, 239, 255)
F8_FB_F8_08         // (248, 251, 248,   8)
05_F9_F2_06         // (  5, 249, 242,   6)
FE_FE_FA_03         // (254, 254, 250,   3)
F7_F4_E6_06         // (247, 244, 230,   6)
FD_EF_F5_FB         // (253, 239, 245, 251)
00_FD_02_FF         // (  0, 253,   2, 255)
FA_FA_F6_01         // (250, 250, 246,   1)
07_F4_FB_FA         // (  7, 244, 251, 250)
FE_FD_05_0A         // (254, 253,   5,  10)
02_FB_FF_01         // (  2, 251, 255,   1)
0C_F4_E7_00         // ( 12, 244, 231,   0)
FB_FE_F4_01         // (251, 254, 244,   1)
05_FB_E8_F6         // (  5, 251, 232, 246)
FB_05_F8_F6         // (251,   5, 248, 246)
05_F8_FB_FF         // (  5, 248, 251, 255)
0A_F8_05_F8         // ( 10, 248,   5, 248)
F9_F4_FF_FB         // (249, 244, 255, 251)
FF_00_FD_02         // (255,   0, 253,   2)
FB_0F_FA_F7         // (251,  15, 250, 247)
FF_F8_03_00         // (255, 248,   3,   0)
FC_FD_FD_01         // (252, 253, 253,   1)
FB_FB_07_FD         // (251, 251,   7, 253)
F0_F7_02_01         // (240, 247,   2,   1)
EE_F5_FA_04         // (238, 245, 250,   4)
FC_02_F0_01         // (252,   2, 240,   1)
0A_07_FF_FC         // ( 10,   7, 255, 252)
F9_07_FF_FA         // (249,   7, 255, 250)
FD_F8_FC_F7         // (253, 248, 252, 247)
FF_0D_03_F6         // (255,  13,   3, 246)
01_FE_FC_FD         // (  1, 254, 252, 253)
12_00_05_F8         // ( 18,   0,   5, 248)
FB_FE_07_F9         // (251, 254,   7, 249)
FC_05_F6_07         // (252,   5, 246,   7)
07_07_FC_06         // (  7,   7, 252,   6)
02_00_FB_01         // (  2,   0, 251,   1)
06_00_FE_05         // (  6,   0, 254,   5)
06_07_FD_00         // (  6,   7, 253,   0)
F8_FC_FF_FF         // (248, 252, 255, 255)
F3_F7_02_FC         // (243, 247,   2, 252)
01_01_F6_FC         // (  1,   1, 246, 252)
FE_FB_01_FD         // (254, 251,   1, 253)
FD_FD_0A_03         // (253, 253,  10,   3)
03_F9_0B_F8         // (  3, 249,  11, 248)
FF_FC_FC_FC         // (255, 252, 252, 252)
0A_03_F2_F8         // ( 10,   3, 242, 248)
08_FF_04_F8         // (  8, 255,   4, 248)
00_02_05_F1         // (  0,   2,   5, 241)
FC_04_FF_FE         // (252,   4, 255, 254)
FA_FE_00_FA         // (250, 254,   0, 250)
F9_00_EC_F6         // (249,   0, 236, 246)
00_F5_FE_06         // (  0, 245, 254,   6)
F9_FF_F7_01         // (249, 255, 247,   1)
F3_EF_06_F9         // (243, 239,   6, 249)
05_F5_06_FC         // (  5, 245,   6, 252)
FA_F2_04_FA         // (250, 242,   4, 250)
F3_FB_FF_03         // (243, 251, 255,   3)
F3_F7_FE_08         // (243, 247, 254,   8)
FA_09_FA_03         // (250,   9, 250,   3)
FF_05_FB_FC         // (255,   5, 251, 252)
01_00_FD_FD         // (  1,   0, 253, 253)
02_03_FF_FE         // (  2,   3, 255, 254)
FF_FB_FF_FE         // (255, 251, 255, 254)
FD_FF_FF_FB         // (253, 255, 255, 251)
FE_FC_00_03         // (254, 252,   0,   3)
FD_F2_FE_FF         // (253, 242, 254, 255)
FC_07_04_FC         // (252,   7,   4, 252)
FC_02_06_FF         // (252,   2,   6, 255)
FE_04_06_FB         // (254,   4,   6, 251)
FF_02_06_03         // (255,   2,   6,   3)
FA_08_01_02         // (250,   8,   1,   2)
FC_FD_F9_FB         // (252, 253, 249, 251)
06_02_FE_01         // (  6,   2, 254,   1)
00_FE_FB_00         // (  0, 254, 251,   0)
00_07_F8_00         // (  0,   7, 248,   0)
04_00_FA_02         // (  4,   0, 250,   2)
FE_FF_F8_07         // (254, 255, 248,   7)
FB_00_02_01         // (251,   0,   2,   1)
00_02_05_01         // (  0,   2,   5,   1)
00_05_FC_04         // (  0,   5, 252,   4)
FF_FD_04_FB         // (255, 253,   4, 251)
02_FF_02_FA         // (  2, 255,   2, 250)
FE_05_02_00         // (254,   5,   2,   0)
FD_01_FD_01         // (253,   1, 253,   1)
00_FF_FF_07         // (  0, 255, 255,   7)
01_FE_04_08         // (  1, 254,   4,   8)
07_07_FD_FD         // (  7,   7, 253, 253)
04_01_FA_03         // (  4,   1, 250,   3)
01_05_01_FC         // (  1,   5,   1, 252)
02_05_FC_FD         // (  2,   5, 252, 253)
FD_00_FD_FD         // (253,   0, 253, 253)
FD_FE_02_02         // (253, 254,   2,   2)
01_FF_FD_FF         // (  1, 255, 253, 255)
01_02_FB_FB         // (  1,   2, 251, 251)
F9_FB_01_01         // (249, 251,   1,   1)
FE_F8_FE_FE         // (254, 248, 254, 254)
FD_FE_FE_01         // (253, 254, 254,   1)
02_04_FC_FF         // (  2,   4, 252, 255)
01_0A_01_FF         // (  1,  10,   1, 255)
FF_FD_04_02         // (255, 253,   4,   2)
FF_FF_02_FA         // (255, 255,   2, 250)
02_08_02_FF         // (  2,   8,   2, 255)
FF_03_05_00         // (255,   3,   5,   0)
01_FE_FF_FA         // (  1, 254, 255, 250)
FB_00_FD_FD         // (251,   0, 253, 253)
F7_FE_F6_FE         // (247, 254, 246, 254)
FB_FB_FF_FC         // (251, 251, 255, 252)
FC_FB_02_FE         // (252, 251,   2, 254)
FE_00_FD_03         // (254,   0, 253,   3)
FC_04_FC_F9         // (252,   4, 252, 249)
FC_02_FD_F7         // (252,   2, 253, 247)
FF_F8_F9_FB         // (255, 248, 249, 251)
FE_FF_FE_FF         // (254, 255, 254, 255)
FB_05_03_00         // (251,   5,   3,   0)
02_03_FD_FE         // (  2,   3, 253, 254)
FC_03_FD_FF         // (252,   3, 253, 255)
F6_FE_07_05         // (246, 254,   7,   5)
00_FC_F5_06         // (  0, 252, 245,   6)
00_07_F7_07         // (  0,   7, 247,   7)
FD_FA_07_0A         // (253, 250,   7,  10)
02_06_FB_03         // (  2,   6, 251,   3)
05_01_F9_07         // (  5,   1, 249,   7)
FD_04_00_00         // (253,   4,   0,   0)
02_FE_FD_06         // (  2, 254, 253,   6)
05_03_FE_00         // (  5,   3, 254,   0)
03_01_00_F7         // (  3,   1,   0, 247)
FE_FF_FE_FD         // (254, 255, 254, 253)
0A_FF_05_FB         // ( 10, 255,   5, 251)
03_0B_03_FD         // (  3,  11,   3, 253)
00_01_FE_02         // (  0,   1, 254,   2)
06_0A_FF_01         // (  6,  10, 255,   1)
00_08_FC_FE         // (  0,   8, 252, 254)
FB_03_09_FF         // (251,   3,   9, 255)
00_02_07_00         // (  0,   2,   7,   0)
01_02_01_01         // (  1,   2,   1,   1)
FB_05_01_00         // (251,   5,   1,   0)
0E_FC_06_FA         // ( 14, 252,   6, 250)
FF_FB_FD_FC         // (255, 251, 253, 252)
FF_FE_03_02         // (255, 254,   3,   2)
F9_FF_06_FD         // (249, 255,   6, 253)
00_00_FD_03         // (  0,   0, 253,   3)
02_00_FD_FF         // (  2,   0, 253, 255)
F9_04_FB_F7         // (249,   4, 251, 247)
FB_FF_FD_05         // (251, 255, 253,   5)
FB_03_FF_FF         // (251,   3, 255, 255)
02_07_FD_06         // (  2,   7, 253,   6)
00_00_03_03         // (  0,   0,   3,   3)
07_00_F8_00         // (  7,   0, 248,   0)
06_FF_FF_0F         // (  6, 255, 255,  15)
07_F9_FC_02         // (  7, 249, 252,   2)
01_F9_F8_04         // (  1, 249, 248,   4)
03_02_02_07         // (  3,   2,   2,   7)
00_FD_F9_F5         // (  0, 253, 249, 245)
FF_01_02_FC         // (255,   1,   2, 252)
FB_FF_02_00         // (251, 255,   2,   0)
08_FA_FB_F8         // (  8, 250, 251, 248)
02_FA_00_FD         // (  2, 250,   0, 253)
04_04_FA_FD         // (  4,   4, 250, 253)
FA_FF_0A_04         // (250, 255,  10,   4)
00_01_00_FE         // (  0,   1,   0, 254)
02_FD_01_FF         // (  2, 253,   1, 255)
00_04_00_09         // (  0,   4,   0,   9)
04_FF_FD_00         // (  4, 255, 253,   0)
01_01_02_07         // (  1,   1,   2,   7)
FB_01_01_00         // (251,   1,   1,   0)
F9_07_02_FD         // (249,   7,   2, 253)
F8_03_FD_02         // (248,   3, 253,   2)
FA_FD_FF_F8         // (250, 253, 255, 248)
03_02_FE_F9         // (  3,   2, 254, 249)
FF_03_FF_02         // (255,   3, 255,   2)
FD_00_FD_FD         // (253,   0, 253, 253)
FE_04_00_00         // (254,   4,   0,   0)
01_01_F7_06         // (  1,   1, 247,   6)
01_FB_05_FB         // (  1, 251,   5, 251)
FD_01_06_FE         // (253,   1,   6, 254)
03_FB_FC_01         // (  3, 251, 252,   1)
00_02_03_05         // (  0,   2,   3,   5)
FF_02_00_01         // (255,   2,   0,   1)
06_03_03_07         // (  6,   3,   3,   7)
05_05_03_01         // (  5,   5,   3,   1)
01_05_F8_02         // (  1,   5, 248,   2)
00_02_FE_04         // (  0,   2, 254,   4)
04_02_FC_06         // (  4,   2, 252,   6)
FF_04_F8_05         // (255,   4, 248,   5)
01_03_FF_FF         // (  1,   3, 255, 255)
03_FC_01_07         // (  3, 252,   1,   7)
00_FF_00_FF         // (  0, 255,   0, 255)
02_FB_00_02         // (  2, 251,   0,   2)
06_01_00_05         // (  6,   1,   0,   5)
FB_FF_01_F9         // (251, 255,   1, 249)
01_F9_F6_FF         // (  1, 249, 246, 255)
FF_05_FB_03         // (255,   5, 251,   3)
05_FD_FE_FD         // (  5, 253, 254, 253)
06_FC_FD_03         // (  6, 252, 253,   3)
01_00_F9_05         // (  1,   0, 249,   5)
02_02_03_FF         // (  2,   2,   3, 255)
FC_02_07_FE         // (252,   2,   7, 254)
FE_F7_FF_03         // (254, 247, 255,   3)
FF_FD_02_04         // (255, 253,   2,   4)
03_00_03_03         // (  3,   0,   3,   3)
FE_F7_FE_00         // (254, 247, 254,   0)
FF_FB_03_06         // (255, 251,   3,   6)
03_02_FF_06         // (  3,   2, 255,   6)
FD_01_00_02         // (253,   1,   0,   2)
04_F8_FC_01         // (  4, 248, 252,   1)
0B_02_07_00         // ( 11,   2,   7,   0)
FE_09_FF_09         // (254,   9, 255,   9)
03_F6_0A_FC         // (  3, 246,  10, 252)
FB_02_FC_FE         // (251,   2, 252, 254)
06_FA_F9_FF         // (  6, 250, 249, 255)
0D_FB_FD_0C         // ( 13, 251, 253,  12)
00_F4_F5_F9         // (  0, 244, 245, 249)
F0_0B_F1_07         // (240,  11, 241,   7)
F4_03_FA_07         // (244,   3, 250,   7)
F6_02_E8_F2         // (246,   2, 232, 242)
F6_FE_EF_06         // (246, 254, 239,   6)
F9_05_F5_05         // (249,   5, 245,   5)
02_F2_EF_FD         // (  2, 242, 239, 253)
EB_0C_F4_09         // (235,  12, 244,   9)
FF_00_F4_FA         // (255,   0, 244, 250)
FD_E9_ED_FD         // (253, 233, 237, 253)
0A_F8_F6_FF         // ( 10, 248, 246, 255)
FC_F2_F4_00         // (252, 242, 244,   0)
FE_F8_F6_04         // (254, 248, 246,   4)
0E_05_F8_0B         // ( 14,   5, 248,  11)
02_00_F8_0B         // (  2,   0, 248,  11)
F6_F8_06_FD         // (246, 248,   6, 253)
0C_FE_F3_0A         // ( 12, 254, 243,  10)
FD_FE_FB_0C         // (253, 254, 251,  12)
0B_03_03_FE         // ( 11,   3,   3, 254)
F7_09_FE_FD         // (247,   9, 254, 253)
02_FB_05_FC         // (  2, 251,   5, 252)
F8_FF_0C_FD         // (248, 255,  12, 253)
F5_02_02_FE         // (245,   2,   2, 254)
FF_FE_FD_04         // (255, 254, 253,   4)
04_FE_07_FE         // (  4, 254,   7, 254)
00_FC_FA_07         // (  0, 252, 250,   7)
08_02_F9_FF         // (  8,   2, 249, 255)
FD_F8_FB_F5         // (253, 248, 251, 245)
F3_FF_05_FB         // (243, 255,   5, 251)
EE_04_FB_00         // (238,   4, 251,   0)
FD_00_FA_FF         // (253,   0, 250, 255)
04_10_01_FC         // (  4,  16,   1, 252)
02_0A_FF_02         // (  2,  10, 255,   2)
FC_05_F9_FD         // (252,   5, 249, 253)
F9_FF_12_F8         // (249, 255,  18, 248)
F6_02_0A_FF         // (246,   2,  10, 255)
FD_0E_F5_02         // (253,  14, 245,   2)
0B_FC_09_F8         // ( 11, 252,   9, 248)
06_FB_05_F8         // (  6, 251,   5, 248)
08_03_00_FD         // (  8,   3,   0, 253)
FA_EE_0F_0B         // (250, 238,  15,  11)
05_02_F9_F9         // (  5,   2, 249, 249)
F1_09_FC_03         // (241,   9, 252,   3)
FF_F7_05_F6         // (255, 247,   5, 246)
11_09_02_FA         // ( 17,   9,   2, 250)
07_F9_08_00         // (  7, 249,   8,   0)
F7_05_0E_01         // (247,   5,  14,   1)
F1_FB_11_FE         // (241, 251,  17, 254)
F0_FF_FC_FF         // (240, 255, 252, 255)
EE_02_FF_00         // (238,   2, 255,   0)
EB_FA_07_FB         // (235, 250,   7, 251)
ED_03_06_07         // (237,   3,   6,   7)
F3_FE_F6_05         // (243, 254, 246,   5)
ED_FB_FF_02         // (237, 251, 255,   2)
F7_F3_FE_FC         // (247, 243, 254, 252)
F5_0D_04_FB         // (245,  13,   4, 251)
F5_09_00_FB         // (245,   9,   0, 251)
FE_07_0E_02         // (254,   7,  14,   2)
06_07_FD_F9         // (  6,   7, 253, 249)
FD_08_FC_FD         // (253,   8, 252, 253)
01_09_FD_0C         // (  1,   9, 253,  12)
00_00_F9_F1         // (  0,   0, 249, 241)
F5_04_F5_F7         // (245,   4, 245, 247)
F2_08_FB_01         // (242,   8, 251,   1)
F8_0B_FD_01         // (248,  11, 253,   1)
FC_01_04_F7         // (252,   1,   4, 247)
FB_01_FC_0F         // (251,   1, 252,  15)
FC_02_01_02         // (252,   2,   1,   2)
F5_FF_08_F9         // (245, 255,   8, 249)
F7_FF_ED_08         // (247, 255, 237,   8)
F1_0C_00_05         // (241,  12,   0,   5)
F4_07_FF_00         // (244,   7, 255,   0)
EC_06_11_09         // (236,   6,  17,   9)
FC_FC_0C_0B         // (252, 252,  12,  11)
03_FE_11_07         // (  3, 254,  17,   7)
F5_FF_13_FC         // (245, 255,  19, 252)
F9_03_FD_11         // (249,   3, 253,  17)
FE_08_13_FC         // (254,   8,  19, 252)
F3_FC_04_FE         // (243, 252,   4, 254)
FF_F7_F2_1C         // (255, 247, 242,  28)
00_F6_05_08         // (  0, 246,   5,   8)
FC_FD_15_00         // (252, 253,  21,   0)
FC_04_07_00         // (252,   4,   7,   0)
F9_00_F8_F4         // (249,   0, 248, 244)
05_07_FA_F9         // (  5,   7, 250, 249)
02_F7_00_02         // (  2, 247,   0,   2)
0C_F2_FF_05         // ( 12, 242, 255,   5)
0A_FE_FE_F5         // ( 10, 254, 254, 245)
04_FD_0B_FD         // (  4, 253,  11, 253)
FE_00_07_00         // (254,   0,   7,   0)
02_02_FD_F1         // (  2,   2, 253, 241)
FF_0D_03_F7         // (255,  13,   3, 247)
FA_0A_03_04         // (250,  10,   3,   4)
F7_03_05_02         // (247,   3,   5,   2)
FE_FD_EC_F5         // (254, 253, 236, 245)
04_00_08_04         // (  4,   0,   8,   4)
F6_F5_07_FC         // (246, 245,   7, 252)
F8_FA_0B_FE         // (248, 250,  11, 254)
EE_09_12_07         // (238,   9,  18,   7)
FA_05_12_05         // (250,   5,  18,   5)
0D_09_03_F6         // ( 13,   9,   3, 246)
FB_06_02_F8         // (251,   6,   2, 248)
FD_FB_0D_F1         // (253, 251,  13, 241)
06_FC_FC_FD         // (  6, 252, 252, 253)
07_02_FC_09         // (  7,   2, 252,   9)
FF_F7_10_0A         // (255, 247,  16,  10)
12_01_02_F7         // ( 18,   1,   2, 247)
02_02_00_FF         // (  2,   2,   0, 255)
F7_11_09_FC         // (247,  17,   9, 252)
FE_F9_FE_06         // (254, 249, 254,   6)
FC_09_03_03         // (252,   9,   3,   3)
FB_05_FB_06         // (251,   5, 251,   6)
00_FA_07_01         // (  0, 250,   7,   1)
03_07_FD_FD         // (  3,   7, 253, 253)
0F_02_FE_09         // ( 15,   2, 254,   9)
FF_06_FA_0B         // (255,   6, 250,  11)
03_06_FB_05         // (  3,   6, 251,   5)
06_0C_00_03         // (  6,  12,   0,   3)
0C_06_FF_FE         // ( 12,   6, 255, 254)
0E_FE_05_F1         // ( 14, 254,   5, 241)
F9_02_FF_FC         // (249,   2, 255, 252)
06_F6_FD_04         // (  6, 246, 253,   4)
FA_FF_F9_FC         // (250, 255, 249, 252)
03_03_FD_07         // (  3,   3, 253,   7)
05_07_F4_00         // (  5,   7, 244,   0)
05_01_F9_F0         // (  5,   1, 249, 240)
FA_00_F8_F6         // (250,   0, 248, 246)
05_FF_01_05         // (  5, 255,   1,   5)
F9_FB_08_FD         // (249, 251,   8, 253)
FC_00_09_F5         // (252,   0,   9, 245)
FB_0A_01_0A         // (251,  10,   1,  10)
FD_00_FC_F8         // (253,   0, 252, 248)
09_04_01_03         // (  9,   4,   1,   3)
FC_03_00_14         // (252,   3,   0,  20)
FF_05_08_FD         // (255,   5,   8, 253)
FC_04_01_0C         // (252,   4,   1,  12)
FF_12_03_DC         // (255,  18,   3, 220)
F8_EA_01_08         // (248, 234,   1,   8)
19_FD_FB_08         // ( 25, 253, 251,   8)
E1_FD_FF_09         // (225, 253, 255,   9)
0C_2E_15_04         // ( 12,  46,  21,   4)
FF_E4_FC_0B         // (255, 228, 252,  11)
E2_EA_13_09         // (226, 234,  19,   9)
DD_2B_09_F5         // (221,  43,   9, 245)
DD_F7_F6_ED         // (221, 247, 246, 237)
F3_E0_F7_15         // (243, 224, 247,  21)
EF_03_09_FD         // (239,   3,   9, 253)
02_19_09_0D         // (  2,  25,   9,  13)
DF_F2_02_F1         // (223, 242,   2, 241)
F2_0F_F6_F5         // (242,  15, 246, 245)
06_10_12_0B         // (  6,  16,  18,  11)
FA_D4_09_F4         // (250, 212,   9, 244)
06_11_0E_0F         // (  6,  17,  14,  15)
FD_FD_0D_15         // (253, 253,  13,  21)
15_FC_F0_F7         // ( 21, 252, 240, 247)
E8_FB_F5_EC         // (232, 251, 245, 236)
F7_1C_07_08         // (247,  28,   7,   8)
0D_08_F7_15         // ( 13,   8, 247,  21)
10_DA_01_EE         // ( 16, 218,   1, 238)
08_03_FA_DC         // (  8,   3, 250, 220)
0C_12_00_03         // ( 12,  18,   0,   3)
08_10_E4_E7         // (  8,  16, 228, 231)
F9_14_C4_D8         // (249,  20, 196, 216)
27_04_0B_04         // ( 39,   4,  11,   4)
FF_E7_1B_FB         // (255, 231,  27, 251)
06_15_02_EA         // (  6,  21,   2, 234)
0B_1A_26_FE         // ( 11,  26,  38, 254)
F0_F1_0F_03         // (240, 241,  15,   3)
07_F6_FA_F6         // (  7, 246, 250, 246)
15_06_33_F6         // ( 21,   6,  51, 246)
12_15_14_F5         // ( 18,  21,  20, 245)
2B_EF_1D_F3         // ( 43, 239,  29, 243)
0A_00_FA_D4         // ( 10,   0, 250, 212)
0D_18_08_F9         // ( 13,  24,   8, 249)
FE_0A_19_EB         // (254,  10,  25, 235)
F5_FA_F4_EB         // (245, 250, 244, 235)
14_E8_EE_07         // ( 20, 232, 238,   7)
E1_07_FF_06         // (225,   7, 255,   6)
0F_0D_01_FE         // ( 15,  13,   1, 254)
FC_D9_FA_CF         // (252, 217, 250, 207)
FD_05_FC_DA         // (253,   5, 252, 218)
E2_07_CB_01         // (226,   7, 203,   1)
F7_FE_F2_FE         // (247, 254, 242, 254)
FD_EE_07_F4         // (253, 238,   7, 244)
03_FC_ED_FB         // (  3, 252, 237, 251)
06_01_D8_0A         // (  6,   1, 216,  10)
24_FD_F0_FC         // ( 36, 253, 240, 252)
F9_07_E8_07         // (249,   7, 232,   7)
FE_F0_C9_FA         // (254, 240, 201, 250)
11_08_B7_FC         // ( 17,   8, 183, 252)
0A_C9_F9_22         // ( 10, 201, 249,  34)
FE_DF_00_2F         // (254, 223,   0,  47)
21_F5_EE_FB         // ( 33, 245, 238, 251)
0A_F7_EB_F4         // ( 10, 247, 235, 244)
08_F8_F1_05         // (  8, 248, 241,   5)
F0_FB_10_E3         // (240, 251,  16, 227)
FC_06_07_EC         // (252,   6,   7, 236)
07_0A_E2_EF         // (  7,  10, 226, 239)
03_11_E5_D6         // (  3,  17, 229, 214)
19_D9_EC_20         // ( 25, 217, 236,  32)
05_0E_F8_FB         // (  5,  14, 248, 251)
0E_F6_13_EF         // ( 14, 246,  19, 239)
F7_F1_0B_00         // (247, 241,  11,   0)
FA_F8_F5_1B         // (250, 248, 245,  27)
05_11_0A_F9         // (  5,  17,  10, 249)
F7_FC_0E_07         // (247, 252,  14,   7)
08_F2_09_14         // (  8, 242,   9,  20)
DD_FB_08_FC         // (221, 251,   8, 252)
05_EC_F1_0C         // (  5, 236, 241,  12)
FD_13_E2_EF         // (253,  19, 226, 239)
19_08_06_04         // ( 25,   8,   6,   4)
0C_F7_0F_F6         // ( 12, 247,  15, 246)
05_04_F3_F7         // (  5,   4, 243, 247)
0B_03_E2_E5         // ( 11,   3, 226, 229)
F9_E9_10_06         // (249, 233,  16,   6)
FF_08_FE_FA         // (255,   8, 254, 250)
0F_0B_FC_F7         // ( 15,  11, 252, 247)
1E_E2_D1_FB         // ( 30, 226, 209, 251)
F8_E6_EC_16         // (248, 230, 236,  22)
F9_21_E8_08         // (249,  33, 232,   8)
2E_DF_06_F4         // ( 46, 223,   6, 244)
19_E6_F1_FF         // ( 25, 230, 241, 255)
01_0C_D4_FB         // (  1,  12, 212, 251)
1C_FF_08_F0         // ( 28, 255,   8, 240)
0D_EC_F9_F7         // ( 13, 236, 249, 247)
00_00_FE_EA         // (  0,   0, 254, 234)
15_C6_12_E5         // ( 21, 198,  18, 229)
08_0E_07_E5         // (  8,  14,   7, 229)
0D_07_13_EE         // ( 13,   7,  19, 238)
07_F7_08_00         // (  7, 247,   8,   0)
F5_10_FE_0D         // (245,  16, 254,  13)
FD_FB_FC_00         // (253, 251, 252,   0)
09_E9_12_18         // (  9, 233,  18,  24)
02_FE_06_1E         // (  2, 254,   6,  30)
F3_0F_01_31         // (243,  15,   1,  49)
27_0C_F3_F0         // ( 39,  12, 243, 240)
31_12_F6_D5         // ( 49,  18, 246, 213)
14_15_E8_E8         // ( 20,  21, 232, 232)
FA_01_F2_0E         // (250,   1, 242,  14)
FB_1E_F2_0D         // (251,  30, 242,  13)
FE_FA_F3_11         // (254, 250, 243,  17)
24_ED_F1_F9         // ( 36, 237, 241, 249)
FF_09_EB_F6         // (255,   9, 235, 246)
EE_11_D9_FF         // (238,  17, 217, 255)
D1_26_07_33         // (209,  38,   7,  51)
0E_1F_0D_12         // ( 14,  31,  13,  18)
22_04_0C_34         // ( 34,   4,  12,  52)
D4_02_E4_1D         // (212,   2, 228,  29)
E8_F0_FF_02         // (232, 240, 255,   2)
0F_08_EE_15         // ( 15,   8, 238,  21)
D7_14_0F_0E         // (215,  20,  15,  14)
EE_00_0E_15         // (238,   0,  14,  21)
F0_19_D2_17         // (240,  25, 210,  23)
13_E7_DD_F1         // ( 19, 231, 221, 241)
01_07_0C_07         // (  1,   7,  12,   7)
00_E9_1D_F3         // (  0, 233,  29, 243)
10_F3_D9_0B         // ( 16, 243, 217,  11)
EF_14_0C_0D         // (239,  20,  12,  13)
FA_1F_1D_FB         // (250,  31,  29, 251)
F1_ED_E4_EE         // (241, 237, 228, 238)
02_F1_06_0D         // (  2, 241,   6,  13)
06_00_0F_E2         // (  6,   0,  15, 226)
FE_0D_D8_00         // (254,  13, 216,   0)
F3_F7_E3_F5         // (243, 247, 227, 245)
04_12_F3_EC         // (  4,  18, 243, 236)
06_09_FB_05         // (  6,   9, 251,   5)
F9_F9_D9_08         // (249, 249, 217,   8)
01_11_08_11         // (  1,  17,   8,  17)
FA_02_FE_F4         // (250,   2, 254, 244)
0D_18_0A_EC         // ( 13,  24,  10, 236)
08_DC_F0_D6         // (  8, 220, 240, 214)
FA_09_D4_F7         // (250,   9, 212, 247)
F9_09_E8_0F         // (249,   9, 232,  15)
0B_05_19_1F         // ( 11,   5,  25,  31)
04_09_E7_F8         // (  4,   9, 231, 248)
01_01_E8_0D         // (  1,   1, 232,  13)
05_F5_FD_22         // (  5, 245, 253,  34)
F1_F4_0C_03         // (241, 244,  12,   3)
ED_04_E3_20         // (237,   4, 227,  32)
E2_18_00_13         // (226,  24,   0,  19)
FC_0B_F9_02         // (252,  11, 249,   2)
01_FC_05_08         // (  1, 252,   5,   8)
FE_09_01_01         // (254,   9,   1,   1)
FD_0E_02_00         // (253,  14,   2,   0)
F6_FC_FF_04         // (246, 252, 255,   4)
F7_FB_06_03         // (247, 251,   6,   3)
FF_10_FF_01         // (255,  16, 255,   1)
F7_06_00_00         // (247,   6,   0,   0)
FA_00_07_F8         // (250,   0,   7, 248)
FC_FC_F8_F2         // (252, 252, 248, 242)
0F_03_09_04         // ( 15,   3,   9,   4)
04_FE_FA_00         // (  4, 254, 250,   0)
FF_00_01_F3         // (255,   0,   1, 243)
E9_F9_02_F9         // (233, 249,   2, 249)
FB_F9_07_00         // (251, 249,   7,   0)
00_F5_FF_FE         // (  0, 245, 255, 254)
04_FF_00_FB         // (  4, 255,   0, 251)
F5_F7_FE_09         // (245, 247, 254,   9)
F7_FE_F9_02         // (247, 254, 249,   2)
FE_FF_03_01         // (254, 255,   3,   1)
01_FB_FB_FD         // (  1, 251, 251, 253)
F9_02_F6_08         // (249,   2, 246,   8)
05_01_0C_11         // (  5,   1,  12,  17)
FA_FD_01_09         // (250, 253,   1,   9)
02_0E_F7_09         // (  2,  14, 247,   9)
03_01_FE_14         // (  3,   1, 254,  20)
01_0E_F7_FD         // (  1,  14, 247, 253)
03_FE_F7_02         // (  3, 254, 247,   2)
F4_F3_FA_00         // (244, 243, 250,   0)
FF_FC_04_00         // (255, 252,   4,   0)
FD_FE_FC_FD         // (253, 254, 252, 253)
0A_F9_FF_01         // ( 10, 249, 255,   1)
FB_FE_02_FE         // (251, 254,   2, 254)
FF_00_FD_FA         // (255,   0, 253, 250)
FA_FB_F8_05         // (250, 251, 248,   5)
FE_07_F5_F9         // (254,   7, 245, 249)
F8_04_FC_08         // (248,   4, 252,   8)
0A_04_FD_03         // ( 10,   4, 253,   3)
03_00_FE_03         // (  3,   0, 254,   3)
FA_FD_FD_04         // (250, 253, 253,   4)
08_FF_F5_02         // (  8, 255, 245,   2)
FE_F9_F8_01         // (254, 249, 248,   1)
01_F8_00_FE         // (  1, 248,   0, 254)
07_F9_02_03         // (  7, 249,   2,   3)
08_FA_F0_04         // (  8, 250, 240,   4)
FE_FF_F9_01         // (254, 255, 249,   1)
F4_0A_F4_F5         // (244,  10, 244, 245)
FD_F7_F9_01         // (253, 247, 249,   1)
FA_FE_FD_04         // (250, 254, 253,   4)
F7_03_02_F6         // (247,   3,   2, 246)
01_0B_F9_03         // (  1,  11, 249,   3)
FA_02_FD_01         // (250,   2, 253,   1)
F3_04_F4_FA         // (243,   4, 244, 250)
06_FE_F0_04         // (  6, 254, 240,   4)
F7_FD_02_03         // (247, 253,   2,   3)
FE_FE_01_FE         // (254, 254,   1, 254)
04_FA_F7_F9         // (  4, 250, 247, 249)
FF_F5_FB_03         // (255, 245, 251,   3)
F9_F6_FF_02         // (249, 246, 255,   2)
F7_03_02_FB         // (247,   3,   2, 251)
0C_FB_F7_FF         // ( 12, 251, 247, 255)
00_01_F7_F6         // (  0,   1, 247, 246)
F9_EE_F6_F8         // (249, 238, 246, 248)
FA_07_04_FB         // (250,   7,   4, 251)
F9_05_01_10         // (249,   5,   1,  16)
FA_04_06_F8         // (250,   4,   6, 248)
F4_FC_07_05         // (244, 252,   7,   5)
FA_FF_F9_11         // (250, 255, 249,  17)
FB_FD_07_FB         // (251, 253,   7, 251)
F4_FF_03_F5         // (244, 255,   3, 245)
FC_FC_FF_00         // (252, 252, 255,   0)
06_05_FF_F4         // (  6,   5, 255, 244)
FF_FA_FB_06         // (255, 250, 251,   6)
FF_FB_FE_07         // (255, 251, 254,   7)
F9_FB_FE_0B         // (249, 251, 254,  11)
00_FC_04_02         // (  0, 252,   4,   2)
01_FF_07_FF         // (  1, 255,   7, 255)
FC_03_0A_13         // (252,   3,  10,  19)
FE_07_FF_FC         // (254,   7, 255, 252)
01_00_FD_05         // (  1,   0, 253,   5)
FF_F9_0A_08         // (255, 249,  10,   8)
06_08_00_FF         // (  6,   8,   0, 255)
02_FB_02_02         // (  2, 251,   2,   2)
FA_F1_09_FE         // (250, 241,   9, 254)
08_0D_0A_01         // (  8,  13,  10,   1)
08_08_FD_F7         // (  8,   8, 253, 247)
F8_08_01_F6         // (248,   8,   1, 246)
04_F5_FD_04         // (  4, 245, 253,   4)
18_FE_09_07         // ( 24, 254,   9,   7)
02_08_FA_01         // (  2,   8, 250,   1)
FB_FC_FC_FD         // (251, 252, 252, 253)
10_00_03_FE         // ( 16,   0,   3, 254)
FD_FD_04_FC         // (253, 253,   4, 252)
FE_F9_01_FE         // (254, 249,   1, 254)
FC_03_06_04         // (252,   3,   6,   4)
FD_03_FE_04         // (253,   3, 254,   4)
FD_F7_05_00         // (253, 247,   5,   0)
F6_F5_FF_FB         // (246, 245, 255, 251)
F6_07_02_09         // (246,   7,   2,   9)
0C_F3_F9_FB         // ( 12, 243, 249, 251)
FD_F7_FB_FB         // (253, 247, 251, 251)
FB_FB_FF_04         // (251, 251, 255,   4)
04_F6_FF_02         // (  4, 246, 255,   2)
0D_FF_00_FB         // ( 13, 255,   0, 251)
F3_05_F9_F9         // (243,   5, 249, 249)
08_FA_FF_07         // (  8, 250, 255,   7)
02_00_02_02         // (  2,   0,   2,   2)
F9_01_FB_FD         // (249,   1, 251, 253)
02_F7_FF_0D         // (  2, 247, 255,  13)
09_01_0D_F8         // (  9,   1,  13, 248)
02_F8_03_08         // (  2, 248,   3,   8)
03_FD_0A_FC         // (  3, 253,  10, 252)
F7_09_0C_FF         // (247,   9,  12, 255)
05_FF_01_FA         // (  5, 255,   1, 250)
F6_FA_FF_01         // (246, 250, 255,   1)
01_01_0B_03         // (  1,   1,  11,   3)
F7_FA_05_06         // (247, 250,   5,   6)
FB_FD_FB_FC         // (251, 253, 251, 252)
F8_04_0A_03         // (248,   4,  10,   3)
F4_0A_FF_F2         // (244,  10, 255, 242)
FC_FF_F6_FE         // (252, 255, 246, 254)
0A_FA_05_FC         // ( 10, 250,   5, 252)
FC_09_FF_F9         // (252,   9, 255, 249)
F8_FA_FC_07         // (248, 250, 252,   7)
02_F8_03_06         // (  2, 248,   3,   6)
F4_00_F5_F5         // (244,   0, 245, 245)
05_04_FB_00         // (  5,   4, 251,   0)
F1_04_09_F7         // (241,   4,   9, 247)
06_07_01_FB         // (  6,   7,   1, 251)
00_F5_07_05         // (  0, 245,   7,   5)
07_07_03_F8         // (  7,   7,   3, 248)
03_FE_FE_FC         // (  3, 254, 254, 252)
03_01_01_01         // (  3,   1,   1,   1)
00_00_FA_05         // (  0,   0, 250,   5)
FF_F8_F3_05         // (255, 248, 243,   5)
07_02_00_F5         // (  7,   2,   0, 245)
0E_0B_09_00         // ( 14,  11,   9,   0)
03_FF_F9_F8         // (  3, 255, 249, 248)
07_FD_FC_02         // (  7, 253, 252,   2)
09_FB_08_05         // (  9, 251,   8,   5)
01_FA_00_FA         // (  1, 250,   0, 250)
03_FA_F8_02         // (  3, 250, 248,   2)
F6_FE_02_FF         // (246, 254,   2, 255)
0D_FD_F7_FB         // ( 13, 253, 247, 251)
11_F1_0C_04         // ( 17, 241,  12,   4)
FE_FF_0F_FE         // (254, 255,  15, 254)
F5_F4_FD_05         // (245, 244, 253,   5)
03_F7_05_FB         // (  3, 247,   5, 251)
F8_FA_05_06         // (248, 250,   5,   6)
0B_08_00_02         // ( 11,   8,   0,   2)
14_E6_05_FA         // ( 20, 230,   5, 250)
FA_FF_05_00         // (250, 255,   5,   0)
00_FC_EF_F3         // (  0, 252, 239, 243)
F5_FA_F2_04         // (245, 250, 242,   4)
F5_06_F6_F6         // (245,   6, 246, 246)
F8_13_EB_EE         // (248,  19, 235, 238)
01_FC_F8_FE         // (  1, 252, 248, 254)
05_0A_FC_F8         // (  5,  10, 252, 248)
01_FB_09_FA         // (  1, 251,   9, 250)
FD_FD_E1_FC         // (253, 253, 225, 252)
0E_01_ED_EB         // ( 14,   1, 237, 235)
0C_01_E9_F4         // ( 12,   1, 233, 244)
FF_CD_F7_FF         // (255, 205, 247, 255)
FF_E2_F8_00         // (255, 226, 248,   0)
FA_E7_F8_04         // (250, 231, 248,   4)
13_F3_F3_F5         // ( 19, 243, 243, 245)
F4_F5_F0_F4         // (244, 245, 240, 244)
01_F7_FB_F6         // (  1, 247, 251, 246)
0A_F7_FA_F5         // ( 10, 247, 250, 245)
0C_FD_F9_07         // ( 12, 253, 249,   7)
F6_EF_03_0B         // (246, 239,   3,  11)
FE_F9_12_FE         // (254, 249,  18, 254)
06_F5_06_08         // (  6, 245,   6,   8)
04_07_0C_F0         // (  4,   7,  12, 240)
F3_F5_0A_F5         // (243, 245,  10, 245)
FC_FE_F6_F7         // (252, 254, 246, 247)
02_01_07_07         // (  2,   1,   7,   7)
EC_EC_F8_FD         // (236, 236, 248, 253)
FB_FE_F3_0A         // (251, 254, 243,  10)
03_FA_0D_FE         // (  3, 250,  13, 254)
F7_07_FD_06         // (247,   7, 253,   6)
02_04_03_0E         // (  2,   4,   3,  14)
05_04_F9_01         // (  5,   4, 249,   1)
00_07_05_ED         // (  0,   7,   5, 237)
06_F6_FC_FC         // (  6, 246, 252, 252)
00_09_08_08         // (  0,   9,   8,   8)
10_04_15_F7         // ( 16,   4,  21, 247)
07_01_03_0A         // (  7,   1,   3,  10)
00_FD_01_F8         // (  0, 253,   1, 248)
F0_04_00_E0         // (240,   4,   0, 224)
02_12_03_F6         // (  2,  18,   3, 246)
F3_14_FC_FB         // (243,  20, 252, 251)
E2_09_F6_FB         // (226,   9, 246, 251)
FC_12_09_0A         // (252,  18,   9,  10)
FA_13_01_0E         // (250,  19,   1,  14)
EE_FF_F7_EA         // (238, 255, 247, 234)
03_0D_FE_0D         // (  3,  13, 254,  13)
03_0E_FB_0A         // (  3,  14, 251,  10)
F6_0D_03_00         // (246,  13,   3,   0)
FD_FA_02_F1         // (253, 250,   2, 241)
03_F4_0E_FE         // (  3, 244,  14, 254)
0B_03_F7_00         // ( 11,   3, 247,   0)
04_FA_FF_00         // (  4, 250, 255,   0)
E8_F3_11_F9         // (232, 243,  17, 249)
F1_03_08_0C         // (241,   3,   8,  12)
FF_09_01_01         // (255,   9,   1,   1)
F9_08_F9_04         // (249,   8, 249,   4)
F3_0D_0E_03         // (243,  13,  14,   3)
EA_03_FE_10         // (234,   3, 254,  16)
FA_08_0B_01         // (250,   8,  11,   1)
E6_FA_02_F8         // (230, 250,   2, 248)
E6_00_F5_11         // (230,   0, 245,  17)
E5_06_04_0C         // (229,   6,   4,  12)
F1_F5_04_F6         // (241, 245,   4, 246)
EF_08_FE_F9         // (239,   8, 254, 249)
F7_FD_0B_05         // (247, 253,  11,   5)
F3_09_F6_FF         // (243,   9, 246, 255)
03_00_06_FB         // (  3,   0,   6, 251)
F3_11_FA_08         // (243,  17, 250,   8)
EE_04_F0_05         // (238,   4, 240,   5)
06_02_04_FA         // (  6,   2,   4, 250)
03_12_09_07         // (  3,  18,   9,   7)
C6_12_F4_03         // (198,  18, 244,   3)
E1_FD_F1_08         // (225, 253, 241,   8)
E2_0B_00_06         // (226,  11,   0,   6)
EE_00_02_EE         // (238,   0,   2, 238)
00_FF_FA_FA         // (  0, 255, 250, 250)
FA_FB_FC_07         // (250, 251, 252,   7)
F6_F5_FA_05         // (246, 245, 250,   5)
07_04_E9_05         // (  7,   4, 233,   5)
FD_FD_F4_FC         // (253, 253, 244, 252)
F0_FE_EE_F9         // (240, 254, 238, 249)
02_FA_EF_0A         // (  2, 250, 239,  10)
03_06_00_F0         // (  3,   6,   0, 240)
11_F5_F4_F7         // ( 17, 245, 244, 247)
05_01_09_F6         // (  5,   1,   9, 246)
06_12_03_EC         // (  6,  18,   3, 236)
0F_FA_F5_ED         // ( 15, 250, 245, 237)
05_05_03_EC         // (  5,   5,   3, 236)
FE_FD_06_FA         // (254, 253,   6, 250)
FF_FC_F8_EF         // (255, 252, 248, 239)
05_F6_FE_FE         // (  5, 246, 254, 254)
FC_11_FE_FC         // (252,  17, 254, 252)
01_0E_04_21         // (  1,  14,   4,  33)
F1_FF_00_F7         // (241, 255,   0, 247)
E6_0A_00_FF         // (230,  10,   0, 255)
04_F0_F1_06         // (  4, 240, 241,   6)
05_FE_F9_F8         // (  5, 254, 249, 248)
12_01_00_0F         // ( 18,   1,   0,  15)
0A_FF_09_05         // ( 10, 255,   9,   5)
FF_04_F9_04         // (255,   4, 249,   4)
F2_0A_F8_0D         // (242,  10, 248,  13)
08_F1_0C_E5         // (  8, 241,  12, 229)
FD_FA_01_00         // (253, 250,   1,   0)
F8_F4_0D_FB         // (248, 244,  13, 251)
0F_F0_06_FA         // ( 15, 240,   6, 250)
FA_FC_01_06         // (250, 252,   1,   6)
FF_F4_09_05         // (255, 244,   9,   5)
0F_05_01_05         // ( 15,   5,   1,   5)
03_FF_05_07         // (  3, 255,   5,   7)
FA_02_0D_04         // (250,   2,  13,   4)
10_FF_F5_01         // ( 16, 255, 245,   1)
09_F9_FF_04         // (  9, 249, 255,   4)
00_01_10_03         // (  0,   1,  16,   3)
0F_EE_F0_F5         // ( 15, 238, 240, 245)
F9_ED_F6_FC         // (249, 237, 246, 252)
F6_0C_F6_05         // (246,  12, 246,   5)
10_F0_FC_00         // ( 16, 240, 252,   0)
FF_F4_F5_05         // (255, 244, 245,   5)
08_0B_F6_FF         // (  8,  11, 246, 255)
05_16_FA_B9         // (  5,  22, 250, 185)
FA_F3_F3_EF         // (250, 243, 243, 239)
F4_08_06_F0         // (244,   8,   6, 240)
06_09_10_E1         // (  6,   9,  16, 225)
F9_F8_02_02         // (249, 248,   2,   2)
F6_FE_06_FB         // (246, 254,   6, 251)
05_21_07_CE         // (  5,  33,   7, 206)
FD_F5_F3_EF         // (253, 245, 243, 239)
EE_FE_FC_F2         // (238, 254, 252, 242)
FF_F9_0C_04         // (255, 249,  12,   4)
0D_FF_FA_F7         // ( 13, 255, 250, 247)
02_F9_EE_F7         // (  2, 249, 238, 247)
F3_02_FE_0E         // (243,   2, 254,  14)
FF_04_0A_FA         // (255,   4,  10, 250)
FC_07_07_FC         // (252,   7,   7, 252)
1B_FC_F4_11         // ( 27, 252, 244,  17)
12_00_02_FC         // ( 18,   0,   2, 252)
FC_FD_F6_FF         // (252, 253, 246, 255)
FB_F3_FF_FB         // (251, 243, 255, 251)
07_FD_FC_FA         // (  7, 253, 252, 250)
F9_04_FF_FF         // (249,   4, 255, 255)
FD_FE_01_00         // (253, 254,   1,   0)
08_FE_04_F9         // (  8, 254,   4, 249)
00_00_FF_F8         // (  0,   0, 255, 248)
FE_05_02_01         // (254,   5,   2,   1)
08_F8_00_02         // (  8, 248,   0,   2)
FC_02_03_00         // (252,   2,   3,   0)
00_01_FF_FD         // (  0,   1, 255, 253)
F8_03_03_00         // (248,   3,   3,   0)
00_FE_01_00         // (  0, 254,   1,   0)
FD_05_06_04         // (253,   5,   6,   4)
04_04_FD_03         // (  4,   4, 253,   3)
00_01_00_FD         // (  0,   1,   0, 253)
FC_00_00_FC         // (252,   0,   0, 252)
0B_FA_FB_F7         // ( 11, 250, 251, 247)
03_FE_05_FC         // (  3, 254,   5, 252)
FB_FE_05_00         // (251, 254,   5,   0)
04_F8_F8_F6         // (  4, 248, 248, 246)
02_FA_03_04         // (  2, 250,   3,   4)
01_05_00_09         // (  1,   5,   0,   9)
09_03_F6_05         // (  9,   3, 246,   5)
07_01_FC_FB         // (  7,   1, 252, 251)
FE_FE_05_07         // (254, 254,   5,   7)
FC_08_FD_00         // (252,   8, 253,   0)
01_FF_01_FF         // (  1, 255,   1, 255)
FA_00_FD_07         // (250,   0, 253,   7)
03_09_03_03         // (  3,   9,   3,   3)
0A_FB_06_06         // ( 10, 251,   6,   6)
FB_01_02_FD         // (251,   1,   2, 253)
03_06_FD_01         // (  3,   6, 253,   1)
FE_FD_FF_FE         // (254, 253, 255, 254)
FD_02_FD_01         // (253,   2, 253,   1)
FC_04_FF_F6         // (252,   4, 255, 246)
01_03_FF_04         // (  1,   3, 255,   4)
01_05_09_00         // (  1,   5,   9,   0)
FC_FE_06_FE         // (252, 254,   6, 254)
05_03_04_FD         // (  5,   3,   4, 253)
04_F6_03_02         // (  4, 246,   3,   2)
03_FD_04_FE         // (  3, 253,   4, 254)
02_04_FA_FE         // (  2,   4, 250, 254)
01_04_04_FF         // (  1,   4,   4, 255)
FD_01_07_07         // (253,   1,   7,   7)
FE_00_0A_02         // (254,   0,  10,   2)
06_FE_FB_00         // (  6, 254, 251,   0)
FE_01_06_03         // (254,   1,   6,   3)
FE_FD_F7_03         // (254, 253, 247,   3)
07_FF_F4_06         // (  7, 255, 244,   6)
F6_04_07_06         // (246,   4,   7,   6)
04_F8_FD_03         // (  4, 248, 253,   3)
01_FB_04_FC         // (  1, 251,   4, 252)
FB_06_05_00         // (251,   6,   5,   0)
FF_02_FE_01         // (255,   2, 254,   1)
FF_F5_02_FC         // (255, 245,   2, 252)
02_06_FD_00         // (  2,   6, 253,   0)
00_FB_09_03         // (  0, 251,   9,   3)
FE_FE_FA_F8         // (254, 254, 250, 248)
02_FE_01_01         // (  2, 254,   1,   1)
FB_FF_FF_03         // (251, 255, 255,   3)
02_03_FD_03         // (  2,   3, 253,   3)
01_02_FA_FE         // (  1,   2, 250, 254)
FD_00_FF_FD         // (253,   0, 255, 253)
FC_FF_05_FE         // (252, 255,   5, 254)
01_01_07_02         // (  1,   1,   7,   2)
03_FA_03_FE         // (  3, 250,   3, 254)
FA_01_00_03         // (250,   1,   0,   3)
00_FD_04_F9         // (  0, 253,   4, 249)
FD_06_06_05         // (253,   6,   6,   5)
05_00_FB_FE         // (  5,   0, 251, 254)
FF_04_FE_F7         // (255,   4, 254, 247)
FA_FC_FF_03         // (250, 252, 255,   3)
02_08_04_FD         // (  2,   8,   4, 253)
0A_02_FD_FF         // ( 10,   2, 253, 255)
02_04_FC_FF         // (  2,   4, 252, 255)
FF_07_F7_00         // (255,   7, 247,   0)
FB_00_FE_06         // (251,   0, 254,   6)
FB_FC_01_07         // (251, 252,   1,   7)
06_01_05_00         // (  6,   1,   5,   0)
09_03_06_01         // (  9,   3,   6,   1)
01_FD_05_FD         // (  1, 253,   5, 253)
FB_09_04_01         // (251,   9,   4,   1)
03_0F_FF_F8         // (  3,  15, 255, 248)
00_03_05_F9         // (  0,   3,   5, 249)
FF_FE_FF_FE         // (255, 254, 255, 254)
FE_FC_FF_03         // (254, 252, 255,   3)
09_00_FC_FC         // (  9,   0, 252, 252)
00_F5_FE_02         // (  0, 245, 254,   2)
FD_F0_F8_04         // (253, 240, 248,   4)
05_F7_F9_02         // (  5, 247, 249,   2)
01_02_FF_02         // (  1,   2, 255,   2)
FC_05_02_05         // (252,   5,   2,   5)
04_02_05_FF         // (  4,   2,   5, 255)
FE_FE_00_05         // (254, 254,   0,   5)
00_00_03_FE         // (  0,   0,   3, 254)
03_FF_FF_07         // (  3, 255, 255,   7)
02_FB_01_FC         // (  2, 251,   1, 252)
04_02_FE_F3         // (  4,   2, 254, 243)
FC_04_01_01         // (252,   4,   1,   1)
FA_03_08_00         // (250,   3,   8,   0)
FD_01_04_06         // (253,   1,   4,   6)
FF_03_05_07         // (255,   3,   5,   7)
01_FB_01_FA         // (  1, 251,   1, 250)
02_01_F8_01         // (  2,   1, 248,   1)
04_00_FB_06         // (  4,   0, 251,   6)
05_FF_F7_00         // (  5, 255, 247,   0)
06_06_FB_FA         // (  6,   6, 251, 250)
0E_FB_00_07         // ( 14, 251,   0,   7)
08_F9_F9_02         // (  8, 249, 249,   2)
02_01_07_00         // (  2,   1,   7,   0)
00_06_07_FA         // (  0,   6,   7, 250)
03_00_FE_01         // (  3,   0, 254,   1)
