13	// weight[0][0][0] (+19)
1D	// weight[0][0][1] (+29)
05	// weight[0][0][2] (+5)
FE	// weight[0][1][0] (-2)
0B	// weight[0][1][1] (+11)
F5	// weight[0][1][2] (-11)
01	// weight[0][2][0] (+1)
EA	// weight[0][2][1] (-22)
E7	// weight[0][2][2] (-25)
07	// weight[1][0][0] (+7)
FB	// weight[1][0][1] (-5)
D2	// weight[1][0][2] (-46)
07	// weight[1][1][0] (+7)
01	// weight[1][1][1] (+1)
FB	// weight[1][1][2] (-5)
08	// weight[1][2][0] (+8)
05	// weight[1][2][1] (+5)
08	// weight[1][2][2] (+8)
F6	// weight[2][0][0] (-10)
FD	// weight[2][0][1] (-3)
06	// weight[2][0][2] (+6)
EB	// weight[2][1][0] (-21)
0E	// weight[2][1][1] (+14)
FD	// weight[2][1][2] (-3)
D7	// weight[2][2][0] (-41)
27	// weight[2][2][1] (+39)
01	// weight[2][2][2] (+1)
FE	// weight[3][0][0] (-2)
FF	// weight[3][0][1] (-1)
1B	// weight[3][0][2] (+27)
FF	// weight[3][1][0] (-1)
14	// weight[3][1][1] (+20)
F8	// weight[3][1][2] (-8)
EA	// weight[3][2][0] (-22)
E7	// weight[3][2][1] (-25)
0E	// weight[3][2][2] (+14)
EE	// weight[4][0][0] (-18)
F5	// weight[4][0][1] (-11)
F1	// weight[4][0][2] (-15)
0B	// weight[4][1][0] (+11)
23	// weight[4][1][1] (+35)
F8	// weight[4][1][2] (-8)
FE	// weight[4][2][0] (-2)
04	// weight[4][2][1] (+4)
F0	// weight[4][2][2] (-16)
14	// weight[5][0][0] (+20)
05	// weight[5][0][1] (+5)
07	// weight[5][0][2] (+7)
EF	// weight[5][1][0] (-17)
FD	// weight[5][1][1] (-3)
03	// weight[5][1][2] (+3)
E9	// weight[5][2][0] (-23)
00	// weight[5][2][1] (+0)
07	// weight[5][2][2] (+7)
0C	// weight[6][0][0] (+12)
05	// weight[6][0][1] (+5)
F2	// weight[6][0][2] (-14)
F0	// weight[6][1][0] (-16)
01	// weight[6][1][1] (+1)
1F	// weight[6][1][2] (+31)
F1	// weight[6][2][0] (-15)
11	// weight[6][2][1] (+17)
F4	// weight[6][2][2] (-12)
0C	// weight[7][0][0] (+12)
F5	// weight[7][0][1] (-11)
01	// weight[7][0][2] (+1)
12	// weight[7][1][0] (+18)
FD	// weight[7][1][1] (-3)
F0	// weight[7][1][2] (-16)
10	// weight[7][2][0] (+16)
F1	// weight[7][2][1] (-15)
01	// weight[7][2][2] (+1)
1F	// weight[8][0][0] (+31)
0D	// weight[8][0][1] (+13)
EA	// weight[8][0][2] (-22)
04	// weight[8][1][0] (+4)
E1	// weight[8][1][1] (-31)
04	// weight[8][1][2] (+4)
FE	// weight[8][2][0] (-2)
00	// weight[8][2][1] (+0)
05	// weight[8][2][2] (+5)
FB	// weight[9][0][0] (-5)
05	// weight[9][0][1] (+5)
E7	// weight[9][0][2] (-25)
06	// weight[9][1][0] (+6)
29	// weight[9][1][1] (+41)
09	// weight[9][1][2] (+9)
F4	// weight[9][2][0] (-12)
EE	// weight[9][2][1] (-18)
02	// weight[9][2][2] (+2)
F5	// weight[10][0][0] (-11)
02	// weight[10][0][1] (+2)
EE	// weight[10][0][2] (-18)
03	// weight[10][1][0] (+3)
F5	// weight[10][1][1] (-11)
1A	// weight[10][1][2] (+26)
07	// weight[10][2][0] (+7)
14	// weight[10][2][1] (+20)
05	// weight[10][2][2] (+5)
0A	// weight[11][0][0] (+10)
06	// weight[11][0][1] (+6)
FD	// weight[11][0][2] (-3)
03	// weight[11][1][0] (+3)
E1	// weight[11][1][1] (-31)
F0	// weight[11][1][2] (-16)
09	// weight[11][2][0] (+9)
FA	// weight[11][2][1] (-6)
19	// weight[11][2][2] (+25)
01	// weight[12][0][0] (+1)
F5	// weight[12][0][1] (-11)
F4	// weight[12][0][2] (-12)
0D	// weight[12][1][0] (+13)
14	// weight[12][1][1] (+20)
F1	// weight[12][1][2] (-15)
06	// weight[12][2][0] (+6)
0C	// weight[12][2][1] (+12)
F4	// weight[12][2][2] (-12)
EE	// weight[13][0][0] (-18)
F3	// weight[13][0][1] (-13)
FB	// weight[13][0][2] (-5)
FB	// weight[13][1][0] (-5)
19	// weight[13][1][1] (+25)
1C	// weight[13][1][2] (+28)
02	// weight[13][2][0] (+2)
0F	// weight[13][2][1] (+15)
FB	// weight[13][2][2] (-5)
DD	// weight[14][0][0] (-35)
DF	// weight[14][0][1] (-33)
EC	// weight[14][0][2] (-20)
0D	// weight[14][1][0] (+13)
02	// weight[14][1][1] (+2)
11	// weight[14][1][2] (+17)
18	// weight[14][2][0] (+24)
10	// weight[14][2][1] (+16)
0D	// weight[14][2][2] (+13)
01	// weight[15][0][0] (+1)
FB	// weight[15][0][1] (-5)
F7	// weight[15][0][2] (-9)
E8	// weight[15][1][0] (-24)
CE	// weight[15][1][1] (-50)
0B	// weight[15][1][2] (+11)
09	// weight[15][2][0] (+9)
13	// weight[15][2][1] (+19)
04	// weight[15][2][2] (+4)
03	// weight[16][0][0] (+3)
03	// weight[16][0][1] (+3)
0C	// weight[16][0][2] (+12)
F2	// weight[16][1][0] (-14)
E4	// weight[16][1][1] (-28)
1B	// weight[16][1][2] (+27)
01	// weight[16][2][0] (+1)
1D	// weight[16][2][1] (+29)
D7	// weight[16][2][2] (-41)
1B	// weight[17][0][0] (+27)
EA	// weight[17][0][1] (-22)
04	// weight[17][0][2] (+4)
0D	// weight[17][1][0] (+13)
04	// weight[17][1][1] (+4)
01	// weight[17][1][2] (+1)
0F	// weight[17][2][0] (+15)
FC	// weight[17][2][1] (-4)
F4	// weight[17][2][2] (-12)
06	// weight[18][0][0] (+6)
1C	// weight[18][0][1] (+28)
FE	// weight[18][0][2] (-2)
F9	// weight[18][1][0] (-7)
FB	// weight[18][1][1] (-5)
FD	// weight[18][1][2] (-3)
00	// weight[18][2][0] (+0)
03	// weight[18][2][1] (+3)
00	// weight[18][2][2] (+0)
23	// weight[19][0][0] (+35)
EE	// weight[19][0][1] (-18)
EF	// weight[19][0][2] (-17)
06	// weight[19][1][0] (+6)
F3	// weight[19][1][1] (-13)
03	// weight[19][1][2] (+3)
F3	// weight[19][2][0] (-13)
FF	// weight[19][2][1] (-1)
11	// weight[19][2][2] (+17)
09	// weight[20][0][0] (+9)
EC	// weight[20][0][1] (-20)
FC	// weight[20][0][2] (-4)
09	// weight[20][1][0] (+9)
F9	// weight[20][1][1] (-7)
EB	// weight[20][1][2] (-21)
0E	// weight[20][2][0] (+14)
21	// weight[20][2][1] (+33)
07	// weight[20][2][2] (+7)
05	// weight[21][0][0] (+5)
EB	// weight[21][0][1] (-21)
F4	// weight[21][0][2] (-12)
11	// weight[21][1][0] (+17)
F8	// weight[21][1][1] (-8)
FE	// weight[21][1][2] (-2)
06	// weight[21][2][0] (+6)
06	// weight[21][2][1] (+6)
06	// weight[21][2][2] (+6)
03	// weight[22][0][0] (+3)
1C	// weight[22][0][1] (+28)
0B	// weight[22][0][2] (+11)
F9	// weight[22][1][0] (-7)
07	// weight[22][1][1] (+7)
FC	// weight[22][1][2] (-4)
15	// weight[22][2][0] (+21)
EC	// weight[22][2][1] (-20)
F0	// weight[22][2][2] (-16)
14	// weight[23][0][0] (+20)
FB	// weight[23][0][1] (-5)
E7	// weight[23][0][2] (-25)
04	// weight[23][1][0] (+4)
10	// weight[23][1][1] (+16)
FC	// weight[23][1][2] (-4)
F5	// weight[23][2][0] (-11)
2C	// weight[23][2][1] (+44)
FA	// weight[23][2][2] (-6)
FD	// weight[24][0][0] (-3)
13	// weight[24][0][1] (+19)
0E	// weight[24][0][2] (+14)
F7	// weight[24][1][0] (-9)
E5	// weight[24][1][1] (-27)
05	// weight[24][1][2] (+5)
14	// weight[24][2][0] (+20)
F8	// weight[24][2][1] (-8)
F0	// weight[24][2][2] (-16)
00	// weight[25][0][0] (+0)
01	// weight[25][0][1] (+1)
00	// weight[25][0][2] (+0)
12	// weight[25][1][0] (+18)
06	// weight[25][1][1] (+6)
F7	// weight[25][1][2] (-9)
F8	// weight[25][2][0] (-8)
B5	// weight[25][2][1] (-75)
08	// weight[25][2][2] (+8)
F7	// weight[26][0][0] (-9)
FB	// weight[26][0][1] (-5)
05	// weight[26][0][2] (+5)
05	// weight[26][1][0] (+5)
1F	// weight[26][1][1] (+31)
FC	// weight[26][1][2] (-4)
00	// weight[26][2][0] (+0)
01	// weight[26][2][1] (+1)
00	// weight[26][2][2] (+0)
18	// weight[27][0][0] (+24)
15	// weight[27][0][1] (+21)
EE	// weight[27][0][2] (-18)
E8	// weight[27][1][0] (-24)
F6	// weight[27][1][1] (-10)
FD	// weight[27][1][2] (-3)
F9	// weight[27][2][0] (-7)
05	// weight[27][2][1] (+5)
0B	// weight[27][2][2] (+11)
07	// weight[28][0][0] (+7)
FC	// weight[28][0][1] (-4)
00	// weight[28][0][2] (+0)
03	// weight[28][1][0] (+3)
FC	// weight[28][1][1] (-4)
13	// weight[28][1][2] (+19)
F8	// weight[28][2][0] (-8)
E5	// weight[28][2][1] (-27)
10	// weight[28][2][2] (+16)
EB	// weight[29][0][0] (-21)
08	// weight[29][0][1] (+8)
E8	// weight[29][0][2] (-24)
F6	// weight[29][1][0] (-10)
0C	// weight[29][1][1] (+12)
F6	// weight[29][1][2] (-10)
0C	// weight[29][2][0] (+12)
FE	// weight[29][2][1] (-2)
1C	// weight[29][2][2] (+28)
0A	// weight[30][0][0] (+10)
02	// weight[30][0][1] (+2)
EE	// weight[30][0][2] (-18)
0F	// weight[30][1][0] (+15)
EC	// weight[30][1][1] (-20)
0A	// weight[30][1][2] (+10)
05	// weight[30][2][0] (+5)
F5	// weight[30][2][1] (-11)
F1	// weight[30][2][2] (-15)
0A	// weight[31][0][0] (+10)
01	// weight[31][0][1] (+1)
0F	// weight[31][0][2] (+15)
EE	// weight[31][1][0] (-18)
FB	// weight[31][1][1] (-5)
0D	// weight[31][1][2] (+13)
06	// weight[31][2][0] (+6)
11	// weight[31][2][1] (+17)
1C	// weight[31][2][2] (+28)
E0	// weight[32][0][0] (-32)
0E	// weight[32][0][1] (+14)
08	// weight[32][0][2] (+8)
1D	// weight[32][1][0] (+29)
E6	// weight[32][1][1] (-26)
01	// weight[32][1][2] (+1)
04	// weight[32][2][0] (+4)
F5	// weight[32][2][1] (-11)
0D	// weight[32][2][2] (+13)
14	// weight[33][0][0] (+20)
FC	// weight[33][0][1] (-4)
00	// weight[33][0][2] (+0)
08	// weight[33][1][0] (+8)
F7	// weight[33][1][1] (-9)
10	// weight[33][1][2] (+16)
FF	// weight[33][2][0] (-1)
F5	// weight[33][2][1] (-11)
0B	// weight[33][2][2] (+11)
E9	// weight[34][0][0] (-23)
FE	// weight[34][0][1] (-2)
15	// weight[34][0][2] (+21)
FC	// weight[34][1][0] (-4)
08	// weight[34][1][1] (+8)
FE	// weight[34][1][2] (-2)
09	// weight[34][2][0] (+9)
01	// weight[34][2][1] (+1)
0B	// weight[34][2][2] (+11)
FD	// weight[35][0][0] (-3)
E9	// weight[35][0][1] (-23)
0E	// weight[35][0][2] (+14)
04	// weight[35][1][0] (+4)
E3	// weight[35][1][1] (-29)
00	// weight[35][1][2] (+0)
07	// weight[35][2][0] (+7)
08	// weight[35][2][1] (+8)
08	// weight[35][2][2] (+8)
FA	// weight[36][0][0] (-6)
DE	// weight[36][0][1] (-34)
D0	// weight[36][0][2] (-48)
F7	// weight[36][1][0] (-9)
FB	// weight[36][1][1] (-5)
C1	// weight[36][1][2] (-63)
07	// weight[36][2][0] (+7)
F6	// weight[36][2][1] (-10)
F8	// weight[36][2][2] (-8)
09	// weight[37][0][0] (+9)
E5	// weight[37][0][1] (-27)
0C	// weight[37][0][2] (+12)
FF	// weight[37][1][0] (-1)
EF	// weight[37][1][1] (-17)
0A	// weight[37][1][2] (+10)
1E	// weight[37][2][0] (+30)
04	// weight[37][2][1] (+4)
ED	// weight[37][2][2] (-19)
01	// weight[38][0][0] (+1)
0C	// weight[38][0][1] (+12)
F0	// weight[38][0][2] (-16)
00	// weight[38][1][0] (+0)
0A	// weight[38][1][1] (+10)
11	// weight[38][1][2] (+17)
FB	// weight[38][2][0] (-5)
FC	// weight[38][2][1] (-4)
FF	// weight[38][2][2] (-1)
07	// weight[39][0][0] (+7)
FC	// weight[39][0][1] (-4)
DE	// weight[39][0][2] (-34)
FF	// weight[39][1][0] (-1)
0C	// weight[39][1][1] (+12)
16	// weight[39][1][2] (+22)
FD	// weight[39][2][0] (-3)
FB	// weight[39][2][1] (-5)
03	// weight[39][2][2] (+3)
FA	// weight[40][0][0] (-6)
04	// weight[40][0][1] (+4)
17	// weight[40][0][2] (+23)
EA	// weight[40][1][0] (-22)
01	// weight[40][1][1] (+1)
19	// weight[40][1][2] (+25)
E3	// weight[40][2][0] (-29)
03	// weight[40][2][1] (+3)
02	// weight[40][2][2] (+2)
F7	// weight[41][0][0] (-9)
1A	// weight[41][0][1] (+26)
07	// weight[41][0][2] (+7)
ED	// weight[41][1][0] (-19)
F6	// weight[41][1][1] (-10)
05	// weight[41][1][2] (+5)
ED	// weight[41][2][0] (-19)
00	// weight[41][2][1] (+0)
01	// weight[41][2][2] (+1)
02	// weight[42][0][0] (+2)
0E	// weight[42][0][1] (+14)
21	// weight[42][0][2] (+33)
FF	// weight[42][1][0] (-1)
D7	// weight[42][1][1] (-41)
E9	// weight[42][1][2] (-23)
FE	// weight[42][2][0] (-2)
FF	// weight[42][2][1] (-1)
FA	// weight[42][2][2] (-6)
03	// weight[43][0][0] (+3)
F5	// weight[43][0][1] (-11)
05	// weight[43][0][2] (+5)
10	// weight[43][1][0] (+16)
F2	// weight[43][1][1] (-14)
FC	// weight[43][1][2] (-4)
07	// weight[43][2][0] (+7)
10	// weight[43][2][1] (+16)
E7	// weight[43][2][2] (-25)
0B	// weight[44][0][0] (+11)
11	// weight[44][0][1] (+17)
06	// weight[44][0][2] (+6)
04	// weight[44][1][0] (+4)
17	// weight[44][1][1] (+23)
01	// weight[44][1][2] (+1)
E3	// weight[44][2][0] (-29)
DA	// weight[44][2][1] (-38)
E4	// weight[44][2][2] (-28)
00	// weight[45][0][0] (+0)
2A	// weight[45][0][1] (+42)
00	// weight[45][0][2] (+0)
03	// weight[45][1][0] (+3)
FF	// weight[45][1][1] (-1)
FB	// weight[45][1][2] (-5)
FA	// weight[45][2][0] (-6)
F3	// weight[45][2][1] (-13)
03	// weight[45][2][2] (+3)
FF	// weight[46][0][0] (-1)
05	// weight[46][0][1] (+5)
05	// weight[46][0][2] (+5)
10	// weight[46][1][0] (+16)
1A	// weight[46][1][1] (+26)
F9	// weight[46][1][2] (-7)
FC	// weight[46][2][0] (-4)
F2	// weight[46][2][1] (-14)
00	// weight[46][2][2] (+0)
F5	// weight[47][0][0] (-11)
06	// weight[47][0][1] (+6)
DE	// weight[47][0][2] (-34)
FE	// weight[47][1][0] (-2)
E8	// weight[47][1][1] (-24)
0C	// weight[47][1][2] (+12)
02	// weight[47][2][0] (+2)
13	// weight[47][2][1] (+19)
23	// weight[47][2][2] (+35)
F8	// weight[48][0][0] (-8)
03	// weight[48][0][1] (+3)
24	// weight[48][0][2] (+36)
F5	// weight[48][1][0] (-11)
F3	// weight[48][1][1] (-13)
01	// weight[48][1][2] (+1)
08	// weight[48][2][0] (+8)
F7	// weight[48][2][1] (-9)
0B	// weight[48][2][2] (+11)
08	// weight[49][0][0] (+8)
F5	// weight[49][0][1] (-11)
FF	// weight[49][0][2] (-1)
06	// weight[49][1][0] (+6)
F6	// weight[49][1][1] (-10)
FE	// weight[49][1][2] (-2)
01	// weight[49][2][0] (+1)
0D	// weight[49][2][1] (+13)
14	// weight[49][2][2] (+20)
F5	// weight[50][0][0] (-11)
ED	// weight[50][0][1] (-19)
F4	// weight[50][0][2] (-12)
F5	// weight[50][1][0] (-11)
F1	// weight[50][1][1] (-15)
12	// weight[50][1][2] (+18)
F5	// weight[50][2][0] (-11)
0D	// weight[50][2][1] (+13)
1A	// weight[50][2][2] (+26)
F7	// weight[51][0][0] (-9)
F5	// weight[51][0][1] (-11)
0A	// weight[51][0][2] (+10)
FC	// weight[51][1][0] (-4)
F9	// weight[51][1][1] (-7)
15	// weight[51][1][2] (+21)
03	// weight[51][2][0] (+3)
F8	// weight[51][2][1] (-8)
06	// weight[51][2][2] (+6)
FC	// weight[52][0][0] (-4)
FE	// weight[52][0][1] (-2)
03	// weight[52][0][2] (+3)
FF	// weight[52][1][0] (-1)
0F	// weight[52][1][1] (+15)
09	// weight[52][1][2] (+9)
FA	// weight[52][2][0] (-6)
00	// weight[52][2][1] (+0)
F2	// weight[52][2][2] (-14)
F1	// weight[53][0][0] (-15)
F7	// weight[53][0][1] (-9)
0C	// weight[53][0][2] (+12)
0B	// weight[53][1][0] (+11)
F6	// weight[53][1][1] (-10)
1C	// weight[53][1][2] (+28)
0D	// weight[53][2][0] (+13)
06	// weight[53][2][1] (+6)
F4	// weight[53][2][2] (-12)
01	// weight[54][0][0] (+1)
0F	// weight[54][0][1] (+15)
F9	// weight[54][0][2] (-7)
E8	// weight[54][1][0] (-24)
E5	// weight[54][1][1] (-27)
FE	// weight[54][1][2] (-2)
17	// weight[54][2][0] (+23)
10	// weight[54][2][1] (+16)
0D	// weight[54][2][2] (+13)
0B	// weight[55][0][0] (+11)
FA	// weight[55][0][1] (-6)
11	// weight[55][0][2] (+17)
FA	// weight[55][1][0] (-6)
FA	// weight[55][1][1] (-6)
FE	// weight[55][1][2] (-2)
F9	// weight[55][2][0] (-7)
0D	// weight[55][2][1] (+13)
F6	// weight[55][2][2] (-10)
11	// weight[56][0][0] (+17)
05	// weight[56][0][1] (+5)
F6	// weight[56][0][2] (-10)
18	// weight[56][1][0] (+24)
FB	// weight[56][1][1] (-5)
09	// weight[56][1][2] (+9)
0C	// weight[56][2][0] (+12)
F4	// weight[56][2][1] (-12)
EE	// weight[56][2][2] (-18)
EF	// weight[57][0][0] (-17)
11	// weight[57][0][1] (+17)
FF	// weight[57][0][2] (-1)
EC	// weight[57][1][0] (-20)
06	// weight[57][1][1] (+6)
0B	// weight[57][1][2] (+11)
0D	// weight[57][2][0] (+13)
00	// weight[57][2][1] (+0)
FC	// weight[57][2][2] (-4)
14	// weight[58][0][0] (+20)
FD	// weight[58][0][1] (-3)
E2	// weight[58][0][2] (-30)
FD	// weight[58][1][0] (-3)
0E	// weight[58][1][1] (+14)
EE	// weight[58][1][2] (-18)
13	// weight[58][2][0] (+19)
0D	// weight[58][2][1] (+13)
D5	// weight[58][2][2] (-43)
F3	// weight[59][0][0] (-13)
F8	// weight[59][0][1] (-8)
0E	// weight[59][0][2] (+14)
E1	// weight[59][1][0] (-31)
FC	// weight[59][1][1] (-4)
1D	// weight[59][1][2] (+29)
F2	// weight[59][2][0] (-14)
FA	// weight[59][2][1] (-6)
09	// weight[59][2][2] (+9)
0B	// weight[60][0][0] (+11)
0A	// weight[60][0][1] (+10)
0A	// weight[60][0][2] (+10)
1A	// weight[60][1][0] (+26)
12	// weight[60][1][1] (+18)
E7	// weight[60][1][2] (-25)
14	// weight[60][2][0] (+20)
F4	// weight[60][2][1] (-12)
E1	// weight[60][2][2] (-31)
06	// weight[61][0][0] (+6)
FB	// weight[61][0][1] (-5)
0C	// weight[61][0][2] (+12)
F6	// weight[61][1][0] (-10)
0C	// weight[61][1][1] (+12)
F1	// weight[61][1][2] (-15)
01	// weight[61][2][0] (+1)
12	// weight[61][2][1] (+18)
0A	// weight[61][2][2] (+10)
FE	// weight[62][0][0] (-2)
FE	// weight[62][0][1] (-2)
F7	// weight[62][0][2] (-9)
0A	// weight[62][1][0] (+10)
14	// weight[62][1][1] (+20)
EC	// weight[62][1][2] (-20)
FF	// weight[62][2][0] (-1)
EA	// weight[62][2][1] (-22)
1E	// weight[62][2][2] (+30)
15	// weight[63][0][0] (+21)
F9	// weight[63][0][1] (-7)
22	// weight[63][0][2] (+34)
04	// weight[63][1][0] (+4)
E3	// weight[63][1][1] (-29)
18	// weight[63][1][2] (+24)
F6	// weight[63][2][0] (-10)
F5	// weight[63][2][1] (-11)
03	// weight[63][2][2] (+3)
