0000_0ED0 // BIAS[ 0] (+3792)
FFFF_FED9 // BIAS[ 1] (-295)
FFFF_F044 // BIAS[ 2] (-4028)
0000_0B40 // BIAS[ 3] (+2880)
0000_080C // BIAS[ 4] (+2060)
0000_05A0 // BIAS[ 5] (+1440)
0000_0647 // BIAS[ 6] (+1607)
0000_0D2C // BIAS[ 7] (+3372)
0000_0B52 // BIAS[ 8] (+2898)
FFFF_FE90 // BIAS[ 9] (-368)
0000_0350 // BIAS[10] (+848)
0000_0CF8 // BIAS[11] (+3320)
FFFF_FF3F // BIAS[12] (-193)
0000_0C56 // BIAS[13] (+3158)
0000_0AE7 // BIAS[14] (+2791)
0000_076A // BIAS[15] (+1898)
FFFF_E980 // BIAS[16] (-5760)
0000_03F2 // BIAS[17] (+1010)
0000_0B5E // BIAS[18] (+2910)
0000_07A9 // BIAS[19] (+1961)
0000_056C // BIAS[20] (+1388)
0000_0576 // BIAS[21] (+1398)
0000_066F // BIAS[22] (+1647)
FFFF_E971 // BIAS[23] (-5775)
0000_0BCC // BIAS[24] (+3020)
FFFF_F7D3 // BIAS[25] (-2093)
0000_0B2F // BIAS[26] (+2863)
FFFF_E319 // BIAS[27] (-7399)
0000_0BC4 // BIAS[28] (+3012)
FFFF_FE27 // BIAS[29] (-473)
0000_0571 // BIAS[30] (+1393)
0000_0850 // BIAS[31] (+2128)
0000_018E // BIAS[32] (+398)
FFFF_D72F // BIAS[33] (-10449)
0000_02A0 // BIAS[34] (+672)
0000_00D5 // BIAS[35] (+213)
FFFF_F0C3 // BIAS[36] (-3901)
FFFF_F16C // BIAS[37] (-3732)
FFFF_E404 // BIAS[38] (-7164)
FFFF_EEE0 // BIAS[39] (-4384)
0000_016E // BIAS[40] (+366)
FFFF_FB44 // BIAS[41] (-1212)
FFFF_ED7D // BIAS[42] (-4739)
0000_106E // BIAS[43] (+4206)
0000_0339 // BIAS[44] (+825)
0000_0B41 // BIAS[45] (+2881)
FFFF_CED6 // BIAS[46] (-12586)
0000_0E1B // BIAS[47] (+3611)
FFFF_FC9D // BIAS[48] (-867)
0000_0E97 // BIAS[49] (+3735)
0000_067A // BIAS[50] (+1658)
0000_07EA // BIAS[51] (+2026)
FFFF_FD32 // BIAS[52] (-718)
0000_0B25 // BIAS[53] (+2853)
FFFF_FB53 // BIAS[54] (-1197)
0000_0E1F // BIAS[55] (+3615)
FFFF_FD45 // BIAS[56] (-699)
0000_08E5 // BIAS[57] (+2277)
0000_0D76 // BIAS[58] (+3446)
0000_0792 // BIAS[59] (+1938)
0000_08C9 // BIAS[60] (+2249)
0000_0F65 // BIAS[61] (+3941)
0000_0238 // BIAS[62] (+568)
FFFF_F25A // BIAS[63] (-3494)
