FD_04_F8_FF         // ( -3,   4,  -8,  -1)
FA_02_F6_FE         // ( -6,   2, -10,  -2)
FA_08_FD_00         // ( -6,   8,  -3,   0)
01_00_03_00         // (  1,   0,   3,   0)
FE_FE_F8_F9         // ( -2,  -2,  -8,  -7)
FB_04_FA_FB         // ( -5,   4,  -6,  -5)
F4_F6_09_F9         // (-12, -10,   9,  -7)
FC_04_FD_FA         // ( -4,   4,  -3,  -6)
F9_00_F9_F7         // ( -7,   0,  -7,  -9)
FB_FC_F9_06         // ( -5,  -4,  -7,   6)
00_FE_06_FB         // (  0,  -2,   6,  -5)
09_FF_FB_06         // (  9,  -1,  -5,   6)
06_FE_ED_FE         // (  6,  -2, -19,  -2)
02_FB_FF_F2         // (  2,  -5,  -1, -14)
02_FC_F8_04         // (  2,  -4,  -8,   4)
06_01_EA_FE         // (  6,   1, -22,  -2)
06_02_FC_FC         // (  6,   2,  -4,  -4)
0B_FE_FE_04         // ( 11,  -2,  -2,   4)
07_04_00_FF         // (  7,   4,   0,  -1)
FB_FC_FB_FE         // ( -5,  -4,  -5,  -2)
FF_FF_03_06         // ( -1,  -1,   3,   6)
03_00_04_04         // (  3,   0,   4,   4)
05_05_00_04         // (  5,   5,   0,   4)
04_FE_01_04         // (  4,  -2,   1,   4)
04_01_F2_02         // (  4,   1, -14,   2)
FE_FE_FE_05         // ( -2,  -2,  -2,   5)
FD_02_FE_0E         // ( -3,   2,  -2,  14)
FE_FC_05_FD         // ( -2,  -4,   5,  -3)
FC_FD_03_00         // ( -4,  -3,   3,   0)
FC_FB_00_0C         // ( -4,  -5,   0,  12)
00_FA_01_FC         // (  0,  -6,   1,  -4)
00_FD_FC_FA         // (  0,  -3,  -4,  -6)
FE_F6_FE_04         // ( -2, -10,  -2,   4)
0C_FC_00_F9         // ( 12,  -4,   0,  -7)
0A_00_00_FC         // ( 10,   0,   0,  -4)
06_FA_09_00         // (  6,  -6,   9,   0)
FB_06_03_01         // ( -5,   6,   3,   1)
FF_FC_FB_01         // ( -1,  -4,  -5,   1)
03_04_FF_05         // (  3,   4,  -1,   5)
02_FF_00_01         // (  2,  -1,   0,   1)
05_F8_01_05         // (  5,  -8,   1,   5)
03_FA_01_03         // (  3,  -6,   1,   3)
08_05_FC_02         // (  8,   5,  -4,   2)
05_FE_FF_01         // (  5,  -2,  -1,   1)
0A_01_02_FF         // ( 10,   1,   2,  -1)
FF_FF_FB_FF         // ( -1,  -1,  -5,  -1)
03_FB_02_00         // (  3,  -5,   2,   0)
04_00_FA_03         // (  4,   0,  -6,   3)
00_01_FB_02         // (  0,   1,  -5,   2)
FC_02_FF_FE         // ( -4,   2,  -1,  -2)
00_FD_F3_02         // (  0,  -3, -13,   2)
FF_02_FC_FB         // ( -1,   2,  -4,  -5)
01_FF_FF_FF         // (  1,  -1,  -1,  -1)
01_02_F6_FC         // (  1,   2, -10,  -4)
F2_FD_00_FD         // (-14,  -3,   0,  -3)
F8_FD_FC_05         // ( -8,  -3,  -4,   5)
FB_02_00_07         // ( -5,   2,   0,   7)
FB_FE_01_FF         // ( -5,  -2,   1,  -1)
04_00_01_03         // (  4,   0,   1,   3)
FF_FF_03_FC         // ( -1,  -1,   3,  -4)
F5_01_02_F8         // (-11,   1,   2,  -8)
FF_FD_11_FF         // ( -1,  -3,  17,  -1)
FE_07_07_F7         // ( -2,   7,   7,  -9)
05_02_04_03         // (  5,   2,   4,   3)
FD_10_04_02         // ( -3,  16,   4,   2)
04_05_02_05         // (  4,   5,   2,   5)
FC_08_00_01         // ( -4,   8,   0,   1)
FB_13_0A_04         // ( -5,  19,  10,   4)
00_05_FE_03         // (  0,   5,  -2,   3)
FF_07_F7_F6         // ( -1,   7,  -9, -10)
04_08_01_FA         // (  4,   8,   1,  -6)
FD_00_FB_EF         // ( -3,   0,  -5, -17)
FD_F9_01_FB         // ( -3,  -7,   1,  -5)
F8_F8_FC_01         // ( -8,  -8,  -4,   1)
FC_FE_FF_FE         // ( -4,  -2,  -1,  -2)
05_02_FE_01         // (  5,   2,  -2,   1)
07_03_00_04         // (  7,   3,   0,   4)
FC_FE_04_02         // ( -4,  -2,   4,   2)
02_01_03_FB         // (  2,   1,   3,  -5)
FD_FF_04_09         // ( -3,  -1,   4,   9)
08_FD_0A_08         // (  8,  -3,  10,   8)
01_FD_F4_F7         // (  1,  -3, -12,  -9)
F7_03_FD_05         // ( -9,   3,  -3,   5)
FB_02_FF_03         // ( -5,   2,  -1,   3)
04_00_F3_F5         // (  4,   0, -13, -11)
FD_FE_00_F9         // ( -3,  -2,   0,  -7)
F9_04_01_02         // ( -7,   4,   1,   2)
0A_FC_EF_03         // ( 10,  -4, -17,   3)
0C_FD_FB_FF         // ( 12,  -3,  -5,  -1)
F0_02_FB_06         // (-16,   2,  -5,   6)
F4_04_F7_01         // (-12,   4,  -9,   1)
04_03_08_02         // (  4,   3,   8,   2)
05_01_03_02         // (  5,   1,   3,   2)
08_FD_F8_F9         // (  8,  -3,  -8,  -7)
07_00_F5_FC         // (  7,   0, -11,  -4)
03_02_FE_02         // (  3,   2,  -2,   2)
0D_0E_F1_FB         // ( 13,  14, -15,  -5)
07_06_F7_FC         // (  7,   6,  -9,  -4)
FE_01_F6_F5         // ( -2,   1, -10, -11)
05_05_01_09         // (  5,   5,   1,   9)
03_FE_FC_01         // (  3,  -2,  -4,   1)
FF_FE_01_00         // ( -1,  -2,   1,   0)
00_FF_FF_FA         // (  0,  -1,  -1,  -6)
00_F5_FE_EE         // (  0, -11,  -2, -18)
FB_00_FB_F6         // ( -5,   0,  -5, -10)
F9_FB_03_E6         // ( -7,  -5,   3, -26)
F5_FD_01_EB         // (-11,  -3,   1, -21)
F4_04_02_E5         // (-12,   4,   2, -27)
07_09_FE_04         // (  7,   9,  -2,   4)
02_F7_FE_01         // (  2,  -9,  -2,   1)
08_06_00_04         // (  8,   6,   0,   4)
03_07_01_FF         // (  3,   7,   1,  -1)
FC_00_00_05         // ( -4,   0,   0,   5)
03_0B_FF_FE         // (  3,  11,  -1,  -2)
10_0B_03_03         // ( 16,  11,   3,   3)
05_09_02_06         // (  5,   9,   2,   6)
04_11_08_00         // (  4,  17,   8,   0)
FD_F9_FC_02         // ( -3,  -7,  -4,   2)
FF_FF_FF_FC         // ( -1,  -1,  -1,  -4)
01_FD_05_F7         // (  1,  -3,   5,  -9)
00_FA_01_00         // (  0,  -6,   1,   0)
FE_02_00_F6         // ( -2,   2,   0, -10)
FC_FE_00_FB         // ( -4,  -2,   0,  -5)
03_F5_03_EA         // (  3, -11,   3, -22)
06_FC_F8_EC         // (  6,  -4,  -8, -20)
08_FE_FE_D5         // (  8,  -2,  -2, -43)
F7_FC_FF_00         // ( -9,  -4,  -1,   0)
04_FB_00_FD         // (  4,  -5,   0,  -3)
06_07_01_03         // (  6,   7,   1,   3)
FE_FE_02_FE         // ( -2,  -2,   2,  -2)
08_00_FF_FC         // (  8,   0,  -1,  -4)
0E_FF_01_02         // ( 14,  -1,   1,   2)
FD_00_02_00         // ( -3,   0,   2,   0)
03_03_00_01         // (  3,   3,   0,   1)
06_FD_FF_08         // (  6,  -3,  -1,   8)
FF_00_FF_02         // ( -1,   0,  -1,   2)
FF_05_F8_FE         // ( -1,   5,  -8,  -2)
FA_05_01_FF         // ( -6,   5,   1,  -1)
FE_08_02_FE         // ( -2,   8,   2,  -2)
02_FF_FD_FB         // (  2,  -1,  -3,  -5)
FE_05_01_F7         // ( -2,   5,   1,  -9)
FF_02_0A_02         // ( -1,   2,  10,   2)
FF_03_01_02         // ( -1,   3,   1,   2)
03_09_FF_02         // (  3,   9,  -1,   2)
00_00_00_00         // (  0,   0,   0,   0)
00_00_00_00         // (  0,   0,   0,   0)
00_00_00_00         // (  0,   0,   0,   0)
00_00_00_00         // (  0,   0,   0,   0)
00_00_00_00         // (  0,   0,   0,   0)
00_00_00_00         // (  0,   0,   0,   0)
00_00_00_00         // (  0,   0,   0,   0)
00_00_00_00         // (  0,   0,   0,   0)
00_00_00_00         // (  0,   0,   0,   0)
00_00_00_00         // (  0,   0,   0,   0)
00_00_00_00         // (  0,   0,   0,   0)
00_00_00_00         // (  0,   0,   0,   0)
00_00_00_00         // (  0,   0,   0,   0)
00_00_00_00         // (  0,   0,   0,   0)
00_00_00_00         // (  0,   0,   0,   0)
00_00_00_00         // (  0,   0,   0,   0)
00_00_00_00         // (  0,   0,   0,   0)
00_00_00_00         // (  0,   0,   0,   0)
00_00_00_00         // (  0,   0,   0,   0)
00_00_00_00         // (  0,   0,   0,   0)
00_00_00_00         // (  0,   0,   0,   0)
00_00_00_00         // (  0,   0,   0,   0)
00_00_00_00         // (  0,   0,   0,   0)
00_00_00_00         // (  0,   0,   0,   0)
00_00_00_00         // (  0,   0,   0,   0)
00_00_00_00         // (  0,   0,   0,   0)
00_00_00_00         // (  0,   0,   0,   0)
00_00_00_00         // (  0,   0,   0,   0)
00_00_00_00         // (  0,   0,   0,   0)
00_00_00_00         // (  0,   0,   0,   0)
00_00_00_00         // (  0,   0,   0,   0)
00_00_00_00         // (  0,   0,   0,   0)
00_00_00_00         // (  0,   0,   0,   0)
00_00_00_00         // (  0,   0,   0,   0)
00_00_00_00         // (  0,   0,   0,   0)
00_00_00_00         // (  0,   0,   0,   0)
00_00_00_00         // (  0,   0,   0,   0)
00_00_00_00         // (  0,   0,   0,   0)
00_00_00_00         // (  0,   0,   0,   0)
00_00_00_00         // (  0,   0,   0,   0)
00_00_00_00         // (  0,   0,   0,   0)
00_00_00_00         // (  0,   0,   0,   0)
00_00_00_00         // (  0,   0,   0,   0)
00_00_00_00         // (  0,   0,   0,   0)
00_00_00_00         // (  0,   0,   0,   0)
00_00_00_00         // (  0,   0,   0,   0)
00_00_00_00         // (  0,   0,   0,   0)
00_00_00_00         // (  0,   0,   0,   0)
00_00_00_00         // (  0,   0,   0,   0)
00_00_00_00         // (  0,   0,   0,   0)
00_00_00_00         // (  0,   0,   0,   0)
00_00_00_00         // (  0,   0,   0,   0)
00_00_00_00         // (  0,   0,   0,   0)
00_00_00_00         // (  0,   0,   0,   0)
00_00_00_00         // (  0,   0,   0,   0)
00_00_00_00         // (  0,   0,   0,   0)
00_00_00_00         // (  0,   0,   0,   0)
00_00_00_00         // (  0,   0,   0,   0)
00_00_00_00         // (  0,   0,   0,   0)
00_00_00_00         // (  0,   0,   0,   0)
00_00_00_00         // (  0,   0,   0,   0)
00_00_00_00         // (  0,   0,   0,   0)
00_00_00_00         // (  0,   0,   0,   0)
00_00_00_00         // (  0,   0,   0,   0)
00_00_00_00         // (  0,   0,   0,   0)
00_00_00_00         // (  0,   0,   0,   0)
00_00_00_00         // (  0,   0,   0,   0)
00_00_00_00         // (  0,   0,   0,   0)
00_00_00_00         // (  0,   0,   0,   0)
00_00_00_00         // (  0,   0,   0,   0)
00_00_00_00         // (  0,   0,   0,   0)
00_00_00_00         // (  0,   0,   0,   0)
00_00_00_00         // (  0,   0,   0,   0)
00_00_00_00         // (  0,   0,   0,   0)
00_00_00_00         // (  0,   0,   0,   0)
00_00_00_00         // (  0,   0,   0,   0)
00_00_00_00         // (  0,   0,   0,   0)
00_00_00_00         // (  0,   0,   0,   0)
00_00_00_00         // (  0,   0,   0,   0)
00_00_00_00         // (  0,   0,   0,   0)
00_00_00_00         // (  0,   0,   0,   0)
00_00_00_00         // (  0,   0,   0,   0)
00_00_00_00         // (  0,   0,   0,   0)
00_00_00_00         // (  0,   0,   0,   0)
00_00_00_00         // (  0,   0,   0,   0)
00_00_00_00         // (  0,   0,   0,   0)
00_00_00_00         // (  0,   0,   0,   0)
00_00_00_00         // (  0,   0,   0,   0)
00_00_00_00         // (  0,   0,   0,   0)
00_00_00_00         // (  0,   0,   0,   0)
00_00_00_00         // (  0,   0,   0,   0)
00_00_00_00         // (  0,   0,   0,   0)
00_00_00_00         // (  0,   0,   0,   0)
00_00_00_00         // (  0,   0,   0,   0)
00_00_00_00         // (  0,   0,   0,   0)
00_00_00_00         // (  0,   0,   0,   0)
00_00_00_00         // (  0,   0,   0,   0)
00_00_00_00         // (  0,   0,   0,   0)
00_00_00_00         // (  0,   0,   0,   0)
00_00_00_00         // (  0,   0,   0,   0)
00_00_00_00         // (  0,   0,   0,   0)
00_00_00_00         // (  0,   0,   0,   0)
00_00_00_00         // (  0,   0,   0,   0)
00_00_00_00         // (  0,   0,   0,   0)
00_00_00_00         // (  0,   0,   0,   0)
00_00_00_00         // (  0,   0,   0,   0)
00_00_00_00         // (  0,   0,   0,   0)
00_00_00_00         // (  0,   0,   0,   0)
00_00_00_00         // (  0,   0,   0,   0)
00_00_00_00         // (  0,   0,   0,   0)
00_00_00_00         // (  0,   0,   0,   0)
00_00_00_00         // (  0,   0,   0,   0)
00_00_00_00         // (  0,   0,   0,   0)
00_00_00_00         // (  0,   0,   0,   0)
00_00_00_00         // (  0,   0,   0,   0)
00_00_00_00         // (  0,   0,   0,   0)
00_00_00_00         // (  0,   0,   0,   0)
00_00_00_00         // (  0,   0,   0,   0)
00_00_00_00         // (  0,   0,   0,   0)
00_00_00_00         // (  0,   0,   0,   0)
00_00_00_00         // (  0,   0,   0,   0)
00_00_00_00         // (  0,   0,   0,   0)
00_00_00_00         // (  0,   0,   0,   0)
00_00_00_00         // (  0,   0,   0,   0)
00_00_00_00         // (  0,   0,   0,   0)
00_00_00_00         // (  0,   0,   0,   0)
00_00_00_00         // (  0,   0,   0,   0)
00_00_00_00         // (  0,   0,   0,   0)
00_00_00_00         // (  0,   0,   0,   0)
00_00_00_00         // (  0,   0,   0,   0)
00_00_00_00         // (  0,   0,   0,   0)
00_00_00_00         // (  0,   0,   0,   0)
00_00_00_00         // (  0,   0,   0,   0)
00_00_00_00         // (  0,   0,   0,   0)
00_00_00_00         // (  0,   0,   0,   0)
00_00_00_00         // (  0,   0,   0,   0)
00_00_00_00         // (  0,   0,   0,   0)
00_00_00_00         // (  0,   0,   0,   0)
00_00_00_00         // (  0,   0,   0,   0)
00_00_00_00         // (  0,   0,   0,   0)
00_00_00_00         // (  0,   0,   0,   0)
00_00_00_00         // (  0,   0,   0,   0)
00_00_00_00         // (  0,   0,   0,   0)
00_00_00_00         // (  0,   0,   0,   0)
02_08_FD_FD         // (  2,   8,  -3,  -3)
02_10_EC_FE         // (  2,  16, -20,  -2)
0F_00_04_F5         // ( 15,   0,   4, -11)
FB_F5_F8_F9         // ( -5, -11,  -8,  -7)
FC_08_E3_F6         // ( -4,   8, -29, -10)
08_F7_FF_F6         // (  8,  -9,  -1, -10)
FF_FA_ED_F2         // ( -1,  -6, -19, -14)
02_1E_E8_F5         // (  2,  30, -24, -11)
03_1E_02_FF         // (  3,  30,   2,  -1)
25_FD_FA_08         // ( 37,  -3,  -6,   8)
2D_07_03_01         // ( 45,   7,   3,   1)
14_FA_F0_F0         // ( 20,  -6, -16, -16)
1B_FF_FE_11         // ( 27,  -1,  -2,  17)
0F_FE_0E_F5         // ( 15,  -2,  14, -11)
13_F4_13_FA         // ( 19, -12,  19,  -6)
05_01_FE_1C         // (  5,   1,  -2,  28)
13_FF_0A_0D         // ( 19,  -1,  10,  13)
05_FA_00_09         // (  5,  -6,   0,   9)
F6_FE_08_F1         // (-10,  -2,   8, -15)
E7_05_16_F6         // (-25,   5,  22, -10)
FE_08_0C_F0         // ( -2,   8,  12, -16)
03_03_F6_F8         // (  3,   3, -10,  -8)
0A_06_01_FC         // ( 10,   6,   1,  -4)
04_F9_F5_09         // (  4,  -7, -11,   9)
02_08_00_E6         // (  2,   8,   0, -26)
11_FE_F2_F2         // ( 17,  -2, -14, -14)
0C_FA_EB_F4         // ( 12,  -6, -21, -12)
EC_F5_F7_09         // (-20, -11,  -9,   9)
26_05_F7_06         // ( 38,   5,  -9,   6)
F5_FF_01_0D         // (-11,  -1,   1,  13)
02_F7_00_09         // (  2,  -9,   0,   9)
EC_FB_FF_11         // (-20,  -5,  -1,  17)
FC_F9_FC_0C         // ( -4,  -7,  -4,  12)
0F_FB_FF_02         // ( 15,  -5,  -1,   2)
EC_FC_FF_0B         // (-20,  -4,  -1,  11)
F1_FD_FD_05         // (-15,  -3,  -3,   5)
FA_05_FB_F6         // ( -6,   5,  -5, -10)
04_08_FE_00         // (  4,   8,  -2,   0)
0C_04_FE_F7         // ( 12,   4,  -2,  -9)
EC_06_F5_FE         // (-20,   6, -11,  -2)
05_F9_04_FD         // (  5,  -7,   4,  -3)
FF_F6_03_03         // ( -1, -10,   3,   3)
E9_FC_F6_FB         // (-23,  -4, -10,  -5)
E6_03_02_F1         // (-26,   3,   2, -15)
EB_09_02_F6         // (-21,   9,   2, -10)
07_04_F4_02         // (  7,   4, -12,   2)
0A_03_19_FE         // ( 10,   3,  25,  -2)
F9_01_0F_02         // ( -7,   1,  15,   2)
03_FB_02_04         // (  3,  -5,   2,   4)
0B_06_F1_01         // ( 11,   6, -15,   1)
F9_FA_05_FE         // ( -7,  -6,   5,  -2)
03_F8_05_FB         // (  3,  -8,   5,  -5)
05_F2_F0_04         // (  5, -14, -16,   4)
00_00_06_FD         // (  0,   0,   6,  -3)
15_01_E9_F0         // ( 21,   1, -23, -16)
1C_07_20_F9         // ( 28,   7,  32,  -7)
03_FB_F5_F9         // (  3,  -5, -11,  -7)
FD_FD_F8_0A         // ( -3,  -3,  -8,  10)
F8_FC_0B_FE         // ( -8,  -4,  11,  -2)
00_FF_F9_F7         // (  0,  -1,  -7,  -9)
09_F4_E9_02         // (  9, -12, -23,   2)
06_03_F1_0D         // (  6,   3, -15,  13)
0E_FC_07_09         // ( 14,  -4,   7,   9)
02_E1_0A_05         // (  2, -31,  10,   5)
FF_FA_FF_1B         // ( -1,  -6,  -1,  27)
02_01_10_F5         // (  2,   1,  16, -11)
F8_FA_06_01         // ( -8,  -6,   6,   1)
06_03_08_0A         // (  6,   3,   8,  10)
FB_0E_FB_01         // ( -5,  14,  -5,   1)
FF_E7_FB_1A         // ( -1, -25,  -5,  26)
FE_F4_15_39         // ( -2, -12,  21,  57)
F5_0E_14_21         // (-11,  14,  20,  33)
28_FE_02_0F         // ( 40,  -2,   2,  15)
09_F6_05_16         // (  9, -10,   5,  22)
0E_07_F9_0F         // ( 14,   7,  -7,  15)
FC_F9_05_09         // ( -4,  -7,   5,   9)
FE_00_FE_04         // ( -2,   0,  -2,   4)
FD_01_FD_08         // ( -3,   1,  -3,   8)
EE_07_04_05         // (-18,   7,   4,   5)
01_F6_01_0F         // (  1, -10,   1,  15)
F7_06_06_18         // ( -9,   6,   6,  24)
02_FF_1A_DA         // (  2,  -1,  26, -38)
F0_06_25_DB         // (-16,   6,  37, -37)
F2_FA_28_F6         // (-14,  -6,  40, -10)
EF_FE_00_E9         // (-17,  -2,   0, -23)
F6_02_04_D2         // (-10,   2,   4, -46)
F3_01_07_F2         // (-13,   1,   7, -14)
D0_05_02_E1         // (-48,   5,   2, -31)
F2_F8_16_F4         // (-14,  -8,  22, -12)
FA_F3_14_ED         // ( -6, -13,  20, -19)
F8_E6_F6_0A         // ( -8, -26, -10,  10)
11_1D_FB_0A         // ( 17,  29,  -5,  10)
06_0E_E1_06         // (  6,  14, -31,   6)
F6_F5_11_FB         // (-10, -11,  17,  -5)
F7_F7_04_00         // ( -9,  -9,   4,   0)
1A_06_0E_FC         // ( 26,   6,  14,  -4)
0E_0A_FD_F9         // ( 14,  10,  -3,  -7)
F9_EE_05_F6         // ( -7, -18,   5, -10)
1E_F3_E0_FA         // ( 30, -13, -32,  -6)
EE_FA_05_00         // (-18,  -6,   5,   0)
F8_FC_05_F2         // ( -8,  -4,   5, -14)
F7_02_FC_05         // ( -9,   2,  -4,   5)
01_05_01_13         // (  1,   5,   1,  19)
FB_11_02_04         // ( -5,  17,   2,   4)
FB_05_FC_05         // ( -5,   5,  -4,   5)
F8_F7_03_15         // ( -8,  -9,   3,  21)
FE_01_02_09         // ( -2,   1,   2,   9)
FD_02_04_FD         // ( -3,   2,   4,  -3)
22_0A_05_FC         // ( 34,  10,   5,  -4)
03_F3_FB_01         // (  3, -13,  -5,   1)
13_0E_04_FA         // ( 19,  14,   4,  -6)
2D_F1_FE_F9         // ( 45, -15,  -2,  -7)
09_F8_0C_F8         // (  9,  -8,  12,  -8)
16_03_05_06         // ( 22,   3,   5,   6)
24_FD_F9_FA         // ( 36,  -3,  -7,  -6)
48_E7_01_02         // ( 72, -25,   1,   2)
3C_FA_FE_00         // ( 60,  -6,  -2,   0)
11_08_0A_F9         // ( 17,   8,  10,  -7)
0B_FF_02_08         // ( 11,  -1,   2,   8)
04_0C_02_F8         // (  4,  12,   2,  -8)
04_FE_FF_01         // (  4,  -2,  -1,   1)
04_FF_04_01         // (  4,  -1,   4,   1)
03_06_02_EE         // (  3,   6,   2, -18)
08_01_FD_02         // (  8,   1,  -3,   2)
00_FD_07_F1         // (  0,  -3,   7, -15)
03_FB_01_F9         // (  3,  -5,   1,  -7)
F1_0A_08_F9         // (-15,  10,   8,  -7)
C2_06_0E_0A         // (-62,   6,  14,  10)
D0_FF_03_0B         // (-48,  -1,   3,  11)
06_EC_03_01         // (  6, -20,   3,   1)
06_FB_03_FF         // (  6,  -5,   3,  -1)
10_F8_03_03         // ( 16,  -8,   3,   3)
F7_F7_08_FB         // ( -9,  -9,   8,  -5)
EE_F9_03_00         // (-18,  -7,   3,   0)
E0_F4_FA_F3         // (-32, -12,  -6, -13)
FF_00_02_FE         // ( -1,   0,   2,  -2)
09_FF_03_08         // (  9,  -1,   3,   8)
02_FC_F7_04         // (  2,  -4,  -9,   4)
02_F5_02_02         // (  2, -11,   2,   2)
F9_04_FE_FA         // ( -7,   4,  -2,  -6)
04_00_00_F9         // (  4,   0,   0,  -7)
05_F9_03_FE         // (  5,  -7,   3,  -2)
06_03_04_03         // (  6,   3,   4,   3)
FA_05_00_03         // ( -6,   5,   0,   3)
FD_FE_FF_FE         // ( -3,  -2,  -1,  -2)
FE_FA_FD_00         // ( -2,  -6,  -3,   0)
FC_FC_02_FC         // ( -4,  -4,   2,  -4)
02_FE_01_02         // (  2,  -2,   1,   2)
02_03_FD_01         // (  2,   3,  -3,   1)
00_08_FF_04         // (  0,   8,  -1,   4)
03_02_FB_FF         // (  3,   2,  -5,  -1)
00_FC_06_00         // (  0,  -4,   6,   0)
01_FE_00_01         // (  1,  -2,   0,   1)
01_FF_06_FD         // (  1,  -1,   6,  -3)
FF_FF_06_00         // ( -1,  -1,   6,   0)
02_FF_07_FE         // (  2,  -1,   7,  -2)
FF_01_04_F8         // ( -1,   1,   4,  -8)
05_FD_FF_FD         // (  5,  -3,  -1,  -3)
02_FE_02_FF         // (  2,  -2,   2,  -1)
01_00_01_08         // (  1,   0,   1,   8)
02_FC_01_02         // (  2,  -4,   1,   2)
00_03_FD_FD         // (  0,   3,  -3,  -3)
FF_01_FF_FE         // ( -1,   1,  -1,  -2)
FE_FF_FF_FC         // ( -2,  -1,  -1,  -4)
FC_FE_00_F9         // ( -4,  -2,   0,  -7)
00_FF_F9_04         // (  0,  -1,  -7,   4)
05_FD_FF_FF         // (  5,  -3,  -1,  -1)
0B_FD_FF_FD         // ( 11,  -3,  -1,  -3)
00_00_FE_00         // (  0,   0,  -2,   0)
FC_00_FB_FE         // ( -4,   0,  -5,  -2)
FA_01_06_03         // ( -6,   1,   6,   3)
FB_04_00_04         // ( -5,   4,   0,   4)
F9_01_02_FE         // ( -7,   1,   2,  -2)
07_02_01_08         // (  7,   2,   1,   8)
F9_04_00_01         // ( -7,   4,   0,   1)
04_FD_FB_FD         // (  4,  -3,  -5,  -3)
01_05_FB_FE         // (  1,   5,  -5,  -2)
FD_01_FE_01         // ( -3,   1,  -2,   1)
08_02_00_FE         // (  8,   2,   0,  -2)
03_03_02_01         // (  3,   3,   2,   1)
FB_FE_04_09         // ( -5,  -2,   4,   9)
F1_01_02_F2         // (-15,   1,   2, -14)
F7_01_00_F8         // ( -9,   1,   0,  -8)
04_02_03_FE         // (  4,   2,   3,  -2)
FF_0A_01_01         // ( -1,  10,   1,   1)
FE_03_FF_FF         // ( -2,   3,  -1,  -1)
00_06_02_00         // (  0,   6,   2,   0)
FE_05_02_04         // ( -2,   5,   2,   4)
FB_00_FE_00         // ( -5,   0,  -2,   0)
01_FF_F9_FD         // (  1,  -1,  -7,  -3)
FE_06_FD_00         // ( -2,   6,  -3,   0)
02_00_04_00         // (  2,   0,   4,   0)
04_01_02_FD         // (  4,   1,   2,  -3)
01_00_00_02         // (  1,   0,   0,   2)
FF_00_02_FF         // ( -1,   0,   2,  -1)
FF_FF_F6_02         // ( -1,  -1, -10,   2)
FF_06_06_FC         // ( -1,   6,   6,  -4)
FF_02_04_FE         // ( -1,   2,   4,  -2)
FC_01_FF_FD         // ( -4,   1,  -1,  -3)
F9_04_0C_FD         // ( -7,   4,  12,  -3)
FD_02_08_01         // ( -3,   2,   8,   1)
03_08_FD_FD         // (  3,   8,  -3,  -3)
00_F6_04_00         // (  0, -10,   4,   0)
F9_FA_01_FD         // ( -7,  -6,   1,  -3)
01_FD_00_F9         // (  1,  -3,   0,  -7)
02_FC_0B_F7         // (  2,  -4,  11,  -9)
FE_02_FD_01         // ( -2,   2,  -3,   1)
01_FC_00_FE         // (  1,  -4,   0,  -2)
F9_0C_FB_03         // ( -7,  12,  -5,   3)
FE_0A_FE_03         // ( -2,  10,  -2,   3)
FF_FB_FF_FE         // ( -1,  -5,  -1,  -2)
FB_08_02_FB         // ( -5,   8,   2,  -5)
03_FD_04_00         // (  3,  -3,   4,   0)
FE_F6_02_FC         // ( -2, -10,   2,  -4)
03_00_FD_FC         // (  3,   0,  -3,  -4)
01_FC_FD_01         // (  1,  -4,  -3,   1)
F4_FF_FE_03         // (-12,  -1,  -2,   3)
00_04_FE_00         // (  0,   4,  -2,   0)
FF_01_00_FF         // ( -1,   1,   0,  -1)
FF_00_FF_FF         // ( -1,   0,  -1,  -1)
0C_FD_03_04         // ( 12,  -3,   3,   4)
FD_FF_02_01         // ( -3,  -1,   2,   1)
F9_03_02_FF         // ( -7,   3,   2,  -1)
04_FF_FF_05         // (  4,  -1,  -1,   5)
05_FE_01_01         // (  5,  -2,   1,   1)
FB_FF_FD_10         // ( -5,  -1,  -3,  16)
FB_02_00_0D         // ( -5,   2,   0,  13)
FC_04_FF_0F         // ( -4,   4,  -1,  15)
FE_01_00_08         // ( -2,   1,   0,   8)
F9_FD_02_FD         // ( -7,  -3,   2,  -3)
FA_FE_FD_FF         // ( -6,  -2,  -3,  -1)
FD_FC_FF_03         // ( -3,  -4,  -1,   3)
06_00_01_F8         // (  6,   0,   1,  -8)
02_01_FF_01         // (  2,   1,  -1,   1)
02_FF_FC_00         // (  2,  -1,  -4,   0)
03_FE_06_00         // (  3,  -2,   6,   0)
FF_03_0D_05         // ( -1,   3,  13,   5)
FE_FB_FF_00         // ( -2,  -5,  -1,   0)
FF_05_05_05         // ( -1,   5,   5,   5)
FE_F7_F8_03         // ( -2,  -9,  -8,   3)
FA_03_02_02         // ( -6,   3,   2,   2)
FD_FD_00_03         // ( -3,  -3,   0,   3)
FD_02_05_02         // ( -3,   2,   5,   2)
01_FC_02_06         // (  1,  -4,   2,   6)
FE_05_00_02         // ( -2,   5,   0,   2)
FB_08_FE_07         // ( -5,   8,  -2,   7)
02_05_02_02         // (  2,   5,   2,   2)
01_FF_06_FD         // (  1,  -1,   6,  -3)
02_FE_FC_00         // (  2,  -2,  -4,   0)
FE_FC_FE_05         // ( -2,  -4,  -2,   5)
FF_FD_FE_00         // ( -1,  -3,  -2,   0)
FB_FB_00_00         // ( -5,  -5,   0,   0)
01_FB_FD_FD         // (  1,  -5,  -3,  -3)
05_FC_FF_FF         // (  5,  -4,  -1,  -1)
FD_FD_00_00         // ( -3,  -3,   0,   0)
FF_FB_01_02         // ( -1,  -5,   1,   2)
00_02_02_FE         // (  0,   2,   2,  -2)
F9_02_05_FF         // ( -7,   2,   5,  -1)
FE_F9_01_05         // ( -2,  -7,   1,   5)
06_04_FF_04         // (  6,   4,  -1,   4)
00_02_04_FF         // (  0,   2,   4,  -1)
FE_FC_03_04         // ( -2,  -4,   3,   4)
FA_FF_FD_01         // ( -6,  -1,  -3,   1)
00_04_02_FD         // (  0,   4,   2,  -3)
01_FE_FD_FC         // (  1,  -2,  -3,  -4)
FF_FF_FE_FC         // ( -1,  -1,  -2,  -4)
FE_02_01_FB         // ( -2,   2,   1,  -5)
02_FF_FF_F8         // (  2,  -1,  -1,  -8)
01_01_02_FA         // (  1,   1,   2,  -6)
03_FE_FB_01         // (  3,  -2,  -5,   1)
06_FF_FC_01         // (  6,  -1,  -4,   1)
01_03_03_02         // (  1,   3,   3,   2)
01_FD_02_02         // (  1,  -3,   2,   2)
01_03_FE_FE         // (  1,   3,  -2,  -2)
FC_01_02_02         // ( -4,   1,   2,   2)
00_FD_FF_FF         // (  0,  -3,  -1,  -1)
FC_FC_02_FE         // ( -4,  -4,   2,  -2)
FC_02_03_FD         // ( -4,   2,   3,  -3)
FF_01_FE_04         // ( -1,   1,  -2,   4)
02_F5_03_05         // (  2, -11,   3,   5)
01_06_FB_02         // (  1,   6,  -5,   2)
02_05_00_FF         // (  2,   5,   0,  -1)
FD_03_01_03         // ( -3,   3,   1,   3)
01_F9_FB_03         // (  1,  -7,  -5,   3)
FD_FA_FD_02         // ( -3,  -6,  -3,   2)
03_03_02_01         // (  3,   3,   2,   1)
FA_00_00_FE         // ( -6,   0,   0,  -2)
01_FC_05_FD         // (  1,  -4,   5,  -3)
03_03_FE_00         // (  3,   3,  -2,   0)
FD_FE_01_00         // ( -3,  -2,   1,   0)
FB_08_F5_FF         // ( -5,   8, -11,  -1)
03_05_FE_FD         // (  3,   5,  -2,  -3)
01_FE_00_01         // (  1,  -2,   0,   1)
01_06_F8_03         // (  1,   6,  -8,   3)
02_01_04_FE         // (  2,   1,   4,  -2)
FF_04_03_FE         // ( -1,   4,   3,  -2)
03_01_FA_03         // (  3,   1,  -6,   3)
02_01_00_01         // (  2,   1,   0,   1)
00_FF_FE_FA         // (  0,  -1,  -2,  -6)
02_03_FA_FD         // (  2,   3,  -6,  -3)
04_FF_03_00         // (  4,  -1,   3,   0)
00_00_F7_FC         // (  0,   0,  -9,  -4)
02_FE_01_03         // (  2,  -2,   1,   3)
06_00_05_00         // (  6,   0,   5,   0)
FC_00_FC_00         // ( -4,   0,  -4,   0)
01_FF_FE_08         // (  1,  -1,  -2,   8)
FD_FE_04_08         // ( -3,  -2,   4,   8)
F7_00_00_04         // ( -9,   0,   0,   4)
F8_00_00_00         // ( -8,   0,   0,   0)
03_04_07_01         // (  3,   4,   7,   1)
02_02_FE_FE         // (  2,   2,  -2,  -2)
FD_FD_05_03         // ( -3,  -3,   5,   3)
00_02_FD_05         // (  0,   2,  -3,   5)
00_01_FF_01         // (  0,   1,  -1,   1)
FB_FE_06_FE         // ( -5,  -2,   6,  -2)
02_FF_00_FD         // (  2,  -1,   0,  -3)
F9_FE_03_FD         // ( -7,  -2,   3,  -3)
FC_FE_00_01         // ( -4,  -2,   0,   1)
F9_FC_01_FC         // ( -7,  -4,   1,  -4)
0F_FE_02_04         // ( 15,  -2,   2,   4)
08_00_00_04         // (  8,   0,   0,   4)
FE_FD_FF_02         // ( -2,  -3,  -1,   2)
04_01_FF_07         // (  4,   1,  -1,   7)
02_FD_01_09         // (  2,  -3,   1,   9)
14_FE_00_0B         // ( 20,  -2,   0,  11)
08_00_00_FF         // (  8,   0,   0,  -1)
0E_01_FF_FA         // ( 14,   1,  -1,  -6)
04_FF_00_FA         // (  4,  -1,   0,  -6)
FD_07_FB_11         // ( -3,   7,  -5,  17)
03_03_01_07         // (  3,   3,   1,   7)
06_FF_04_FD         // (  6,  -1,   4,  -3)
FE_F7_00_F9         // ( -2,  -9,   0,  -7)
00_F8_02_01         // (  0,  -8,   2,   1)
FE_FA_FE_FC         // ( -2,  -6,  -2,  -4)
01_03_FA_04         // (  1,   3,  -6,   4)
01_01_F7_FE         // (  1,   1,  -9,  -2)
FF_FF_FE_02         // ( -1,  -1,  -2,   2)
FC_FD_FF_00         // ( -4,  -3,  -1,   0)
FD_FD_02_FF         // ( -3,  -3,   2,  -1)
03_FF_05_02         // (  3,  -1,   5,   2)
02_FE_02_00         // (  2,  -2,   2,   0)
FE_01_FC_03         // ( -2,   1,  -4,   3)
0A_FD_05_02         // ( 10,  -3,   5,   2)
03_02_0B_04         // (  3,   2,  11,   4)
06_FF_03_05         // (  6,  -1,   3,   5)
FE_02_01_02         // ( -2,   2,   1,   2)
02_F9_F6_0A         // (  2,  -7, -10,  10)
07_00_FB_02         // (  7,   0,  -5,   2)
03_01_00_03         // (  3,   1,   0,   3)
FD_06_F8_05         // ( -3,   6,  -8,   5)
08_03_F9_0C         // (  8,   3,  -7,  12)
FC_FE_03_FA         // ( -4,  -2,   3,  -6)
03_0C_04_FD         // (  3,  12,   4,  -3)
04_02_FD_03         // (  4,   2,  -3,   3)
02_FD_FF_FF         // (  2,  -3,  -1,  -1)
FD_05_01_01         // ( -3,   5,   1,   1)
02_F7_FE_07         // (  2,  -9,  -2,   7)
FF_00_02_05         // ( -1,   0,   2,   5)
FC_01_00_01         // ( -4,   1,   0,   1)
00_FA_03_0B         // (  0,  -6,   3,  11)
FE_FE_FE_0A         // ( -2,  -2,  -2,  10)
00_01_FF_05         // (  0,   1,  -1,   5)
F6_01_FE_FF         // (-10,   1,  -2,  -1)
FF_02_01_0A         // ( -1,   2,   1,  10)
FD_02_FE_04         // ( -3,   2,  -2,   4)
F7_FD_02_FF         // ( -9,  -3,   2,  -1)
FE_FE_01_07         // ( -2,  -2,   1,   7)
FD_03_FF_00         // ( -3,   3,  -1,   0)
FB_05_05_FE         // ( -5,   5,   5,  -2)
04_FC_03_FD         // (  4,  -4,   3,  -3)
04_03_FE_09         // (  4,   3,  -2,   9)
04_02_06_01         // (  4,   2,   6,   1)
FF_FA_02_06         // ( -1,  -6,   2,   6)
FD_03_01_FF         // ( -3,   3,   1,  -1)
07_02_02_06         // (  7,   2,   2,   6)
00_00_05_02         // (  0,   0,   5,   2)
02_00_06_07         // (  2,   0,   6,   7)
05_02_04_FD         // (  5,   2,   4,  -3)
FB_FC_FE_FD         // ( -5,  -4,  -2,  -3)
FE_03_FD_FD         // ( -2,   3,  -3,  -3)
01_FC_06_07         // (  1,  -4,   6,   7)
03_05_FA_FB         // (  3,   5,  -6,  -5)
05_05_07_FE         // (  5,   5,   7,  -2)
01_FB_F9_03         // (  1,  -5,  -7,   3)
03_FA_00_01         // (  3,  -6,   0,   1)
07_FD_FB_01         // (  7,  -3,  -5,   1)
03_FA_08_08         // (  3,  -6,   8,   8)
FE_FD_00_05         // ( -2,  -3,   0,   5)
03_02_01_F4         // (  3,   2,   1, -12)
02_05_00_FA         // (  2,   5,   0,  -6)
FC_05_00_01         // ( -4,   5,   0,   1)
06_FA_06_FD         // (  6,  -6,   6,  -3)
01_F8_FF_FD         // (  1,  -8,  -1,  -3)
00_02_FF_FE         // (  0,   2,  -1,  -2)
00_FF_FE_05         // (  0,  -1,  -2,   5)
00_00_FA_FF         // (  0,   0,  -6,  -1)
FE_04_02_FE         // ( -2,   4,   2,  -2)
01_04_FF_FE         // (  1,   4,  -1,  -2)
03_FE_FF_05         // (  3,  -2,  -1,   5)
FC_01_00_03         // ( -4,   1,   0,   3)
FC_02_FD_FF         // ( -4,   2,  -3,  -1)
01_01_FF_01         // (  1,   1,  -1,   1)
FE_01_02_05         // ( -2,   1,   2,   5)
01_05_05_FC         // (  1,   5,   5,  -4)
09_F8_00_FE         // (  9,  -8,   0,  -2)
FE_01_FF_FE         // ( -2,   1,  -1,  -2)
03_00_00_03         // (  3,   0,   0,   3)
02_00_FD_FF         // (  2,   0,  -3,  -1)
FE_00_FF_FB         // ( -2,   0,  -1,  -5)
03_03_FE_FF         // (  3,   3,  -2,  -1)
01_FD_01_05         // (  1,  -3,   1,   5)
FE_00_00_FC         // ( -2,   0,   0,  -4)
FF_03_FE_02         // ( -1,   3,  -2,   2)
FE_00_02_06         // ( -2,   0,   2,   6)
04_FF_05_FF         // (  4,  -1,   5,  -1)
03_01_08_06         // (  3,   1,   8,   6)
FC_FF_00_FE         // ( -4,  -1,   0,  -2)
08_FE_00_04         // (  8,  -2,   0,   4)
02_FF_05_03         // (  2,  -1,   5,   3)
03_FC_00_04         // (  3,  -4,   0,   4)
05_FE_01_02         // (  5,  -2,   1,   2)
03_05_FF_00         // (  3,   5,  -1,   0)
03_00_FF_FF         // (  3,   0,  -1,  -1)
00_F0_FF_FF         // (  0, -16,  -1,  -1)
FF_03_FC_00         // ( -1,   3,  -4,   0)
FF_0E_00_01         // ( -1,  14,   0,   1)
03_0A_02_02         // (  3,  10,   2,   2)
FC_F4_FF_07         // ( -4, -12,  -1,   7)
02_FA_FF_00         // (  2,  -6,  -1,   0)
02_07_01_FD         // (  2,   7,   1,  -3)
01_07_02_04         // (  1,   7,   2,   4)
00_FF_F9_FE         // (  0,  -1,  -7,  -2)
FF_0A_0B_0C         // ( -1,  10,  11,  12)
F8_09_FE_EE         // ( -8,   9,  -2, -18)
F8_00_F4_F6         // ( -8,   0, -12, -10)
01_04_FF_FD         // (  1,   4,  -1,  -3)
02_07_F8_04         // (  2,   7,  -8,   4)
F9_F4_03_FF         // ( -7, -12,   3,  -1)
F4_05_FD_FB         // (-12,   5,  -3,  -5)
00_00_F1_FD         // (  0,   0, -15,  -3)
F6_ED_03_10         // (-10, -19,   3,  16)
F7_04_FF_0B         // ( -9,   4,  -1,  11)
F5_06_00_03         // (-11,   6,   0,   3)
04_FD_00_FA         // (  4,  -3,   0,  -6)
FE_FC_F6_10         // ( -2,  -4, -10,  16)
00_FA_FE_09         // (  0,  -6,  -2,   9)
0D_FA_01_02         // ( 13,  -6,   1,   2)
F6_06_F5_F5         // (-10,   6, -11, -11)
FA_03_EE_05         // ( -6,   3, -18,   5)
0F_FF_02_F3         // ( 15,  -1,   2, -13)
FA_FD_04_01         // ( -6,  -3,   4,   1)
01_FB_00_01         // (  1,  -5,   0,   1)
08_07_F9_FE         // (  8,   7,  -7,  -2)
FA_F9_05_00         // ( -6,  -7,   5,   0)
02_03_02_FB         // (  2,   3,   2,  -5)
FF_05_F6_02         // ( -1,   5, -10,   2)
04_05_FB_03         // (  4,   5,  -5,   3)
02_FB_01_FF         // (  2,  -5,   1,  -1)
0D_FF_FB_0A         // ( 13,  -1,  -5,  10)
FA_FE_07_08         // ( -6,  -2,   7,   8)
13_02_00_F8         // ( 19,   2,   0,  -8)
11_06_F9_13         // ( 17,   6,  -7,  19)
F6_FC_FF_08         // (-10,  -4,  -1,   8)
08_F7_FA_03         // (  8,  -9,  -6,   3)
06_FA_F8_0C         // (  6,  -6,  -8,  12)
F5_F9_02_07         // (-11,  -7,   2,   7)
04_FF_06_01         // (  4,  -1,   6,   1)
F7_00_04_07         // ( -9,   0,   4,   7)
FB_02_05_06         // ( -5,   2,   5,   6)
FC_04_04_01         // ( -4,   4,   4,   1)
F9_FF_07_08         // ( -7,  -1,   7,   8)
01_FC_0A_FA         // (  1,  -4,  10,  -6)
FB_F9_09_03         // ( -5,  -7,   9,   3)
05_FC_04_03         // (  5,  -4,   4,   3)
F3_F9_04_FB         // (-13,  -7,   4,  -5)
00_FC_FC_02         // (  0,  -4,  -4,   2)
08_05_05_03         // (  8,   5,   5,   3)
FC_FB_FA_FE         // ( -4,  -5,  -6,  -2)
04_04_FD_02         // (  4,   4,  -3,   2)
03_0B_10_04         // (  3,  11,  16,   4)
FE_02_00_0E         // ( -2,   2,   0,  14)
01_00_04_01         // (  1,   0,   4,   1)
FE_03_18_06         // ( -2,   3,  24,   6)
00_06_FA_03         // (  0,   6,  -6,   3)
FC_FB_F7_01         // ( -4,  -5,  -9,   1)
FF_00_0B_03         // ( -1,   0,  11,   3)
01_00_0D_FF         // (  1,   0,  13,  -1)
01_0E_08_04         // (  1,  14,   8,   4)
03_09_F3_09         // (  3,   9, -13,   9)
FE_05_11_FE         // ( -2,   5,  17,  -2)
FB_02_0D_FF         // ( -5,   2,  13,  -1)
F6_F8_0A_03         // (-10,  -8,  10,   3)
EF_FD_FE_F7         // (-17,  -3,  -2,  -9)
F7_05_06_FC         // ( -9,   5,   6,  -4)
FB_00_05_0B         // ( -5,   0,   5,  11)
FC_04_04_F4         // ( -4,   4,   4, -12)
FC_F3_FE_FC         // ( -4, -13,  -2,  -4)
04_0F_FF_FB         // (  4,  15,  -1,  -5)
FB_FD_01_E8         // ( -5,  -3,   1, -24)
FF_0C_00_FE         // ( -1,  12,   0,  -2)
FC_16_09_F7         // ( -4,  22,   9,  -9)
FB_07_FB_EA         // ( -5,   7,  -5, -22)
04_F8_FE_FA         // (  4,  -8,  -2,  -6)
02_02_09_FF         // (  2,   2,   9,  -1)
F3_FF_FD_FB         // (-13,  -1,  -3,  -5)
01_07_FB_03         // (  1,   7,  -5,   3)
10_F2_05_FB         // ( 16, -14,   5,  -5)
F5_FE_02_07         // (-11,  -2,   2,   7)
04_00_FD_07         // (  4,   0,  -3,   7)
01_02_06_0B         // (  1,   2,   6,  11)
F8_F7_03_FA         // ( -8,  -9,   3,  -6)
09_01_0C_07         // (  9,   1,  12,   7)
07_FB_00_FB         // (  7,  -5,   0,  -5)
FB_FC_FC_FE         // ( -5,  -4,  -4,  -2)
F7_FF_F9_F8         // ( -9,  -1,  -7,  -8)
0F_F6_FE_1D         // ( 15, -10,  -2,  29)
0A_F7_FB_1C         // ( 10,  -9,  -5,  28)
F5_FC_02_F9         // (-11,  -4,   2,  -7)
FC_FD_05_F8         // ( -4,  -3,   5,  -8)
0D_FF_05_1E         // ( 13,  -1,   5,  30)
0D_FB_FB_E5         // ( 13,  -5,  -5, -27)
12_FD_08_F3         // ( 18,  -3,   8, -13)
FA_FA_0D_F7         // ( -6,  -6,  13,  -9)
F2_00_04_04         // (-14,   0,   4,   4)
FC_0D_F0_04         // ( -4,  13, -16,   4)
05_00_00_E9         // (  5,   0,   0, -23)
FE_03_08_F7         // ( -2,   3,   8,  -9)
03_10_FC_EE         // (  3,  16,  -4, -18)
00_F4_07_F3         // (  0, -12,   7, -13)
04_00_FC_06         // (  4,   0,  -4,   6)
FE_FF_E1_FB         // ( -2,  -1, -31,  -5)
01_FD_FC_09         // (  1,  -3,  -4,   9)
06_03_01_06         // (  6,   3,   1,   6)
08_FC_08_0B         // (  8,  -4,   8,  11)
FE_02_02_0D         // ( -2,   2,   2,  13)
FC_07_FE_06         // ( -4,   7,  -2,   6)
04_05_01_F7         // (  4,   5,   1,  -9)
02_03_FD_13         // (  2,   3,  -3,  19)
03_01_F8_09         // (  3,   1,  -8,   9)
FF_FA_02_04         // ( -1,  -6,   2,   4)
DF_07_F4_03         // (-33,   7, -12,   3)
E9_01_FD_01         // (-23,   1,  -3,   1)
FA_D8_02_F5         // ( -6, -40,   2, -11)
EC_05_FF_FC         // (-20,   5,  -1,  -4)
F0_02_FE_FD         // (-16,   2,  -2,  -3)
E9_FB_00_F2         // (-23,  -5,   0, -14)
E0_F0_03_FE         // (-32, -16,   3,  -2)
02_0F_F8_00         // (  2,  15,  -8,   0)
00_0A_FD_FA         // (  0,  10,  -3,  -6)
FB_00_FF_07         // ( -5,   0,  -1,   7)
FE_03_FB_FC         // ( -2,   3,  -5,  -4)
00_06_00_FC         // (  0,   6,   0,  -4)
06_00_00_00         // (  6,   0,   0,   0)
FE_FD_04_01         // ( -2,  -3,   4,   1)
01_FF_06_02         // (  1,  -1,   6,   2)
F7_03_FF_F3         // ( -9,   3,  -1, -13)
FE_05_FF_02         // ( -2,   5,  -1,   2)
04_FD_02_F8         // (  4,  -3,   2,  -8)
0E_FD_03_0C         // ( 14,  -3,   3,  12)
F8_F6_FC_07         // ( -8, -10,  -4,   7)
F5_E5_03_04         // (-11, -27,   3,   4)
09_03_03_04         // (  9,   3,   3,   4)
FE_05_06_F9         // ( -2,   5,   6,  -7)
EA_EB_F4_0A         // (-22, -21, -12,  10)
04_FE_FE_FF         // (  4,  -2,  -2,  -1)
F3_FA_06_05         // (-13,  -6,   6,   5)
EF_E6_00_05         // (-17, -26,   0,   5)
FD_F3_F8_05         // ( -3, -13,  -8,   5)
FE_F6_FC_02         // ( -2, -10,  -4,   2)
F8_01_00_0D         // ( -8,   1,   0,  13)
F5_0A_02_05         // (-11,  10,   2,   5)
FC_04_08_01         // ( -4,   4,   8,   1)
FB_05_F7_0D         // ( -5,   5,  -9,  13)
F8_09_FF_02         // ( -8,   9,  -1,   2)
FA_FF_00_FE         // ( -6,  -1,   0,  -2)
F8_FD_FD_05         // ( -8,  -3,  -3,   5)
00_01_01_FC         // (  0,   1,   1,  -4)
01_00_00_FE         // (  1,   0,   0,  -2)
01_F4_0B_F7         // (  1, -12,  11,  -9)
00_FF_02_00         // (  0,  -1,   2,   0)
FE_05_FF_FE         // ( -2,   5,  -1,  -2)
FF_FD_FE_FB         // ( -1,  -3,  -2,  -5)
02_01_FD_04         // (  2,   1,  -3,   4)
FF_04_06_FB         // ( -1,   4,   6,  -5)
01_04_08_F7         // (  1,   4,   8,  -9)
FF_03_01_FD         // ( -1,   3,   1,  -3)
FE_02_03_FE         // ( -2,   2,   3,  -2)
FE_01_05_03         // ( -2,   1,   5,   3)
02_00_02_FA         // (  2,   0,   2,  -6)
02_FF_06_04         // (  2,  -1,   6,   4)
FE_01_05_FD         // ( -2,   1,   5,  -3)
05_FB_01_FC         // (  5,  -5,   1,  -4)
04_FE_05_F9         // (  4,  -2,   5,  -7)
05_FF_FD_FA         // (  5,  -1,  -3,  -6)
FE_01_FC_01         // ( -2,   1,  -4,   1)
FF_FD_FE_01         // ( -1,  -3,  -2,   1)
F8_00_01_FF         // ( -8,   0,   1,  -1)
03_FE_00_02         // (  3,  -2,   0,   2)
06_FD_F8_02         // (  6,  -3,  -8,   2)
FE_02_FB_FF         // ( -2,   2,  -5,  -1)
0C_02_01_04         // ( 12,   2,   1,   4)
00_01_FB_04         // (  0,   1,  -5,   4)
00_01_00_00         // (  0,   1,   0,   0)
F3_02_03_FA         // (-13,   2,   3,  -6)
00_02_01_00         // (  0,   2,   1,   0)
FF_FF_FD_04         // ( -1,  -1,  -3,   4)
FC_00_05_00         // ( -4,   0,   5,   0)
07_04_00_02         // (  7,   4,   0,   2)
10_00_01_04         // ( 16,   0,   1,   4)
FD_FF_04_00         // ( -3,  -1,   4,   0)
0C_FE_FE_03         // ( 12,  -2,  -2,   3)
06_FB_04_02         // (  6,  -5,   4,   2)
FF_02_FB_FA         // ( -1,   2,  -5,  -6)
00_01_FC_FF         // (  0,   1,  -4,  -1)
FE_FF_00_FD         // ( -2,  -1,   0,  -3)
04_FF_00_FF         // (  4,  -1,   0,  -1)
FD_02_FF_04         // ( -3,   2,  -1,   4)
FB_00_FE_FB         // ( -5,   0,  -2,  -5)
04_FF_06_04         // (  4,  -1,   6,   4)
FE_01_03_FA         // ( -2,   1,   3,  -6)
FA_FC_04_00         // ( -6,  -4,   4,   0)
FD_FD_F8_FF         // ( -3,  -3,  -8,  -1)
01_FC_03_00         // (  1,  -4,   3,   0)
00_FE_FB_05         // (  0,  -2,  -5,   5)
FC_02_F2_01         // ( -4,   2, -14,   1)
04_04_FC_01         // (  4,   4,  -4,   1)
03_02_FC_01         // (  3,   2,  -4,   1)
02_01_F0_00         // (  2,   1, -16,   0)
02_03_F7_00         // (  2,   3,  -9,   0)
FF_00_F2_FF         // ( -1,   0, -14,  -1)
05_00_07_F8         // (  5,   0,   7,  -8)
FE_01_07_FA         // ( -2,   1,   7,  -6)
0A_FD_01_02         // ( 10,  -3,   1,   2)
06_00_02_FA         // (  6,   0,   2,  -6)
03_00_F6_FB         // (  3,   0, -10,  -5)
0C_FF_0A_F8         // ( 12,  -1,  10,  -8)
06_FD_04_FA         // (  6,  -3,   4,  -6)
06_03_02_FF         // (  6,   3,   2,  -1)
01_FF_06_FA         // (  1,  -1,   6,  -6)
FE_12_04_F6         // ( -2,  18,   4, -10)
FE_02_03_FF         // ( -2,   2,   3,  -1)
00_05_FE_01         // (  0,   5,  -2,   1)
FF_FA_05_F9         // ( -1,  -6,   5,  -7)
02_00_04_01         // (  2,   0,   4,   1)
FC_02_01_FE         // ( -4,   2,   1,  -2)
FE_05_04_05         // ( -2,   5,   4,   5)
FE_08_FB_FF         // ( -2,   8,  -5,  -1)
FF_05_FD_FE         // ( -1,   5,  -3,  -2)
F9_FE_03_04         // ( -7,  -2,   3,   4)
09_02_FF_00         // (  9,   2,  -1,   0)
05_F9_03_04         // (  5,  -7,   3,   4)
F4_01_FD_FE         // (-12,   1,  -3,  -2)
FD_FF_00_00         // ( -3,  -1,   0,   0)
02_FD_FF_FE         // (  2,  -3,  -1,  -2)
EF_FD_01_05         // (-17,  -3,   1,   5)
FF_02_00_00         // ( -1,   2,   0,   0)
F6_05_05_00         // (-10,   5,   5,   0)
FC_01_03_FB         // ( -4,   1,   3,  -5)
FB_01_00_FA         // ( -5,   1,   0,  -6)
FC_00_01_01         // ( -4,   0,   1,   1)
01_FE_03_12         // (  1,  -2,   3,  18)
FF_FD_05_05         // ( -1,  -3,   5,   5)
06_04_FF_17         // (  6,   4,  -1,  23)
F6_00_03_24         // (-10,   0,   3,  36)
FB_04_00_1E         // ( -5,   4,   0,  30)
FC_00_07_26         // ( -4,   0,   7,  38)
03_04_00_FA         // (  3,   4,   0,  -6)
FD_FF_03_F8         // ( -3,  -1,   3,  -8)
03_04_04_FD         // (  3,   4,   4,  -3)
FF_FC_05_FC         // ( -1,  -4,   5,  -4)
05_01_FF_FC         // (  5,   1,  -1,  -4)
FE_02_FF_FE         // ( -2,   2,  -1,  -2)
FE_04_06_01         // ( -2,   4,   6,   1)
02_0E_04_05         // (  2,  14,   4,   5)
05_FF_F3_FF         // (  5,  -1, -13,  -1)
01_01_FB_01         // (  1,   1,  -5,   1)
03_F9_FD_08         // (  3,  -7,  -3,   8)
FE_FF_FF_F5         // ( -2,  -1,  -1, -11)
03_FF_02_F2         // (  3,  -1,   2, -14)
FA_01_02_F7         // ( -6,   1,   2,  -9)
02_01_04_F5         // (  2,   1,   4, -11)
03_FF_03_FB         // (  3,  -1,   3,  -5)
00_06_04_01         // (  0,   6,   4,   1)
00_04_02_FD         // (  0,   4,   2,  -3)
04_05_FE_00         // (  4,   5,  -2,   0)
FC_08_02_F9         // ( -4,   8,   2,  -7)
EF_FC_02_F9         // (-17,  -4,   2,  -7)
01_FB_05_FE         // (  1,  -5,   5,  -2)
02_02_05_02         // (  2,   2,   5,   2)
F9_FD_02_03         // ( -7,  -3,   2,   3)
03_FE_FF_FE         // (  3,  -2,  -1,  -2)
04_FF_00_02         // (  4,  -1,   0,   2)
00_F6_FE_05         // (  0, -10,  -2,   5)
FA_FB_FF_05         // ( -6,  -5,  -1,   5)
FC_FE_00_01         // ( -4,  -2,   0,   1)
FD_FA_FD_FC         // ( -3,  -6,  -3,  -4)
03_FE_03_FD         // (  3,  -2,   3,  -3)
00_FE_03_FA         // (  0,  -2,   3,  -6)
02_04_02_FE         // (  2,   4,   2,  -2)
03_02_01_00         // (  3,   2,   1,   0)
02_05_FE_FD         // (  2,   5,  -2,  -3)
06_00_01_02         // (  6,   0,   1,   2)
FA_FF_08_FF         // ( -6,  -1,   8,  -1)
F1_02_04_FB         // (-15,   2,   4,  -5)
FA_02_FF_FD         // ( -6,   2,  -1,  -3)
FE_00_FF_FA         // ( -2,   0,  -1,  -6)
FB_00_04_FF         // ( -5,   0,   4,  -1)
F7_FB_01_01         // ( -9,  -5,   1,   1)
04_04_07_02         // (  4,   4,   7,   2)
03_04_01_01         // (  3,   4,   1,   1)
FB_FF_00_01         // ( -5,  -1,   0,   1)
FC_05_FE_FD         // ( -4,   5,  -2,  -3)
00_01_00_03         // (  0,   1,   0,   3)
00_00_FD_FF         // (  0,   0,  -3,  -1)
FF_04_03_FE         // ( -1,   4,   3,  -2)
FB_FA_05_FC         // ( -5,  -6,   5,  -4)
00_05_FC_03         // (  0,   5,  -4,   3)
FC_FE_FD_04         // ( -4,  -2,  -3,   4)
04_08_FE_01         // (  4,   8,  -2,   1)
FD_04_02_03         // ( -3,   4,   2,   3)
02_FA_00_FD         // (  2,  -6,   0,  -3)
00_FE_06_04         // (  0,  -2,   6,   4)
01_00_03_01         // (  1,   0,   3,   1)
02_FC_FC_01         // (  2,  -4,  -4,   1)
01_FE_02_02         // (  1,  -2,   2,   2)
03_0B_02_FF         // (  3,  11,   2,  -1)
01_FA_FF_02         // (  1,  -6,  -1,   2)
06_01_FD_FF         // (  6,   1,  -3,  -1)
00_05_FD_FB         // (  0,   5,  -3,  -5)
05_01_00_F9         // (  5,   1,   0,  -7)
05_02_FD_00         // (  5,   2,  -3,   0)
03_01_00_00         // (  3,   1,   0,   0)
04_01_04_FF         // (  4,   1,   4,  -1)
04_01_FC_F8         // (  4,   1,  -4,  -8)
05_01_01_03         // (  5,   1,   1,   3)
01_FB_05_04         // (  1,  -5,   5,   4)
06_FE_05_05         // (  6,  -2,   5,   5)
FD_FD_07_02         // ( -3,  -3,   7,   2)
01_02_FB_FE         // (  1,   2,  -5,  -2)
01_FD_00_01         // (  1,  -3,   0,   1)
01_01_00_FD         // (  1,   1,   0,  -3)
02_FF_FB_FF         // (  2,  -1,  -5,  -1)
02_01_FD_04         // (  2,   1,  -3,   4)
01_00_FE_FF         // (  1,   0,  -2,  -1)
FF_01_07_01         // ( -1,   1,   7,   1)
01_FD_FF_01         // (  1,  -3,  -1,   1)
01_FF_04_01         // (  1,  -1,   4,   1)
02_00_FF_05         // (  2,   0,  -1,   5)
F6_FF_01_FF         // (-10,  -1,   1,  -1)
01_03_FE_01         // (  1,   3,  -2,   1)
00_04_FA_04         // (  0,   4,  -6,   4)
00_02_FE_00         // (  0,   2,  -2,   0)
06_00_04_05         // (  6,   0,   4,   5)
FF_0D_00_05         // ( -1,  13,   0,   5)
02_02_FE_03         // (  2,   2,  -2,   3)
FE_02_00_02         // ( -2,   2,   0,   2)
FB_03_FE_06         // ( -5,   3,  -2,   6)
02_FB_03_F9         // (  2,  -5,   3,  -7)
02_FF_FE_00         // (  2,  -1,  -2,   0)
FD_FE_00_FC         // ( -3,  -2,   0,  -4)
00_00_02_10         // (  0,   0,   2,  16)
01_05_FC_FF         // (  1,   5,  -4,  -1)
F9_FF_FE_FD         // ( -7,  -1,  -2,  -3)
F9_F8_FF_FD         // ( -7,  -8,  -1,  -3)
00_03_FE_FC         // (  0,   3,  -2,  -4)
00_FF_02_05         // (  0,  -1,   2,   5)
FF_FC_05_00         // ( -1,  -4,   5,   0)
00_02_07_FD         // (  0,   2,   7,  -3)
FE_FE_00_03         // ( -2,  -2,   0,   3)
03_02_FD_FC         // (  3,   2,  -3,  -4)
04_FE_02_FA         // (  4,  -2,   2,  -6)
FF_FF_08_01         // ( -1,  -1,   8,   1)
00_FC_FA_01         // (  0,  -4,  -6,   1)
02_FD_00_00         // (  2,  -3,   0,   0)
F7_FF_00_01         // ( -9,  -1,   0,   1)
FD_00_0C_FB         // ( -3,   0,  12,  -5)
02_06_01_01         // (  2,   6,   1,   1)
F8_04_FF_FE         // ( -8,   4,  -1,  -2)
05_F3_F7_05         // (  5, -13,  -9,   5)
04_01_00_03         // (  4,   1,   0,   3)
FE_01_00_03         // ( -2,   1,   0,   3)
03_04_FE_05         // (  3,   4,  -2,   5)
08_05_02_FE         // (  8,   5,   2,  -2)
FF_F8_FB_FE         // ( -1,  -8,  -5,  -2)
FF_FC_00_07         // ( -1,  -4,   0,   7)
02_02_01_01         // (  2,   2,   1,   1)
03_FC_06_04         // (  3,  -4,   6,   4)
06_01_00_03         // (  6,   1,   0,   3)
FE_05_01_00         // ( -2,   5,   1,   0)
01_FF_07_07         // (  1,  -1,   7,   7)
FE_FB_FE_07         // ( -2,  -5,  -2,   7)
00_05_03_01         // (  0,   5,   3,   1)
05_FE_01_FB         // (  5,  -2,   1,  -5)
FD_FC_01_02         // ( -3,  -4,   1,   2)
04_04_01_01         // (  4,   4,   1,   1)
05_02_00_FA         // (  5,   2,   0,  -6)
F9_01_02_FD         // ( -7,   1,   2,  -3)
04_04_FC_FF         // (  4,   4,  -4,  -1)
00_02_03_01         // (  0,   2,   3,   1)
FF_FF_00_FD         // ( -1,  -1,   0,  -3)
FC_00_FE_01         // ( -4,   0,  -2,   1)
FD_00_01_F3         // ( -3,   0,   1, -13)
FB_FF_02_EF         // ( -5,  -1,   2, -17)
FF_00_02_FB         // ( -1,   0,   2,  -5)
03_FF_03_EF         // (  3,  -1,   3, -17)
01_01_03_F4         // (  1,   1,   3, -12)
01_01_01_F8         // (  1,   1,   1,  -8)
02_00_03_EA         // (  2,   0,   3, -22)
01_FB_02_EC         // (  1,  -5,   2, -20)
03_04_03_FA         // (  3,   4,   3,  -6)
02_02_FE_0B         // (  2,   2,  -2,  11)
02_FE_FF_07         // (  2,  -2,  -1,   7)
00_F8_03_10         // (  0,  -8,   3,  16)
02_00_FE_0B         // (  2,   0,  -2,  11)
00_FC_FF_05         // (  0,  -4,  -1,   5)
FF_03_05_08         // ( -1,   3,   5,   8)
05_F8_F9_07         // (  5,  -8,  -7,   7)
FE_00_FD_06         // ( -2,   0,  -3,   6)
01_01_FF_05         // (  1,   1,  -1,   5)
FE_06_01_FF         // ( -2,   6,   1,  -1)
00_04_FE_FD         // (  0,   4,  -2,  -3)
FF_FF_03_FE         // ( -1,  -1,   3,  -2)
04_FE_FD_04         // (  4,  -2,  -3,   4)
01_F8_05_01         // (  1,  -8,   5,   1)
03_FE_03_01         // (  3,  -2,   3,   1)
05_02_FF_FB         // (  5,   2,  -1,  -5)
01_01_FC_FE         // (  1,   1,  -4,  -2)
01_FF_03_FB         // (  1,  -1,   3,  -5)
07_00_FF_02         // (  7,   0,  -1,   2)
0A_04_FE_FF         // ( 10,   4,  -2,  -1)
06_02_03_06         // (  6,   2,   3,   6)
03_FE_05_00         // (  3,  -2,   5,   0)
0B_04_FD_FE         // ( 11,   4,  -3,  -2)
06_FD_FD_FF         // (  6,  -3,  -3,  -1)
02_FC_FF_00         // (  2,  -4,  -1,   0)
09_FE_00_02         // (  9,  -2,   0,   2)
04_F9_00_03         // (  4,  -7,   0,   3)
05_FE_01_04         // (  5,  -2,   1,   4)
FD_00_04_03         // ( -3,   0,   4,   3)
FE_FF_FD_04         // ( -2,  -1,  -3,   4)
00_00_FC_01         // (  0,   0,  -4,   1)
01_03_01_FE         // (  1,   3,   1,  -2)
00_01_00_02         // (  0,   1,   0,   2)
FB_03_FF_04         // ( -5,   3,  -1,   4)
FF_FF_FD_02         // ( -1,  -1,  -3,   2)
FF_00_00_01         // ( -1,   0,   0,   1)
01_FF_FE_FB         // (  1,  -1,  -2,  -5)
04_01_FF_FC         // (  4,   1,  -1,  -4)
01_02_02_F9         // (  1,   2,   2,  -7)
FA_FC_FF_00         // ( -6,  -4,  -1,   0)
02_FC_02_FF         // (  2,  -4,   2,  -1)
04_FE_06_FB         // (  4,  -2,   6,  -5)
FD_FB_FD_02         // ( -3,  -5,  -3,   2)
04_FC_01_01         // (  4,  -4,   1,   1)
02_FE_02_FD         // (  2,  -2,   2,  -3)
01_FB_FF_01         // (  1,  -5,  -1,   1)
FE_0D_FF_02         // ( -2,  13,  -1,   2)
01_00_FD_FD         // (  1,   0,  -3,  -3)
01_06_02_FE         // (  1,   6,   2,  -2)
00_ED_FC_FD         // (  0, -19,  -4,  -3)
FF_02_04_FB         // ( -1,   2,   4,  -5)
FB_FF_02_01         // ( -5,  -1,   2,   1)
00_06_04_00         // (  0,   6,   4,   0)
00_04_FC_00         // (  0,   4,  -4,   0)
F9_0D_06_FF         // ( -7,  13,   6,  -1)
FD_03_0E_F4         // ( -3,   3,  14, -12)
03_01_0A_FD         // (  3,   1,  10,  -3)
02_FE_FD_F7         // (  2,  -2,  -3,  -9)
06_09_03_FE         // (  6,   9,   3,  -2)
FD_FE_FF_FF         // ( -3,  -2,  -1,  -1)
F6_FC_03_F9         // (-10,  -4,   3,  -7)
FE_03_0D_02         // ( -2,   3,  13,   2)
02_03_05_00         // (  2,   3,   5,   0)
F2_01_FC_02         // (-14,   1,  -4,   2)
FA_06_F9_FF         // ( -6,   6,  -7,  -1)
03_03_F5_02         // (  3,   3, -11,   2)
FA_FA_F6_0B         // ( -6,  -6, -10,  11)
FA_FB_FD_1F         // ( -6,  -5,  -3,  31)
FC_00_F2_08         // ( -4,   0, -14,   8)
F3_FD_FC_FE         // (-13,  -3,  -4,  -2)
EF_05_FB_04         // (-17,   5,  -5,   4)
07_01_F9_03         // (  7,   1,  -7,   3)
F4_02_FA_FF         // (-12,   2,  -6,  -1)
03_FF_F7_07         // (  3,  -1,  -9,   7)
F9_07_00_04         // ( -7,   7,   0,   4)
F9_F8_FD_FF         // ( -7,  -8,  -3,  -1)
F1_FB_0A_01         // (-15,  -5,  10,   1)
FE_FE_05_FA         // ( -2,  -2,   5,  -6)
F8_03_FE_F9         // ( -8,   3,  -2,  -7)
F9_04_00_02         // ( -7,   4,   0,   2)
00_FF_01_FF         // (  0,  -1,   1,  -1)
04_FF_0B_FC         // (  4,  -1,  11,  -4)
15_02_00_FC         // ( 21,   2,   0,  -4)
07_FD_FD_02         // (  7,  -3,  -3,   2)
09_F2_FA_F3         // (  9, -14,  -6, -13)
FA_FB_08_0E         // ( -6,  -5,   8,  14)
09_FF_03_03         // (  9,  -1,   3,   3)
0F_FC_01_F8         // ( 15,  -4,   1,  -8)
07_04_FF_FA         // (  7,   4,  -1,  -6)
0E_FF_04_00         // ( 14,  -1,   4,   0)
FF_FB_03_01         // ( -1,  -5,   3,   1)
FE_FF_FC_0C         // ( -2,  -1,  -4,  12)
04_FF_00_FF         // (  4,  -1,   0,  -1)
FC_03_FA_03         // ( -4,   3,  -6,   3)
FC_F8_00_F7         // ( -4,  -8,   0,  -9)
05_FE_FF_FA         // (  5,  -2,  -1,  -6)
F2_F9_09_FC         // (-14,  -7,   9,  -4)
FB_03_02_FE         // ( -5,   3,   2,  -2)
04_04_01_F8         // (  4,   4,   1,  -8)
FC_02_F6_F9         // ( -4,   2, -10,  -7)
02_FF_0A_FD         // (  2,  -1,  10,  -3)
FE_F9_F7_00         // ( -2,  -7,  -9,   0)
00_FD_F1_03         // (  0,  -3, -15,   3)
05_02_03_F7         // (  5,   2,   3,  -9)
02_FC_FE_FB         // (  2,  -4,  -2,  -5)
03_FA_06_01         // (  3,  -6,   6,   1)
00_FE_FA_01         // (  0,  -2,  -6,   1)
FE_FA_FF_FA         // ( -2,  -6,  -1,  -6)
F9_FF_06_07         // ( -7,  -1,   6,   7)
FC_F9_FA_04         // ( -4,  -7,  -6,   4)
FB_01_07_FB         // ( -5,   1,   7,  -5)
FC_00_0F_03         // ( -4,   0,  15,   3)
FB_13_FC_F6         // ( -5,  19,  -4, -10)
FD_FA_0D_FB         // ( -3,  -6,  13,  -5)
FA_F7_08_FC         // ( -6,  -9,   8,  -4)
02_02_0C_FA         // (  2,   2,  12,  -6)
FF_FA_0B_01         // ( -1,  -6,  11,   1)
01_06_FB_0C         // (  1,   6,  -5,  12)
02_06_FF_05         // (  2,   6,  -1,   5)
FF_F8_00_00         // ( -1,  -8,   0,   0)
FD_13_FB_F5         // ( -3,  19,  -5, -11)
FF_01_FF_07         // ( -1,   1,  -1,   7)
FD_16_FD_00         // ( -3,  22,  -3,   0)
F0_09_01_FD         // (-16,   9,   1,  -3)
00_0B_F9_01         // (  0,  11,  -7,   1)
FB_08_01_FD         // ( -5,   8,   1,  -3)
FA_00_00_F9         // ( -6,   0,   0,  -7)
18_FF_00_0C         // ( 24,  -1,   0,  12)
07_03_00_01         // (  7,   3,   0,   1)
FF_06_FB_07         // ( -1,   6,  -5,   7)
F6_02_01_FC         // (-10,   2,   1,  -4)
F7_FE_03_02         // ( -9,  -2,   3,   2)
03_F1_FF_ED         // (  3, -15,  -1, -19)
FC_03_00_04         // ( -4,   3,   0,   4)
02_01_00_FE         // (  2,   1,   0,  -2)
03_05_04_E6         // (  3,   5,   4, -26)
FB_FE_01_FF         // ( -5,  -2,   1,  -1)
FA_FE_FE_FA         // ( -6,  -2,  -2,  -6)
F5_F9_F3_D7         // (-11,  -7, -13, -41)
FD_02_FC_E8         // ( -3,   2,  -4, -24)
02_FE_01_F7         // (  2,  -2,   1,  -9)
07_06_FC_F4         // (  7,   6,  -4, -12)
00_02_F8_F4         // (  0,   2,  -8, -12)
FF_FE_02_FF         // ( -1,  -2,   2,  -1)
0B_00_FA_FD         // ( 11,   0,  -6,  -3)
0A_0A_01_03         // ( 10,  10,   1,   3)
02_03_06_03         // (  2,   3,   6,   3)
0C_06_10_FB         // ( 12,   6,  16,  -5)
FD_FF_F1_01         // ( -3,  -1, -15,   1)
01_FD_00_04         // (  1,  -3,   0,   4)
F9_FD_02_FA         // ( -7,  -3,   2,  -6)
04_FB_0F_FC         // (  4,  -5,  15,  -4)
FF_02_F4_03         // ( -1,   2, -12,   3)
FE_FC_FB_04         // ( -2,  -4,  -5,   4)
FA_FA_FB_03         // ( -6,  -6,  -5,   3)
FB_FB_FE_01         // ( -5,  -5,  -2,   1)
FF_02_FF_09         // ( -1,   2,  -1,   9)
FD_00_F8_06         // ( -3,   0,  -8,   6)
FA_FD_01_01         // ( -6,  -3,   1,   1)
F7_FA_F9_FE         // ( -9,  -6,  -7,  -2)
FB_03_05_FF         // ( -5,   3,   5,  -1)
FE_FB_FF_01         // ( -2,  -5,  -1,   1)
FF_0A_F5_F9         // ( -1,  10, -11,  -7)
10_08_02_03         // ( 16,   8,   2,   3)
F9_01_04_00         // ( -7,   1,   4,   0)
F5_02_07_0C         // (-11,   2,   7,  12)
FE_0D_00_FD         // ( -2,  13,   0,  -3)
02_06_FE_01         // (  2,   6,  -2,   1)
FA_08_F7_FB         // ( -6,   8,  -9,  -5)
F7_05_FE_FD         // ( -9,   5,  -2,  -3)
FF_00_FF_FF         // ( -1,   0,  -1,  -1)
04_00_0F_0C         // (  4,   0,  15,  12)
06_02_FC_EC         // (  6,   2,  -4, -20)
FF_FC_06_02         // ( -1,  -4,   6,   2)
02_F4_F8_FB         // (  2, -12,  -8,  -5)
02_FB_FF_0F         // (  2,  -5,  -1,  15)
00_F8_FB_02         // (  0,  -8,  -5,   2)
F2_F7_FF_00         // (-14,  -9,  -1,   0)
FF_FC_00_FC         // ( -1,  -4,   0,  -4)
FA_02_03_FA         // ( -6,   2,   3,  -6)
FA_01_FF_07         // ( -6,   1,  -1,   7)
0C_FE_FF_FC         // ( 12,  -2,  -1,  -4)
00_06_02_01         // (  0,   6,   2,   1)
F8_FE_FD_FF         // ( -8,  -2,  -3,  -1)
04_00_02_FF         // (  4,   0,   2,  -1)
08_FF_FF_FD         // (  8,  -1,  -1,  -3)
0C_01_FD_03         // ( 12,   1,  -3,   3)
FB_04_04_FF         // ( -5,   4,   4,  -1)
06_0B_00_F6         // (  6,  11,   0, -10)
00_00_FB_01         // (  0,   0,  -5,   1)
FF_F1_FF_FC         // ( -1, -15,  -1,  -4)
01_FF_01_FF         // (  1,  -1,   1,  -1)
F7_FB_0D_02         // ( -9,  -5,  13,   2)
00_12_05_02         // (  0,  18,   5,   2)
05_03_01_FB         // (  5,   3,   1,  -5)
F3_FF_F2_F3         // (-13,  -1, -14, -13)
01_00_07_F9         // (  1,   0,   7,  -7)
FF_FD_FE_FD         // ( -1,  -3,  -2,  -3)
FF_FC_FF_FF         // ( -1,  -4,  -1,  -1)
05_04_FA_00         // (  5,   4,  -6,   0)
00_02_FC_00         // (  0,   2,  -4,   0)
01_FB_F8_FF         // (  1,  -5,  -8,  -1)
01_04_F9_02         // (  1,   4,  -7,   2)
F6_FE_FE_05         // (-10,  -2,  -2,   5)
F9_03_F3_02         // ( -7,   3, -13,   2)
FC_06_F9_09         // ( -4,   6,  -7,   9)
F6_FD_FE_0F         // (-10,  -3,  -2,  15)
0A_05_FA_00         // ( 10,   5,  -6,   0)
09_02_FC_01         // (  9,   2,  -4,   1)
FF_02_03_FE         // ( -1,   2,   3,  -2)
13_00_03_F4         // ( 19,   0,   3, -12)
01_07_05_0C         // (  1,   7,   5,  12)
03_01_0C_03         // (  3,   1,  12,   3)
0D_02_02_02         // ( 13,   2,   2,   2)
08_00_01_06         // (  8,   0,   1,   6)
04_00_FF_01         // (  4,   0,  -1,   1)
F8_01_02_F7         // ( -8,   1,   2,  -9)
03_05_FF_FD         // (  3,   5,  -1,  -3)
FF_FE_F7_FF         // ( -1,  -2,  -9,  -1)
08_0C_FA_FA         // (  8,  12,  -6,  -6)
07_03_0A_FD         // (  7,   3,  10,  -3)
05_F8_00_00         // (  5,  -8,   0,   0)
06_09_00_01         // (  6,   9,   0,   1)
07_FC_FB_FE         // (  7,  -4,  -5,  -2)
0E_00_F6_FB         // ( 14,   0, -10,  -5)
04_00_FE_03         // (  4,   0,  -2,   3)
04_FE_03_FC         // (  4,  -2,   3,  -4)
FE_FA_FA_02         // ( -2,  -6,  -6,   2)
0E_00_02_00         // ( 14,   0,   2,   0)
F4_FC_05_0A         // (-12,  -4,   5,  10)
FC_FE_FE_00         // ( -4,  -2,  -2,   0)
F4_FF_FB_08         // (-12,  -1,  -5,   8)
FF_01_FD_03         // ( -1,   1,  -3,   3)
01_FF_FC_02         // (  1,  -1,  -4,   2)
09_02_FA_FE         // (  9,   2,  -6,  -2)
02_03_03_09         // (  2,   3,   3,   9)
02_01_04_08         // (  2,   1,   4,   8)
04_00_F8_0B         // (  4,   0,  -8,  11)
01_07_FD_F8         // (  1,   7,  -3,  -8)
01_FB_FB_03         // (  1,  -5,  -5,   3)
01_00_FE_03         // (  1,   0,  -2,   3)
07_03_04_01         // (  7,   3,   4,   1)
0E_FC_00_02         // ( 14,  -4,   0,   2)
02_04_05_03         // (  2,   4,   5,   3)
03_FE_0E_FF         // (  3,  -2,  14,  -1)
02_03_07_FB         // (  2,   3,   7,  -5)
01_03_03_01         // (  1,   3,   3,   1)
04_05_F8_02         // (  4,   5,  -8,   2)
05_04_01_02         // (  5,   4,   1,   2)
FF_02_F8_FF         // ( -1,   2,  -8,  -1)
03_FF_FF_03         // (  3,  -1,  -1,   3)
FA_FF_F4_FA         // ( -6,  -1, -12,  -6)
02_FF_F5_00         // (  2,  -1, -11,   0)
FE_FF_00_03         // ( -2,  -1,   0,   3)
00_FE_F8_FB         // (  0,  -2,  -8,  -5)
03_00_03_03         // (  3,   0,   3,   3)
03_0C_FA_02         // (  3,  12,  -6,   2)
FF_02_FC_FB         // ( -1,   2,  -4,  -5)
01_FF_00_00         // (  1,  -1,   0,   0)
FF_01_01_FD         // ( -1,   1,   1,  -3)
FE_FB_05_F3         // ( -2,  -5,   5, -13)
04_F7_07_04         // (  4,  -9,   7,   4)
02_FF_04_0A         // (  2,  -1,   4,  10)
FC_FF_02_09         // ( -4,  -1,   2,   9)
FF_0F_FB_0D         // ( -1,  15,  -5,  13)
01_FE_04_00         // (  1,  -2,   4,   0)
FE_03_FA_09         // ( -2,   3,  -6,   9)
FE_F9_FD_0A         // ( -2,  -7,  -3,  10)
FD_FE_FD_0D         // ( -3,  -2,  -3,  13)
FC_06_FF_F9         // ( -4,   6,  -1,  -7)
FD_01_05_03         // ( -3,   1,   5,   3)
01_FC_FB_04         // (  1,  -4,  -5,   4)
01_FC_01_01         // (  1,  -4,   1,   1)
02_FF_05_05         // (  2,  -1,   5,   5)
10_04_F7_05         // ( 16,   4,  -9,   5)
06_FC_FC_F5         // (  6,  -4,  -4, -11)
F5_00_FA_FF         // (-11,   0,  -6,  -1)
F3_05_FB_FC         // (-13,   5,  -5,  -4)
F8_05_01_00         // ( -8,   5,   1,   0)
03_03_02_0D         // (  3,   3,   2,  13)
09_FF_08_09         // (  9,  -1,   8,   9)
04_02_03_FC         // (  4,   2,   3,  -4)
FB_05_FF_F3         // ( -5,   5,  -1, -13)
FD_FE_00_04         // ( -3,  -2,   0,   4)
F9_01_01_06         // ( -7,   1,   1,   6)
00_03_FA_16         // (  0,   3,  -6,  22)
F7_FD_02_F8         // ( -9,  -3,   2,  -8)
F9_FE_FD_F6         // ( -7,  -2,  -3, -10)
05_F7_F8_0B         // (  5,  -9,  -8,  11)
FD_FA_FE_04         // ( -3,  -6,  -2,   4)
FB_05_00_06         // ( -5,   5,   0,   6)
02_09_01_07         // (  2,   9,   1,   7)
F6_FE_FC_02         // (-10,  -2,  -4,   2)
01_08_FD_FE         // (  1,   8,  -3,  -2)
07_FD_F6_07         // (  7,  -3, -10,   7)
00_07_03_05         // (  0,   7,   3,   5)
FE_F5_F7_FB         // ( -2, -11,  -9,  -5)
FB_00_00_06         // ( -5,   0,   0,   6)
FE_02_FF_F8         // ( -2,   2,  -1,  -8)
02_FB_06_FD         // (  2,  -5,   6,  -3)
FB_FA_F8_FB         // ( -5,  -6,  -8,  -5)
FF_07_FD_08         // ( -1,   7,  -3,   8)
04_00_00_FC         // (  4,   0,   0,  -4)
01_00_01_FD         // (  1,   0,   1,  -3)
01_06_00_00         // (  1,   6,   0,   0)
01_00_01_FC         // (  1,   0,   1,  -4)
0B_04_04_02         // ( 11,   4,   4,   2)
05_02_00_01         // (  5,   2,   0,   1)
0F_FD_FA_FD         // ( 15,  -3,  -6,  -3)
18_08_04_FB         // ( 24,   8,   4,  -5)
04_07_01_FD         // (  4,   7,   1,  -3)
07_02_05_FD         // (  7,   2,   5,  -3)
04_03_02_01         // (  4,   3,   2,   1)
0A_07_04_FE         // ( 10,   7,   4,  -2)
0B_0D_FB_FC         // ( 11,  13,  -5,  -4)
06_01_FE_00         // (  6,   1,  -2,   0)
03_01_03_F9         // (  3,   1,   3,  -7)
09_FC_F6_01         // (  9,  -4, -10,   1)
01_01_04_F6         // (  1,   1,   4, -10)
05_02_F9_12         // (  5,   2,  -7,  18)
02_05_FE_FE         // (  2,   5,  -2,  -2)
00_04_02_FB         // (  0,   4,   2,  -5)
04_FF_FE_FC         // (  4,  -1,  -2,  -4)
01_FE_03_FD         // (  1,  -2,   3,  -3)
F8_FA_07_FC         // ( -8,  -6,   7,  -4)
F6_FD_01_FD         // (-10,  -3,   1,  -3)
FB_F9_FD_00         // ( -5,  -7,  -3,   0)
FB_FC_02_FC         // ( -5,  -4,   2,  -4)
F8_02_07_06         // ( -8,   2,   7,   6)
12_FF_00_05         // ( 18,  -1,   0,   5)
FC_03_02_FD         // ( -4,   3,   2,  -3)
ED_05_01_01         // (-19,   5,   1,   1)
FA_FC_06_01         // ( -6,  -4,   6,   1)
FE_05_08_FB         // ( -2,   5,   8,  -5)
00_F6_FE_FE         // (  0, -10,  -2,  -2)
FE_00_01_FD         // ( -2,   0,   1,  -3)
02_F9_01_FD         // (  2,  -7,   1,  -3)
03_0B_09_FD         // (  3,  11,   9,  -3)
F9_FC_FD_08         // ( -7,  -4,  -3,   8)
F8_FD_06_FB         // ( -8,  -3,   6,  -5)
05_FD_FF_FF         // (  5,  -3,  -1,  -1)
F9_FA_FC_01         // ( -7,  -6,  -4,   1)
00_FC_F8_F6         // (  0,  -4,  -8, -10)
00_0A_06_00         // (  0,  10,   6,   0)
0A_06_0C_04         // ( 10,   6,  12,   4)
04_FC_EE_FB         // (  4,  -4, -18,  -5)
00_F9_02_FA         // (  0,  -7,   2,  -6)
03_02_FB_06         // (  3,   2,  -5,   6)
03_F9_FC_FB         // (  3,  -7,  -4,  -5)
03_00_05_FC         // (  3,   0,   5,  -4)
07_03_01_FF         // (  7,   3,   1,  -1)
02_FB_F8_03         // (  2,  -5,  -8,   3)
FC_FE_F4_00         // ( -4,  -2, -12,   0)
FD_FC_F4_07         // ( -3,  -4, -12,   7)
FE_FF_FB_F8         // ( -2,  -1,  -5,  -8)
FF_F9_F7_08         // ( -1,  -7,  -9,   8)
FB_FE_06_02         // ( -5,  -2,   6,   2)
FE_03_FE_FD         // ( -2,   3,  -2,  -3)
FD_02_FF_04         // ( -3,   2,  -1,   4)
FB_FE_F9_07         // ( -5,  -2,  -7,   7)
FE_08_FC_F6         // ( -2,   8,  -4, -10)
01_FF_FB_00         // (  1,  -1,  -5,   0)
FB_06_F9_02         // ( -5,   6,  -7,   2)
04_FB_FC_FD         // (  4,  -5,  -4,  -3)
FD_00_FF_00         // ( -3,   0,  -1,   0)
F3_F7_FE_FE         // (-13,  -9,  -2,  -2)
FF_01_00_FE         // ( -1,   1,   0,  -2)
FF_FE_00_01         // ( -1,  -2,   0,   1)
FB_FF_FC_FF         // ( -5,  -1,  -4,  -1)
06_03_01_FB         // (  6,   3,   1,  -5)
08_03_08_FF         // (  8,   3,   8,  -1)
0E_F9_02_F9         // ( 14,  -7,   2,  -7)
09_03_03_FE         // (  9,   3,   3,  -2)
F4_FF_FB_09         // (-12,  -1,  -5,   9)
FC_FD_04_F8         // ( -4,  -3,   4,  -8)
10_00_02_04         // ( 16,   0,   2,   4)
FF_02_FF_01         // ( -1,   2,  -1,   1)
FC_FC_FE_00         // ( -4,  -4,  -2,   0)
FC_F8_FB_00         // ( -4,  -8,  -5,   0)
FA_00_F9_01         // ( -6,   0,  -7,   1)
F4_02_FA_FF         // (-12,   2,  -6,  -1)
FB_FC_F8_FC         // ( -5,  -4,  -8,  -4)
FE_00_00_00         // ( -2,   0,   0,   0)
F3_00_FB_FF         // (-13,   0,  -5,  -1)
01_FE_00_01         // (  1,  -2,   0,   1)
FC_00_FF_01         // ( -4,   0,  -1,   1)
FB_05_FE_FF         // ( -5,   5,  -2,  -1)
FE_05_FB_FA         // ( -2,   5,  -5,  -6)
01_FE_FB_FD         // (  1,  -2,  -5,  -3)
F7_04_EB_F7         // ( -9,   4, -21,  -9)
FF_00_03_FC         // ( -1,   0,   3,  -4)
00_08_F6_FD         // (  0,   8, -10,  -3)
02_FF_EC_00         // (  2,  -1, -20,   0)
FC_FE_12_F8         // ( -4,  -2,  18,  -8)
03_FE_01_02         // (  3,  -2,   1,   2)
01_FE_FC_FE         // (  1,  -2,  -4,  -2)
FF_02_09_03         // ( -1,   2,   9,   3)
FC_04_04_07         // ( -4,   4,   4,   7)
07_07_03_FF         // (  7,   7,   3,  -1)
01_FE_FF_03         // (  1,  -2,  -1,   3)
FF_FF_09_FE         // ( -1,  -1,   9,  -2)
FF_FF_01_FD         // ( -1,  -1,   1,  -3)
03_FD_04_04         // (  3,  -3,   4,   4)
01_FC_FE_02         // (  1,  -4,  -2,   2)
00_FF_01_00         // (  0,  -1,   1,   0)
FF_FC_FE_FF         // ( -1,  -4,  -2,  -1)
02_07_01_01         // (  2,   7,   1,   1)
02_FE_FA_FA         // (  2,  -2,  -6,  -6)
FD_F6_03_FE         // ( -3, -10,   3,  -2)
02_03_FF_FE         // (  2,   3,  -1,  -2)
01_F4_FA_F7         // (  1, -12,  -6,  -9)
FA_FD_FF_01         // ( -6,  -3,  -1,   1)
00_FB_01_05         // (  0,  -5,   1,   5)
01_FB_FB_FB         // (  1,  -5,  -5,  -5)
06_02_FE_0C         // (  6,   2,  -2,  12)
03_00_02_09         // (  3,   0,   2,   9)
F6_01_F8_06         // (-10,   1,  -8,   6)
F4_02_01_02         // (-12,   2,   1,   2)
05_FF_FB_02         // (  5,  -1,  -5,   2)
F7_00_FE_05         // ( -9,   0,  -2,   5)
02_01_01_04         // (  2,   1,   1,   4)
07_00_01_03         // (  7,   0,   1,   3)
FD_01_F9_07         // ( -3,   1,  -7,   7)
00_FB_FF_FC         // (  0,  -5,  -1,  -4)
FE_FF_00_1B         // ( -2,  -1,   0,  27)
FA_FB_FE_18         // ( -6,  -5,  -2,  24)
FE_05_00_03         // ( -2,   5,   0,   3)
FE_01_03_02         // ( -2,   1,   3,   2)
F2_01_FA_04         // (-14,   1,  -6,   4)
FE_05_04_0C         // ( -2,   5,   4,  12)
05_F9_06_0C         // (  5,  -7,   6,  12)
FB_07_FD_EF         // ( -5,   7,  -3, -17)
FC_03_ED_07         // ( -4,   3, -19,   7)
01_FF_F5_FE         // (  1,  -1, -11,  -2)
02_03_F8_06         // (  2,   3,  -8,   6)
FF_02_EB_FF         // ( -1,   2, -21,  -1)
F9_04_FE_FD         // ( -7,   4,  -2,  -3)
FF_08_0C_05         // ( -1,   8,  12,   5)
0C_00_F7_03         // ( 12,   0,  -9,   3)
FF_01_02_FB         // ( -1,   1,   2,  -5)
03_06_00_FC         // (  3,   6,   0,  -4)
02_FC_F9_02         // (  2,  -4,  -7,   2)
00_FD_FD_F9         // (  0,  -3,  -3,  -7)
FB_01_05_02         // ( -5,   1,   5,   2)
FC_FC_02_00         // ( -4,  -4,   2,   0)
01_06_00_02         // (  1,   6,   0,   2)
00_07_03_FC         // (  0,   7,   3,  -4)
FC_00_01_FF         // ( -4,   0,   1,  -1)
F8_01_01_01         // ( -8,   1,   1,   1)
FF_FE_FC_00         // ( -1,  -2,  -4,   0)
13_04_00_0A         // ( 19,   4,   0,  10)
0D_06_FF_00         // ( 13,   6,  -1,   0)
11_09_00_11         // ( 17,   9,   0,  17)
FF_06_00_03         // ( -1,   6,   0,   3)
08_06_01_00         // (  8,   6,   1,   0)
FF_08_03_05         // ( -1,   8,   3,   5)
0C_0C_03_02         // ( 12,  12,   3,   2)
06_FF_04_FB         // (  6,  -1,   4,  -5)
0D_05_01_FE         // ( 13,   5,   1,  -2)
01_03_05_FD         // (  1,   3,   5,  -3)
FE_03_05_0B         // ( -2,   3,   5,  11)
03_04_05_09         // (  3,   4,   5,   9)
FC_FD_08_04         // ( -4,  -3,   8,   4)
FB_02_02_04         // ( -5,   2,   2,   4)
FE_FB_FF_01         // ( -2,  -5,  -1,   1)
00_04_03_00         // (  0,   4,   3,   0)
FC_00_03_FF         // ( -4,   0,   3,  -1)
FE_01_02_FA         // ( -2,   1,   2,  -6)
02_F9_06_F9         // (  2,  -7,   6,  -7)
02_0A_01_FD         // (  2,  10,   1,  -3)
F2_05_06_FE         // (-14,   5,   6,  -2)
FF_F6_FE_F9         // ( -1, -10,  -2,  -7)
05_02_02_01         // (  5,   2,   2,   1)
FA_0B_02_F9         // ( -6,  11,   2,  -7)
01_FD_00_02         // (  1,  -3,   0,   2)
FE_FF_00_01         // ( -2,  -1,   0,   1)
FD_0B_00_FE         // ( -3,  11,   0,  -2)
02_FD_08_FE         // (  2,  -3,   8,  -2)
FF_FE_03_FF         // ( -1,  -2,   3,  -1)
05_FF_00_00         // (  5,  -1,   0,   0)
02_FF_01_02         // (  2,  -1,   1,   2)
01_FC_01_FC         // (  1,  -4,   1,  -4)
04_00_07_FD         // (  4,   0,   7,  -3)
04_00_FF_FE         // (  4,   0,  -1,  -2)
00_01_FD_04         // (  0,   1,  -3,   4)
03_02_FF_06         // (  3,   2,  -1,   6)
02_03_08_00         // (  2,   3,   8,   0)
07_02_00_02         // (  7,   2,   0,   2)
03_00_FF_00         // (  3,   0,  -1,   0)
07_FF_03_FC         // (  7,  -1,   3,  -4)
09_02_07_02         // (  9,   2,   7,   2)
01_00_03_FF         // (  1,   0,   3,  -1)
06_F9_03_01         // (  6,  -7,   3,   1)
04_FE_08_01         // (  4,  -2,   8,   1)
03_FA_04_FB         // (  3,  -6,   4,  -5)
FD_FD_FA_00         // ( -3,  -3,  -6,   0)
FF_01_FD_05         // ( -1,   1,  -3,   5)
03_01_04_FD         // (  3,   1,   4,  -3)
F9_02_02_FE         // ( -7,   2,   2,  -2)
FF_F8_FC_06         // ( -1,  -8,  -4,   6)
06_03_06_FE         // (  6,   3,   6,  -2)
F5_FE_05_0A         // (-11,  -2,   5,  10)
FA_04_FC_07         // ( -6,   4,  -4,   7)
FD_02_FC_01         // ( -3,   2,  -4,   1)
05_FE_FF_00         // (  5,  -2,  -1,   0)
FD_01_FE_FE         // ( -3,   1,  -2,  -2)
08_02_00_FD         // (  8,   2,   0,  -3)
FE_02_02_05         // ( -2,   2,   2,   5)
FA_00_04_FD         // ( -6,   0,   4,  -3)
01_FC_FF_04         // (  1,  -4,  -1,   4)
FB_FD_0A_05         // ( -5,  -3,  10,   5)
FF_02_04_FD         // ( -1,   2,   4,  -3)
02_01_FF_03         // (  2,   1,  -1,   3)
08_FF_FE_FE         // (  8,  -1,  -2,  -2)
04_01_FF_FF         // (  4,   1,  -1,  -1)
08_04_03_FF         // (  8,   4,   3,  -1)
01_01_01_FF         // (  1,   1,   1,  -1)
F3_FC_FE_06         // (-13,  -4,  -2,   6)
F7_FE_02_FE         // ( -9,  -2,   2,  -2)
00_07_01_03         // (  0,   7,   1,   3)
01_FE_FE_01         // (  1,  -2,  -2,   1)
02_FE_03_FC         // (  2,  -2,   3,  -4)
09_02_FE_F6         // (  9,   2,  -2, -10)
00_00_02_0C         // (  0,   0,   2,  12)
FE_01_02_01         // ( -2,   1,   2,   1)
FC_FC_01_05         // ( -4,  -4,   1,   5)
00_FC_FC_F2         // (  0,  -4,  -4, -14)
01_FC_04_FC         // (  1,  -4,   4,  -4)
F5_FE_00_00         // (-11,  -2,   0,   0)
F6_0B_FF_00         // (-10,  11,  -1,   0)
FD_FF_03_FC         // ( -3,  -1,   3,  -4)
FE_FB_02_03         // ( -2,  -5,   2,   3)
02_03_FF_06         // (  2,   3,  -1,   6)
04_01_01_04         // (  4,   1,   1,   4)
FA_00_FF_FD         // ( -6,   0,  -1,  -3)
02_FF_FB_03         // (  2,  -1,  -5,   3)
FD_FE_04_01         // ( -3,  -2,   4,   1)
03_FF_02_FA         // (  3,  -1,   2,  -6)
FF_FE_03_FF         // ( -1,  -2,   3,  -1)
00_00_01_01         // (  0,   0,   1,   1)
05_01_FE_FE         // (  5,   1,  -2,  -2)
04_FF_F3_01         // (  4,  -1, -13,   1)
06_FC_01_02         // (  6,  -4,   1,   2)
05_FE_FA_FC         // (  5,  -2,  -6,  -4)
04_08_FC_04         // (  4,   8,  -4,   4)
05_04_09_FD         // (  5,   4,   9,  -3)
09_FD_FA_FC         // (  9,  -3,  -6,  -4)
01_F8_F6_FF         // (  1,  -8, -10,  -1)
05_FE_FE_01         // (  5,  -2,  -2,   1)
07_04_03_FC         // (  7,   4,   3,  -4)
03_03_02_06         // (  3,   3,   2,   6)
01_06_FE_02         // (  1,   6,  -2,   2)
FD_04_FF_FB         // ( -3,   4,  -1,  -5)
FC_F5_02_FB         // ( -4, -11,   2,  -5)
FD_01_FC_FC         // ( -3,   1,  -4,  -4)
00_F6_01_FE         // (  0, -10,   1,  -2)
07_FA_FC_FE         // (  7,  -6,  -4,  -2)
01_FE_FE_FD         // (  1,  -2,  -2,  -3)
F8_FF_FD_02         // ( -8,  -1,  -3,   2)
03_FF_FD_01         // (  3,  -1,  -3,   1)
06_00_07_02         // (  6,   0,   7,   2)
FE_FD_FD_04         // ( -2,  -3,  -3,   4)
FD_FC_FE_FF         // ( -3,  -4,  -2,  -1)
0B_01_01_0A         // ( 11,   1,   1,  10)
01_FF_01_01         // (  1,  -1,   1,   1)
03_FD_FC_FC         // (  3,  -3,  -4,  -4)
07_FF_06_02         // (  7,  -1,   6,   2)
FE_FE_00_F8         // ( -2,  -2,   0,  -8)
FD_FF_02_F4         // ( -3,  -1,   2, -12)
FE_FE_05_F9         // ( -2,  -2,   5,  -7)
FC_05_02_F5         // ( -4,   5,   2, -11)
0A_FD_01_FB         // ( 10,  -3,   1,  -5)
00_FC_04_F9         // (  0,  -4,   4,  -7)
FE_04_01_06         // ( -2,   4,   1,   6)
0A_FB_03_EE         // ( 10,  -5,   3, -18)
03_02_00_EB         // (  3,   2,   0, -21)
FD_FB_00_FE         // ( -3,  -5,   0,  -2)
01_03_01_01         // (  1,   3,   1,   1)
02_FE_FC_FA         // (  2,  -2,  -4,  -6)
01_02_00_F8         // (  1,   2,   0,  -8)
02_05_02_FE         // (  2,   5,   2,  -2)
06_01_00_F9         // (  6,   1,   0,  -7)
FE_F5_02_FE         // ( -2, -11,   2,  -2)
FD_00_01_00         // ( -3,   0,   1,   0)
02_FC_08_FC         // (  2,  -4,   8,  -4)
FE_00_FF_07         // ( -2,   0,  -1,   7)
03_F6_FE_FF         // (  3, -10,  -2,  -1)
FE_FE_FC_06         // ( -2,  -2,  -4,   6)
FF_04_FF_FD         // ( -1,   4,  -1,  -3)
FF_09_FE_02         // ( -1,   9,  -2,   2)
FE_01_00_FE         // ( -2,   1,   0,  -2)
FE_FB_FF_00         // ( -2,  -5,  -1,   0)
02_F9_06_02         // (  2,  -7,   6,   2)
FD_FA_FF_FF         // ( -3,  -6,  -1,  -1)
FD_03_02_FF         // ( -3,   3,   2,  -1)
FF_05_04_02         // ( -1,   5,   4,   2)
FC_FE_02_02         // ( -4,  -2,   2,   2)
FB_07_00_F7         // ( -5,   7,   0,  -9)
03_06_FE_F7         // (  3,   6,  -2,  -9)
FF_FA_01_01         // ( -1,  -6,   1,   1)
FC_FD_02_FF         // ( -4,  -3,   2,  -1)
03_FF_FD_FE         // (  3,  -1,  -3,  -2)
02_FA_01_00         // (  2,  -6,   1,   0)
FF_07_01_FC         // ( -1,   7,   1,  -4)
FF_02_FF_00         // ( -1,   2,  -1,   0)
04_FF_01_FA         // (  4,  -1,   1,  -6)
FF_03_00_00         // ( -1,   3,   0,   0)
FE_FA_FC_06         // ( -2,  -6,  -4,   6)
FE_FF_FE_FA         // ( -2,  -1,  -2,  -6)
FF_03_FE_02         // ( -1,   3,  -2,   2)
03_05_FF_02         // (  3,   5,  -1,   2)
FE_03_FD_00         // ( -2,   3,  -3,   0)
05_09_01_01         // (  5,   9,   1,   1)
03_02_03_FF         // (  3,   2,   3,  -1)
F8_FF_FF_00         // ( -8,  -1,  -1,   0)
03_04_FC_06         // (  3,   4,  -4,   6)
FF_03_01_FC         // ( -1,   3,   1,  -4)
FF_FD_02_09         // ( -1,  -3,   2,   9)
02_04_FE_04         // (  2,   4,  -2,   4)
FE_05_FE_02         // ( -2,   5,  -2,   2)
FF_FE_01_01         // ( -1,  -2,   1,   1)
00_09_FC_04         // (  0,   9,  -4,   4)
FF_F7_FF_01         // ( -1,  -9,  -1,   1)
00_FF_01_04         // (  0,  -1,   1,   4)
FB_FC_FF_00         // ( -5,  -4,  -1,   0)
FD_17_00_FC         // ( -3,  23,   0,  -4)
00_01_FF_01         // (  0,   1,  -1,   1)
00_01_03_FF         // (  0,   1,   3,  -1)
04_01_02_FF         // (  4,   1,   2,  -1)
02_FC_02_FF         // (  2,  -4,   2,  -1)
00_00_00_00         // (  0,   0,   0,   0)
00_00_00_00         // (  0,   0,   0,   0)
00_00_00_00         // (  0,   0,   0,   0)
00_00_00_00         // (  0,   0,   0,   0)
00_00_00_00         // (  0,   0,   0,   0)
00_00_00_00         // (  0,   0,   0,   0)
00_00_00_00         // (  0,   0,   0,   0)
00_00_00_00         // (  0,   0,   0,   0)
00_00_00_00         // (  0,   0,   0,   0)
00_00_00_00         // (  0,   0,   0,   0)
00_00_00_00         // (  0,   0,   0,   0)
00_00_00_00         // (  0,   0,   0,   0)
00_00_00_00         // (  0,   0,   0,   0)
00_00_00_00         // (  0,   0,   0,   0)
00_00_00_00         // (  0,   0,   0,   0)
00_00_00_00         // (  0,   0,   0,   0)
00_00_00_00         // (  0,   0,   0,   0)
00_00_00_00         // (  0,   0,   0,   0)
00_00_00_00         // (  0,   0,   0,   0)
00_00_00_00         // (  0,   0,   0,   0)
00_00_00_00         // (  0,   0,   0,   0)
00_00_00_00         // (  0,   0,   0,   0)
00_00_00_00         // (  0,   0,   0,   0)
00_00_00_00         // (  0,   0,   0,   0)
00_00_00_00         // (  0,   0,   0,   0)
00_00_00_00         // (  0,   0,   0,   0)
00_00_00_00         // (  0,   0,   0,   0)
00_00_00_00         // (  0,   0,   0,   0)
00_00_00_00         // (  0,   0,   0,   0)
00_00_00_00         // (  0,   0,   0,   0)
00_00_00_00         // (  0,   0,   0,   0)
00_00_00_00         // (  0,   0,   0,   0)
00_00_00_00         // (  0,   0,   0,   0)
00_00_00_00         // (  0,   0,   0,   0)
00_00_00_00         // (  0,   0,   0,   0)
00_00_00_00         // (  0,   0,   0,   0)
00_00_00_00         // (  0,   0,   0,   0)
00_00_00_00         // (  0,   0,   0,   0)
00_00_00_00         // (  0,   0,   0,   0)
00_00_00_00         // (  0,   0,   0,   0)
00_00_00_00         // (  0,   0,   0,   0)
00_00_00_00         // (  0,   0,   0,   0)
00_00_00_00         // (  0,   0,   0,   0)
00_00_00_00         // (  0,   0,   0,   0)
00_00_00_00         // (  0,   0,   0,   0)
00_00_00_00         // (  0,   0,   0,   0)
00_00_00_00         // (  0,   0,   0,   0)
00_00_00_00         // (  0,   0,   0,   0)
00_00_00_00         // (  0,   0,   0,   0)
00_00_00_00         // (  0,   0,   0,   0)
00_00_00_00         // (  0,   0,   0,   0)
00_00_00_00         // (  0,   0,   0,   0)
00_00_00_00         // (  0,   0,   0,   0)
00_00_00_00         // (  0,   0,   0,   0)
00_00_00_00         // (  0,   0,   0,   0)
00_00_00_00         // (  0,   0,   0,   0)
00_00_00_00         // (  0,   0,   0,   0)
00_00_00_00         // (  0,   0,   0,   0)
00_00_00_00         // (  0,   0,   0,   0)
00_00_00_00         // (  0,   0,   0,   0)
00_00_00_00         // (  0,   0,   0,   0)
00_00_00_00         // (  0,   0,   0,   0)
00_00_00_00         // (  0,   0,   0,   0)
00_00_00_00         // (  0,   0,   0,   0)
00_00_00_00         // (  0,   0,   0,   0)
00_00_00_00         // (  0,   0,   0,   0)
00_00_00_00         // (  0,   0,   0,   0)
00_00_00_00         // (  0,   0,   0,   0)
00_00_00_00         // (  0,   0,   0,   0)
00_00_00_00         // (  0,   0,   0,   0)
00_00_00_00         // (  0,   0,   0,   0)
00_00_00_00         // (  0,   0,   0,   0)
00_00_00_00         // (  0,   0,   0,   0)
00_00_00_00         // (  0,   0,   0,   0)
00_00_00_00         // (  0,   0,   0,   0)
00_00_00_00         // (  0,   0,   0,   0)
00_00_00_00         // (  0,   0,   0,   0)
00_00_00_00         // (  0,   0,   0,   0)
00_00_00_00         // (  0,   0,   0,   0)
00_00_00_00         // (  0,   0,   0,   0)
00_00_00_00         // (  0,   0,   0,   0)
00_00_00_00         // (  0,   0,   0,   0)
00_00_00_00         // (  0,   0,   0,   0)
00_00_00_00         // (  0,   0,   0,   0)
00_00_00_00         // (  0,   0,   0,   0)
00_00_00_00         // (  0,   0,   0,   0)
00_00_00_00         // (  0,   0,   0,   0)
00_00_00_00         // (  0,   0,   0,   0)
00_00_00_00         // (  0,   0,   0,   0)
00_00_00_00         // (  0,   0,   0,   0)
00_00_00_00         // (  0,   0,   0,   0)
00_00_00_00         // (  0,   0,   0,   0)
00_00_00_00         // (  0,   0,   0,   0)
00_00_00_00         // (  0,   0,   0,   0)
00_00_00_00         // (  0,   0,   0,   0)
00_00_00_00         // (  0,   0,   0,   0)
00_00_00_00         // (  0,   0,   0,   0)
00_00_00_00         // (  0,   0,   0,   0)
00_00_00_00         // (  0,   0,   0,   0)
00_00_00_00         // (  0,   0,   0,   0)
00_00_00_00         // (  0,   0,   0,   0)
00_00_00_00         // (  0,   0,   0,   0)
00_00_00_00         // (  0,   0,   0,   0)
00_00_00_00         // (  0,   0,   0,   0)
00_00_00_00         // (  0,   0,   0,   0)
00_00_00_00         // (  0,   0,   0,   0)
00_00_00_00         // (  0,   0,   0,   0)
00_00_00_00         // (  0,   0,   0,   0)
00_00_00_00         // (  0,   0,   0,   0)
00_00_00_00         // (  0,   0,   0,   0)
00_00_00_00         // (  0,   0,   0,   0)
00_00_00_00         // (  0,   0,   0,   0)
00_00_00_00         // (  0,   0,   0,   0)
00_00_00_00         // (  0,   0,   0,   0)
00_00_00_00         // (  0,   0,   0,   0)
00_00_00_00         // (  0,   0,   0,   0)
00_00_00_00         // (  0,   0,   0,   0)
00_00_00_00         // (  0,   0,   0,   0)
00_00_00_00         // (  0,   0,   0,   0)
00_00_00_00         // (  0,   0,   0,   0)
00_00_00_00         // (  0,   0,   0,   0)
00_00_00_00         // (  0,   0,   0,   0)
00_00_00_00         // (  0,   0,   0,   0)
00_00_00_00         // (  0,   0,   0,   0)
00_00_00_00         // (  0,   0,   0,   0)
00_00_00_00         // (  0,   0,   0,   0)
00_00_00_00         // (  0,   0,   0,   0)
00_00_00_00         // (  0,   0,   0,   0)
00_00_00_00         // (  0,   0,   0,   0)
00_00_00_00         // (  0,   0,   0,   0)
00_00_00_00         // (  0,   0,   0,   0)
00_00_00_00         // (  0,   0,   0,   0)
00_00_00_00         // (  0,   0,   0,   0)
00_00_00_00         // (  0,   0,   0,   0)
00_00_00_00         // (  0,   0,   0,   0)
00_00_00_00         // (  0,   0,   0,   0)
00_00_00_00         // (  0,   0,   0,   0)
00_00_00_00         // (  0,   0,   0,   0)
00_00_00_00         // (  0,   0,   0,   0)
00_00_00_00         // (  0,   0,   0,   0)
00_00_00_00         // (  0,   0,   0,   0)
00_00_00_00         // (  0,   0,   0,   0)
00_00_00_00         // (  0,   0,   0,   0)
00_00_00_00         // (  0,   0,   0,   0)
FE_01_09_03         // ( -2,   1,   9,   3)
FF_01_01_01         // ( -1,   1,   1,   1)
FA_02_FD_02         // ( -6,   2,  -3,   2)
FF_02_03_00         // ( -1,   2,   3,   0)
02_00_00_01         // (  2,   0,   0,   1)
FF_02_02_05         // ( -1,   2,   2,   5)
FC_00_FF_01         // ( -4,   0,  -1,   1)
FF_FC_FF_FC         // ( -1,  -4,  -1,  -4)
FC_F8_FF_01         // ( -4,  -8,  -1,   1)
FB_00_FE_00         // ( -5,   0,  -2,   0)
F9_FF_07_01         // ( -7,  -1,   7,   1)
02_03_00_03         // (  2,   3,   0,   3)
01_04_FC_F7         // (  1,   4,  -4,  -9)
FF_FE_01_05         // ( -1,  -2,   1,   5)
07_FA_05_01         // (  7,  -6,   5,   1)
03_01_FD_ED         // (  3,   1,  -3, -19)
FA_00_FF_F9         // ( -6,   0,  -1,  -7)
FC_FF_FD_FF         // ( -4,  -1,  -3,  -1)
03_FF_00_FD         // (  3,  -1,   0,  -3)
04_FF_02_FC         // (  4,  -1,   2,  -4)
01_00_00_FC         // (  1,   0,   0,  -4)
FA_04_FD_FF         // ( -6,   4,  -3,  -1)
05_FA_03_FC         // (  5,  -6,   3,  -4)
05_FF_02_02         // (  5,  -1,   2,   2)
FF_01_FF_FE         // ( -1,   1,  -1,  -2)
01_FE_03_FF         // (  1,  -2,   3,  -1)
FD_04_07_FC         // ( -3,   4,   7,  -4)
00_FE_FC_FB         // (  0,  -2,  -4,  -5)
04_03_03_01         // (  4,   3,   3,   1)
FB_07_FD_FE         // ( -5,   7,  -3,  -2)
05_FE_FD_00         // (  5,  -2,  -3,   0)
EE_FE_FE_04         // (-18,  -2,  -2,   4)
FC_FF_00_00         // ( -4,  -1,   0,   0)
11_07_00_FF         // ( 17,   7,   0,  -1)
01_00_04_01         // (  1,   0,   4,   1)
00_00_02_FE         // (  0,   0,   2,  -2)
F7_FE_FD_FC         // ( -9,  -2,  -3,  -4)
F9_05_02_08         // ( -7,   5,   2,   8)
FB_07_FE_FC         // ( -5,   7,  -2,  -4)
FE_FF_00_04         // ( -2,  -1,   0,   4)
FE_01_01_F6         // ( -2,   1,   1, -10)
01_FC_03_04         // (  1,  -4,   3,   4)
03_00_FD_FE         // (  3,   0,  -3,  -2)
FF_05_02_FD         // ( -1,   5,   2,  -3)
01_00_FC_04         // (  1,   0,  -4,   4)
FE_01_02_FF         // ( -2,   1,   2,  -1)
FE_05_04_00         // ( -2,   5,   4,   0)
03_FD_01_FF         // (  3,  -3,   1,  -1)
06_FF_0E_00         // (  6,  -1,  14,   0)
00_04_FE_FE         // (  0,   4,  -2,  -2)
03_00_08_01         // (  3,   0,   8,   1)
03_01_07_04         // (  3,   1,   7,   4)
02_01_FC_FE         // (  2,   1,  -4,  -2)
00_FC_FF_01         // (  0,  -4,  -1,   1)
FC_FE_FD_06         // ( -4,  -2,  -3,   6)
FE_FF_07_06         // ( -2,  -1,   7,   6)
05_01_05_07         // (  5,   1,   5,   7)
FA_FE_FA_06         // ( -6,  -2,  -6,   6)
FC_03_15_04         // ( -4,   3,  21,   4)
FC_FE_0A_0E         // ( -4,  -2,  10,  14)
FC_04_0A_07         // ( -4,   4,  10,   7)
FD_00_0E_01         // ( -3,   0,  14,   1)
FC_FF_00_07         // ( -4,  -1,   0,   7)
01_01_FF_FF         // (  1,   1,  -1,  -1)
FE_01_00_00         // ( -2,   1,   0,   0)
04_F9_00_02         // (  4,  -7,   0,   2)
FF_FE_FE_FC         // ( -1,  -2,  -2,  -4)
FE_FC_07_FC         // ( -2,  -4,   7,  -4)
FF_FE_01_00         // ( -1,  -2,   1,   0)
03_02_FD_FE         // (  3,   2,  -3,  -2)
02_FD_03_01         // (  2,  -3,   3,   1)
FF_FC_FF_01         // ( -1,  -4,  -1,   1)
FA_FC_FE_FA         // ( -6,  -4,  -2,  -6)
06_FE_01_00         // (  6,  -2,   1,   0)
02_FC_FE_FF         // (  2,  -4,  -2,  -1)
09_01_01_FE         // (  9,   1,   1,  -2)
00_02_FB_05         // (  0,   2,  -5,   5)
FD_F8_FA_FC         // ( -3,  -8,  -6,  -4)
10_FE_FF_FE         // ( 16,  -2,  -1,  -2)
0B_FE_FE_00         // ( 11,  -2,  -2,   0)
04_00_FB_FB         // (  4,   0,  -5,  -5)
06_03_F9_F9         // (  6,   3,  -7,  -7)
04_02_FD_0C         // (  4,   2,  -3,  12)
05_00_FA_F4         // (  5,   0,  -6, -12)
0D_FD_FE_F3         // ( 13,  -3,  -2, -13)
02_FC_FE_17         // (  2,  -4,  -2,  23)
0C_FC_FB_EE         // ( 12,  -4,  -5, -18)
07_03_FD_F5         // (  7,   3,  -3, -11)
04_FE_FB_0A         // (  4,  -2,  -5,  10)
0A_00_F7_F1         // ( 10,   0,  -9, -15)
03_FD_03_FB         // (  3,  -3,   3,  -5)
FF_02_FC_FA         // ( -1,   2,  -4,  -6)
FD_09_0D_FD         // ( -3,   9,  13,  -3)
06_01_FE_03         // (  6,   1,  -2,   3)
FE_FC_02_FE         // ( -2,  -4,   2,  -2)
03_01_F9_06         // (  3,   1,  -7,   6)
00_06_00_02         // (  0,   6,   0,   2)
FF_01_04_FE         // ( -1,   1,   4,  -2)
FE_03_06_00         // ( -2,   3,   6,   0)
FE_00_03_EF         // ( -2,   0,   3, -17)
01_01_00_0E         // (  1,   1,   0,  14)
01_03_01_06         // (  1,   3,   1,   6)
02_FD_05_FF         // (  2,  -3,   5,  -1)
FE_08_00_06         // ( -2,   8,   0,   6)
00_FF_FD_05         // (  0,  -1,  -3,   5)
04_03_02_01         // (  4,   3,   2,   1)
02_FD_FF_00         // (  2,  -3,  -1,   0)
02_FE_00_02         // (  2,  -2,   0,   2)
FB_06_FF_FF         // ( -5,   6,  -1,  -1)
01_FE_02_00         // (  1,  -2,   2,   0)
F7_05_FC_04         // ( -9,   5,  -4,   4)
01_0A_02_FF         // (  1,  10,   2,  -1)
FC_F8_FF_FF         // ( -4,  -8,  -1,  -1)
F9_F9_FE_02         // ( -7,  -7,  -2,   2)
02_0D_FE_FF         // (  2,  13,  -2,  -1)
FD_FC_00_FC         // ( -3,  -4,   0,  -4)
FA_F2_00_FF         // ( -6, -14,   0,  -1)
00_FA_FD_01         // (  0,  -6,  -3,   1)
02_03_00_04         // (  2,   3,   0,   4)
04_03_03_05         // (  4,   3,   3,   5)
FF_FE_00_FD         // ( -1,  -2,   0,  -3)
01_FE_00_FF         // (  1,  -2,   0,  -1)
00_FB_01_FE         // (  0,  -5,   1,  -2)
FE_FE_01_FF         // ( -2,  -2,   1,  -1)
FE_FF_02_00         // ( -2,  -1,   2,   0)
01_02_FE_FF         // (  1,   2,  -2,  -1)
FB_FA_FF_FF         // ( -5,  -6,  -1,  -1)
F9_FE_02_FF         // ( -7,  -2,   2,  -1)
07_FD_FC_00         // (  7,  -3,  -4,   0)
FD_F6_01_04         // ( -3, -10,   1,   4)
03_FE_FF_01         // (  3,  -2,  -1,   1)
05_04_FF_01         // (  5,   4,  -1,   1)
05_F5_FB_00         // (  5, -11,  -5,   0)
03_FD_03_00         // (  3,  -3,   3,   0)
FE_07_04_FE         // ( -2,   7,   4,  -2)
FD_08_01_FE         // ( -3,   8,   1,  -2)
03_F4_FB_00         // (  3, -12,  -5,   0)
02_04_FD_FE         // (  2,   4,  -3,  -2)
01_FA_FF_00         // (  1,  -6,  -1,   0)
01_0E_06_07         // (  1,  14,   6,   7)
FF_FB_00_FF         // ( -1,  -5,   0,  -1)
01_FF_06_00         // (  1,  -1,   6,   0)
FD_05_02_02         // ( -3,   5,   2,   2)
00_FF_04_FF         // (  0,  -1,   4,  -1)
FE_02_07_06         // ( -2,   2,   7,   6)
03_04_07_FF         // (  3,   4,   7,  -1)
FB_FE_0B_FC         // ( -5,  -2,  11,  -4)
FD_FF_09_04         // ( -3,  -1,   9,   4)
00_FF_05_01         // (  0,  -1,   5,   1)
FA_08_05_FC         // ( -6,   8,   5,  -4)
FB_01_03_FE         // ( -5,   1,   3,  -2)
FD_FE_04_01         // ( -3,  -2,   4,   1)
F7_F7_08_F9         // ( -9,  -9,   8,  -7)
04_FD_03_F7         // (  4,  -3,   3,  -9)
FF_FF_FD_FF         // ( -1,  -1,  -3,  -1)
03_FE_08_02         // (  3,  -2,   8,   2)
07_F7_02_0E         // (  7,  -9,   2,  14)
FD_FD_01_05         // ( -3,  -3,   1,   5)
FF_03_05_03         // ( -1,   3,   5,   3)
0B_FD_05_F5         // ( 11,  -3,   5, -11)
04_FC_01_04         // (  4,  -4,   1,   4)
05_FD_FE_F9         // (  5,  -3,  -2,  -7)
01_01_FC_01         // (  1,   1,  -4,   1)
07_FE_FF_FC         // (  7,  -2,  -1,  -4)
FC_03_00_FE         // ( -4,   3,   0,  -2)
FE_FD_02_00         // ( -2,  -3,   2,   0)
FE_FE_04_FF         // ( -2,  -2,   4,  -1)
F7_FE_FF_F8         // ( -9,  -2,  -1,  -8)
FF_02_F9_02         // ( -1,   2,  -7,   2)
F8_FE_FE_FD         // ( -8,  -2,  -2,  -3)
EA_01_02_02         // (-22,   1,   2,   2)
02_08_FD_00         // (  2,   8,  -3,   0)
F6_00_02_FF         // (-10,   0,   2,  -1)
FF_03_FC_06         // ( -1,   3,  -4,   6)
03_02_FF_0A         // (  3,   2,  -1,  10)
07_00_FD_02         // (  7,   0,  -3,   2)
FF_02_FD_09         // ( -1,   2,  -3,   9)
10_FF_07_07         // ( 16,  -1,   7,   7)
FC_F7_FF_04         // ( -4,  -9,  -1,   4)
06_03_03_02         // (  6,   3,   3,   2)
03_FC_FA_01         // (  3,  -4,  -6,   1)
FF_FB_FE_03         // ( -1,  -5,  -2,   3)
FE_02_02_00         // ( -2,   2,   2,   0)
FC_00_FF_09         // ( -4,   0,  -1,   9)
FB_02_01_F6         // ( -5,   2,   1, -10)
FA_FE_FE_FB         // ( -6,  -2,  -2,  -5)
F8_04_01_F1         // ( -8,   4,   1, -15)
F6_04_02_F7         // (-10,   4,   2,  -9)
FB_03_07_F3         // ( -5,   3,   7, -13)
00_05_07_00         // (  0,   5,   7,   0)
FC_FF_0C_FA         // ( -4,  -1,  12,  -6)
07_03_08_09         // (  7,   3,   8,   9)
01_FD_05_FD         // (  1,  -3,   5,  -3)
FC_06_0A_FE         // ( -4,   6,  10,  -2)
02_FE_00_05         // (  2,  -2,   0,   5)
FE_04_05_01         // ( -2,   4,   5,   1)
FE_01_F8_FA         // ( -2,   1,  -8,  -6)
00_FD_0D_04         // (  0,  -3,  13,   4)
00_03_08_09         // (  0,   3,   8,   9)
F8_01_02_FD         // ( -8,   1,   2,  -3)
F9_F9_0C_FF         // ( -7,  -7,  12,  -1)
FB_01_FF_03         // ( -5,   1,  -1,   3)
FA_FE_0C_05         // ( -6,  -2,  12,   5)
FD_FC_04_04         // ( -3,  -4,   4,   4)
00_FF_05_02         // (  0,  -1,   5,   2)
FB_F2_09_FE         // ( -5, -14,   9,  -2)
F9_FB_08_01         // ( -7,  -5,   8,   1)
FD_07_01_05         // ( -3,   7,   1,   5)
FF_FC_FD_0D         // ( -1,  -4,  -3,  13)
00_01_FB_04         // (  0,   1,  -5,   4)
FC_FC_01_03         // ( -4,  -4,   1,   3)
FA_03_FE_0A         // ( -6,   3,  -2,  10)
01_FF_FD_04         // (  1,  -1,  -3,   4)
00_1B_FB_05         // (  0,  27,  -5,   5)
FE_FA_FE_05         // ( -2,  -6,  -2,   5)
06_FC_03_F8         // (  6,  -4,   3,  -8)
11_03_02_FB         // ( 17,   3,   2,  -5)
FE_FE_FC_01         // ( -2,  -2,  -4,   1)
00_FC_04_FF         // (  0,  -4,   4,  -1)
FD_FF_FE_FA         // ( -3,  -1,  -2,  -6)
FD_FC_00_FC         // ( -3,  -4,   0,  -4)
0B_FE_07_01         // ( 11,  -2,   7,   1)
FF_00_01_F5         // ( -1,   0,   1, -11)
FE_FC_02_F7         // ( -2,  -4,   2,  -9)
06_03_09_00         // (  6,   3,   9,   0)
FD_00_FE_13         // ( -3,   0,  -2,  19)
08_FF_FA_11         // (  8,  -1,  -6,  17)
FA_FD_FD_0C         // ( -6,  -3,  -3,  12)
03_00_FC_10         // (  3,   0,  -4,  16)
06_03_FC_FC         // (  6,   3,  -4,  -4)
F7_01_FA_08         // ( -9,   1,  -6,   8)
00_02_FF_F3         // (  0,   2,  -1, -13)
03_02_FA_08         // (  3,   2,  -6,   8)
EB_00_FF_04         // (-21,   0,  -1,   4)
02_FC_FA_04         // (  2,  -4,  -6,   4)
FD_FA_FD_08         // ( -3,  -6,  -3,   8)
FE_FF_FC_09         // ( -2,  -1,  -4,   9)
02_FA_FE_05         // (  2,  -6,  -2,   5)
FF_05_FD_FE         // ( -1,   5,  -3,  -2)
FE_00_FE_04         // ( -2,   0,  -2,   4)
0C_F9_02_0A         // ( 12,  -7,   2,  10)
FD_FD_F8_08         // ( -3,  -3,  -8,   8)
FE_01_FD_07         // ( -2,   1,  -3,   7)
FD_02_00_FF         // ( -3,   2,   0,  -1)
FB_09_02_F5         // ( -5,   9,   2, -11)
FB_01_03_03         // ( -5,   1,   3,   3)
FC_FD_01_FC         // ( -4,  -3,   1,  -4)
02_0A_04_F9         // (  2,  10,   4,  -7)
FB_00_FE_01         // ( -5,   0,  -2,   1)
00_FE_00_01         // (  0,  -2,   0,   1)
FA_FD_01_FE         // ( -6,  -3,   1,  -2)
FC_FF_03_0C         // ( -4,  -1,   3,  12)
FA_00_FD_04         // ( -6,   0,  -3,   4)
05_F9_FB_04         // (  5,  -7,  -5,   4)
00_FE_02_FE         // (  0,  -2,   2,  -2)
02_F7_F8_02         // (  2,  -9,  -8,   2)
02_F7_FF_03         // (  2,  -9,  -1,   3)
FF_FD_00_03         // ( -1,  -3,   0,   3)
0E_FD_00_FF         // ( 14,  -3,   0,  -1)
05_04_FF_03         // (  5,   4,  -1,   3)
FB_F6_04_00         // ( -5, -10,   4,   0)
FC_0B_06_01         // ( -4,  11,   6,   1)
FC_01_02_03         // ( -4,   1,   2,   3)
FF_01_01_FB         // ( -1,   1,   1,  -5)
FF_00_FE_FC         // ( -1,   0,  -2,  -4)
F7_FE_FC_FF         // ( -9,  -2,  -4,  -1)
01_FB_03_F9         // (  1,  -5,   3,  -7)
FE_FF_03_F3         // ( -2,  -1,   3, -13)
F8_FB_FC_F5         // ( -8,  -5,  -4, -11)
FD_01_01_F2         // ( -3,   1,   1, -14)
08_FE_01_03         // (  8,  -2,   1,   3)
FB_FE_FE_03         // ( -5,  -2,  -2,   3)
FB_01_FE_02         // ( -5,   1,  -2,   2)
07_04_FA_00         // (  7,   4,  -6,   0)
03_F8_FB_02         // (  3,  -8,  -5,   2)
06_FD_00_02         // (  6,  -3,   0,   2)
02_05_FF_FF         // (  2,   5,  -1,  -1)
FD_FE_02_05         // ( -3,  -2,   2,   5)
08_FB_FE_04         // (  8,  -5,  -2,   4)
00_01_04_00         // (  0,   1,   4,   0)
FE_FC_FD_FD         // ( -2,  -4,  -3,  -3)
01_03_FE_FF         // (  1,   3,  -2,  -1)
00_F1_FE_FF         // (  0, -15,  -2,  -1)
02_0D_FB_06         // (  2,  13,  -5,   6)
FE_03_FB_FC         // ( -2,   3,  -5,  -4)
FE_FD_02_03         // ( -2,  -3,   2,   3)
05_FC_04_03         // (  5,  -4,   4,   3)
05_F3_05_00         // (  5, -13,   5,   0)
02_FD_F6_FA         // (  2,  -3, -10,  -6)
00_06_00_FA         // (  0,   6,   0,  -6)
05_FE_FE_FA         // (  5,  -2,  -2,  -6)
02_FD_FB_00         // (  2,  -3,  -5,   0)
01_FB_02_05         // (  1,  -5,   2,   5)
FC_03_FF_01         // ( -4,   3,  -1,   1)
02_01_F4_FB         // (  2,   1, -12,  -5)
07_FE_03_03         // (  7,  -2,   3,   3)
01_04_FE_FF         // (  1,   4,  -2,  -1)
00_02_0C_F8         // (  0,   2,  12,  -8)
FF_03_07_F5         // ( -1,   3,   7, -11)
FE_00_05_F6         // ( -2,   0,   5, -10)
03_05_0A_FE         // (  3,   5,  10,  -2)
FD_00_FF_03         // ( -3,   0,  -1,   3)
FC_00_02_F8         // ( -4,   0,   2,  -8)
06_02_0C_0B         // (  6,   2,  12,  11)
FF_FC_02_07         // ( -1,  -4,   2,   7)
FE_FE_0D_FD         // ( -2,  -2,  13,  -3)
F8_FE_00_FC         // ( -8,  -2,   0,  -4)
F4_03_00_FA         // (-12,   3,   0,  -6)
F7_05_04_FF         // ( -9,   5,   4,  -1)
FE_02_00_03         // ( -2,   2,   0,   3)
F9_02_0D_FF         // ( -7,   2,  13,  -1)
F4_02_02_FF         // (-12,   2,   2,  -1)
FF_03_02_01         // ( -1,   3,   2,   1)
FD_FD_00_FD         // ( -3,  -3,   0,  -3)
F0_FB_03_FF         // (-16,  -5,   3,  -1)
01_03_04_01         // (  1,   3,   4,   1)
F7_FF_00_04         // ( -9,  -1,   0,   4)
FC_FE_03_06         // ( -4,  -2,   3,   6)
00_00_03_03         // (  0,   0,   3,   3)
FF_FE_00_FF         // ( -1,  -2,   0,  -1)
F3_FF_FD_02         // (-13,  -1,  -3,   2)
FF_0C_FC_00         // ( -1,  12,  -4,   0)
00_FE_00_01         // (  0,  -2,   0,   1)
09_03_02_06         // (  9,   3,   2,   6)
04_FA_FB_FE         // (  4,  -6,  -5,  -2)
F9_00_00_07         // ( -7,   0,   0,   7)
FD_FC_01_FC         // ( -3,  -4,   1,  -4)
03_03_FC_06         // (  3,   3,  -4,   6)
FD_FC_01_F3         // ( -3,  -4,   1, -13)
FF_03_FE_FD         // ( -1,   3,  -2,  -3)
0A_00_FE_05         // ( 10,   0,  -2,   5)
04_08_00_02         // (  4,   8,   0,   2)
00_00_FD_03         // (  0,   0,  -3,   3)
05_FF_FD_FF         // (  5,  -1,  -3,  -1)
06_01_F8_09         // (  6,   1,  -8,   9)
FC_02_FE_04         // ( -4,   2,  -2,   4)
03_02_F3_06         // (  3,   2, -13,   6)
FE_01_FA_F8         // ( -2,   1,  -6,  -8)
03_FE_00_FC         // (  3,  -2,   0,  -4)
FF_04_FD_00         // ( -1,   4,  -3,   0)
00_03_F8_03         // (  0,   3,  -8,   3)
FD_FA_03_FE         // ( -3,  -6,   3,  -2)
07_03_F3_0E         // (  7,   3, -13,  14)
04_00_FA_08         // (  4,   0,  -6,   8)
04_FE_00_07         // (  4,  -2,   0,   7)
0B_FD_F9_0A         // ( 11,  -3,  -7,  10)
05_05_04_05         // (  5,   5,   4,   5)
04_FE_FD_06         // (  4,  -2,  -3,   6)
0B_05_0B_09         // ( 11,   5,  11,   9)
01_F9_07_07         // (  1,  -7,   7,   7)
03_00_07_0B         // (  3,   0,   7,  11)
FF_FB_01_03         // ( -1,  -5,   1,   3)
03_FB_FD_04         // (  3,  -5,  -3,   4)
05_F6_00_FE         // (  5, -10,   0,  -2)
FE_0A_01_01         // ( -2,  10,   1,   1)
00_FE_00_FD         // (  0,  -2,   0,  -3)
FF_F8_FF_04         // ( -1,  -8,  -1,   4)
FF_08_00_04         // ( -1,   8,   0,   4)
02_04_02_07         // (  2,   4,   2,   7)
00_F7_01_04         // (  0,  -9,   1,   4)
03_FD_F9_10         // (  3,  -3,  -7,  16)
02_02_00_05         // (  2,   2,   0,   5)
02_FE_F7_09         // (  2,  -2,  -9,   9)
04_00_01_03         // (  4,   0,   1,   3)
FD_FD_02_FF         // ( -3,  -3,   2,  -1)
FE_FF_FD_FE         // ( -2,  -1,  -3,  -2)
F8_01_05_13         // ( -8,   1,   5,  19)
FE_FE_05_FF         // ( -2,  -2,   5,  -1)
FC_08_FE_03         // ( -4,   8,  -2,   3)
FF_FB_07_09         // ( -1,  -5,   7,   9)
00_FD_05_0B         // (  0,  -3,   5,  11)
FC_01_03_04         // ( -4,   1,   3,   4)
05_03_00_FC         // (  5,   3,   0,  -4)
0B_00_05_06         // ( 11,   0,   5,   6)
05_FE_04_FE         // (  5,  -2,   4,  -2)
06_FE_09_F7         // (  6,  -2,   9,  -9)
01_FE_00_03         // (  1,  -2,   0,   3)
02_01_00_FE         // (  2,   1,   0,  -2)
03_FC_FD_FC         // (  3,  -4,  -3,  -4)
00_05_FC_03         // (  0,   5,  -4,   3)
02_03_09_03         // (  2,   3,   9,   3)
FD_0C_00_03         // ( -3,  12,   0,   3)
FC_FC_05_00         // ( -4,  -4,   5,   0)
FF_FE_FB_00         // ( -1,  -2,  -5,   0)
06_F5_F6_FB         // (  6, -11, -10,  -5)
FE_FB_02_FE         // ( -2,  -5,   2,  -2)
03_FA_FA_05         // (  3,  -6,  -6,   5)
02_00_FF_FD         // (  2,   0,  -1,  -3)
00_FF_FC_FD         // (  0,  -1,  -4,  -3)
FC_01_FD_01         // ( -4,   1,  -3,   1)
FE_01_FE_FD         // ( -2,   1,  -2,  -3)
FE_0A_03_FE         // ( -2,  10,   3,  -2)
FF_03_FF_F5         // ( -1,   3,  -1, -11)
03_02_00_FC         // (  3,   2,   0,  -4)
F7_03_05_F5         // ( -9,   3,   5, -11)
FE_FD_03_F8         // ( -2,  -3,   3,  -8)
F4_FC_01_02         // (-12,  -4,   1,   2)
F9_F5_FE_FB         // ( -7, -11,  -2,  -5)
F0_F7_05_01         // (-16,  -9,   5,   1)
00_01_FE_01         // (  0,   1,  -2,   1)
