F3_FB_06_FE         // (243, 251,   6, 254)
FD_FD_FC_FB         // (253, 253, 252, 251)
FB_F8_FF_F0         // (251, 248, 255, 240)
00_02_FB_FC         // (  0,   2, 251, 252)
FB_FE_00_01         // (251, 254,   0,   1)
0A_0A_FF_FE         // ( 10,  10, 255, 254)
0A_04_FC_FA         // ( 10,   4, 252, 250)
F9_00_03_FD         // (249,   0,   3, 253)
02_FF_FD_F7         // (  2, 255, 253, 247)
06_01_FF_02         // (  6,   1, 255,   2)
FD_04_0B_07         // (253,   4,  11,   7)
FE_05_FD_04         // (254,   5, 253,   4)
05_FB_01_00         // (  5, 251,   1,   0)
0C_FC_02_04         // ( 12, 252,   2,   4)
FF_04_FC_FE         // (255,   4, 252, 254)
F9_FC_FF_F7         // (249, 252, 255, 247)
03_01_04_01         // (  3,   1,   4,   1)
04_03_03_FB         // (  4,   3,   3, 251)
FA_FD_03_03         // (250, 253,   3,   3)
03_07_FC_FE         // (  3,   7, 252, 254)
01_03_00_00         // (  1,   3,   0,   0)
0A_02_07_03         // ( 10,   2,   7,   3)
0A_F7_01_0B         // ( 10, 247,   1,  11)
0A_FD_06_00         // ( 10, 253,   6,   0)
04_04_02_02         // (  4,   4,   2,   2)
01_FC_FD_FF         // (  1, 252, 253, 255)
06_02_02_FF         // (  6,   2,   2, 255)
01_0D_FB_05         // (  1,  13, 251,   5)
02_FC_03_FF         // (  2, 252,   3, 255)
02_FB_FB_00         // (  2, 251, 251,   0)
0A_01_09_05         // ( 10,   1,   9,   5)
F7_01_09_05         // (247,   1,   9,   5)
06_FD_FE_00         // (  6, 253, 254,   0)
02_08_02_EF         // (  2,   8,   2, 239)
FB_F8_08_F7         // (251, 248,   8, 247)
FE_FA_04_02         // (254, 250,   4,   2)
03_0D_02_03         // (  3,  13,   2,   3)
00_FE_09_03         // (  0, 254,   9,   3)
FB_06_FF_FC         // (251,   6, 255, 252)
08_FB_08_04         // (  8, 251,   8,   4)
00_07_01_F9         // (  0,   7,   1, 249)
FD_03_FE_01         // (253,   3, 254,   1)
F8_04_07_01         // (248,   4,   7,   1)
01_FA_03_FE         // (  1, 250,   3, 254)
02_06_FA_00         // (  2,   6, 250,   0)
01_05_00_FA         // (  1,   5,   0, 250)
F8_F9_0A_FC         // (248, 249,  10, 252)
03_FE_04_07         // (  3, 254,   4,   7)
00_F5_01_F6         // (  0, 245,   1, 246)
FB_F9_05_FF         // (251, 249,   5, 255)
02_01_FF_FE         // (  2,   1, 255, 254)
05_00_03_01         // (  5,   0,   3,   1)
FA_FF_09_02         // (250, 255,   9,   2)
00_02_FE_04         // (  0,   2, 254,   4)
02_FD_00_FD         // (  2, 253,   0, 253)
FC_05_00_04         // (252,   5,   0,   4)
FC_FB_02_03         // (252, 251,   2,   3)
FF_0B_07_09         // (255,  11,   7,   9)
FB_F0_04_FA         // (251, 240,   4, 250)
07_02_06_FA         // (  7,   2,   6, 250)
04_F8_12_F7         // (  4, 248,  18, 247)
FD_05_FF_FE         // (253,   5, 255, 254)
FE_05_02_04         // (254,   5,   2,   4)
FC_FB_02_02         // (252, 251,   2,   2)
01_FE_FD_08         // (  1, 254, 253,   8)
03_06_FE_FC         // (  3,   6, 254, 252)
FA_05_00_07         // (250,   5,   0,   7)
06_FE_03_07         // (  6, 254,   3,   7)
08_03_FD_FE         // (  8,   3, 253, 254)
FF_0C_04_06         // (255,  12,   4,   6)
FE_09_FF_03         // (254,   9, 255,   3)
00_0C_07_07         // (  0,  12,   7,   7)
FE_0C_02_06         // (254,  12,   2,   6)
0B_F5_FD_01         // ( 11, 245, 253,   1)
03_02_FD_08         // (  3,   2, 253,   8)
04_F8_09_03         // (  4, 248,   9,   3)
05_06_02_FE         // (  5,   6,   2, 254)
FE_F6_FD_00         // (254, 246, 253,   0)
00_03_04_09         // (  0,   3,   4,   9)
00_FE_00_FC         // (  0, 254,   0, 252)
09_04_07_04         // (  9,   4,   7,   4)
F6_0A_05_02         // (246,  10,   5,   2)
FC_07_02_02         // (252,   7,   2,   2)
FD_00_FD_05         // (253,   0, 253,   5)
FF_F5_00_FE         // (255, 245,   0, 254)
FE_06_FD_FB         // (254,   6, 253, 251)
09_0F_F4_02         // (  9,  15, 244,   2)
FA_FC_08_FF         // (250, 252,   8, 255)
02_FA_01_FE         // (  2, 250,   1, 254)
00_04_FB_FD         // (  0,   4, 251, 253)
F4_FB_00_FF         // (244, 251,   0, 255)
05_03_04_00         // (  5,   3,   4,   0)
FF_FD_FE_F8         // (255, 253, 254, 248)
08_FF_F7_FD         // (  8, 255, 247, 253)
FE_01_00_04         // (254,   1,   0,   4)
FA_04_FA_FC         // (250,   4, 250, 252)
FA_F8_FF_02         // (250, 248, 255,   2)
05_00_04_05         // (  5,   0,   4,   5)
FA_00_FF_02         // (250,   0, 255,   2)
04_03_F8_01         // (  4,   3, 248,   1)
00_04_F6_FF         // (  0,   4, 246, 255)
06_F9_FE_F8         // (  6, 249, 254, 248)
03_01_07_01         // (  3,   1,   7,   1)
01_FC_FE_00         // (  1, 252, 254,   0)
F4_FC_F8_F6         // (244, 252, 248, 246)
00_07_FF_FF         // (  0,   7, 255, 255)
00_FB_FB_FD         // (  0, 251, 251, 253)
05_FA_FB_FB         // (  5, 250, 251, 251)
01_FE_FF_FD         // (  1, 254, 255, 253)
F9_02_FF_03         // (249,   2, 255,   3)
08_01_0B_FF         // (  8,   1,  11, 255)
FD_04_F9_06         // (253,   4, 249,   6)
09_04_FE_02         // (  9,   4, 254,   2)
00_02_05_02         // (  0,   2,   5,   2)
00_08_FC_FC         // (  0,   8, 252, 252)
FC_FF_FF_01         // (252, 255, 255,   1)
00_03_FD_FE         // (  0,   3, 253, 254)
0A_F6_FE_F3         // ( 10, 246, 254, 243)
0C_FD_02_02         // ( 12, 253,   2,   2)
0C_07_F8_F6         // ( 12,   7, 248, 246)
03_03_0B_F7         // (  3,   3,  11, 247)
05_F3_F6_FC         // (  5, 243, 246, 252)
04_0A_05_0A         // (  4,  10,   5,  10)
01_05_08_FF         // (  1,   5,   8, 255)
FB_FC_03_03         // (251, 252,   3,   3)
09_FD_00_FD         // (  9, 253,   0, 253)
03_FD_03_04         // (  3, 253,   3,   4)
06_FC_FA_FB         // (  6, 252, 250, 251)
FF_03_0C_07         // (255,   3,  12,   7)
00_00_FD_FA         // (  0,   0, 253, 250)
00_FC_00_06         // (  0, 252,   0,   6)
01_FF_03_FC         // (  1, 255,   3, 252)
0A_FD_00_04         // ( 10, 253,   0,   4)
03_01_04_FE         // (  3,   1,   4, 254)
FA_F8_FE_02         // (250, 248, 254,   2)
FB_FF_FF_09         // (251, 255, 255,   9)
00_05_00_00         // (  0,   5,   0,   0)
FC_02_03_05         // (252,   2,   3,   5)
04_02_01_03         // (  4,   2,   1,   3)
FB_01_FD_01         // (251,   1, 253,   1)
F6_FF_FD_F9         // (246, 255, 253, 249)
FB_00_04_01         // (251,   0,   4,   1)
03_00_F9_FF         // (  3,   0, 249, 255)
01_03_F9_FD         // (  1,   3, 249, 253)
F7_F6_0B_0E         // (247, 246,  11,  14)
00_06_03_01         // (  0,   6,   3,   1)
19_09_00_03         // ( 25,   9,   0,   3)
23_E2_0D_FA         // ( 35, 226,  13, 250)
09_F8_0B_0D         // (  9, 248,  11,  13)
12_01_0F_13         // ( 18,   1,  15,  19)
E6_EE_F3_0D         // (230, 238, 243,  13)
ED_F9_FC_0A         // (237, 249, 252,  10)
13_FF_08_01         // ( 19, 255,   8,   1)
DC_E6_F7_01         // (220, 230, 247,   1)
00_06_ED_F3         // (  0,   6, 237, 243)
14_02_11_FE         // ( 20,   2,  17, 254)
14_11_F4_F1         // ( 20,  17, 244, 241)
10_00_14_F3         // ( 16,   0,  20, 243)
F9_EF_01_FC         // (249, 239,   1, 252)
08_1F_EC_E7         // (  8,  31, 236, 231)
EA_F0_04_0A         // (234, 240,   4,  10)
F5_1A_F2_08         // (245,  26, 242,   8)
1C_08_F9_07         // ( 28,   8, 249,   7)
01_FB_10_F0         // (  1, 251,  16, 240)
09_02_1A_06         // (  9,   2,  26,   6)
1D_0B_0E_F3         // ( 29,  11,  14, 243)
0E_D4_02_F9         // ( 14, 212,   2, 249)
E2_F8_F4_06         // (226, 248, 244,   6)
3D_17_10_01         // ( 61,  23,  16,   1)
10_05_05_FE         // ( 16,   5,   5, 254)
FF_13_03_1E         // (255,  19,   3,  30)
04_FD_F8_F8         // (  4, 253, 248, 248)
06_00_EE_F7         // (  6,   0, 238, 247)
EE_0E_FF_08         // (238,  14, 255,   8)
28_04_E7_0F         // ( 40,   4, 231,  15)
F3_0D_F0_02         // (243,  13, 240,   2)
F7_FE_1B_EE         // (247, 254,  27, 238)
F6_F1_13_19         // (246, 241,  19,  25)
F1_01_EB_0D         // (241,   1, 235,  13)
0E_F2_1C_F3         // ( 14, 242,  28, 243)
FE_02_07_DF         // (254,   2,   7, 223)
0B_0F_1D_FC         // ( 11,  15,  29, 252)
FC_01_F7_FE         // (252,   1, 247, 254)
0D_06_FF_F8         // ( 13,   6, 255, 248)
06_FE_FA_EB         // (  6, 254, 250, 235)
F8_FE_F1_F4         // (248, 254, 241, 244)
FA_03_FD_F5         // (250,   3, 253, 245)
05_FE_EC_01         // (  5, 254, 236,   1)
F9_07_EF_F6         // (249,   7, 239, 246)
01_F4_E9_FA         // (  1, 244, 233, 250)
04_F2_F4_04         // (  4, 242, 244,   4)
FE_0A_E9_F7         // (254,  10, 233, 247)
0A_E5_F5_FF         // ( 10, 229, 245, 255)
02_06_FB_EE         // (  2,   6, 251, 238)
F3_10_03_F3         // (243,  16,   3, 243)
00_EA_FA_FD         // (  0, 234, 250, 253)
FA_0E_FB_FF         // (250,  14, 251, 255)
0B_E2_F7_FA         // ( 11, 226, 247, 250)
F1_F9_FD_F4         // (241, 249, 253, 244)
0A_FD_14_ED         // ( 10, 253,  20, 237)
0A_02_0F_E8         // ( 10,   2,  15, 232)
08_01_F7_FB         // (  8,   1, 247, 251)
02_08_E8_04         // (  2,   8, 232,   4)
0D_F6_CA_03         // ( 13, 246, 202,   3)
F0_0F_F3_F2         // (240,  15, 243, 242)
0C_06_E8_01         // ( 12,   6, 232,   1)
04_FC_F1_0A         // (  4, 252, 241,  10)
F5_DE_02_EB         // (245, 222,   2, 235)
F7_FC_FF_14         // (247, 252, 255,  20)
FC_E5_01_FF         // (252, 229,   1, 255)
F6_DA_F8_17         // (246, 218, 248,  23)
00_04_EE_01         // (  0,   4, 238,   1)
EC_0D_03_E7         // (236,  13,   3, 231)
08_05_FF_10         // (  8,   5, 255,  16)
12_0E_F8_E4         // ( 18,  14, 248, 228)
F9_EC_FA_07         // (249, 236, 250,   7)
F4_07_0E_14         // (244,   7,  14,  20)
FA_F9_02_1A         // (250, 249,   2,  26)
F5_FC_F0_11         // (245, 252, 240,  17)
F5_0D_F3_06         // (245,  13, 243,   6)
FA_0E_F9_07         // (250,  14, 249,   7)
FD_FB_F1_F7         // (253, 251, 241, 247)
EB_F4_FF_0B         // (235, 244, 255,  11)
F6_F3_02_05         // (246, 243,   2,   5)
00_0C_EA_F6         // (  0,  12, 234, 246)
ED_FC_14_F7         // (237, 252,  20, 247)
F1_FE_08_FD         // (241, 254,   8, 253)
0B_F7_07_00         // ( 11, 247,   7,   0)
EE_FF_09_F4         // (238, 255,   9, 244)
0E_1A_08_F9         // ( 14,  26,   8, 249)
05_07_02_02         // (  5,   7,   2,   2)
FB_0C_00_06         // (251,  12,   0,   6)
FA_FF_F8_17         // (250, 255, 248,  23)
07_F1_F7_05         // (  7, 241, 247,   5)
F0_22_1B_00         // (240,  34,  27,   0)
F7_13_0C_E7         // (247,  19,  12, 231)
FB_1C_0D_12         // (251,  28,  13,  18)
F4_EE_04_0A         // (244, 238,   4,  10)
FB_EE_0B_06         // (251, 238,  11,   6)
F2_FE_05_16         // (242, 254,   5,  22)
10_03_14_12         // ( 16,   3,  20,  18)
10_F1_11_F7         // ( 16, 241,  17, 247)
FD_07_E6_07         // (253,   7, 230,   7)
F3_0B_10_00         // (243,  11,  16,   0)
EE_00_06_02         // (238,   0,   6,   2)
09_0D_F3_11         // (  9,  13, 243,  17)
F2_07_FA_10         // (242,   7, 250,  16)
FE_FF_31_FB         // (254, 255,  49, 251)
0B_04_08_04         // ( 11,   4,   8,   4)
19_E9_0A_EB         // ( 25, 233,  10, 235)
F9_0B_FC_05         // (249,  11, 252,   5)
0F_09_00_18         // ( 15,   9,   0,  24)
FE_F2_E9_0C         // (254, 242, 233,  12)
F8_F8_FB_11         // (248, 248, 251,  17)
FF_F6_EC_FE         // (255, 246, 236, 254)
F0_0A_DF_F6         // (240,  10, 223, 246)
05_F7_03_04         // (  5, 247,   3,   4)
F8_06_07_F1         // (248,   6,   7, 241)
FB_F8_E7_ED         // (251, 248, 231, 237)
05_E7_FE_02         // (  5, 231, 254,   2)
F6_F9_11_08         // (246, 249,  17,   8)
F6_F7_06_F0         // (246, 247,   6, 240)
0B_00_F5_13         // ( 11,   0, 245,  19)
FA_FD_00_F7         // (250, 253,   0, 247)
E9_0D_F3_F3         // (233,  13, 243, 243)
06_01_04_FD         // (  6,   1,   4, 253)
08_F3_12_EB         // (  8, 243,  18, 235)
0D_16_F3_F8         // ( 13,  22, 243, 248)
FC_04_07_F9         // (252,   4,   7, 249)
EC_02_06_0D         // (236,   2,   6,  13)
FC_E1_E5_F6         // (252, 225, 229, 246)
F8_06_F6_03         // (248,   6, 246,   3)
ED_00_E1_F7         // (237,   0, 225, 247)
12_EC_D9_03         // ( 18, 236, 217,   3)
15_02_02_F3         // ( 21,   2,   2, 243)
0D_FD_0C_E1         // ( 13, 253,  12, 225)
0C_E1_F9_FF         // ( 12, 225, 249, 255)
0C_0E_FD_02         // ( 12,  14, 253,   2)
FE_FF_E7_EF         // (254, 255, 231, 239)
F5_FD_F4_08         // (245, 253, 244,   8)
01_F7_08_FA         // (  1, 247,   8, 250)
19_F6_F1_15         // ( 25, 246, 241,  21)
0C_09_F6_01         // ( 12,   9, 246,   1)
F8_FF_F6_14         // (248, 255, 246,  20)
11_10_01_FD         // ( 17,  16,   1, 253)
F0_09_FC_1D         // (240,   9, 252,  29)
FC_15_F1_17         // (252,  21, 241,  23)
07_07_E1_FA         // (  7,   7, 225, 250)
05_09_0C_07         // (  5,   9,  12,   7)
FC_FF_10_04         // (252, 255,  16,   4)
F8_FA_03_FD         // (248, 250,   3, 253)
FE_FB_05_04         // (254, 251,   5,   4)
00_FA_09_FD         // (  0, 250,   9, 253)
F6_FD_05_FE         // (246, 253,   5, 254)
03_F9_03_05         // (  3, 249,   3,   5)
FD_FE_04_FF         // (253, 254,   4, 255)
02_FF_FF_FA         // (  2, 255, 255, 250)
FF_03_FE_FA         // (255,   3, 254, 250)
05_02_F8_FD         // (  5,   2, 248, 253)
FD_02_FA_03         // (253,   2, 250,   3)
FF_FD_F9_07         // (255, 253, 249,   7)
FA_FD_FD_01         // (250, 253, 253,   1)
03_03_02_FF         // (  3,   3,   2, 255)
FF_01_0A_0C         // (255,   1,  10,  12)
F6_01_06_FF         // (246,   1,   6, 255)
FA_09_FF_01         // (250,   9, 255,   1)
0B_FE_01_03         // ( 11, 254,   1,   3)
01_F2_FB_03         // (  1, 242, 251,   3)
FC_00_F8_05         // (252,   0, 248,   5)
00_F9_03_F9         // (  0, 249,   3, 249)
06_04_05_FB         // (  6,   4,   5, 251)
04_01_F8_0A         // (  4,   1, 248,  10)
03_F5_02_03         // (  3, 245,   2,   3)
06_0A_02_02         // (  6,  10,   2,   2)
08_01_FB_09         // (  8,   1, 251,   9)
00_F5_08_08         // (  0, 245,   8,   8)
FB_01_FC_03         // (251,   1, 252,   3)
00_FF_FA_FD         // (  0, 255, 250, 253)
FD_02_0B_01         // (253,   2,  11,   1)
06_02_07_04         // (  6,   2,   7,   4)
01_FA_02_04         // (  1, 250,   2,   4)
F1_02_FC_09         // (241,   2, 252,   9)
FC_FF_0A_FB         // (252, 255,  10, 251)
FF_F5_07_FA         // (255, 245,   7, 250)
06_02_F9_FA         // (  6,   2, 249, 250)
0B_F8_FD_FF         // ( 11, 248, 253, 255)
FD_FF_FD_0A         // (253, 255, 253,  10)
05_03_FA_05         // (  5,   3, 250,   5)
FE_07_02_00         // (254,   7,   2,   0)
04_0A_FD_0D         // (  4,  10, 253,  13)
FD_03_F9_09         // (253,   3, 249,   9)
F9_0C_01_09         // (249,  12,   1,   9)
FF_06_F9_24         // (255,   6, 249,  36)
FB_02_01_FD         // (251,   2,   1, 253)
FB_06_0C_FA         // (251,   6,  12, 250)
00_02_0A_08         // (  0,   2,  10,   8)
02_06_FF_07         // (  2,   6, 255,   7)
FE_FB_04_FD         // (254, 251,   4, 253)
02_FB_FF_05         // (  2, 251, 255,   5)
FF_10_05_FC         // (255,  16,   5, 252)
03_06_FF_06         // (  3,   6, 255,   6)
05_07_F9_0A         // (  5,   7, 249,  10)
07_FA_05_0A         // (  7, 250,   5,  10)
05_FD_03_00         // (  5, 253,   3,   0)
02_FE_F1_FD         // (  2, 254, 241, 253)
06_06_03_FB         // (  6,   6,   3, 251)
FF_05_01_FE         // (255,   5,   1, 254)
FF_00_F9_04         // (255,   0, 249,   4)
00_04_FC_FE         // (  0,   4, 252, 254)
FC_09_05_FF         // (252,   9,   5, 255)
F8_FA_06_03         // (248, 250,   6,   3)
04_02_09_FE         // (  4,   2,   9, 254)
FB_00_01_FA         // (251,   0,   1, 250)
FC_FC_03_03         // (252, 252,   3,   3)
FC_FF_FD_00         // (252, 255, 253,   0)
EF_FD_FD_FB         // (239, 253, 253, 251)
F2_FE_09_FD         // (242, 254,   9, 253)
F2_FC_FC_F1         // (242, 252, 252, 241)
F3_FC_F6_F5         // (243, 252, 246, 245)
F8_14_FF_FA         // (248,  20, 255, 250)
FA_F8_00_F5         // (250, 248,   0, 245)
03_F8_FC_F9         // (  3, 248, 252, 249)
FF_FA_01_FF         // (255, 250,   1, 255)
0B_00_FF_01         // ( 11,   0, 255,   1)
04_00_03_02         // (  4,   0,   3,   2)
08_F8_0A_01         // (  8, 248,  10,   1)
0C_03_00_02         // ( 12,   3,   0,   2)
09_00_0D_04         // (  9,   0,  13,   4)
0F_FA_12_FB         // ( 15, 250,  18, 251)
FF_05_09_04         // (255,   5,   9,   4)
F3_03_00_F8         // (243,   3,   0, 248)
FD_FC_FB_FE         // (253, 252, 251, 254)
FC_06_FD_FC         // (252,   6, 253, 252)
01_FF_00_FB         // (  1, 255,   0, 251)
FE_F4_F9_02         // (254, 244, 249,   2)
ED_FF_FA_FD         // (237, 255, 250, 253)
FF_01_02_FD         // (255,   1,   2, 253)
FE_F4_FE_FE         // (254, 244, 254, 254)
08_FC_EF_FE         // (  8, 252, 239, 254)
F9_01_F4_05         // (249,   1, 244,   5)
FE_F9_01_FA         // (254, 249,   1, 250)
01_FD_F4_01         // (  1, 253, 244,   1)
FE_00_FE_FD         // (254,   0, 254, 253)
05_01_FB_04         // (  5,   1, 251,   4)
04_F6_07_FC         // (  4, 246,   7, 252)
FD_02_06_F9         // (253,   2,   6, 249)
FB_00_03_FB         // (251,   0,   3, 251)
08_FE_F7_FE         // (  8, 254, 247, 254)
05_FB_EE_04         // (  5, 251, 238,   4)
01_F4_FA_06         // (  1, 244, 250,   6)
FF_F2_F8_FB         // (255, 242, 248, 251)
0A_F1_F3_01         // ( 10, 241, 243,   1)
0A_F0_FB_06         // ( 10, 240, 251,   6)
F8_F4_F7_FE         // (248, 244, 247, 254)
03_F8_FE_05         // (  3, 248, 254,   5)
01_E8_0C_05         // (  1, 232,  12,   5)
08_00_0C_F8         // (  8,   0,  12, 248)
01_FF_09_FD         // (  1, 255,   9, 253)
01_01_02_FC         // (  1,   1,   2, 252)
05_FF_04_03         // (  5, 255,   4,   3)
01_F4_05_F7         // (  1, 244,   5, 247)
04_F8_01_F9         // (  4, 248,   1, 249)
04_04_01_F9         // (  4,   4,   1, 249)
03_FD_FB_F4         // (  3, 253, 251, 244)
F6_0A_F9_F1         // (246,  10, 249, 241)
07_FB_FF_00         // (  7, 251, 255,   0)
01_01_F7_FA         // (  1,   1, 247, 250)
08_04_F7_F9         // (  8,   4, 247, 249)
FD_02_FA_F5         // (253,   2, 250, 245)
FE_03_FD_00         // (254,   3, 253,   0)
00_07_F9_F9         // (  0,   7, 249, 249)
0D_06_F8_03         // ( 13,   6, 248,   3)
01_06_F4_05         // (  1,   6, 244,   5)
05_04_ED_FE         // (  5,   4, 237, 254)
FF_07_FF_FC         // (255,   7, 255, 252)
FF_FF_04_01         // (255, 255,   4,   1)
FA_06_0B_00         // (250,   6,  11,   0)
FF_FE_FF_0A         // (255, 254, 255,  10)
08_01_FD_FF         // (  8,   1, 253, 255)
04_F8_0E_01         // (  4, 248,  14,   1)
0B_FF_FF_03         // ( 11, 255, 255,   3)
FE_F8_0B_00         // (254, 248,  11,   0)
0A_F3_0A_FF         // ( 10, 243,  10, 255)
05_08_F9_09         // (  5,   8, 249,   9)
0B_05_FC_F5         // ( 11,   5, 252, 245)
07_08_02_F8         // (  7,   8,   2, 248)
F9_FB_FF_FC         // (249, 251, 255, 252)
04_FF_00_FD         // (  4, 255,   0, 253)
FE_07_03_02         // (254,   7,   3,   2)
FF_06_01_FD         // (255,   6,   1, 253)
04_0D_04_EF         // (  4,  13,   4, 239)
F7_12_01_FD         // (247,  18,   1, 253)
07_04_FB_FE         // (  7,   4, 251, 254)
00_01_0D_FA         // (  0,   1,  13, 250)
03_03_FF_F3         // (  3,   3, 255, 243)
03_0E_08_FF         // (  3,  14,   8, 255)
FA_FF_E0_F3         // (250, 255, 224, 243)
FF_FB_0C_00         // (255, 251,  12,   0)
FF_09_FC_F0         // (255,   9, 252, 240)
FF_08_07_02         // (255,   8,   7,   2)
02_05_01_FC         // (  2,   5,   1, 252)
06_02_06_FC         // (  6,   2,   6, 252)
F5_01_02_FD         // (245,   1,   2, 253)
10_05_0E_FE         // ( 16,   5,  14, 254)
03_07_EF_FE         // (  3,   7, 239, 254)
FF_09_03_05         // (255,   9,   3,   5)
06_05_03_F8         // (  6,   5,   3, 248)
FD_01_02_04         // (253,   1,   2,   4)
0C_06_FE_FB         // ( 12,   6, 254, 251)
01_F4_09_FF         // (  1, 244,   9, 255)
FD_FF_FA_FD         // (253, 255, 250, 253)
04_09_FC_FD         // (  4,   9, 252, 253)
14_08_F7_FD         // ( 20,   8, 247, 253)
04_08_FD_0B         // (  4,   8, 253,  11)
FD_04_04_FE         // (253,   4,   4, 254)
0A_F5_03_09         // ( 10, 245,   3,   9)
00_FD_FA_FD         // (  0, 253, 250, 253)
0A_F3_FC_FA         // ( 10, 243, 252, 250)
03_FC_FD_FC         // (  3, 252, 253, 252)
FD_09_F7_FC         // (253,   9, 247, 252)
F7_05_09_FF         // (247,   5,   9, 255)
FC_00_FB_01         // (252,   0, 251,   1)
01_FC_0C_F3         // (  1, 252,  12, 243)
02_02_08_0E         // (  2,   2,   8,  14)
FD_FD_05_0C         // (253, 253,   5,  12)
FF_02_08_F5         // (255,   2,   8, 245)
04_FC_F5_F3         // (  4, 252, 245, 243)
F9_FC_FD_E6         // (249, 252, 253, 230)
FD_03_F6_03         // (253,   3, 246,   3)
FC_F8_FB_01         // (252, 248, 251,   1)
FC_00_02_0A         // (252,   0,   2,  10)
09_01_01_FF         // (  9,   1,   1, 255)
03_08_03_01         // (  3,   8,   3,   1)
03_FC_FB_03         // (  3, 252, 251,   3)
0A_F8_FD_FB         // ( 10, 248, 253, 251)
06_F9_07_06         // (  6, 249,   7,   6)
05_0B_FF_FB         // (  5,  11, 255, 251)
FE_01_02_04         // (254,   1,   2,   4)
0E_FB_04_F9         // ( 14, 251,   4, 249)
00_F3_04_F9         // (  0, 243,   4, 249)
08_FB_F3_F5         // (  8, 251, 243, 245)
F9_01_04_FC         // (249,   1,   4, 252)
04_00_FF_F9         // (  4,   0, 255, 249)
02_F9_F7_01         // (  2, 249, 247,   1)
F1_FC_FD_02         // (241, 252, 253,   2)
01_F4_F6_F6         // (  1, 244, 246, 246)
03_02_03_FC         // (  3,   2,   3, 252)
FB_FA_F9_F4         // (251, 250, 249, 244)
10_FC_F8_05         // ( 16, 252, 248,   5)
FA_06_0B_00         // (250,   6,  11,   0)
05_FE_EE_F7         // (  5, 254, 238, 247)
FC_FB_FB_00         // (252, 251, 251,   0)
F8_FB_03_02         // (248, 251,   3,   2)
0A_FE_00_04         // ( 10, 254,   0,   4)
01_04_FA_FE         // (  1,   4, 250, 254)
07_F8_03_17         // (  7, 248,   3,  23)
FB_FD_02_06         // (251, 253,   2,   6)
01_08_07_09         // (  1,   8,   7,   9)
FA_01_04_02         // (250,   1,   4,   2)
F9_F7_0B_FA         // (249, 247,  11, 250)
0C_05_02_01         // ( 12,   5,   2,   1)
F2_FE_FD_06         // (242, 254, 253,   6)
03_F8_00_FB         // (  3, 248,   0, 251)
FD_15_F7_0A         // (253,  21, 247,  10)
0F_02_FB_03         // ( 15,   2, 251,   3)
F6_FE_08_06         // (246, 254,   8,   6)
0C_05_00_04         // ( 12,   5,   0,   4)
FB_FF_02_03         // (251, 255,   2,   3)
06_03_04_02         // (  6,   3,   4,   2)
FE_01_FB_01         // (254,   1, 251,   1)
0B_03_05_FF         // ( 11,   3,   5, 255)
03_05_FD_00         // (  3,   5, 253,   0)
06_FD_06_FA         // (  6, 253,   6, 250)
FF_FD_04_FB         // (255, 253,   4, 251)
04_FD_0C_FF         // (  4, 253,  12, 255)
06_10_03_FC         // (  6,  16,   3, 252)
00_18_00_00         // (  0,  24,   0,   0)
F8_08_0A_FD         // (248,   8,  10, 253)
00_04_05_07         // (  0,   4,   5,   7)
00_01_FB_F4         // (  0,   1, 251, 244)
FE_11_FE_F6         // (254,  17, 254, 246)
06_01_FE_05         // (  6,   1, 254,   5)
FC_04_FD_FF         // (252,   4, 253, 255)
F6_F6_F9_FB         // (246, 246, 249, 251)
FD_0A_02_00         // (253,  10,   2,   0)
06_FF_03_FE         // (  6, 255,   3, 254)
F3_06_08_00         // (243,   6,   8,   0)
06_08_FD_01         // (  6,   8, 253,   1)
02_07_F9_03         // (  2,   7, 249,   3)
FD_F4_F8_00         // (253, 244, 248,   0)
FD_03_02_FE         // (253,   3,   2, 254)
F7_F7_F6_FC         // (247, 247, 246, 252)
FF_00_FA_02         // (255,   0, 250,   2)
06_00_02_08         // (  6,   0,   2,   8)
0D_00_0E_03         // ( 13,   0,  14,   3)
FF_02_F8_FD         // (255,   2, 248, 253)
FE_FD_02_F6         // (254, 253,   2, 246)
F7_08_06_FD         // (247,   8,   6, 253)
EF_00_FB_00         // (239,   0, 251,   0)
F3_02_02_07         // (243,   2,   2,   7)
FD_01_01_00         // (253,   1,   1,   0)
04_07_06_05         // (  4,   7,   6,   5)
FE_04_03_01         // (254,   4,   3,   1)
F9_FD_F8_01         // (249, 253, 248,   1)
08_01_00_06         // (  8,   1,   0,   6)
03_FE_11_05         // (  3, 254,  17,   5)
00_F9_F7_FA         // (  0, 249, 247, 250)
01_FD_FA_F8         // (  1, 253, 250, 248)
FF_FE_07_06         // (255, 254,   7,   6)
04_FB_00_03         // (  4, 251,   0,   3)
FD_00_FD_07         // (253,   0, 253,   7)
04_10_03_F8         // (  4,  16,   3, 248)
0F_FE_00_00         // ( 15, 254,   0,   0)
FD_1C_0F_FF         // (253,  28,  15, 255)
FB_F9_13_07         // (251, 249,  19,   7)
F8_FF_03_02         // (248, 255,   3,   2)
FD_FD_03_01         // (253, 253,   3,   1)
FD_F0_F1_FB         // (253, 240, 241, 251)
04_06_FA_FF         // (  4,   6, 250, 255)
06_FF_F4_FA         // (  6, 255, 244, 250)
07_FE_05_F3         // (  7, 254,   5, 243)
04_02_FE_FC         // (  4,   2, 254, 252)
03_F6_F2_06         // (  3, 246, 242,   6)
FB_04_02_FF         // (251,   4,   2, 255)
F0_FD_F9_13         // (240, 253, 249,  19)
06_FA_FA_00         // (  6, 250, 250,   0)
FA_03_F5_FE         // (250,   3, 245, 254)
FE_FC_00_04         // (254, 252,   0,   4)
F7_FC_FE_F6         // (247, 252, 254, 246)
FE_FC_FE_FF         // (254, 252, 254, 255)
07_0F_FF_04         // (  7,  15, 255,   4)
F0_FE_0C_05         // (240, 254,  12,   5)
FE_03_F8_FF         // (254,   3, 248, 255)
F4_01_FC_FD         // (244,   1, 252, 253)
F9_05_FF_05         // (249,   5, 255,   5)
FE_F9_F6_00         // (254, 249, 246,   0)
F8_FD_07_02         // (248, 253,   7,   2)
00_07_FF_06         // (  0,   7, 255,   6)
F9_04_F8_04         // (249,   4, 248,   4)
02_FF_0C_FD         // (  2, 255,  12, 253)
06_03_F0_01         // (  6,   3, 240,   1)
FC_00_EF_FC         // (252,   0, 239, 252)
02_05_09_FC         // (  2,   5,   9, 252)
00_FF_F9_FC         // (  0, 255, 249, 252)
01_FB_F8_FC         // (  1, 251, 248, 252)
FD_02_00_FE         // (253,   2,   0, 254)
00_07_06_0E         // (  0,   7,   6,  14)
02_0C_06_00         // (  2,  12,   6,   0)
00_05_FD_00         // (  0,   5, 253,   0)
F8_02_0C_00         // (248,   2,  12,   0)
0D_04_0B_11         // ( 13,   4,  11,  17)
F7_02_FE_FB         // (247,   2, 254, 251)
F9_FF_F4_0D         // (249, 255, 244,  13)
FC_FA_0A_01         // (252, 250,  10,   1)
0D_00_F2_06         // ( 13,   0, 242,   6)
03_FD_FE_08         // (  3, 253, 254,   8)
0E_F4_F8_03         // ( 14, 244, 248,   3)
FE_FC_05_06         // (254, 252,   5,   6)
02_FD_F6_05         // (  2, 253, 246,   5)
FB_FD_FC_F9         // (251, 253, 252, 249)
0C_FC_13_06         // ( 12, 252,  19,   6)
06_0D_05_06         // (  6,  13,   5,   6)
05_00_FD_06         // (  5,   0, 253,   6)
11_29_04_E9         // ( 17,  41,   4, 233)
0A_0C_F9_07         // ( 10,  12, 249,   7)
01_0B_FE_0D         // (  1,  11, 254,  13)
0A_0D_05_E7         // ( 10,  13,   5, 231)
04_F7_00_F8         // (  4, 247,   0, 248)
FB_F5_03_01         // (251, 245,   3,   1)
F9_0E_FF_06         // (249,  14, 255,   6)
F5_03_03_08         // (245,   3,   3,   8)
F9_08_02_FD         // (249,   8,   2, 253)
F8_FA_0E_F8         // (248, 250,  14, 248)
FB_03_03_F2         // (251,   3,   3, 242)
F7_FF_00_F1         // (247, 255,   0, 241)
03_F7_FF_F9         // (  3, 247, 255, 249)
F7_FD_02_FF         // (247, 253,   2, 255)
02_0A_FA_FC         // (  2,  10, 250, 252)
06_F7_EB_FE         // (  6, 247, 235, 254)
03_07_F7_FF         // (  3,   7, 247, 255)
F8_0D_EE_00         // (248,  13, 238,   0)
18_F4_FB_0B         // ( 24, 244, 251,  11)
08_F4_F6_00         // (  8, 244, 246,   0)
F9_F2_FA_03         // (249, 242, 250,   3)
00_09_0A_02         // (  0,   9,  10,   2)
03_02_03_FD         // (  3,   2,   3, 253)
05_05_F9_06         // (  5,   5, 249,   6)
F6_0F_02_00         // (246,  15,   2,   0)
FD_00_01_FB         // (253,   0,   1, 251)
FE_03_EF_02         // (254,   3, 239,   2)
FD_F4_FB_03         // (253, 244, 251,   3)
02_07_03_F4         // (  2,   7,   3, 244)
FA_FF_F8_FE         // (250, 255, 248, 254)
FD_FD_F7_05         // (253, 253, 247,   5)
F6_09_01_FC         // (246,   9,   1, 252)
F7_00_08_06         // (247,   0,   8,   6)
07_05_FA_03         // (  7,   5, 250,   3)
12_08_F7_FB         // ( 18,   8, 247, 251)
FD_0B_FD_07         // (253,  11, 253,   7)
FC_ED_FB_FD         // (252, 237, 251, 253)
06_01_F9_EF         // (  6,   1, 249, 239)
09_07_03_F7         // (  9,   7,   3, 247)
FE_03_F9_F4         // (254,   3, 249, 244)
01_FC_FA_FD         // (  1, 252, 250, 253)
F7_0E_02_FE         // (247,  14,   2, 254)
FD_FC_FF_EC         // (253, 252, 255, 236)
FB_0B_03_EA         // (251,  11,   3, 234)
F7_10_FB_F1         // (247,  16, 251, 241)
09_FF_13_1A         // (  9, 255,  19,  26)
07_FE_07_06         // (  7, 254,   7,   6)
FF_04_0F_0E         // (255,   4,  15,  14)
FD_08_00_FF         // (253,   8,   0, 255)
03_FD_06_F7         // (  3, 253,   6, 247)
06_0B_FE_F7         // (  6,  11, 254, 247)
F9_0A_0A_F7         // (249,  10,  10, 247)
0F_FD_04_F7         // ( 15, 253,   4, 247)
03_F8_08_FA         // (  3, 248,   8, 250)
F3_1A_00_00         // (243,  26,   0,   0)
F2_FF_F9_06         // (242, 255, 249,   6)
FE_F5_00_FE         // (254, 245,   0, 254)
FF_F2_FB_09         // (255, 242, 251,   9)
03_04_02_09         // (  3,   4,   2,   9)
00_04_F8_02         // (  0,   4, 248,   2)
F4_13_F9_03         // (244,  19, 249,   3)
06_09_FF_09         // (  6,   9, 255,   9)
04_08_F1_0B         // (  4,   8, 241,  11)
FF_00_FB_11         // (255,   0, 251,  17)
FA_0A_01_0C         // (250,  10,   1,  12)
F1_F9_03_13         // (241, 249,   3,  19)
02_F4_F6_04         // (  2, 244, 246,   4)
F3_F8_FE_FC         // (243, 248, 254, 252)
F1_FC_00_0C         // (241, 252,   0,  12)
05_F8_03_0B         // (  5, 248,   3,  11)
F6_FB_04_02         // (246, 251,   4,   2)
F7_01_F1_0A         // (247,   1, 241,  10)
F5_FC_0C_EE         // (245, 252,  12, 238)
FE_00_02_F3         // (254,   0,   2, 243)
FF_0C_02_FB         // (255,  12,   2, 251)
F9_F9_00_F9         // (249, 249,   0, 249)
FA_FE_FC_F5         // (250, 254, 252, 245)
01_03_06_07         // (  1,   3,   6,   7)
02_06_FD_FC         // (  2,   6, 253, 252)
00_FB_08_F9         // (  0, 251,   8, 249)
0C_06_06_04         // ( 12,   6,   6,   4)
07_F5_F1_F5         // (  7, 245, 241, 245)
01_F4_F0_FC         // (  1, 244, 240, 252)
00_F4_EE_EC         // (  0, 244, 238, 236)
FE_FA_F8_02         // (254, 250, 248,   2)
01_03_F4_01         // (  1,   3, 244,   1)
F4_04_03_FF         // (244,   4,   3, 255)
0A_F8_F4_FF         // ( 10, 248, 244, 255)
FF_05_F9_FC         // (255,   5, 249, 252)
0C_08_FC_F7         // ( 12,   8, 252, 247)
09_14_0D_00         // (  9,  20,  13,   0)
FE_F5_00_F9         // (254, 245,   0, 249)
00_FB_0B_F8         // (  0, 251,  11, 248)
11_04_0B_FF         // ( 17,   4,  11, 255)
F9_FF_F6_FA         // (249, 255, 246, 250)
00_FF_01_F7         // (  0, 255,   1, 247)
11_0F_00_18         // ( 17,  15,   0,  24)
F7_F9_04_08         // (247, 249,   4,   8)
02_E2_07_08         // (  2, 226,   7,   8)
02_02_FA_03         // (  2,   2, 250,   3)
00_FF_06_FE         // (  0, 255,   6, 254)
FE_02_FF_F6         // (254,   2, 255, 246)
F2_F7_FF_06         // (242, 247, 255,   6)
F7_0F_03_F9         // (247,  15,   3, 249)
F6_04_11_F7         // (246,   4,  17, 247)
F5_F8_F5_F6         // (245, 248, 245, 246)
0B_00_03_EF         // ( 11,   0,   3, 239)
0E_06_07_F4         // ( 14,   6,   7, 244)
FC_FD_F4_F8         // (252, 253, 244, 248)
FA_FD_FE_08         // (250, 253, 254,   8)
02_07_F9_16         // (  2,   7, 249,  22)
FD_06_07_FD         // (253,   6,   7, 253)
FA_01_01_FF         // (250,   1,   1, 255)
00_07_05_02         // (  0,   7,   5,   2)
06_FC_F7_03         // (  6, 252, 247,   3)
03_FA_00_06         // (  3, 250,   0,   6)
EE_09_FF_02         // (238,   9, 255,   2)
FC_F0_03_FB         // (252, 240,   3, 251)
FA_F8_06_FE         // (250, 248,   6, 254)
F9_F9_08_FA         // (249, 249,   8, 250)
FB_F9_0B_03         // (251, 249,  11,   3)
FB_F5_06_FC         // (251, 245,   6, 252)
F9_F8_00_00         // (249, 248,   0,   0)
04_0D_02_EE         // (  4,  13,   2, 238)
01_07_06_F0         // (  1,   7,   6, 240)
F7_03_02_FC         // (247,   3,   2, 252)
02_07_F4_09         // (  2,   7, 244,   9)
FA_FE_09_03         // (250, 254,   9,   3)
08_FD_07_05         // (  8, 253,   7,   5)
FC_07_04_06         // (252,   7,   4,   6)
00_FF_FC_F6         // (  0, 255, 252, 246)
FC_0E_07_06         // (252,  14,   7,   6)
FE_FE_FB_07         // (254, 254, 251,   7)
F9_0A_F5_FF         // (249,  10, 245, 255)
FD_03_FB_0C         // (253,   3, 251,  12)
02_04_F9_0E         // (  2,   4, 249,  14)
02_04_08_04         // (  2,   4,   8,   4)
FF_07_02_05         // (255,   7,   2,   5)
FA_04_F3_06         // (250,   4, 243,   6)
F6_F8_FE_06         // (246, 248, 254,   6)
F6_03_FA_06         // (246,   3, 250,   6)
E8_F3_08_0F         // (232, 243,   8,  15)
F4_FD_FF_FD         // (244, 253, 255, 253)
05_01_09_01         // (  5,   1,   9,   1)
03_00_FD_00         // (  3,   0, 253,   0)
FA_FF_00_EE         // (250, 255,   0, 238)
FF_FF_04_09         // (255, 255,   4,   9)
00_03_FC_FC         // (  0,   3, 252, 252)
03_00_00_F8         // (  3,   0,   0, 248)
FE_02_F9_FF         // (254,   2, 249, 255)
09_0A_02_FC         // (  9,  10,   2, 252)
11_01_06_FF         // ( 17,   1,   6, 255)
04_F7_FF_F6         // (  4, 247, 255, 246)
0C_F9_07_0E         // ( 12, 249,   7,  14)
F3_F3_01_FF         // (243, 243,   1, 255)
EE_FE_02_04         // (238, 254,   2,   4)
00_FC_06_0D         // (  0, 252,   6,  13)
F8_04_FC_FE         // (248,   4, 252, 254)
FB_06_04_02         // (251,   6,   4,   2)
FD_F8_FD_12         // (253, 248, 253,  18)
FE_00_EE_F9         // (254,   0, 238, 249)
FC_FE_F9_02         // (252, 254, 249,   2)
04_0A_04_FF         // (  4,  10,   4, 255)
00_FC_FC_FF         // (  0, 252, 252, 255)
0A_05_EC_06         // ( 10,   5, 236,   6)
F8_05_03_FD         // (248,   5,   3, 253)
01_FC_05_04         // (  1, 252,   5,   4)
FC_FC_F2_09         // (252, 252, 242,   9)
0B_FA_00_FE         // ( 11, 250,   0, 254)
05_FA_F5_07         // (  5, 250, 245,   7)
FD_F3_FC_0C         // (253, 243, 252,  12)
06_02_FC_00         // (  6,   2, 252,   0)
00_04_04_FE         // (  0,   4,   4, 254)
F7_00_F1_07         // (247,   0, 241,   7)
08_08_01_F7         // (  8,   8,   1, 247)
01_FF_04_FE         // (  1, 255,   4, 254)
04_06_FE_FF         // (  4,   6, 254, 255)
0F_10_07_03         // ( 15,  16,   7,   3)
FF_02_0D_F6         // (255,   2,  13, 246)
FD_07_F7_FC         // (253,   7, 247, 252)
03_F6_FF_0F         // (  3, 246, 255,  15)
F0_FE_F9_0A         // (240, 254, 249,  10)
F9_FD_FE_01         // (249, 253, 254,   1)
F9_F6_FD_FF         // (249, 246, 253, 255)
EA_08_06_00         // (234,   8,   6,   0)
F7_01_FD_0D         // (247,   1, 253,  13)
04_F7_08_F6         // (  4, 247,   8, 246)
F8_04_0B_08         // (248,   4,  11,   8)
F4_0A_FE_0B         // (244,  10, 254,  11)
04_FB_0B_FE         // (  4, 251,  11, 254)
02_FF_02_01         // (  2, 255,   2,   1)
01_FC_02_01         // (  1, 252,   2,   1)
FD_F6_0B_03         // (253, 246,  11,   3)
04_EF_01_06         // (  4, 239,   1,   6)
02_F4_09_FB         // (  2, 244,   9, 251)
FD_F5_09_FF         // (253, 245,   9, 255)
06_F5_0A_FD         // (  6, 245,  10, 253)
06_00_0D_FF         // (  6,   0,  13, 255)
01_FF_01_0F         // (  1, 255,   1,  15)
0A_FD_F2_0A         // ( 10, 253, 242,  10)
11_EE_FE_05         // ( 17, 238, 254,   5)
09_EB_F6_09         // (  9, 235, 246,   9)
0A_F6_FE_FE         // ( 10, 246, 254, 254)
FC_F3_02_06         // (252, 243,   2,   6)
FD_EA_00_00         // (253, 234,   0,   0)
F7_FC_F8_F6         // (247, 252, 248, 246)
02_FF_00_07         // (  2, 255,   0,   7)
02_0A_FE_0E         // (  2,  10, 254,  14)
0E_03_07_FC         // ( 14,   3,   7, 252)
0B_FF_09_00         // ( 11, 255,   9,   0)
FA_09_0D_FE         // (250,   9,  13, 254)
0A_03_FC_FB         // ( 10,   3, 252, 251)
FC_FF_00_0B         // (252, 255,   0,  11)
F4_03_F2_1A         // (244,   3, 242,  26)
F8_05_FC_0C         // (248,   5, 252,  12)
FA_04_02_0F         // (250,   4,   2,  15)
FB_06_F8_EF         // (251,   6, 248, 239)
00_F9_FE_FF         // (  0, 249, 254, 255)
F4_02_FA_0A         // (244,   2, 250,  10)
05_0C_F5_F2         // (  5,  12, 245, 242)
06_01_FF_FC         // (  6,   1, 255, 252)
FC_04_05_FE         // (252,   4,   5, 254)
0C_0F_05_06         // ( 12,  15,   5,   6)
03_F9_10_FF         // (  3, 249,  16, 255)
01_08_07_FE         // (  1,   8,   7, 254)
FC_01_F1_03         // (252,   1, 241,   3)
EC_07_EE_0C         // (236,   7, 238,  12)
F5_00_11_10         // (245,   0,  17,  16)
FD_F6_01_00         // (253, 246,   1,   0)
FC_FC_EF_FE         // (252, 252, 239, 254)
F9_FD_FB_F9         // (249, 253, 251, 249)
01_00_0D_FD         // (  1,   0,  13, 253)
FB_FD_F4_06         // (251, 253, 244,   6)
FC_F7_F6_01         // (252, 247, 246,   1)
04_06_FA_FD         // (  4,   6, 250, 253)
08_00_FE_FF         // (  8,   0, 254, 255)
04_FF_01_05         // (  4, 255,   1,   5)
02_03_FD_FF         // (  2,   3, 253, 255)
FB_0B_FB_F2         // (251,  11, 251, 242)
FB_0A_FD_FD         // (251,  10, 253, 253)
F8_06_01_0F         // (248,   6,   1,  15)
FB_FE_F5_09         // (251, 254, 245,   9)
FB_05_F2_00         // (251,   5, 242,   0)
00_04_F8_02         // (  0,   4, 248,   2)
03_0B_FF_03         // (  3,  11, 255,   3)
00_03_07_FD         // (  0,   3,   7, 253)
04_FA_FD_01         // (  4, 250, 253,   1)
F9_F7_FE_00         // (249, 247, 254,   0)
04_01_05_06         // (  4,   1,   5,   6)
FB_02_1A_01         // (251,   2,  26,   1)
F5_FC_08_09         // (245, 252,   8,   9)
FC_FB_0C_0C         // (252, 251,  12,  12)
02_F8_FD_0F         // (  2, 248, 253,  15)
FB_F9_FF_FC         // (251, 249, 255, 252)
F8_FC_FC_08         // (248, 252, 252,   8)
FA_05_04_04         // (250,   5,   4,   4)
00_FD_08_FA         // (  0, 253,   8, 250)
FF_FE_05_FC         // (255, 254,   5, 252)
03_0A_04_05         // (  3,  10,   4,   5)
03_03_FF_FC         // (  3,   3, 255, 252)
02_06_FD_FC         // (  2,   6, 253, 252)
02_ED_F6_F6         // (  2, 237, 246, 246)
02_03_F6_01         // (  2,   3, 246,   1)
01_0B_F8_FC         // (  1,  11, 248, 252)
0C_FF_FC_03         // ( 12, 255, 252,   3)
F8_04_FF_03         // (248,   4, 255,   3)
FC_F7_09_FB         // (252, 247,   9, 251)
F9_F7_F7_FE         // (249, 247, 247, 254)
07_07_F2_FA         // (  7,   7, 242, 250)
FD_FD_06_F7         // (253, 253,   6, 247)
07_01_00_05         // (  7,   1,   0,   5)
F9_FA_04_F9         // (249, 250,   4, 249)
00_F6_F4_FD         // (  0, 246, 244, 253)
09_07_F0_05         // (  9,   7, 240,   5)
01_F0_FE_05         // (  1, 240, 254,   5)
EE_01_0B_05         // (238,   1,  11,   5)
F8_FA_04_05         // (248, 250,   4,   5)
F5_00_FD_07         // (245,   0, 253,   7)
FE_13_ED_0D         // (254,  19, 237,  13)
04_FE_F2_03         // (  4, 254, 242,   3)
0D_FE_FF_FF         // ( 13, 254, 255, 255)
09_01_0F_FA         // (  9,   1,  15, 250)
12_F4_F8_FD         // ( 18, 244, 248, 253)
04_F9_FC_04         // (  4, 249, 252,   4)
FE_FF_04_FB         // (254, 255,   4, 251)
06_F3_08_FD         // (  6, 243,   8, 253)
00_0D_08_01         // (  0,  13,   8,   1)
04_15_03_F8         // (  4,  21,   3, 248)
06_F6_F2_F6         // (  6, 246, 242, 246)
00_FB_03_F9         // (  0, 251,   3, 249)
04_EA_1D_02         // (  4, 234,  29,   2)
08_F6_09_11         // (  8, 246,   9,  17)
FA_02_F8_03         // (250,   2, 248,   3)
FE_06_FD_FE         // (254,   6, 253, 254)
07_07_FF_00         // (  7,   7, 255,   0)
FD_03_08_F6         // (253,   3,   8, 246)
FD_E8_08_14         // (253, 232,   8,  20)
FF_FA_09_0C         // (255, 250,   9,  12)
FC_FA_00_0B         // (252, 250,   0,  11)
FD_02_FF_09         // (253,   2, 255,   9)
09_FA_0A_08         // (  9, 250,  10,   8)
F5_FF_F6_FD         // (245, 255, 246, 253)
F3_F8_FD_05         // (243, 248, 253,   5)
0C_F9_07_05         // ( 12, 249,   7,   5)
FB_0D_00_FD         // (251,  13,   0, 253)
FA_0D_01_04         // (250,  13,   1,   4)
09_16_FC_FF         // (  9,  22, 252, 255)
11_00_09_0A         // ( 17,   0,   9,  10)
08_F9_0F_0C         // (  8, 249,  15,  12)
05_07_07_F7         // (  5,   7,   7, 247)
06_03_01_0D         // (  6,   3,   1,  13)
01_FA_FD_0B         // (  1, 250, 253,  11)
03_0F_02_F5         // (  3,  15,   2, 245)
FC_F7_FC_FA         // (252, 247, 252, 250)
01_EB_07_04         // (  1, 235,   7,   4)
04_04_03_11         // (  4,   4,   3,  17)
FB_F6_0D_FD         // (251, 246,  13, 253)
02_02_FF_08         // (  2,   2, 255,   8)
FB_FD_F9_03         // (251, 253, 249,   3)
F7_FB_FB_0A         // (247, 251, 251,  10)
FA_00_FB_09         // (250,   0, 251,   9)
01_0B_02_F9         // (  1,  11,   2, 249)
04_02_0A_F9         // (  4,   2,  10, 249)
F0_02_0C_08         // (240,   2,  12,   8)
08_F7_02_FE         // (  8, 247,   2, 254)
F9_08_F3_0A         // (249,   8, 243,  10)
05_FD_FF_F9         // (  5, 253, 255, 249)
FD_03_FB_04         // (253,   3, 251,   4)
F5_07_F9_04         // (245,   7, 249,   4)
FF_F8_FD_FE         // (255, 248, 253, 254)
08_EF_F6_F4         // (  8, 239, 246, 244)
FE_0C_F8_00         // (254,  12, 248,   0)
F0_00_00_FB         // (240,   0,   0, 251)
0B_0E_11_0F         // ( 11,  14,  17,  15)
08_11_03_01         // (  8,  17,   3,   1)
0B_06_FA_08         // ( 11,   6, 250,   8)
03_01_11_07         // (  3,   1,  17,   7)
06_F0_FA_03         // (  6, 240, 250,   3)
0A_F2_F9_02         // ( 10, 242, 249,   2)
04_02_03_14         // (  4,   2,   3,  20)
02_FE_00_FF         // (  2, 254,   0, 255)
09_07_01_03         // (  9,   7,   1,   3)
03_E6_16_F7         // (  3, 230,  22, 247)
FC_F9_0A_02         // (252, 249,  10,   2)
11_EC_0A_0C         // ( 17, 236,  10,  12)
FC_EF_01_03         // (252, 239,   1,   3)
05_F7_04_09         // (  5, 247,   4,   9)
FE_F0_F8_07         // (254, 240, 248,   7)
FF_E5_08_03         // (255, 229,   8,   3)
F6_FF_FA_FA         // (246, 255, 250, 250)
08_ED_F4_FF         // (  8, 237, 244, 255)
F0_F8_FD_0B         // (240, 248, 253,  11)
F5_FE_FC_01         // (245, 254, 252,   1)
F4_01_00_01         // (244,   1,   0,   1)
02_02_F9_03         // (  2,   2, 249,   3)
0D_F7_FA_FD         // ( 13, 247, 250, 253)
08_FE_0A_05         // (  8, 254,  10,   5)
F9_FF_FF_12         // (249, 255, 255,  18)
FF_0C_04_03         // (255,  12,   4,   3)
00_08_F9_F8         // (  0,   8, 249, 248)
FF_F4_F8_F6         // (255, 244, 248, 246)
09_FC_FC_0D         // (  9, 252, 252,  13)
00_09_F9_02         // (  0,   9, 249,   2)
02_FE_01_F5         // (  2, 254,   1, 245)
0A_F7_01_FA         // ( 10, 247,   1, 250)
FA_FB_03_0A         // (250, 251,   3,  10)
01_02_00_0D         // (  1,   2,   0,  13)
00_08_FE_01         // (  0,   8, 254,   1)
F9_FF_FF_FB         // (249, 255, 255, 251)
FB_09_05_02         // (251,   9,   5,   2)
02_0D_08_06         // (  2,  13,   8,   6)
04_00_06_00         // (  4,   0,   6,   0)
EF_00_FF_01         // (239,   0, 255,   1)
EB_FA_F8_09         // (235, 250, 248,   9)
F4_15_07_F9         // (244,  21,   7, 249)
F9_0B_0A_02         // (249,  11,  10,   2)
03_00_F8_F7         // (  3,   0, 248, 247)
07_0E_FB_FB         // (  7,  14, 251, 251)
13_FC_FB_05         // ( 19, 252, 251,   5)
0A_ED_03_FB         // ( 10, 237,   3, 251)
F3_F5_01_00         // (243, 245,   1,   0)
10_04_F9_F1         // ( 16,   4, 249, 241)
12_18_02_FE         // ( 18,  24,   2, 254)
F8_15_FC_01         // (248,  21, 252,   1)
02_FD_F7_06         // (  2, 253, 247,   6)
11_1E_FB_04         // ( 17,  30, 251,   4)
F6_01_EC_08         // (246,   1, 236,   8)
0C_F7_02_00         // ( 12, 247,   2,   0)
FE_FE_04_F9         // (254, 254,   4, 249)
06_FE_FF_FB         // (  6, 254, 255, 251)
13_00_FD_FC         // ( 19,   0, 253, 252)
03_F9_02_FC         // (  3, 249,   2, 252)
FA_F6_00_08         // (250, 246,   0,   8)
0D_FA_FA_09         // ( 13, 250, 250,   9)
FF_04_0D_09         // (255,   4,  13,   9)
FF_04_FE_09         // (255,   4, 254,   9)
03_ED_FB_09         // (  3, 237, 251,   9)
00_F5_FF_F7         // (  0, 245, 255, 247)
FF_00_EA_F7         // (255,   0, 234, 247)
FE_FD_EF_FE         // (254, 253, 239, 254)
00_FC_FC_00         // (  0, 252, 252,   0)
09_03_FE_09         // (  9,   3, 254,   9)
05_04_0B_03         // (  5,   4,  11,   3)
11_09_01_F9         // ( 17,   9,   1, 249)
02_04_F4_FC         // (  2,   4, 244, 252)
FF_F5_07_FE         // (255, 245,   7, 254)
F7_EA_0B_04         // (247, 234,  11,   4)
FE_ED_F6_05         // (254, 237, 246,   5)
FD_F5_0E_0B         // (253, 245,  14,  11)
13_02_E1_04         // ( 19,   2, 225,   4)
FD_01_01_08         // (253,   1,   1,   8)
0B_F7_0B_FB         // ( 11, 247,  11, 251)
06_F5_F3_FE         // (  6, 245, 243, 254)
00_03_FE_07         // (  0,   3, 254,   7)
0A_05_FF_09         // ( 10,   5, 255,   9)
F7_09_0D_06         // (247,   9,  13,   6)
08_06_0B_07         // (  8,   6,  11,   7)
FA_FE_0A_03         // (250, 254,  10,   3)
FD_07_0C_FC         // (253,   7,  12, 252)
14_03_00_F7         // ( 20,   3,   0, 247)
07_07_02_F3         // (  7,   7,   2, 243)
03_05_04_FC         // (  3,   5,   4, 252)
FC_07_09_0B         // (252,   7,   9,  11)
FB_0C_02_04         // (251,  12,   2,   4)
FA_03_0E_08         // (250,   3,  14,   8)
0B_FA_05_F9         // ( 11, 250,   5, 249)
FF_0A_F8_03         // (255,  10, 248,   3)
0A_FC_02_03         // ( 10, 252,   2,   3)
F7_F0_02_06         // (247, 240,   2,   6)
08_F7_01_FA         // (  8, 247,   1, 250)
00_FA_0B_FA         // (  0, 250,  11, 250)
02_F1_08_09         // (  2, 241,   8,   9)
FF_04_01_06         // (255,   4,   1,   6)
0A_FA_04_01         // ( 10, 250,   4,   1)
0B_01_0C_01         // ( 11,   1,  12,   1)
13_FB_F7_F7         // ( 19, 251, 247, 247)
03_FA_22_F2         // (  3, 250,  34, 242)
02_FA_03_FD         // (  2, 250,   3, 253)
08_00_FB_16         // (  8,   0, 251,  22)
03_04_F8_01         // (  3,   4, 248,   1)
05_F6_04_F3         // (  5, 246,   4, 243)
04_EC_0B_F4         // (  4, 236,  11, 244)
F1_FC_12_00         // (241, 252,  18,   0)
FF_F9_FC_FA         // (255, 249, 252, 250)
11_F9_F5_00         // ( 17, 249, 245,   0)
F7_05_F9_FD         // (247,   5, 249, 253)
F2_07_00_FB         // (242,   7,   0, 251)
0E_FB_F7_F6         // ( 14, 251, 247, 246)
02_F4_F1_FD         // (  2, 244, 241, 253)
04_05_F9_FB         // (  4,   5, 249, 251)
FF_FA_00_0A         // (255, 250,   0,  10)
04_FE_FA_01         // (  4, 254, 250,   1)
11_EE_02_F4         // ( 17, 238,   2, 244)
FA_09_12_FE         // (250,   9,  18, 254)
FF_FE_09_F1         // (255, 254,   9, 241)
FC_FD_F9_FA         // (252, 253, 249, 250)
02_F3_05_09         // (  2, 243,   5,   9)
F4_FA_FC_E5         // (244, 250, 252, 229)
FE_04_FF_F9         // (254,   4, 255, 249)
00_09_03_04         // (  0,   9,   3,   4)
0B_05_04_FC         // ( 11,   5,   4, 252)
FE_02_06_06         // (254,   2,   6,   6)
09_FE_FB_F3         // (  9, 254, 251, 243)
F7_FE_FF_0A         // (247, 254, 255,  10)
08_FA_FE_F8         // (  8, 250, 254, 248)
FD_0A_03_FA         // (253,  10,   3, 250)
08_FB_03_FC         // (  8, 251,   3, 252)
06_04_F6_FD         // (  6,   4, 246, 253)
FC_FB_FC_F8         // (252, 251, 252, 248)
04_FA_03_F3         // (  4, 250,   3, 243)
02_07_FF_00         // (  2,   7, 255,   0)
F0_F9_04_CE         // (240, 249,   4, 206)
14_FE_02_03         // ( 20, 254,   2,   3)
07_02_05_03         // (  7,   2,   5,   3)
FD_F5_FB_F6         // (253, 245, 251, 246)
07_02_01_F9         // (  7,   2,   1, 249)
00_0D_FD_00         // (  0,  13, 253,   0)
06_02_07_06         // (  6,   2,   7,   6)
0C_FC_03_10         // ( 12, 252,   3,  16)
FB_FD_FF_10         // (251, 253, 255,  16)
01_FA_03_0B         // (  1, 250,   3,  11)
0F_04_00_F6         // ( 15,   4,   0, 246)
FC_0C_F9_08         // (252,  12, 249,   8)
F8_FB_F5_0A         // (248, 251, 245,  10)
00_FA_F4_04         // (  0, 250, 244,   4)
FF_01_00_F7         // (255,   1,   0, 247)
05_00_F4_14         // (  5,   0, 244,  20)
F6_10_06_00         // (246,  16,   6,   0)
0A_FE_07_FE         // ( 10, 254,   7, 254)
0B_0B_04_0E         // ( 11,  11,   4,  14)
FE_FD_08_02         // (254, 253,   8,   2)
01_04_08_05         // (  1,   4,   8,   5)
EB_07_FB_08         // (235,   7, 251,   8)
F8_0E_F7_F2         // (248,  14, 247, 242)
FB_07_FC_1A         // (251,   7, 252,  26)
F0_0B_03_05         // (240,  11,   3,   5)
F0_FA_03_FD         // (240, 250,   3, 253)
F2_13_F3_16         // (242,  19, 243,  22)
01_09_00_F2         // (  1,   9,   0, 242)
E7_FC_08_FE         // (231, 252,   8, 254)
FF_FE_FB_0B         // (255, 254, 251,  11)
01_FA_03_0B         // (  1, 250,   3,  11)
F8_FB_02_11         // (248, 251,   2,  17)
0A_05_0B_02         // ( 10,   5,  11,   2)
FB_00_F7_08         // (251,   0, 247,   8)
01_03_01_09         // (  1,   3,   1,   9)
1B_05_03_07         // ( 27,   5,   3,   7)
02_07_03_0E         // (  2,   7,   3,  14)
05_FB_0A_08         // (  5, 251,  10,   8)
11_05_05_FC         // ( 17,   5,   5, 252)
01_FE_09_04         // (  1, 254,   9,   4)
05_FB_11_06         // (  5, 251,  17,   6)
FF_02_F1_06         // (255,   2, 241,   6)
05_F7_F3_19         // (  5, 247, 243,  25)
0D_FF_E6_0C         // ( 13, 255, 230,  12)
05_0B_ED_02         // (  5,  11, 237,   2)
F8_ED_EA_08         // (248, 237, 234,   8)
0B_02_F2_F8         // ( 11,   2, 242, 248)
F2_FB_ED_01         // (242, 251, 237,   1)
07_FE_FA_04         // (  7, 254, 250,   4)
13_07_FD_FC         // ( 19,   7, 253, 252)
00_FE_E6_0B         // (  0, 254, 230,  11)
FF_FF_04_FA         // (255, 255,   4, 250)
FE_04_F5_FF         // (254,   4, 245, 255)
FF_05_FD_F9         // (255,   5, 253, 249)
0A_0F_08_09         // ( 10,  15,   8,   9)
FF_0A_0F_F9         // (255,  10,  15, 249)
03_13_09_07         // (  3,  19,   9,   7)
01_05_00_FA         // (  1,   5,   0, 250)
FD_02_02_0C         // (253,   2,   2,  12)
00_0C_03_06         // (  0,  12,   3,   6)
04_06_04_07         // (  4,   6,   4,   7)
03_04_F1_F1         // (  3,   4, 241, 241)
06_FC_12_F9         // (  6, 252,  18, 249)
FE_FA_01_FC         // (254, 250,   1, 252)
FC_04_F7_10         // (252,   4, 247,  16)
0D_FE_06_F4         // ( 13, 254,   6, 244)
FD_01_0A_00         // (253,   1,  10,   0)
FB_05_00_F3         // (251,   5,   0, 243)
02_04_00_0B         // (  2,   4,   0,  11)
F3_08_06_0A         // (243,   8,   6,  10)
F4_FD_FC_00         // (244, 253, 252,   0)
FA_FD_F8_FB         // (250, 253, 248, 251)
FA_05_FE_04         // (250,   5, 254,   4)
FF_0F_0C_00         // (255,  15,  12,   0)
FF_FF_F2_00         // (255, 255, 242,   0)
02_06_09_09         // (  2,   6,   9,   9)
FD_03_F7_FE         // (253,   3, 247, 254)
F8_FB_F4_07         // (248, 251, 244,   7)
FA_04_01_F5         // (250,   4,   1, 245)
FF_01_FF_00         // (255,   1, 255,   0)
F1_FF_03_FF         // (241, 255,   3, 255)
EB_F8_00_F3         // (235, 248,   0, 243)
FA_FA_02_FF         // (250, 250,   2, 255)
F3_FF_05_00         // (243, 255,   5,   0)
06_02_07_FC         // (  6,   2,   7, 252)
F6_02_06_07         // (246,   2,   6,   7)
EE_F3_01_01         // (238, 243,   1,   1)
02_F5_F6_00         // (  2, 245, 246,   0)
FF_02_FF_01         // (255,   2, 255,   1)
0B_FE_F6_07         // ( 11, 254, 246,   7)
01_F9_FF_07         // (  1, 249, 255,   7)
FE_F6_F8_0B         // (254, 246, 248,  11)
00_F7_F7_02         // (  0, 247, 247,   2)
06_07_F5_0E         // (  6,   7, 245,  14)
FF_FE_FE_03         // (255, 254, 254,   3)
04_01_F9_0C         // (  4,   1, 249,  12)
00_EE_FC_0E         // (  0, 238, 252,  14)
0B_F8_FE_02         // ( 11, 248, 254,   2)
02_01_F9_09         // (  2,   1, 249,   9)
F9_F0_05_01         // (249, 240,   5,   1)
0C_F6_FF_01         // ( 12, 246, 255,   1)
00_FB_F0_08         // (  0, 251, 240,   8)
F8_FB_09_03         // (248, 251,   9,   3)
03_10_01_03         // (  3,  16,   1,   3)
F6_03_F4_0E         // (246,   3, 244,  14)
02_09_01_10         // (  2,   9,   1,  16)
FF_FC_09_13         // (255, 252,   9,  19)
01_F2_FB_0C         // (  1, 242, 251,  12)
F6_07_FD_F7         // (246,   7, 253, 247)
FF_FF_06_05         // (255, 255,   6,   5)
FA_FD_FC_FC         // (250, 253, 252, 252)
F4_FD_03_0F         // (244, 253,   3,  15)
FB_05_F9_0B         // (251,   5, 249,  11)
01_09_02_08         // (  1,   9,   2,   8)
0C_05_07_0E         // ( 12,   5,   7,  14)
00_03_FC_09         // (  0,   3, 252,   9)
FD_FC_04_0B         // (253, 252,   4,  11)
0C_0D_FC_00         // ( 12,  13, 252,   0)
09_01_FC_FF         // (  9,   1, 252, 255)
F7_03_F6_02         // (247,   3, 246,   2)
10_08_FD_FE         // ( 16,   8, 253, 254)
FE_0A_06_05         // (254,  10,   6,   5)
EC_FF_F5_05         // (236, 255, 245,   5)
00_09_0C_03         // (  0,   9,  12,   3)
F9_F9_03_FE         // (249, 249,   3, 254)
0D_FA_0C_0A         // ( 13, 250,  12,  10)
07_09_02_06         // (  7,   9,   2,   6)
03_FE_07_00         // (  3, 254,   7,   0)
04_02_09_07         // (  4,   2,   9,   7)
00_1A_0F_F7         // (  0,  26,  15, 247)
F6_0D_04_02         // (246,  13,   4,   2)
01_0D_FF_0C         // (  1,  13, 255,  12)
F1_05_F2_0A         // (241,   5, 242,  10)
FB_FB_08_08         // (251, 251,   8,   8)
FA_F5_04_FF         // (250, 245,   4, 255)
FB_07_F1_FB         // (251,   7, 241, 251)
FB_04_E9_F8         // (251,   4, 233, 248)
FA_EC_FE_F0         // (250, 236, 254, 240)
FE_F4_07_03         // (254, 244,   7,   3)
03_02_F4_06         // (  3,   2, 244,   6)
01_FB_01_02         // (  1, 251,   1,   2)
01_04_F7_E9         // (  1,   4, 247, 233)
02_03_F6_F7         // (  2,   3, 246, 247)
00_00_F8_F7         // (  0,   0, 248, 247)
F3_FE_F5_F8         // (243, 254, 245, 248)
00_FA_FC_FD         // (  0, 250, 252, 253)
F3_06_01_FB         // (243,   6,   1, 251)
F2_06_10_FD         // (242,   6,  16, 253)
FC_01_FF_E8         // (252,   1, 255, 232)
F5_02_03_E2         // (245,   2,   3, 226)
1D_FB_0D_0E         // ( 29, 251,  13,  14)
0B_05_FE_FE         // ( 11,   5, 254, 254)
07_07_09_08         // (  7,   7,   9,   8)
08_07_08_00         // (  8,   7,   8,   0)
05_09_FF_FD         // (  5,   9, 255, 253)
FE_FE_03_03         // (254, 254,   3,   3)
05_FA_06_05         // (  5, 250,   6,   5)
04_00_04_05         // (  4,   0,   4,   5)
00_04_10_03         // (  0,   4,  16,   3)
07_03_04_F6         // (  7,   3,   4, 246)
FB_FB_02_F9         // (251, 251,   2, 249)
F0_F9_0A_F9         // (240, 249,  10, 249)
F8_DD_FF_FE         // (248, 221, 255, 254)
05_02_06_03         // (  5,   2,   6,   3)
03_EB_05_FC         // (  3, 235,   5, 252)
00_F1_FA_F6         // (  0, 241, 250, 246)
01_01_01_07         // (  1,   1,   1,   7)
02_F7_00_05         // (  2, 247,   0,   5)
F0_F7_00_F8         // (240, 247,   0, 248)
00_ED_F8_05         // (  0, 237, 248,   5)
08_EA_FE_03         // (  8, 234, 254,   3)
FA_FA_07_00         // (250, 250,   7,   0)
FD_F6_09_FF         // (253, 246,   9, 255)
F9_FA_01_01         // (249, 250,   1,   1)
0A_F8_00_01         // ( 10, 248,   0,   1)
0E_F5_F8_05         // ( 14, 245, 248,   5)
05_FC_03_03         // (  5, 252,   3,   3)
08_09_F8_0A         // (  8,   9, 248,  10)
02_FC_01_03         // (  2, 252,   1,   3)
F9_F6_01_02         // (249, 246,   1,   2)
F5_FC_08_04         // (245, 252,   8,   4)
FA_FF_F8_FB         // (250, 255, 248, 251)
06_F9_06_00         // (  6, 249,   6,   0)
FB_04_02_F6         // (251,   4,   2, 246)
08_F3_F8_FA         // (  8, 243, 248, 250)
0B_03_08_0A         // ( 11,   3,   8,  10)
FD_FC_FB_E6         // (253, 252, 251, 230)
02_04_F1_F3         // (  2,   4, 241, 243)
02_0E_F4_E9         // (  2,  14, 244, 233)
FB_FA_FA_F0         // (251, 250, 250, 240)
03_00_FA_00         // (  3,   0, 250,   0)
0A_FD_06_FE         // ( 10, 253,   6, 254)
F8_05_F8_F1         // (248,   5, 248, 241)
02_06_E8_F5         // (  2,   6, 232, 245)
0A_FE_0A_F3         // ( 10, 254,  10, 243)
05_07_F3_F6         // (  5,   7, 243, 246)
09_FE_F5_00         // (  9, 254, 245,   0)
0D_09_FE_FF         // ( 13,   9, 254, 255)
1D_F9_F8_05         // ( 29, 249, 248,   5)
02_F5_FD_FC         // (  2, 245, 253, 252)
FF_07_F5_FC         // (255,   7, 245, 252)
0F_10_F2_16         // ( 15,  16, 242,  22)
03_0A_F7_05         // (  3,  10, 247,   5)
01_19_E2_10         // (  1,  25, 226,  16)
F6_01_09_FA         // (246,   1,   9, 250)
FC_03_FB_F9         // (252,   3, 251, 249)
FA_0F_0F_05         // (250,  15,  15,   5)
F4_FD_01_FD         // (244, 253,   1, 253)
EF_03_FB_04         // (239,   3, 251,   4)
FC_02_10_FF         // (252,   2,  16, 255)
04_11_FD_00         // (  4,  17, 253,   0)
00_02_04_02         // (  0,   2,   4,   2)
08_00_17_02         // (  8,   0,  23,   2)
03_F5_06_0C         // (  3, 245,   6,  12)
08_EB_08_04         // (  8, 235,   8,   4)
FE_FF_FF_04         // (254, 255, 255,   4)
04_FC_04_FC         // (  4, 252,   4, 252)
08_01_FC_F6         // (  8,   1, 252, 246)
03_09_F5_07         // (  3,   9, 245,   7)
03_FD_00_FF         // (  3, 253,   0, 255)
FF_01_FC_FE         // (255,   1, 252, 254)
FE_07_01_0D         // (254,   7,   1,  13)
09_FB_03_05         // (  9, 251,   3,   5)
01_02_00_01         // (  1,   2,   0,   1)
06_01_F9_04         // (  6,   1, 249,   4)
FB_00_08_F8         // (251,   0,   8, 248)
00_06_06_02         // (  0,   6,   6,   2)
10_08_E9_FE         // ( 16,   8, 233, 254)
00_05_05_F5         // (  0,   5,   5, 245)
FD_0A_02_00         // (253,  10,   2,   0)
06_05_FC_08         // (  6,   5, 252,   8)
02_01_FF_FB         // (  2,   1, 255, 251)
03_F8_04_05         // (  3, 248,   4,   5)
05_04_08_F8         // (  5,   4,   8, 248)
05_0D_07_0D         // (  5,  13,   7,  13)
04_F5_04_FC         // (  4, 245,   4, 252)
08_03_FC_FD         // (  8,   3, 252, 253)
F8_02_0C_07         // (248,   2,  12,   7)
07_FE_05_02         // (  7, 254,   5,   2)
FC_FF_05_FE         // (252, 255,   5, 254)
09_0C_FA_06         // (  9,  12, 250,   6)
FF_0A_06_09         // (255,  10,   6,   9)
FC_F2_05_FA         // (252, 242,   5, 250)
05_02_FB_FB         // (  5,   2, 251, 251)
02_07_0B_FA         // (  2,   7,  11, 250)
F6_FA_01_06         // (246, 250,   1,   6)
01_07_0E_00         // (  1,   7,  14,   0)
FB_FD_01_05         // (251, 253,   1,   5)
07_02_04_04         // (  7,   2,   4,   4)
05_0F_FD_E7         // (  5,  15, 253, 231)
FE_FF_08_F5         // (254, 255,   8, 245)
00_0C_FA_FE         // (  0,  12, 250, 254)
05_0D_05_FA         // (  5,  13,   5, 250)
04_FF_FB_0D         // (  4, 255, 251,  13)
08_F5_01_F6         // (  8, 245,   1, 246)
FF_27_0C_FB         // (255,  39,  12, 251)
F7_00_FA_01         // (247,   0, 250,   1)
FF_02_F6_E5         // (255,   2, 246, 229)
FE_FA_04_0A         // (254, 250,   4,  10)
FC_F7_FD_00         // (252, 247, 253,   0)
FE_FB_FB_06         // (254, 251, 251,   6)
05_FA_FF_05         // (  5, 250, 255,   5)
00_F9_05_FD         // (  0, 249,   5, 253)
FB_F9_FF_00         // (251, 249, 255,   0)
05_F8_EF_13         // (  5, 248, 239,  19)
04_F7_FE_03         // (  4, 247, 254,   3)
03_F9_F8_09         // (  3, 249, 248,   9)
00_F9_F4_F6         // (  0, 249, 244, 246)
0A_FF_02_FD         // ( 10, 255,   2, 253)
03_F8_F8_EF         // (  3, 248, 248, 239)
04_02_00_F7         // (  4,   2,   0, 247)
FD_00_FA_FF         // (253,   0, 250, 255)
FF_FC_FE_FD         // (255, 252, 254, 253)
07_08_FD_F5         // (  7,   8, 253, 245)
07_FD_FF_01         // (  7, 253, 255,   1)
F8_FD_FB_07         // (248, 253, 251,   7)
F8_FC_FF_04         // (248, 252, 255,   4)
FD_00_04_01         // (253,   0,   4,   1)
01_05_03_FF         // (  1,   5,   3, 255)
FA_FA_01_FB         // (250, 250,   1, 251)
FE_F9_F8_FF         // (254, 249, 248, 255)
FD_03_0F_F6         // (253,   3,  15, 246)
FB_01_03_FD         // (251,   1,   3, 253)
01_F9_01_00         // (  1, 249,   1,   0)
FF_FE_FD_F5         // (255, 254, 253, 245)
FB_F5_0E_05         // (251, 245,  14,   5)
06_02_FF_FB         // (  6,   2, 255, 251)
05_FC_FC_FB         // (  5, 252, 252, 251)
F9_F5_00_FC         // (249, 245,   0, 252)
FF_FD_F8_FC         // (255, 253, 248, 252)
F9_0C_F9_04         // (249,  12, 249,   4)
00_F8_F6_F9         // (  0, 248, 246, 249)
00_0C_FB_08         // (  0,  12, 251,   8)
FD_0F_FF_05         // (253,  15, 255,   5)
08_F8_05_08         // (  8, 248,   5,   8)
06_F8_0C_FD         // (  6, 248,  12, 253)
FA_08_00_FA         // (250,   8,   0, 250)
05_FF_FA_05         // (  5, 255, 250,   5)
09_F8_06_02         // (  9, 248,   6,   2)
00_05_03_F2         // (  0,   5,   3, 242)
05_FB_12_FA         // (  5, 251,  18, 250)
00_04_02_FC         // (  0,   4,   2, 252)
FF_00_03_F0         // (255,   0,   3, 240)
FD_01_FA_FB         // (253,   1, 250, 251)
04_05_FB_04         // (  4,   5, 251,   4)
00_01_01_FA         // (  0,   1,   1, 250)
FC_0D_F4_FA         // (252,  13, 244, 250)
00_01_04_F7         // (  0,   1,   4, 247)
F8_F3_FE_03         // (248, 243, 254,   3)
FB_03_F8_FF         // (251,   3, 248, 255)
FB_00_04_FA         // (251,   0,   4, 250)
00_08_FE_FD         // (  0,   8, 254, 253)
06_05_09_0C         // (  6,   5,   9,  12)
FF_03_0A_FD         // (255,   3,  10, 253)
FE_00_F9_FF         // (254,   0, 249, 255)
0B_0C_00_F5         // ( 11,  12,   0, 245)
02_09_05_F5         // (  2,   9,   5, 245)
FB_0A_FC_08         // (251,  10, 252,   8)
01_0C_FA_03         // (  1,  12, 250,   3)
02_0A_04_09         // (  2,  10,   4,   9)
FE_FF_07_0C         // (254, 255,   7,  12)
FE_04_05_EB         // (254,   4,   5, 235)
FE_FB_FF_FB         // (254, 251, 255, 251)
FA_02_03_08         // (250,   2,   3,   8)
0D_FE_FD_F1         // ( 13, 254, 253, 241)
FD_F7_FD_02         // (253, 247, 253,   2)
FD_FF_04_F2         // (253, 255,   4, 242)
F8_FE_FE_FF         // (248, 254, 254, 255)
F8_02_FA_02         // (248,   2, 250,   2)
05_06_01_FD         // (  5,   6,   1, 253)
FE_F8_F8_08         // (254, 248, 248,   8)
02_FC_F9_FA         // (  2, 252, 249, 250)
05_05_FF_06         // (  5,   5, 255,   6)
F4_F8_F1_04         // (244, 248, 241,   4)
FF_FC_F3_02         // (255, 252, 243,   2)
09_FA_F8_FA         // (  9, 250, 248, 250)
FF_02_F9_0B         // (255,   2, 249,  11)
FC_FC_EF_FC         // (252, 252, 239, 252)
FE_FB_FE_FF         // (254, 251, 254, 255)
01_05_05_04         // (  1,   5,   5,   4)
FC_F8_05_00         // (252, 248,   5,   0)
08_F5_11_FA         // (  8, 245,  17, 250)
08_09_03_00         // (  8,   9,   3,   0)
05_04_F8_FA         // (  5,   4, 248, 250)
FA_F5_FF_FB         // (250, 245, 255, 251)
18_FF_08_16         // ( 24, 255,   8,  22)
08_FA_04_10         // (  8, 250,   4,  16)
01_1A_FD_03         // (  1,  26, 253,   3)
FE_01_01_FE         // (254,   1,   1, 254)
FE_07_00_F0         // (254,   7,   0, 240)
07_04_11_08         // (  7,   4,  17,   8)
01_FB_FF_09         // (  1, 251, 255,   9)
FC_F9_F7_F8         // (252, 249, 247, 248)
FA_FE_08_F8         // (250, 254,   8, 248)
F7_FB_EF_0B         // (247, 251, 239,  11)
00_F7_01_04         // (  0, 247,   1,   4)
04_FC_07_FB         // (  4, 252,   7, 251)
F7_0B_F8_01         // (247,  11, 248,   1)
F6_FF_05_05         // (246, 255,   5,   5)
FE_02_04_F9         // (254,   2,   4, 249)
FF_09_F8_FA         // (255,   9, 248, 250)
02_08_07_07         // (  2,   8,   7,   7)
FE_FB_08_03         // (254, 251,   8,   3)
00_06_F7_05         // (  0,   6, 247,   5)
FE_05_FB_FD         // (254,   5, 251, 253)
FD_FD_03_03         // (253, 253,   3,   3)
00_FA_01_F6         // (  0, 250,   1, 246)
0B_FF_03_FF         // ( 11, 255,   3, 255)
FC_02_FD_F2         // (252,   2, 253, 242)
F6_FF_FF_F8         // (246, 255, 255, 248)
EC_ED_0E_FB         // (236, 237,  14, 251)
EF_08_FB_F7         // (239,   8, 251, 247)
0C_14_01_FB         // ( 12,  20,   1, 251)
01_FE_FF_FE         // (  1, 254, 255, 254)
FC_05_FA_F4         // (252,   5, 250, 244)
FF_0D_F0_F4         // (255,  13, 240, 244)
01_00_05_03         // (  1,   0,   5,   3)
0F_00_F9_F8         // ( 15,   0, 249, 248)
04_02_FE_05         // (  4,   2, 254,   5)
01_F4_00_07         // (  1, 244,   0,   7)
FC_EF_F8_01         // (252, 239, 248,   1)
D9_0A_02_0E         // (217,  10,   2,  14)
07_FA_FB_1A         // (  7, 250, 251,  26)
FC_EB_E9_21         // (252, 235, 233,  33)
01_F1_E9_FC         // (  1, 241, 233, 252)
05_00_FF_08         // (  5,   0, 255,   8)
0B_F7_04_05         // ( 11, 247,   4,   5)
EC_05_F7_F4         // (236,   5, 247, 244)
0E_F5_01_FD         // ( 14, 245,   1, 253)
0F_F8_F4_07         // ( 15, 248, 244,   7)
F8_F9_F8_F7         // (248, 249, 248, 247)
09_FE_F3_F8         // (  9, 254, 243, 248)
02_F6_F8_08         // (  2, 246, 248,   8)
01_07_FC_05         // (  1,   7, 252,   5)
01_00_07_07         // (  1,   0,   7,   7)
06_FB_0A_02         // (  6, 251,  10,   2)
F5_07_FA_01         // (245,   7, 250,   1)
F4_03_07_FD         // (244,   3,   7, 253)
04_00_0C_0B         // (  4,   0,  12,  11)
F3_0C_FC_0D         // (243,  12, 252,  13)
03_FB_09_0A         // (  3, 251,   9,  10)
F7_05_03_17         // (247,   5,   3,  23)
08_07_06_14         // (  8,   7,   6,  20)
F6_FE_FF_13         // (246, 254, 255,  19)
F8_FA_0B_10         // (248, 250,  11,  16)
00_08_F5_05         // (  0,   8, 245,   5)
0B_06_EF_00         // ( 11,   6, 239,   0)
F8_F5_07_09         // (248, 245,   7,   9)
06_0D_FC_17         // (  6,  13, 252,  23)
14_0B_F1_01         // ( 20,  11, 241,   1)
F4_04_11_15         // (244,   4,  17,  21)
F4_09_0C_F9         // (244,   9,  12, 249)
F6_FE_0D_FF         // (246, 254,  13, 255)
F9_F1_10_FE         // (249, 241,  16, 254)
FE_0D_03_F2         // (254,  13,   3, 242)
02_01_1A_0A         // (  2,   1,  26,  10)
06_02_0F_0C         // (  6,   2,  15,  12)
FB_1F_14_F1         // (251,  31,  20, 241)
F7_0A_04_04         // (247,  10,   4,   4)
F9_03_FA_F6         // (249,   3, 250, 246)
F4_F3_FF_05         // (244, 243, 255,   5)
E4_01_FB_F4         // (228,   1, 251, 244)
E8_F8_07_F9         // (232, 248,   7, 249)
F8_F8_08_06         // (248, 248,   8,   6)
E1_03_F9_FA         // (225,   3, 249, 250)
F1_FC_F8_F3         // (241, 252, 248, 243)
09_F1_05_06         // (  9, 241,   5,   6)
F6_E7_04_FC         // (246, 231,   4, 252)
01_E8_F6_FB         // (  1, 232, 246, 251)
F0_0C_FD_02         // (240,  12, 253,   2)
F9_F3_05_EE         // (249, 243,   5, 238)
07_02_03_F5         // (  7,   2,   3, 245)
F9_FD_07_06         // (249, 253,   7,   6)
FD_FF_FE_FC         // (253, 255, 254, 252)
01_F5_FE_F9         // (  1, 245, 254, 249)
F7_06_0F_F9         // (247,   6,  15, 249)
FA_05_FE_12         // (250,   5, 254,  18)
09_0D_F8_F9         // (  9,  13, 248, 249)
17_F1_FE_FC         // ( 23, 241, 254, 252)
17_00_06_FE         // ( 23,   0,   6, 254)
10_09_08_FD         // ( 16,   9,   8, 253)
08_08_01_FC         // (  8,   8,   1, 252)
04_EF_01_FF         // (  4, 239,   1, 255)
FC_06_09_F9         // (252,   6,   9, 249)
0B_0C_0C_04         // ( 11,  12,  12,   4)
FD_FA_0C_07         // (253, 250,  12,   7)
FD_05_23_02         // (253,   5,  35,   2)
FB_0E_FE_FF         // (251,  14, 254, 255)
F4_06_07_FA         // (244,   6,   7, 250)
FD_04_13_F2         // (253,   4,  19, 242)
14_F3_F1_03         // ( 20, 243, 241,   3)
F1_06_0A_FC         // (241,   6,  10, 252)
E9_01_07_F2         // (233,   1,   7, 242)
07_FD_EB_F4         // (  7, 253, 235, 244)
F0_02_05_F7         // (240,   2,   5, 247)
E4_EF_FA_02         // (228, 239, 250,   2)
FB_03_0D_F6         // (251,   3,  13, 246)
04_F7_00_FE         // (  4, 247,   0, 254)
0D_01_04_F5         // ( 13,   1,   4, 245)
10_01_03_04         // ( 16,   1,   3,   4)
14_0A_06_FF         // ( 20,  10,   6, 255)
01_08_08_FD         // (  1,   8,   8, 253)
0F_F1_F1_F7         // ( 15, 241, 241, 247)
FE_01_FB_FD         // (254,   1, 251, 253)
05_0A_07_FC         // (  5,  10,   7, 252)
04_E1_FD_0A         // (  4, 225, 253,  10)
06_F4_FA_07         // (  6, 244, 250,   7)
11_FE_0D_04         // ( 17, 254,  13,   4)
03_F9_01_0A         // (  3, 249,   1,  10)
FD_F4_FF_FE         // (253, 244, 255, 254)
07_00_F8_F8         // (  7,   0, 248, 248)
FD_F2_00_02         // (253, 242,   0,   2)
02_EC_02_FC         // (  2, 236,   2, 252)
02_FB_EC_F0         // (  2, 251, 236, 240)
FB_ED_F1_EB         // (251, 237, 241, 235)
01_F6_05_01         // (  1, 246,   5,   1)
00_05_01_FA         // (  0,   5,   1, 250)
12_FB_08_F0         // ( 18, 251,   8, 240)
07_0A_FB_07         // (  7,  10, 251,   7)
04_FC_01_FF         // (  4, 252,   1, 255)
15_F6_08_EE         // ( 21, 246,   8, 238)
05_FA_FB_F1         // (  5, 250, 251, 241)
FD_0A_FF_CE         // (253,  10, 255, 206)
FC_FA_FD_F6         // (252, 250, 253, 246)
F9_06_06_F9         // (249,   6,   6, 249)
FC_E6_F9_07         // (252, 230, 249,   7)
10_0B_F5_F7         // ( 16,  11, 245, 247)
02_09_FD_F3         // (  2,   9, 253, 243)
03_F6_F4_01         // (  3, 246, 244,   1)
1B_11_F7_09         // ( 27,  17, 247,   9)
09_0B_F5_03         // (  9,  11, 245,   3)
07_08_F7_0D         // (  7,   8, 247,  13)
F2_F5_10_07         // (242, 245,  16,   7)
EB_05_03_FD         // (235,   5,   3, 253)
F4_FD_17_0A         // (244, 253,  23,  10)
06_01_08_FA         // (  6,   1,   8, 250)
FE_FD_F7_0C         // (254, 253, 247,  12)
FF_01_11_0A         // (255,   1,  17,  10)
0D_06_FD_FA         // ( 13,   6, 253, 250)
F8_01_09_0F         // (248,   1,   9,  15)
13_00_0E_F9         // ( 19,   0,  14, 249)
06_F1_0D_01         // (  6, 241,  13,   1)
0D_FB_02_03         // ( 13, 251,   2,   3)
F2_F8_06_0A         // (242, 248,   6,  10)
FD_F7_01_0D         // (253, 247,   1,  13)
FE_FA_0D_EF         // (254, 250,  13, 239)
0A_0A_12_FA         // ( 10,  10,  18, 250)
00_FB_F3_0B         // (  0, 251, 243,  11)
04_FD_01_07         // (  4, 253,   1,   7)
02_01_F6_08         // (  2,   1, 246,   8)
F5_05_08_FE         // (245,   5,   8, 254)
F3_05_05_07         // (243,   5,   5,   7)
08_05_09_04         // (  8,   5,   9,   4)
06_04_05_F1         // (  6,   4,   5, 241)
08_05_FF_F8         // (  8,   5, 255, 248)
00_04_0E_00         // (  0,   4,  14,   0)
06_0A_FF_F8         // (  6,  10, 255, 248)
FC_06_07_F9         // (252,   6,   7, 249)
F8_FD_FE_02         // (248, 253, 254,   2)
F7_F3_04_11         // (247, 243,   4,  17)
01_0D_01_01         // (  1,  13,   1,   1)
01_02_00_01         // (  1,   2,   0,   1)
0D_DA_05_FF         // ( 13, 218,   5, 255)
F4_F7_03_F4         // (244, 247,   3, 244)
F7_F9_FA_01         // (247, 249, 250,   1)
09_F5_FF_0D         // (  9, 245, 255,  13)
FD_09_04_08         // (253,   9,   4,   8)
FA_02_F0_07         // (250,   2, 240,   7)
FC_F5_FC_00         // (252, 245, 252,   0)
01_F5_FF_03         // (  1, 245, 255,   3)
05_F7_F5_05         // (  5, 247, 245,   5)
F9_FB_07_F8         // (249, 251,   7, 248)
FB_00_06_00         // (251,   0,   6,   0)
00_07_F4_06         // (  0,   7, 244,   6)
FA_00_0A_FB         // (250,   0,  10, 251)
07_0B_FD_F9         // (  7,  11, 253, 249)
03_00_FE_14         // (  3,   0, 254,  20)
01_1F_FB_02         // (  1,  31, 251,   2)
05_FF_01_FA         // (  5, 255,   1, 250)
FD_FD_07_05         // (253, 253,   7,   5)
FC_16_00_06         // (252,  22,   0,   6)
03_F6_06_FB         // (  3, 246,   6, 251)
FD_F6_03_02         // (253, 246,   3,   2)
FE_21_02_0F         // (254,  33,   2,  15)
01_02_07_02         // (  1,   2,   7,   2)
F9_FA_01_00         // (249, 250,   1,   0)
FB_FD_FC_FB         // (251, 253, 252, 251)
FD_FC_05_03         // (253, 252,   5,   3)
F2_FA_06_03         // (242, 250,   6,   3)
F9_FA_FA_04         // (249, 250, 250,   4)
F8_FD_01_F8         // (248, 253,   1, 248)
01_03_03_02         // (  1,   3,   3,   2)
08_FC_F5_08         // (  8, 252, 245,   8)
FE_08_F4_09         // (254,   8, 244,   9)
FA_FF_F8_0A         // (250, 255, 248,  10)
FE_F6_0D_09         // (254, 246,  13,   9)
07_FC_FE_F5         // (  7, 252, 254, 245)
02_00_0B_F9         // (  2,   0,  11, 249)
02_FD_FE_10         // (  2, 253, 254,  16)
03_FF_FB_F3         // (  3, 255, 251, 243)
05_02_FC_05         // (  5,   2, 252,   5)
00_0F_0A_0A         // (  0,  15,  10,  10)
00_0A_05_F9         // (  0,  10,   5, 249)
FA_09_09_01         // (250,   9,   9,   1)
F6_FF_FF_04         // (246, 255, 255,   4)
01_FD_F8_FB         // (  1, 253, 248, 251)
FD_FB_FE_F3         // (253, 251, 254, 243)
EE_F8_FE_04         // (238, 248, 254,   4)
FB_01_01_FE         // (251,   1,   1, 254)
00_F9_FA_F9         // (  0, 249, 250, 249)
F4_FA_FD_03         // (244, 250, 253,   3)
F5_FE_01_F3         // (245, 254,   1, 243)
FF_04_00_FF         // (255,   4,   0, 255)
01_00_F1_FF         // (  1,   0, 241, 255)
FF_FB_FB_FB         // (255, 251, 251, 251)
FF_13_FD_03         // (255,  19, 253,   3)
FA_FF_05_0D         // (250, 255,   5,  13)
FA_FA_F7_F9         // (250, 250, 247, 249)
FF_05_08_07         // (255,   5,   8,   7)
FE_07_FE_02         // (254,   7, 254,   2)
FC_03_FF_FB         // (252,   3, 255, 251)
08_14_FD_07         // (  8,  20, 253,   7)
0E_05_0E_F4         // ( 14,   5,  14, 244)
FE_00_0D_F8         // (254,   0,  13, 248)
02_01_0B_FB         // (  2,   1,  11, 251)
02_F5_FF_03         // (  2, 245, 255,   3)
F3_07_04_FD         // (243,   7,   4, 253)
01_04_FC_F8         // (  1,   4, 252, 248)
02_FF_06_00         // (  2, 255,   6,   0)
06_FE_06_FA         // (  6, 254,   6, 250)
05_01_08_F0         // (  5,   1,   8, 240)
F9_00_0E_F5         // (249,   0,  14, 245)
F8_10_FC_F4         // (248,  16, 252, 244)
F5_01_FE_F6         // (245,   1, 254, 246)
09_0E_02_FC         // (  9,  14,   2, 252)
08_FC_09_FA         // (  8, 252,   9, 250)
02_05_01_F2         // (  2,   5,   1, 242)
F5_14_06_FC         // (245,  20,   6, 252)
F7_0B_0E_01         // (247,  11,  14,   1)
EE_FF_F5_00         // (238, 255, 245,   0)
FD_FD_FE_01         // (253, 253, 254,   1)
0C_F2_F7_03         // ( 12, 242, 247,   3)
08_FF_00_09         // (  8, 255,   0,   9)
FD_FA_08_07         // (253, 250,   8,   7)
02_04_F7_05         // (  2,   4, 247,   5)
06_F7_02_02         // (  6, 247,   2,   2)
01_F9_00_FE         // (  1, 249,   0, 254)
05_F8_F4_FC         // (  5, 248, 244, 252)
FE_FC_F8_03         // (254, 252, 248,   3)
05_F8_F5_04         // (  5, 248, 245,   4)
01_FD_01_FD         // (  1, 253,   1, 253)
FA_F0_00_F6         // (250, 240,   0, 246)
05_00_09_0E         // (  5,   0,   9,  14)
07_06_FD_FB         // (  7,   6, 253, 251)
F7_04_02_F4         // (247,   4,   2, 244)
01_FA_0E_FE         // (  1, 250,  14, 254)
F7_FE_02_FA         // (247, 254,   2, 250)
F7_00_FF_F3         // (247,   0, 255, 243)
0B_FE_EB_EC         // ( 11, 254, 235, 236)
F5_FA_F9_FD         // (245, 250, 249, 253)
14_F9_FF_F5         // ( 20, 249, 255, 245)
03_07_FB_F4         // (  3,   7, 251, 244)
FC_FB_EE_F7         // (252, 251, 238, 247)
01_FF_02_FD         // (  1, 255,   2, 253)
FD_05_F5_FC         // (253,   5, 245, 252)
FB_FF_F2_FD         // (251, 255, 242, 253)
02_02_F1_FE         // (  2,   2, 241, 254)
E6_00_16_FF         // (230,   0,  22, 255)
E8_00_06_FC         // (232,   0,   6, 252)
F7_01_FA_01         // (247,   1, 250,   1)
F7_07_FF_05         // (247,   7, 255,   5)
FA_03_FD_FC         // (250,   3, 253, 252)
F6_02_F3_00         // (246,   2, 243,   0)
FF_06_06_18         // (255,   6,   6,  24)
FF_05_FD_13         // (255,   5, 253,  19)
F0_09_F9_0C         // (240,   9, 249,  12)
E8_00_04_0C         // (232,   0,   4,  12)
FC_08_FE_11         // (252,   8, 254,  17)
F3_0D_09_00         // (243,  13,   9,   0)
F0_06_0A_FB         // (240,   6,  10, 251)
02_FC_FE_07         // (  2, 252, 254,   7)
0D_08_0D_F1         // ( 13,   8,  13, 241)
EB_00_06_FE         // (235,   0,   6, 254)
01_FE_FC_FD         // (  1, 254, 252, 253)
15_05_0B_FB         // ( 21,   5,  11, 251)
0F_FA_00_09         // ( 15, 250,   0,   9)
02_03_FF_01         // (  2,   3, 255,   1)
FE_F7_07_09         // (254, 247,   7,   9)
08_01_FB_FE         // (  8,   1, 251, 254)
01_08_08_FD         // (  1,   8,   8, 253)
F9_FC_08_F8         // (249, 252,   8, 248)
01_F4_F4_FC         // (  1, 244, 244, 252)
05_04_00_02         // (  5,   4,   0,   2)
00_F7_05_0C         // (  0, 247,   5,  12)
00_FC_08_E3         // (  0, 252,   8, 227)
10_01_EF_04         // ( 16,   1, 239,   4)
F3_16_15_F8         // (243,  22,  21, 248)
F2_0F_06_F4         // (242,  15,   6, 244)
FE_0A_01_01         // (254,  10,   1,   1)
F8_0B_06_01         // (248,  11,   6,   1)
FC_13_0B_ED         // (252,  19,  11, 237)
01_19_F5_FD         // (  1,  25, 245, 253)
FA_FF_FC_0A         // (250, 255, 252,  10)
FA_14_F9_F0         // (250,  20, 249, 240)
17_01_FE_EE         // ( 23,   1, 254, 238)
FE_F5_04_ED         // (254, 245,   4, 237)
FB_16_FE_FF         // (251,  22, 254, 255)
08_00_F2_12         // (  8,   0, 242,  18)
FC_FA_0B_03         // (252, 250,  11,   3)
04_0F_FD_0A         // (  4,  15, 253,  10)
10_0B_01_18         // ( 16,  11,   1,  24)
02_ED_FB_02         // (  2, 237, 251,   2)
0F_EA_EF_F1         // ( 15, 234, 239, 241)
00_F8_09_0E         // (  0, 248,   9,  14)
FF_EF_FA_13         // (255, 239, 250,  19)
F9_06_05_F5         // (249,   6,   5, 245)
04_F8_FF_05         // (  4, 248, 255,   5)
F8_03_FA_F7         // (248,   3, 250, 247)
01_F6_F5_F6         // (  1, 246, 245, 246)
F9_14_F1_EF         // (249,  20, 241, 239)
F9_1D_F4_F4         // (249,  29, 244, 244)
00_20_15_09         // (  0,  32,  21,   9)
08_04_FD_11         // (  8,   4, 253,  17)
EC_F6_21_F7         // (236, 246,  33, 247)
FA_FC_00_05         // (250, 252,   0,   5)
FC_F9_FD_02         // (252, 249, 253,   2)
03_05_24_F7         // (  3,   5,  36, 247)
F8_F7_02_04         // (248, 247,   2,   4)
F6_F3_1D_FD         // (246, 243,  29, 253)
FB_FF_19_F7         // (251, 255,  25, 247)
E6_FB_F9_3C         // (230, 251, 249,  60)
00_F7_F2_0B         // (  0, 247, 242,  11)
F5_E8_0F_09         // (245, 232,  15,   9)
FA_FD_03_12         // (250, 253,   3,  18)
0C_F6_02_00         // ( 12, 246,   2,   0)
02_FB_06_FE         // (  2, 251,   6, 254)
0D_F9_0C_0E         // ( 13, 249,  12,  14)
16_0F_04_FE         // ( 22,  15,   4, 254)
FD_09_17_01         // (253,   9,  23,   1)
0B_FD_F9_F2         // ( 11, 253, 249, 242)
04_F8_F9_06         // (  4, 248, 249,   6)
10_FC_F1_03         // ( 16, 252, 241,   3)
FC_0E_01_F3         // (252,  14,   1, 243)
FD_08_17_20         // (253,   8,  23,  32)
11_07_FF_FA         // ( 17,   7, 255, 250)
F3_0E_FB_00         // (243,  14, 251,   0)
FC_FE_04_00         // (252, 254,   4,   0)
F2_01_FA_09         // (242,   1, 250,   9)
14_F6_FD_07         // ( 20, 246, 253,   7)
FE_02_F5_00         // (254,   2, 245,   0)
FC_EC_0D_0A         // (252, 236,  13,  10)
00_F6_FE_F4         // (  0, 246, 254, 244)
F8_F2_F9_0D         // (248, 242, 249,  13)
F6_03_F6_F6         // (246,   3, 246, 246)
FF_FA_10_F5         // (255, 250,  16, 245)
03_FF_FA_03         // (  3, 255, 250,   3)
F2_0C_FE_F7         // (242,  12, 254, 247)
00_E3_0D_11         // (  0, 227,  13,  17)
F3_01_09_0D         // (243,   1,   9,  13)
E9_03_0A_FB         // (233,   3,  10, 251)
F4_F6_04_01         // (244, 246,   4,   1)
F2_FD_FA_04         // (242, 253, 250,   4)
EE_F9_F8_EC         // (238, 249, 248, 236)
F8_02_11_FD         // (248,   2,  17, 253)
F1_04_03_11         // (241,   4,   3,  17)
FA_F5_02_09         // (250, 245,   2,   9)
1A_ED_FD_FB         // ( 26, 237, 253, 251)
0A_F4_F8_F8         // ( 10, 244, 248, 248)
06_FA_03_EF         // (  6, 250,   3, 239)
00_02_09_04         // (  0,   2,   9,   4)
07_FE_0B_01         // (  7, 254,  11,   1)
06_FB_10_F6         // (  6, 251,  16, 246)
02_ED_06_F6         // (  2, 237,   6, 246)
03_04_01_FB         // (  3,   4,   1, 251)
FF_0C_FB_02         // (255,  12, 251,   2)
FF_F9_04_07         // (255, 249,   4,   7)
F5_01_FE_F6         // (245,   1, 254, 246)
0F_FA_01_F9         // ( 15, 250,   1, 249)
02_F5_F7_02         // (  2, 245, 247,   2)
01_EB_F9_0D         // (  1, 235, 249,  13)
FB_F3_09_02         // (251, 243,   9,   2)
FC_FA_F9_FA         // (252, 250, 249, 250)
02_0D_F8_00         // (  2,  13, 248,   0)
FB_05_F2_F4         // (251,   5, 242, 244)
F5_04_E2_0B         // (245,   4, 226,  11)
03_FD_F2_FB         // (  3, 253, 242, 251)
FE_0F_03_F9         // (254,  15,   3, 249)
04_FF_F1_03         // (  4, 255, 241,   3)
04_00_F6_03         // (  4,   0, 246,   3)
03_01_F9_F9         // (  3,   1, 249, 249)
FA_FE_ED_FA         // (250, 254, 237, 250)
02_0D_06_F4         // (  2,  13,   6, 244)
0E_04_01_FA         // ( 14,   4,   1, 250)
17_E8_18_F1         // ( 23, 232,  24, 241)
FF_ED_16_00         // (255, 237,  22,   0)
FE_00_FC_F6         // (254,   0, 252, 246)
07_F1_F6_EC         // (  7, 241, 246, 236)
02_EE_F0_10         // (  2, 238, 240,  16)
F6_FF_F6_04         // (246, 255, 246,   4)
0E_0C_EB_F8         // ( 14,  12, 235, 248)
F5_0A_E7_05         // (245,  10, 231,   5)
ED_13_CC_04         // (237,  19, 204,   4)
17_F5_FE_D5         // ( 23, 245, 254, 213)
F9_FF_F3_F4         // (249, 255, 243, 244)
0E_01_06_FD         // ( 14,   1,   6, 253)
0B_FE_02_FF         // ( 11, 254,   2, 255)
0A_F0_F7_FD         // ( 10, 240, 247, 253)
0B_07_0D_FE         // ( 11,   7,  13, 254)
06_0E_FE_F8         // (  6,  14, 254, 248)
0B_EF_E8_FB         // ( 11, 239, 232, 251)
10_0C_07_09         // ( 16,  12,   7,   9)
16_02_EC_FE         // ( 22,   2, 236, 254)
06_07_F8_F2         // (  6,   7, 248, 242)
08_FC_08_09         // (  8, 252,   8,   9)
0E_FB_EE_0D         // ( 14, 251, 238,  13)
09_04_07_F7         // (  9,   4,   7, 247)
0E_EB_04_05         // ( 14, 235,   4,   5)
10_11_EF_16         // ( 16,  17, 239,  22)
00_EF_06_09         // (  0, 239,   6,   9)
FD_D8_06_03         // (253, 216,   6,   3)
EC_09_ED_01         // (236,   9, 237,   1)
E5_F7_03_01         // (229, 247,   3,   1)
FA_04_17_F5         // (250,   4,  23, 245)
FF_F4_ED_FB         // (255, 244, 237, 251)
E4_08_09_F3         // (228,   8,   9, 243)
FF_00_09_F1         // (255,   0,   9, 241)
00_07_E5_F9         // (  0,   7, 229, 249)
FB_F8_02_00         // (251, 248,   2,   0)
13_F8_13_02         // ( 19, 248,  19,   2)
F1_ED_00_FF         // (241, 237,   0, 255)
FA_F9_0B_D5         // (250, 249,  11, 213)
04_F3_08_C9         // (  4, 243,   8, 201)
02_07_01_FF         // (  2,   7,   1, 255)
F0_FB_F2_04         // (240, 251, 242,   4)
F4_FC_0E_F7         // (244, 252,  14, 247)
F8_17_F8_00         // (248,  23, 248,   0)
06_F2_F4_F7         // (  6, 242, 244, 247)
FA_00_FE_06         // (250,   0, 254,   6)
0F_05_FE_FE         // ( 15,   5, 254, 254)
0F_03_F8_01         // ( 15,   3, 248,   1)
05_02_F4_FB         // (  5,   2, 244, 251)
FA_04_1A_0B         // (250,   4,  26,  11)
FB_FF_F5_02         // (251, 255, 245,   2)
05_F1_1F_FF         // (  5, 241,  31, 255)
FB_F1_0E_FE         // (251, 241,  14, 254)
F8_0A_03_FF         // (248,  10,   3, 255)
FF_FC_08_F9         // (255, 252,   8, 249)
00_FC_0D_F9         // (  0, 252,  13, 249)
06_FA_09_08         // (  6, 250,   9,   8)
ED_0D_0A_FA         // (237,  13,  10, 250)
F6_04_00_F8         // (246,   4,   0, 248)
FD_08_0B_F9         // (253,   8,  11, 249)
F2_FB_F3_00         // (242, 251, 243,   0)
FB_FF_F2_FB         // (251, 255, 242, 251)
01_F7_FA_FE         // (  1, 247, 250, 254)
04_FE_EE_08         // (  4, 254, 238,   8)
F9_FD_FF_F8         // (249, 253, 255, 248)
F8_09_03_09         // (248,   9,   3,   9)
FB_03_FB_F7         // (251,   3, 251, 247)
11_09_FB_07         // ( 17,   9, 251,   7)
F3_F0_FC_03         // (243, 240, 252,   3)
F7_09_00_0A         // (247,   9,   0,  10)
0D_F5_EC_01         // ( 13, 245, 236,   1)
06_04_FB_0B         // (  6,   4, 251,  11)
FC_FC_F9_F7         // (252, 252, 249, 247)
F5_00_FB_0E         // (245,   0, 251,  14)
FC_F7_1A_07         // (252, 247,  26,   7)
F9_F4_07_11         // (249, 244,   7,  17)
FC_F2_02_0D         // (252, 242,   2,  13)
09_F9_12_F4         // (  9, 249,  18, 244)
04_03_02_02         // (  4,   3,   2,   2)
F8_F9_0D_00         // (248, 249,  13,   0)
08_FB_F2_0A         // (  8, 251, 242,  10)
FF_FC_FC_F8         // (255, 252, 252, 248)
FF_FB_FF_FC         // (255, 251, 255, 252)
02_FA_00_02         // (  2, 250,   0,   2)
03_F3_07_09         // (  3, 243,   7,   9)
FD_F0_00_00         // (253, 240,   0,   0)
F8_0D_04_00         // (248,  13,   4,   0)
FD_FF_07_FD         // (253, 255,   7, 253)
FE_F0_08_00         // (254, 240,   8,   0)
04_FF_01_01         // (  4, 255,   1,   1)
FD_F4_06_FC         // (253, 244,   6, 252)
FC_02_04_00         // (252,   2,   4,   0)
00_FF_FE_07         // (  0, 255, 254,   7)
FD_FD_0C_FE         // (253, 253,  12, 254)
FA_06_FC_0C         // (250,   6, 252,  12)
FC_17_09_15         // (252,  23,   9,  21)
01_02_FD_F6         // (  1,   2, 253, 246)
05_FE_FF_FB         // (  5, 254, 255, 251)
05_02_FB_06         // (  5,   2, 251,   6)
01_F7_00_00         // (  1, 247,   0,   0)
00_FD_05_FE         // (  0, 253,   5, 254)
FF_FC_12_03         // (255, 252,  18,   3)
01_F2_12_02         // (  1, 242,  18,   2)
01_F4_03_FB         // (  1, 244,   3, 251)
F9_F5_D3_ED         // (249, 245, 211, 237)
09_FB_F7_F3         // (  9, 251, 247, 243)
05_FD_FF_08         // (  5, 253, 255,   8)
03_0C_EA_07         // (  3,  12, 234,   7)
03_FF_ED_09         // (  3, 255, 237,   9)
05_00_08_04         // (  5,   0,   8,   4)
EF_04_FF_04         // (239,   4, 255,   4)
01_02_EF_FC         // (  1,   2, 239, 252)
04_08_FA_0A         // (  4,   8, 250,  10)
F3_EC_20_FB         // (243, 236,  32, 251)
0B_EF_01_02         // ( 11, 239,   1,   2)
05_05_F9_08         // (  5,   5, 249,   8)
09_00_F7_10         // (  9,   0, 247,  16)
07_FC_05_05         // (  7, 252,   5,   5)
FE_FF_00_FC         // (254, 255,   0, 252)
F7_00_FA_FE         // (247,   0, 250, 254)
0A_09_FE_FB         // ( 10,   9, 254, 251)
FF_00_FE_02         // (255,   0, 254,   2)
F6_07_00_FF         // (246,   7,   0, 255)
02_FA_F5_FF         // (  2, 250, 245, 255)
02_FA_F9_0E         // (  2, 250, 249,  14)
FC_05_FB_00         // (252,   5, 251,   0)
FD_F9_F2_11         // (253, 249, 242,  17)
07_F7_04_FC         // (  7, 247,   4, 252)
03_E9_FF_00         // (  3, 233, 255,   0)
0B_F8_0B_FE         // ( 11, 248,  11, 254)
FE_0B_00_FE         // (254,  11,   0, 254)
04_0E_F2_03         // (  4,  14, 242,   3)
FF_06_11_05         // (255,   6,  17,   5)
01_0A_09_06         // (  1,  10,   9,   6)
F9_06_FB_10         // (249,   6, 251,  16)
08_09_00_01         // (  8,   9,   0,   1)
F8_FC_F3_06         // (248, 252, 243,   6)
03_08_F4_07         // (  3,   8, 244,   7)
EC_11_FC_F5         // (236,  17, 252, 245)
08_FF_F0_FC         // (  8, 255, 240, 252)
F4_EA_FF_06         // (244, 234, 255,   6)
07_15_09_F6         // (  7,  21,   9, 246)
F2_06_FA_04         // (242,   6, 250,   4)
01_FC_FB_08         // (  1, 252, 251,   8)
00_09_00_08         // (  0,   9,   0,   8)
F8_F3_01_02         // (248, 243,   1,   2)
FF_FF_03_07         // (255, 255,   3,   7)
00_F4_FD_02         // (  0, 244, 253,   2)
FE_03_04_08         // (254,   3,   4,   8)
F3_FA_FF_04         // (243, 250, 255,   4)
08_08_FB_0A         // (  8,   8, 251,  10)
07_00_F5_04         // (  7,   0, 245,   4)
01_05_05_01         // (  1,   5,   5,   1)
00_08_F8_00         // (  0,   8, 248,   0)
FA_01_FF_F7         // (250,   1, 255, 247)
10_FF_0F_FA         // ( 16, 255,  15, 250)
03_FE_02_FA         // (  3, 254,   2, 250)
F6_00_F4_F2         // (246,   0, 244, 242)
F4_04_0A_13         // (244,   4,  10,  19)
04_09_0C_04         // (  4,   9,  12,   4)
FE_0A_00_05         // (254,  10,   0,   5)
F9_07_FE_02         // (249,   7, 254,   2)
F5_03_0F_06         // (245,   3,  15,   6)
0A_0C_F6_0B         // ( 10,  12, 246,  11)
FA_FB_F8_0B         // (250, 251, 248,  11)
00_10_FF_04         // (  0,  16, 255,   4)
F9_EB_ED_00         // (249, 235, 237,   0)
04_27_F8_11         // (  4,  39, 248,  17)
F4_E3_F6_F8         // (244, 227, 246, 248)
02_09_03_03         // (  2,   9,   3,   3)
FD_03_06_F7         // (253,   3,   6, 247)
FC_01_0B_FF         // (252,   1,  11, 255)
04_00_02_F5         // (  4,   0,   2, 245)
09_EF_00_EF         // (  9, 239,   0, 239)
0D_F6_FE_EC         // ( 13, 246, 254, 236)
06_FF_00_FB         // (  6, 255,   0, 251)
FB_FB_00_FC         // (251, 251,   0, 252)
04_13_F8_FD         // (  4,  19, 248, 253)
02_05_01_ED         // (  2,   5,   1, 237)
10_FA_03_F9         // ( 16, 250,   3, 249)
02_FE_F9_F8         // (  2, 254, 249, 248)
F3_FF_F7_F9         // (243, 255, 247, 249)
F5_09_F1_F6         // (245,   9, 241, 246)
02_FE_FF_F9         // (  2, 254, 255, 249)
00_09_FF_09         // (  0,   9, 255,   9)
D7_FB_FC_05         // (215, 251, 252,   5)
16_F6_0C_09         // ( 22, 246,  12,   9)
F9_05_FC_0B         // (249,   5, 252,  11)
0D_0B_FC_05         // ( 13,  11, 252,   5)
05_04_E9_03         // (  5,   4, 233,   3)
F2_06_0A_0D         // (242,   6,  10,  13)
FD_F9_0E_08         // (253, 249,  14,   8)
0B_FF_03_01         // ( 11, 255,   3,   1)
08_09_03_E9         // (  8,   9,   3, 233)
01_F2_16_FE         // (  1, 242,  22, 254)
FF_00_0B_FB         // (255,   0,  11, 251)
03_04_06_FB         // (  3,   4,   6, 251)
05_FE_03_0B         // (  5, 254,   3,  11)
F8_08_00_F3         // (248,   8,   0, 243)
F9_07_FF_01         // (249,   7, 255,   1)
0C_05_F9_FF         // ( 12,   5, 249, 255)
FA_ED_F9_04         // (250, 237, 249,   4)
F3_FA_FF_FD         // (243, 250, 255, 253)
05_F9_05_F8         // (  5, 249,   5, 248)
F2_D0_0C_FB         // (242, 208,  12, 251)
03_EE_F6_F7         // (  3, 238, 246, 247)
07_FC_FF_FA         // (  7, 252, 255, 250)
04_F5_FB_03         // (  4, 245, 251,   3)
F9_02_04_00         // (249,   2,   4,   0)
09_EB_09_F0         // (  9, 235,   9, 240)
1B_F2_04_0B         // ( 27, 242,   4,  11)
F7_FA_12_FD         // (247, 250,  18, 253)
F3_F1_FA_0C         // (243, 241, 250,  12)
04_F8_0A_FF         // (  4, 248,  10, 255)
00_03_04_02         // (  0,   3,   4,   2)
F8_F7_0B_F6         // (248, 247,  11, 246)
04_FA_0D_FD         // (  4, 250,  13, 253)
02_FC_FF_10         // (  2, 252, 255,  16)
10_02_0A_03         // ( 16,   2,  10,   3)
0C_08_0B_08         // ( 12,   8,  11,   8)
06_FC_05_FD         // (  6, 252,   5, 253)
0A_FC_05_06         // ( 10, 252,   5,   6)
00_0A_03_F3         // (  0,  10,   3, 243)
0D_00_13_07         // ( 13,   0,  19,   7)
EC_05_FD_13         // (236,   5, 253,  19)
F9_05_06_13         // (249,   5,   6,  19)
FB_FD_F4_01         // (251, 253, 244,   1)
FC_FD_F8_04         // (252, 253, 248,   4)
F5_FE_F9_F8         // (245, 254, 249, 248)
04_0D_04_FD         // (  4,  13,   4, 253)
E4_EE_F8_02         // (228, 238, 248,   2)
FA_FD_04_04         // (250, 253,   4,   4)
0D_04_FB_F5         // ( 13,   4, 251, 245)
FC_F9_F4_03         // (252, 249, 244,   3)
FC_FF_F0_0A         // (252, 255, 240,  10)
F7_F5_03_F4         // (247, 245,   3, 244)
05_F9_FF_01         // (  5, 249, 255,   1)
0B_F7_1C_FC         // ( 11, 247,  28, 252)
02_F0_03_F7         // (  2, 240,   3, 247)
00_04_04_FF         // (  0,   4,   4, 255)
06_06_01_09         // (  6,   6,   1,   9)
0C_04_0F_F8         // ( 12,   4,  15, 248)
FD_04_03_F9         // (253,   4,   3, 249)
FD_0F_01_FA         // (253,  15,   1, 250)
ED_0D_F9_0F         // (237,  13, 249,  15)
F0_FD_03_FF         // (240, 253,   3, 255)
F0_EC_0D_F1         // (240, 236,  13, 241)
FA_05_DC_0D         // (250,   5, 220,  13)
FB_EE_F5_F8         // (251, 238, 245, 248)
03_FC_FD_F0         // (  3, 252, 253, 240)
F8_F9_FC_0F         // (248, 249, 252,  15)
FC_F2_F0_03         // (252, 242, 240,   3)
FF_07_F3_FC         // (255,   7, 243, 252)
0B_01_FF_02         // ( 11,   1, 255,   2)
06_FD_F9_09         // (  6, 253, 249,   9)
04_0B_EE_07         // (  4,  11, 238,   7)
05_F8_0B_01         // (  5, 248,  11,   1)
0B_F6_09_01         // ( 11, 246,   9,   1)
FC_0F_0B_02         // (252,  15,  11,   2)
0A_08_11_EF         // ( 10,   8,  17, 239)
04_FF_F9_F4         // (  4, 255, 249, 244)
08_1E_03_FD         // (  8,  30,   3, 253)
04_FB_0B_02         // (  4, 251,  11,   2)
F8_07_04_01         // (248,   7,   4,   1)
F4_FA_FF_12         // (244, 250, 255,  18)
16_02_00_04         // ( 22,   2,   0,   4)
02_F9_00_FB         // (  2, 249,   0, 251)
F7_F2_FF_09         // (247, 242, 255,   9)
F4_01_F8_FF         // (244,   1, 248, 255)
F8_00_01_FD         // (248,   0,   1, 253)
FF_01_00_03         // (255,   1,   0,   3)
02_0F_F7_FA         // (  2,  15, 247, 250)
FD_FC_FE_F6         // (253, 252, 254, 246)
EE_F9_0F_F7         // (238, 249,  15, 247)
08_10_07_02         // (  8,  16,   7,   2)
04_00_00_F1         // (  4,   0,   0, 241)
14_16_11_F4         // ( 20,  22,  17, 244)
0C_05_E6_FE         // ( 12,   5, 230, 254)
01_03_FA_01         // (  1,   3, 250,   1)
E2_1A_13_F6         // (226,  26,  19, 246)
00_02_00_FB         // (  0,   2,   0, 251)
06_E9_F7_01         // (  6, 233, 247,   1)
12_F9_00_FB         // ( 18, 249,   0, 251)
F7_17_07_FF         // (247,  23,   7, 255)
0B_F6_FA_05         // ( 11, 246, 250,   5)
08_FF_0B_0D         // (  8, 255,  11,  13)
0D_F5_0E_F1         // ( 13, 245,  14, 241)
FA_F6_FC_F5         // (250, 246, 252, 245)
08_FF_FD_F4         // (  8, 255, 253, 244)
FA_FF_FA_01         // (250, 255, 250,   1)
FD_FB_F4_00         // (253, 251, 244,   0)
05_E8_01_F8         // (  5, 232,   1, 248)
09_08_0B_00         // (  9,   8,  11,   0)
F6_F7_01_F8         // (246, 247,   1, 248)
07_07_FB_0A         // (  7,   7, 251,  10)
08_F4_01_00         // (  8, 244,   1,   0)
0E_F7_F8_F7         // ( 14, 247, 248, 247)
19_03_FB_F5         // ( 25,   3, 251, 245)
07_FD_EB_09         // (  7, 253, 235,   9)
F3_04_F6_FD         // (243,   4, 246, 253)
FB_00_00_03         // (251,   0,   0,   3)
0C_03_FA_F4         // ( 12,   3, 250, 244)
FA_04_00_0C         // (250,   4,   0,  12)
F2_F2_F7_F6         // (242, 242, 247, 246)
03_FF_03_02         // (  3, 255,   3,   2)
FB_06_F3_FD         // (251,   6, 243, 253)
F8_06_01_FC         // (248,   6,   1, 252)
F1_F4_01_FC         // (241, 244,   1, 252)
F5_07_00_FF         // (245,   7,   0, 255)
F5_08_14_FC         // (245,   8,  20, 252)
09_20_17_F2         // (  9,  32,  23, 242)
02_11_13_07         // (  2,  17,  19,   7)
F0_0C_06_FE         // (240,  12,   6, 254)
F7_F4_F9_17         // (247, 244, 249,  23)
FF_0B_F7_FD         // (255,  11, 247, 253)
F6_0A_00_11         // (246,  10,   0,  17)
F7_03_00_04         // (247,   3,   0,   4)
FA_01_0D_FB         // (250,   1,  13, 251)
F2_02_06_08         // (242,   2,   6,   8)
F6_03_FA_07         // (246,   3, 250,   7)
07_FA_F5_FD         // (  7, 250, 245, 253)
EC_FA_FE_FF         // (236, 250, 254, 255)
F4_18_F5_0D         // (244,  24, 245,  13)
03_08_00_F9         // (  3,   8,   0, 249)
EE_05_F1_F5         // (238,   5, 241, 245)
02_0E_0D_12         // (  2,  14,  13,  18)
F0_08_EE_06         // (240,   8, 238,   6)
F5_06_FD_0F         // (245,   6, 253,  15)
29_02_FF_FC         // ( 41,   2, 255, 252)
02_0E_FC_01         // (  2,  14, 252,   1)
FD_06_01_F4         // (253,   6,   1, 244)
0D_FE_FD_00         // ( 13, 254, 253,   0)
FB_0A_02_03         // (251,  10,   2,   3)
F5_09_0A_17         // (245,   9,  10,  23)
FB_01_F9_0C         // (251,   1, 249,  12)
00_08_FF_FD         // (  0,   8, 255, 253)
01_09_F3_0A         // (  1,   9, 243,  10)
FA_F6_FB_02         // (250, 246, 251,   2)
01_11_F1_FF         // (  1,  17, 241, 255)
FD_04_F4_09         // (253,   4, 244,   9)
05_01_FC_F6         // (  5,   1, 252, 246)
05_F5_EE_00         // (  5, 245, 238,   0)
00_05_DD_0E         // (  0,   5, 221,  14)
03_F2_F2_FC         // (  3, 242, 242, 252)
01_01_F2_F7         // (  1,   1, 242, 247)
0E_F8_06_FC         // ( 14, 248,   6, 252)
FA_FC_FA_F1         // (250, 252, 250, 241)
05_01_FD_F8         // (  5,   1, 253, 248)
06_F4_0B_03         // (  6, 244,  11,   3)
ED_0D_F3_0F         // (237,  13, 243,  15)
FF_FD_10_EE         // (255, 253,  16, 238)
06_FC_02_04         // (  6, 252,   2,   4)
F8_0A_09_0E         // (248,  10,   9,  14)
FA_12_09_06         // (250,  18,   9,   6)
0B_0D_02_FB         // ( 11,  13,   2, 251)
F6_09_0E_0B         // (246,   9,  14,  11)
01_02_05_02         // (  1,   2,   5,   2)
06_F3_02_F7         // (  6, 243,   2, 247)
FD_FF_25_01         // (253, 255,  37,   1)
07_01_03_0A         // (  7,   1,   3,  10)
F5_FB_0F_FF         // (245, 251,  15, 255)
FC_11_07_F8         // (252,  17,   7, 248)
EA_01_F6_02         // (234,   1, 246,   2)
F5_FA_FF_16         // (245, 250, 255,  22)
05_05_FA_FE         // (  5,   5, 250, 254)
09_FC_0B_FB         // (  9, 252,  11, 251)
08_FE_12_07         // (  8, 254,  18,   7)
05_13_FB_14         // (  5,  19, 251,  20)
05_FA_F0_FE         // (  5, 250, 240, 254)
07_01_04_FD         // (  7,   1,   4, 253)
09_01_FB_04         // (  9,   1, 251,   4)
01_E8_03_0B         // (  1, 232,   3,  11)
FE_F9_FA_09         // (254, 249, 250,   9)
05_00_0D_FA         // (  5,   0,  13, 250)
0B_02_FF_04         // ( 11,   2, 255,   4)
FE_F6_FF_F2         // (254, 246, 255, 242)
16_04_FF_1B         // ( 22,   4, 255,  27)
03_FB_06_0B         // (  3, 251,   6,  11)
02_0A_0A_0D         // (  2,  10,  10,  13)
05_F4_13_00         // (  5, 244,  19,   0)
06_05_FC_0E         // (  6,   5, 252,  14)
FA_05_06_FC         // (250,   5,   6, 252)
FD_F9_02_FF         // (253, 249,   2, 255)
FF_FF_09_FD         // (255, 255,   9, 253)
01_FB_04_00         // (  1, 251,   4,   0)
FA_04_FD_EC         // (250,   4, 253, 236)
F3_FE_F9_0A         // (243, 254, 249,  10)
FA_08_10_09         // (250,   8,  16,   9)
05_00_03_FE         // (  5,   0,   3, 254)
01_FC_F3_03         // (  1, 252, 243,   3)
03_FE_04_F7         // (  3, 254,   4, 247)
FF_FE_00_FC         // (255, 254,   0, 252)
06_05_FD_FB         // (  6,   5, 253, 251)
0B_E9_FF_E7         // ( 11, 233, 255, 231)
FA_0A_FF_F8         // (250,  10, 255, 248)
F2_FC_03_F6         // (242, 252,   3, 246)
FE_05_06_FB         // (254,   5,   6, 251)
FA_F6_FD_F9         // (250, 246, 253, 249)
FD_FF_1A_F9         // (253, 255,  26, 249)
00_FA_1B_13         // (  0, 250,  27,  19)
FF_F9_F9_FA         // (255, 249, 249, 250)
0C_07_0E_06         // ( 12,   7,  14,   6)
06_04_0F_0F         // (  6,   4,  15,  15)
FF_EB_FE_F3         // (255, 235, 254, 243)
F7_FE_02_00         // (247, 254,   2,   0)
06_F9_FA_07         // (  6, 249, 250,   7)
0C_F7_F8_FF         // ( 12, 247, 248, 255)
00_F0_FE_02         // (  0, 240, 254,   2)
05_08_FC_00         // (  5,   8, 252,   0)
00_03_FE_FE         // (  0,   3, 254, 254)
09_F6_0B_FB         // (  9, 246,  11, 251)
05_FD_09_02         // (  5, 253,   9,   2)
F7_FF_21_FC         // (247, 255,  33, 252)
FF_08_07_FE         // (255,   8,   7, 254)
F4_F5_13_FC         // (244, 245,  19, 252)
F8_00_FB_02         // (248,   0, 251,   2)
EC_06_15_F7         // (236,   6,  21, 247)
03_10_0E_FB         // (  3,  16,  14, 251)
07_FC_02_02         // (  7, 252,   2,   2)
FE_06_15_FC         // (254,   6,  21, 252)
07_06_00_01         // (  7,   6,   0,   1)
F5_F6_FA_08         // (245, 246, 250,   8)
F1_09_FD_FE         // (241,   9, 253, 254)
FB_FB_EE_F6         // (251, 251, 238, 246)
02_00_F5_09         // (  2,   0, 245,   9)
F8_08_0D_03         // (248,   8,  13,   3)
EE_F8_FD_01         // (238, 248, 253,   1)
FD_FF_F2_09         // (253, 255, 242,   9)
07_01_0E_06         // (  7,   1,  14,   6)
FC_01_0E_02         // (252,   1,  14,   2)
FD_03_F3_05         // (253,   3, 243,   5)
13_04_0E_FC         // ( 19,   4,  14, 252)
0F_EF_FF_06         // ( 15, 239, 255,   6)
0B_FA_00_01         // ( 11, 250,   0,   1)
00_05_F7_F4         // (  0,   5, 247, 244)
0D_0A_05_09         // ( 13,  10,   5,   9)
0E_FA_FF_FC         // ( 14, 250, 255, 252)
00_02_0B_03         // (  0,   2,  11,   3)
00_FE_0D_FD         // (  0, 254,  13, 253)
F8_F9_04_FA         // (248, 249,   4, 250)
02_04_EB_0E         // (  2,   4, 235,  14)
FE_06_F5_FA         // (254,   6, 245, 250)
FC_EE_05_06         // (252, 238,   5,   6)
12_F7_0C_0A         // ( 18, 247,  12,  10)
09_FC_FC_08         // (  9, 252, 252,   8)
14_EF_0B_04         // ( 20, 239,  11,   4)
